#version: 0.2 - Trained by `huggingface/tokenizers`
t h
th e</w>
2 0
t i
i n</w>
e r
o f</w>
i n
a n
r o
e n
e d</w>
20 1
a r
r e
o n</w>
t a
t o</w>
o n
e r</w>
e s</w>
o r
i t
l l
o u
an d</w>
ro m</w>
h i
f rom</w>
a t
a l
in g</w>
en t</w>
e a
t s</w>
r i
s ti
a s</w>
o m
s ta
p er
i on</w>
201 9</w>
i ll
ti on</w>
u r
s t</w>
a l</w>
sti c</w>
s t
h o
e c
b y</w>
i c
d o
ill ion</w>
u m
sta ti
a c
stati stic</w>
o r</w>
e l
hi s</w>
T his</w>
20 2
per c
d i
a t</w>
b er</w>
p ro
a g
p l
ou n
ar s</w>
perc ent</w>
a n</w>
n it
U .
d u
U. S
a s
U.S .</w>
I n</w>
e m
a m
s ho
20 0
t ed</w>
U nit
Unit ed</w>
T h
w s</w>
e n</w>
v i
sho ws</w>
202 0</w>
a tion</w>
Th e</w>
er s</w>
201 8</w>
a p
u n
re s
c om
um ber</w>
u l
l i
do ll
m illion</w>
d e
doll ars</w>
v er
p o
w as</w>
ag e</w>
t es</w>
w it
s i
er e</w>
c e</w>
u e</w>
t r
en ts</w>
wit h</w>
S ta
e t</w>
u s
c on
ar e</w>
Sta tes</w>
t h</w>
m o
i s</w>
on s</w>
p or
t o
a ti
f or</w>
l y</w>
ea r</w>
i d
h a
e x
w or
e t
du c
at e</w>
d ing</w>
y ear</w>
f i
l o
th at</w>
l d
i m
ta l</w>
v e
w e
l e</w>
n umber</w>
b illion</w>
c o
w ere</w>
e s
c h</w>
v e</w>
a d
in g
a b
r u
c oun
g ro
' s</w>
pro duc
q u
com p
g h
d s</w>
m ar
r an
t er
201 7</w>
o l
p ul
s ur
p er</w>
m ent</w>
r ate</w>
it y</w>
e st</w>
s e
o o
s h
v en
p ri
po pul
c h
id e</w>
th e
c i
ver age</w>
1 9
at ed</w>
v al
u ro
v er</w>
a y
b i
to tal</w>
201 5</w>
0 0
w ide</w>
mo st</w>
el y</w>
y e
a i
b u
re as
ld wide</w>
s p
w h
201 6</w>
wor ldwide</w>
ou t</w>
c or
in c
al es</w>
t ri
I n
am oun
t er</w>
do m</w>
K ing
King dom</w>
s s</w>
in e</w>
re g
ar y</w>
re ven
popul ation</w>
res p
u p</w>
on d
s ec
s e</w>
st r
g en
an y</w>
pl o
val ue</w>
k et</w>
n g</w>
a verage</w>
a y</w>
ha d</w>
em plo
al l</w>
l d</w>
on al</w>
1 9</w>
N umber</w>
U K</w>
s u
201 4</w>
p res
ap pro
x im
at ely</w>
g e</w>
sur ve
re c
s ales</w>
or e</w>
ur ing</w>
xim ately</w>
sh are</w>
ro n
o ver</w>
p e
reven ue</w>
, 00
appro ximately</w>
ti m
f o
G D
GD P</w>
an i
o w
l ea
a r</w>
we en</w>
m e
pl e</w>
g r
b e
m er
resp ond
surve y</w>
ab out</w>
s um
et ween</w>
amoun ted</w>
respond ents</w>
ex p
p re
s c
tr y</w>
n e
inc reas
i l
em ber</w>
th ou
201 2</w>
coun try</w>
ye ars</w>
v ic
om e
d er</w>
f or
ur e</w>
201 0</w>
200 9</w>
di s
mar ket</w>
per i
el ec
n et</w>
i c</w>
an u
pl ay
qu ar
201 3</w>
a ll
b etween</w>
h ou
w hi
1 .
,00 0</w>
i t</w>
ru s</w>
a st</w>
C an
p ar
re s</w>
st ri
in ter
thou s
o ple</w>
s er
un d</w>
hi gh
ti ons</w>
vi rus</w>
ome stic</w>
i l</w>
pe ople</w>
on e</w>
produc t</w>
o d</w>
con sum
uro s</w>
g i
thous and</w>
m a
n u
i r</w>
C O
e uros</w>
m on
f f
ron a
ati onal</w>
ou s</w>
rona virus</w>
a ro
200 8</w>
I D
- 19</w>
s o
CO V
COV ID
th s</w>
emplo y
ci al</w>
COVID -19</w>
d omestic</w>
peri od</w>
the ir</w>
co ronavirus</w>
aro und</w>
p e</w>
quar ter</w>
k ing</w>
comp ar
in du
u b
cor ding</w>
M ar
en d
t or</w>
th is</w>
ti ng</w>
p ic
l ine</w>
lo b
c hi
at es</w>
2 .
bu tion</w>
th an</w>
tim e</w>
l and</w>
s h</w>
n o
str y</w>
pres ents</w>
E uro
fi r
wh o</w>
the y</w>
gro ss</w>
l e
g u
e p
r a
19 9
ti es</w>
an t</w>
d ec
es s</w>
om e</w>
indu stry</w>
l u
s on</w>
al s</w>
ser vic
high est</w>
on g</w>
por ted</w>
k ed</w>
A mer
an ce</w>
Amer ic
e b
an s</w>
di a</w>
th er</w>
lob al</w>
de pic
depic ts</w>
ar g
B ri
d ic
pre vi
ou r
us ers</w>
200 0</w>
previ ous</w>
ad a</w>
tr a
tri es</w>
t e</w>
di an</w>
k s</w>
h as</w>
gen er
nu al</w>
3 .
201 1</w>
stri bution</w>
c ap
t u
s es</w>
en ta
N e
compar ed</w>
m ore</w>
C h
coun tries</w>
Can ada</w>
J anu
am e</w>
Janu ary</w>
por ts</w>
por t</w>
A s</w>
b as
f ac
c as
Mar ch</w>
A c
ha ve</w>
re ta
t y
ti c
an d
e sti
i r
p h
gro w
sec tor</w>
c es</w>
re ac
i a</w>
p ea
o p
enta ge</w>
b e</w>
g lobal</w>
an ts</w>
th ere</w>
am ong</w>
f oo
202 5</w>
ec ted</w>
it s</w>
f in
employ ment</w>
comp any</w>
on line</w>
4 .
for m
D uring</w>
or s</w>
dis play
T o
i ons</w>
com e</w>
ve l</w>
whi ch</w>
se ho
fo ll
t y</w>
ro ss</w>
reg ion</w>
c l
display s</w>
e ar
all y</w>
I ta
pri ce</w>
ch an
si a</w>
er ed</w>
re a
ro u
er m
1 ,000</w>
v ol
y o
o ver
foll ow
k e
lea ding</w>
gr ap
arg est</w>
hou seho
in come</w>
do w
5 .
i s
n ational</w>
al e</w>
Ac cording</w>
bi le</w>
d ed</w>
a du
m et
v ed</w>
ti ve</w>
us ed</w>
esti m
d ea
gh t</w>
ou t
fir st</w>
en g
e al
6 .
bi r
l argest</w>
w om
grow th</w>
L ea
p s</w>
inter net</w>
G erm
1 0
an nual</w>
ati ons</w>
yo u</w>
s hi
d uring</w>
in f
de x</w>
increas ed</w>
um e</w>
g h</w>
i es</w>
ac c
N or
re ported</w>
2 0</w>
ol d</w>
t w
ti sh</w>
increas e</w>
gen der</w>
on d</w>
pro j
mo bile</w>
A u
ou th</w>
ub li
on om
ty pe</w>
an s
Bri tish</w>
p tion</w>
produc tion</w>
s ea
servic es</w>
m ill
ou r</w>
s it
o c
p oun
7 .
gro up</w>
reta il</w>
c y</w>
i g
bas ed</w>
ag ed</w>
in ce</w>
S h
5 0</w>
l ity</w>
e l</w>
e g
ani es</w>
t ur
ec onom
s elec
v ing</w>
sta te</w>
ran ked</w>
v el
dea ths</w>
g am
comp anies</w>
8 .
u m</w>
en d</w>
us e</w>
vol ume</w>
end it
grap h</w>
as s
re l
re e</w>
t ons</w>
emplo ye
ri s
ad e</w>
cas es</w>
n i
en ding</w>
th er
un e</w>
poun ds</w>
mill ions</w>
exp endit
fi sc
reac h
e i
so cial</w>
fisc al</w>
sec ond</w>
d ay</w>
adu l
ai d</w>
f e
at a</w>
es s
D ec
d er
b o
F ran
J une</w>
ati ng</w>
n g
wom en</w>
estim ated</w>
M o
a u
Dec ember</w>
or y</w>
Sh are</w>
dow n</w>
fo rec
h eal
ou ld</w>
en ti
ab le</w>
o v
Germ any</w>
reg i
employe es</w>
en ce</w>
res ul
A verage</w>
di stribution</w>
d e</w>
Euro pea
Europea n</w>
Ita ly</w>
l an
dec reas
m ents</w>
perc entage</w>
ri c</w>
d ata</w>
sea son</w>
Fran ce</w>
ha b
0 .
em ic</w>
we e
ubli c</w>
whi le</w>
t ly</w>
sta ted</w>
ti l</w>
gener ated</w>
ri c
200 6</w>
oun d</w>
expendit ure</w>
c u
In dia</w>
met ric</w>
o ff
To tal</w>
st ed</w>
j u
un til</w>
di vi
g oo
produc ts</w>
h ome</w>
Ch in
tr ans
D i
ing s</w>
c ur
in dex</w>
it a</w>
chi ld
cap ita</w>
e qu
w at
b r
w i
selec ted</w>
ld s</w>
ac coun
wor ld</w>
u d
p p
t ure</w>
N ov
o per
popul ar</w>
m ea
proj ec
I t</w>
ic e</w>
f e</w>
st o
19 8
Euro pe</w>
econom ic</w>
adul ts</w>
F ac
n ed</w>
O c
hab it
por t
t ou
anu fac
in habit
200 7</w>
m in
cur r
a v
be en</w>
inhabit ants</w>
H o
m anufac
s our
a in</w>
re n</w>
/ 1
S p
foo d</w>
wh en</w>
202 1</w>
c ar
un employment</w>
t en</w>
o ther</w>
9 .
en e
consum ption</w>
Nov ember</w>
Oc to
3 0</w>
b rea
u nit
Octo ber</w>
st ered</w>
P er
g y</w>
a m</w>
f er
form ation</w>
h al
su b
ar i
f ran
du e</w>
e -
child ren</w>
U n
b all</w>
regi stered</w>
goo ds</w>
ver y</w>
fin an
com m
pri l</w>
ep t
A pril</w>
in formation</w>
ma j
sto res</w>
s ing</w>
b le</w>
p ass
v es</w>
oo k</w>
S ept
k e</w>
Sept ember</w>
es e</w>
and emic</w>
Chin a</w>
hal f</w>
rou gh
G re
R e
Can a
forec ast</w>
J ul
p andemic</w>
fran chi
heal th</w>
lan ds</w>
A f
0 0</w>
sp ending</w>
F eb
no t</w>
at t
con si
Jul y</w>
Feb ru
Febru ary</w>
f u
8 /
al most</w>
househo lds</w>
G B
tra vel</w>
ac ross</w>
gu res</w>
R us
f ic
franchi se</w>
S outh</w>
in dic
ar ly</w>
m i
s old</w>
br and</w>
g ue</w>
b an
f ound</w>
S we
m s</w>
1 2</w>
to p</w>
finan cial</w>
b us
Americ an</w>
M ay</w>
th ly</w>
in ve
se g
en ter
c er
a d</w>
ur ch
u str
unit s</w>
G ro
ill ustr
me dia</w>
Ne ther
Nether lands</w>
s ame</w>
urch as
b ran
im port
illustr ates</w>
st ud
over n
bir th</w>
200 5</w>
gam es</w>
produc ed</w>
amoun t</w>
GB P</w>
c at
on -
1 5</w>
s ed</w>
el s</w>
projec tions</w>
ec t
s ince</w>
Cana dian</w>
g re
ac cording</w>
v o
resul ts</w>
reach ed</w>
chan ge</w>
s ome</w>
t e
z e</w>
in sur
201 8/
re cor
bus in
c are</w>
o b
C on
c a
re al</w>
divi du
A n
Di stribution</w>
G ross</w>
el i
inc lu
t ors</w>
in ed</w>
c ri
Americ a</w>
follow ed</w>
al i
N ational</w>
t ea
vi e
f em
per s
in dividu
s o</w>
tw o</w>
s ts</w>
tou ris
ta in</w>
1 8</w>
il l</w>
wi th
b ro
consum ers</w>
fi c</w>
pass eng
E ng
a f
seg ment</w>
A l
m en</w>
Au gu
1 ,
servic e</w>
Augu st</w>
th ir
ci p
import ant</w>
cat eg
A r
d en</w>
2 5</w>
c ars</w>
g overn
P ro
sc ri
shi p</w>
pri ces</w>
ne w</w>
ar e
w ould</w>
on ly</w>
Lea gue</w>
w er</w>
B ra
eb ook</w>
ac e</w>
b ers</w>
p urchas
li fe</w>
ex ic
M exic
ai r
Ne w</w>
de vel
exp ected</w>
l es</w>
ea s</w>
s ion</w>
Lea ding</w>
househo ld</w>
sour ce</w>
ic i
ac tive</w>
B el
a st
su p
1 0</w>
in es</w>
s cor
w ay</w>
Fac ebook</w>
c ity</w>
k i
Bra z
con tri
Nor th</w>
d o</w>
n ing</w>
u es</w>
m u
m or
an cy</w>
st ru
lo c
z ation</w>
brea k</w>
2018/ 19</w>
inve st
individu als</w>
p ublic</w>
bran ds</w>
Per c
ac ti
employ ed</w>
0 s</w>
C o
w ill</w>
com mer
t ball</w>
it e</w>
th ree</w>
sp ent</w>
out break</w>
d ers</w>
s aid</w>
v en</w>
em ent</w>
de b
stru c
pro vi
enter pri
1 8
s or
un der</w>
rec ei
govern ment</w>
po in
me dian</w>
mon th</w>
ati ve</w>
thir d</w>
en er
bir ths</w>
P ol
ti cip
par t
Swe den</w>
W h
199 9</w>
Eng land</w>
2 4</w>
k en</w>
th o
wor k</w>
Mo st</w>
d es</w>
re presents</w>
ay s</w>
mon thly</w>
are a</w>
l ast</w>
si g
Sp ain</w>
9 /
c lo
w ar
ph one</w>
li an</w>
el l</w>
s mar
t ec
devel op
sp i
consum er</w>
Perc entage</w>
ur b
n et
pl at
sc ho
Gro up</w>
p ac
o il</w>
Af ric
1 00
res id
de vic
ve hi
m ac
Bel gi
par ticip
L i
m il
touris m</w>
f ur
fi ve</w>
Bri tain</w>
c ha
with in</w>
ta lity</w>
1 ,00
g et</w>
tic al</w>
accoun ted</w>
v ate</w>
ti lity</w>
insur ance</w>
ic al</w>
vi de
10 0</w>
tur n
200 1</w>
po si
sp ec
h ea
r en
ai ly</w>
l ation</w>
ea se</w>
in s</w>
Gre at</w>
6 0</w>
T V</w>
ex ports</w>
ran king</w>
rou gh</w>
sub scri
rough ly</w>
recor ded</w>
c an
201 9/
1,00 0s</w>
d on
P o
categ ory</w>
enterpri ses</w>
ta l
al so</w>
l a
oo d</w>
B o
am i
f re
inter national</w>
s y
u s</w>
fi gures</w>
busin ess</w>
o re
reven ues</w>
fem ale</w>
o s</w>
stud ents</w>
ho spi
con duc
hou r
Rus sia</w>
deb t</w>
val u
ag es</w>
si ze</w>
enti al</w>
W or
we st</w>
d ro
r in
curr ent</w>
Mexic o</w>
d en
o l</w>
elec tri
C om
M e
conduc ted</w>
exp ect
expect ancy</w>
1 6</w>
A p
ke y</w>
- time</w>
us ing</w>
co st</w>
1 4</w>
li ve</w>
ai l
Pol and</w>
Un ion</w>
ne arly</w>
l ess</w>
p ay
th rough</w>
Braz il</w>
cl es</w>
pp ing</w>
F in
c an</w>
p ast</w>
f t</w>
decreas e</w>
M al
d aily</w>
or g
ll ion</w>
vi sit
4 0</w>
wee k</w>
Belgi um</w>
mon ths</w>
100 ,000</w>
2 8</w>
P ar
w ho
ho t
gr am</w>
exp en
k ers</w>
en cy</w>
mea sur
li ving</w>
199 0</w>
ul ar</w>
pri vate</w>
1 st</w>
m an
g a
ap p</w>
si an</w>
smar t
s al
ur al</w>
play ers</w>
2 9</w>
J ap
el ine</w>
d em
tri llion</w>
f a
ani a</w>
for m</w>
decreas ed</w>
' '</w>
g e
v ely</w>
le vel</w>
1 7</w>
mor tality</w>
` `</w>
g o
t ers</w>
oper ating</w>
turn over</w>
2 ,
ea ch</w>
tr ation</w>
follow ing</w>
ac k</w>
vide o</w>
F or</w>
h el
sor ted</w>
att end
m ade</w>
r ati
at or</w>
3 5</w>
n on-
e th
bu d
lo west</w>
D en
f ami
h ar
maj or</w>
hour s</w>
reac h</w>
f un
g as</w>
6 5</w>
c c
vi a</w>
im ports</w>
c ed</w>
K ore
en tly</w>
re sta
tr ade</w>
fi g
In ter
200 4</w>
di rec
tim eline</w>
vi si
S ing
An nual</w>
fig ure</w>
F Y</w>
g er</w>
rel ated</w>
1 1</w>
L ati
c y
c en
f our</w>
/ 0
o ld
un i
develop ment</w>
c ar</w>
reta il
ju st</w>
hi gh</w>
se ts</w>
resta ur
f fic</w>
mar ke
3 1</w>
ta c
ta li
passeng er</w>
c ru
s li
200 2</w>
l ic
st om
tea m</w>
2 1</w>
f ore</w>
resp on
ener gy</w>
attend ance</w>
c e
fer tility</w>
2 7</w>
V al
ap ps</w>
ene tration</w>
4 5</w>
in to</w>
tic ket</w>
3 4</w>
t a</w>
po li
pres id
tho se</w>
sig ni
y ing</w>
equ i
7 0</w>
ff er
s ports</w>
am s</w>
2019/ 20</w>
mar k</w>
F i
Sing ap
bi a</w>
e y</w>
i son</w>
signi fic
n ers</w>
ma in</w>
tra ffic</w>
m ed</w>
ex port</w>
ani zation</w>
C ol
cap i
z ed</w>
as sets</w>
su ch</w>
2 2</w>
t en
ll ed</w>
spec i
Lati n</w>
C or
S t
l es
s qu
ro ad</w>
ec ti
ver ti
ki lo
b or
l l</w>
p enetration</w>
ri ed</w>
acc ess
reach ing</w>
p aid</w>
r ates</w>
sup pl
ow n</w>
me dic
198 5</w>
Afric a</w>
M a
wor th</w>
Ho w</w>
P ri
Ita lian</w>
b er
sti tu
high er</w>
t on</w>
compar ison</w>
R ep
a k
l it
y our</w>
7 5</w>
n ic
pro fi
be fore</w>
po wer</w>
con t
poin ts</w>
scho ol</w>
2 6</w>
or ity</w>
mo vi
co ll
ci ties</w>
C hi
O n
u ps</w>
urb an</w>
Singap ore</w>
h om
o f
Re ven
bud get</w>
2 3</w>
c ame</w>
or ies</w>
Wor ld</w>
an a</w>
at h</w>
lea st</w>
cu stom
af ter</w>
c ul
m e</w>
y s
li k
be ing</w>
m ale</w>
ex peri
inf lation</w>
1 3</w>
b l
squ are</w>
p ati
B as
gi tal</w>
foo tball</w>
Den mark</w>
a in
e u
sho pping</w>
si ons</w>
e duc
s ity</w>
si c</w>
ad verti
B an
rec ent</w>
fur ther</w>
W hi
g g
b ea
s el
V i
6 4</w>
d ered</w>
lo gy</w>
wh ere</w>
vie w
am p
In don
scor e</w>
Indon e
Americ ans</w>
measur ed</w>
M on
n at
smart phone</w>
play er</w>
Fin land</w>
om in
pl ace</w>
wor king</w>
Reven ue</w>
d ru
h no
m at
sti n
di ffer
im pac
bro ken</w>
3 ,
ti n
as s</w>
c le</w>
ani c</w>
t om
Val ue</w>
ai r</w>
maj ority</w>
al ity</w>
t uring</w>
st ood</w>
ac ity</w>
we ver</w>
proj ected</w>
4 4</w>
t or
indic ator</w>
em s</w>
bu ted</w>
R om
fir med</w>
comm on</w>
acti vi
commer ce</w>
Mal ay
Th at</w>
th ing</w>
ar eas</w>
In dex</w>
plat form</w>
rel ation</w>
c re
co sts</w>
gro ups</w>
vehi cles</w>
a do
op in
E U</w>
H i
tim es</w>
y oun
In dian</w>
dow n
manufac turing</w>
r ed</w>
ho li
so ci
Nor way</w>
visi t</w>
y ed</w>
cap acity</w>
ph ys
dem and</w>
activi ties</w>
di gital</w>
con firmed</w>
ph ar
old er</w>
st ore</w>
us age</w>
adverti sing</w>
c lu
e st
er y</w>
bu t</w>
m en
pers onal</w>
g ame</w>
hel d</w>
5 5</w>
B etween</w>
s k
wee k
fre qu
A t</w>
k down</w>
pro v
por ation</w>
off ice</w>
invest ment</w>
Kore a</w>
sta tes</w>
ow ned</w>
ne l</w>
1 1.
sec tors</w>
gre w</w>
posi tive</w>
c ho
ta ble</w>
Po pul
sti c
Jap an</w>
200 3</w>
Pro duc
Y or
de ath</w>
p u
Indone sia</w>
a z
g ar
p age</w>
lik ely</w>
k et
u al</w>
shi p
fo re
tec hno
s ing
reg ar
mu sic</w>
phar mac
F ren
n er
st e
Th ere</w>
sit es</w>
cru de</w>
im port</w>
Au str
pro per
ch em
T wit
n er</w>
r it
ll ing</w>
mo d
l y
si ve</w>
10 .
vi s
over all</w>
capi tal</w>
pati ents</w>
Fren ch</w>
20 50</w>
inclu ding</w>
3 2</w>
rea d</w>
Popul ation</w>
Yor k</w>
E x
recei ved</w>
o w</w>
reg ular</w>
eli e
tal s</w>
3 6</w>
m em
hi st
pro f
tr ac
sh ar
l in
O ver</w>
b ec
di d</w>
In f
profi t</w>
O n</w>
b elie
om et
ap pl
n um
y s</w>
un ic
con cer
se ar
we b
net work</w>
f our
k il
elec tion</w>
acc ess</w>
contri bution</w>
struc tion</w>
1 7
c el
e v
s a
ti onal</w>
er eas</w>
all -time</w>
gr adu
Rep ublic</w>
kil omet
f av
s m
or ig
qu i
sh ed</w>
consi dered</w>
devic e</w>
4 6</w>
d rin
f lu
visit ors</w>
opin ion</w>
d ays</w>
ti c</w>
Con sum
nic ity</w>
Malay sia</w>
t re
sta n</w>
ha ving</w>
ne ws</w>
experi en
b oo
on es</w>
at tac
si x</w>
19 50</w>
ear ch</w>
4 9</w>
al ia</w>
wh at</w>
gr ams</w>
dic ated</w>
follow ers</w>
e- commerce</w>
eth nicity</w>
educ ation</w>
3 8</w>
3 3</w>
A sia</w>
r ac
in stitu
der al</w>
nat ural</w>
G oo
s ex
de dicated</w>
se en</w>
L ond
P or
p es</w>
w in
per s</w>
es si
y outh</w>
th ese</w>
B y</w>
expen ses</w>
por ting</w>
electri city</w>
medic al</w>
Lond on</w>
m ul
al co
li ved</w>
quar ter
tra vel
as h
con struction</w>
impac t</w>
4 ,
4 2</w>
G lobal</w>
T ur
c tu
e very</w>
l ed</w>
m any</w>
si s</w>
ex t</w>
comp u
lea ders</w>
mon ey</w>
who les
3 9</w>
S ales</w>
th in
an ces</w>
In c
bo th</w>
I re
ar d</w>
per form
ig ran
Ire land</w>
F oo
en s</w>
heal th
direc t</w>
b al
ch es</w>
four th</w>
b ar
ur y</w>
po s
ad ded</w>
wh ereas</w>
ric ul
P ac
r y</w>
rough out</w>
war ds</w>
retail ers</w>
202 8</w>
mar i
rati o</w>
eu tical</w>
differ ent</w>
5 4</w>
8 0</w>
n ings</w>
st ar
sit e</w>
consi der
3 7</w>
O f</w>
k n
d y</w>
p tions</w>
st ea
4 1</w>
5 3</w>
an nu
on g
im m
trans port</w>
e e</w>
l ar
r un
w ell</w>
fi ed</w>
commer cial</w>
Cor poration</w>
Twit ter</w>
ta in
ex ported</w>
pres en
ig n</w>
thin k</w>
ur o</w>
202 4</w>
pl ease</w>
sho w
wom an</w>
contri buted</w>
devic es</w>
Fi gures</w>
L u
g al</w>
s ol
pl an
ati on
invest ments</w>
presid ential</w>
co t
av ail
struc ture</w>
techno logy</w>
G u
a sted</w>
u t
ho w</w>
por tion</w>
pp ed</w>
clo thing</w>
ship ments</w>
4 7</w>
7 6</w>
D o</w>
F o
cont ent</w>
flu ctu
5 ,
surve yed</w>
hou se</w>
b el
n am
ag ricul
un it</w>
6 3</w>
V ol
st re
ic s</w>
ici ans</w>
C en
D e
w on</w>
re f
pre mi
ub e</w>
eng th</w>
ecti vely</w>
gg est</w>
bea n</w>
P hi
r d</w>
increas ing</w>
1 4.
5 1</w>
j o
p i
z er
um s</w>
res earch</w>
ic ide</w>
dis ease</w>
gi ves</w>
4 8</w>
im ported</w>
resul t</w>
hea d
com mod
sp end</w>
marke ts</w>
igran ts</w>
g s</w>
elec tions</w>
1 2.
s on
re ve
ur ity</w>
el e
am a</w>
consum ed</w>
ear nings</w>
gam ing</w>
valu ed</w>
hot els</w>
man ag
fami ly</w>
mem bers</w>
3 rd</w>
Y ou
r e</w>
er i
er n</w>
it ary</w>
tr end</w>
week ly</w>
ta n</w>
lo w</w>
In sta
Germ an</w>
mu ch</w>
hist ory</w>
vi sion</w>
prof essi
Goo g
g ree</w>
the m</w>
ty pes</w>
tali ties</w>
6 6</w>
F A</w>
n ext</w>
ri st</w>
de stin
gi ven</w>
ari b
hospi tals</w>
Inc .</w>
6 2</w>
econom y</w>
w are</w>
201 7
fe deral</w>
Hi sp
regar ding</w>
fav or
7 4</w>
c er</w>
p ubli
li st</w>
tr al</w>
gro cer
bi ggest</w>
chan nel</w>
inf ant</w>
5 2</w>
A s
ar ri
oc cu
ei ght</w>
fa talities</w>
Austr alia</w>
4 3</w>
5 8</w>
e ff
ac tions</w>
de als</w>
de gree</w>
resp ectively</w>
indu stri
equ ity</w>
Vi et
pharmac eutical</w>
a ff
w ai
per son</w>
sur e</w>
ne g
pea k</w>
sing le</w>
n ess</w>
re ma
il ity</w>
form s</w>
mul ti
A ma
B ar
f res
an ti
re ad
di d
ub s</w>
ca used</w>
sal ary</w>
signific ant</w>
access ed</w>
Foo tball</w>
annu ally</w>
You T
ob ser
Whi ch</w>
stic s</w>
Goog le</w>
- based</w>
1 3.
1 5.
C arib
th roughout</w>
ec t</w>
ch ar
Carib bean</w>
6 1</w>
U S</w>
ani sh</w>
ne w
thou gh</w>
YouT ube</w>
E m
D omestic</w>
N et</w>
n d</w>
an tly</w>
au tom
wor kers</w>
I T</w>
S ince</w>
it h</w>
li er</w>
ati s
den sity</w>
phys icians</w>
bal ance</w>
5 7</w>
is sions</w>
estim ates</w>
bro ad
restaur ants</w>
6 ,
A ir
U r
i f</w>
l ines</w>
ad ju
gh ts</w>
Mar ket</w>
gener ation</w>
ear lier</w>
ban ks</w>
passeng ers</w>
prov ince</w>
fore ign</w>
experien ced</w>
a im
c ro
r ai
u p
v ari
202 2</w>
tr u
us er</w>
amoun ting</w>
par t</w>
Fac ts</w>
A ng
en ces</w>
Ho wever</w>
Ban k</w>
avail able</w>
Ama z
n ia</w>
u res</w>
id es</w>
id ents</w>
bor n</w>
Insta gram</w>
fres h</w>
5 9</w>
6 8</w>
J o
R o
b ur
i on
s w
Wh at</w>
wholes ale</w>
F rom</w>
P re
or der</w>
ad s</w>
ru pe
Ch ri
Ur b
7 8</w>
as hi
sec urity</w>
resid ents</w>
proper ty</w>
sex ual</w>
6 7</w>
R an
o k</w>
com pl
ter ms</w>
199 5</w>
Ma j
frequ ency</w>
5 6</w>
c ould</w>
p ment</w>
s ome
ag o</w>
sec ond
wat ch
fu ll
mil itary</w>
8 5</w>
W ales</w>
e ge</w>
ne y</w>
ma king</w>
gener al</w>
indic ates</w>
hot el</w>
equi pment</w>
Rom ania</w>
H ou
ta x</w>
ac y</w>
plat forms</w>
attac ks</w>
Maj or</w>
d ri
g es</w>
at s</w>
es ses</w>
Un employment</w>
pers ons</w>
Inter national</w>
ea l</w>
em ents</w>
car ried</w>
2 nd</w>
7 9</w>
mar y</w>
vehi cle</w>
Ap ple</w>
kn own</w>
rupe es</w>
H eal
d i</w>
or i
ac commod
lo wer</w>
ab ility</w>
ol s</w>
pre fer
selec t</w>
ban k</w>
purchas ed</w>
scor ed</w>
7 2</w>
9 5</w>
H a
S o
n ine</w>
se x</w>
198 4</w>
ashi on</w>
6 9</w>
201 0
purchas e</w>
down lo
Consum er</w>
Hisp anic</w>
7 3</w>
H un
er ia</w>
ab o
adju sted</w>
1 7.
l at
t -
y p
ear ned</w>
manufac ture</w>
1 6.
d eli
e uro</w>
i fic</w>
it ed</w>
adul t</w>
vie ws</w>
Pac ific</w>
5 00</w>
7 7</w>
9 0</w>
for ce</w>
ph ones</w>
fami li
7 1</w>
F I
p ay</w>
dec line</w>
cri me</w>
particip ants</w>
restaur ant</w>
dru g</w>
ly m
t on
re port</w>
inf lu
Urb anization</w>
7 ,
G am
s atis
re co
ag ain
se ven</w>
ket ball</w>
again st</w>
8 7</w>
B l
O lym
Q u
f li
f ru
202 3</w>
se lling</w>
Rus sian</w>
Ar gen
valu able</w>
Com p
health care</w>
presen ted</w>
neg ative</w>
b ac
oc curr
movi e</w>
of ten</w>
S cot
e ver</w>
m id
inter est</w>
n s</w>
v al</w>
ar ds</w>
su res</w>
au di
cha ins</w>
vis its</w>
qui si
Por tu
- related</w>
1 8.
I s
W ith</w>
c our
er ing</w>
ic ides</w>
po l
mo tor</w>
wor k
es ts</w>
poli tical</w>
f ans</w>
i ght</w>
n am</w>
v ity</w>
ti z
en ds</w>
ar -
al ty</w>
st -
et ro
se ver
tic s</w>
ast e</w>
stre am
accommod ation</w>
f ashion</w>
n o</w>
ta b
ac quisi
us es</w>
ter ro
cl aim
grap hi
min u
Amaz on</w>
abo ve</w>
in t
en ro
un der
sear ch</w>
orig in</w>
Viet nam</w>
h y
l ab
ta tion</w>
al ed</w>
val ent</w>
te en
chem ical</w>
M in
e d
in sta
manufac tur
Li fe</w>
sm all</w>
institu tions</w>
Lu x
n ec
re li
so cc
coll ege</w>
socc er</w>
F or
g in
custom er</w>
num bers</w>
consider ation</w>
autom o
8 3</w>
R ic
201 5
tea ms</w>
ga wat
grocer y</w>
Argen tin
8 2</w>
D em
S er
S wit
c al
t ron
di t</w>
subscri bers</w>
fluctu ated</w>
Portu gal</w>
M ic
O ver
n els</w>
fi l
sh ould</w>
par ty</w>
imm igrants</w>
di um</w>
ver ty</w>
po verty</w>
lo gi
gh tly</w>
reg ions</w>
su cc
2. 5</w>
pea ked</w>
poin t</w>
B u
g in</w>
g ed</w>
re r</w>
me ans</w>
chan nels</w>
Au stri
sour ces</w>
Mon thly</w>
Produc t</w>
T r
b and</w>
res s</w>
ye ar-
dea l</w>
shi ps</w>
bo x</w>
N ig
ag g
ch e
su g
subscri ptions</w>
electri c</w>
equi valent</w>
custom ers</w>
men tal</w>
sa w</w>
Fo rec
premi ums</w>
Swit zer
P l
c ing</w>
pro portion</w>
ag no
play ed</w>
resid ent</w>
view ers</w>
0 9</w>
i d</w>
m er</w>
t ele
as ked</w>
con f
pri mary</w>
lea der</w>
busin esses</w>
Hun g
Switzer land</w>
as si
mo tor
ni ght</w>
equ al</w>
vo tes</w>
sli ghtly</w>
clu b</w>
I C
R es
ou ght</w>
co ff
inf ec
part ment</w>
respon ding</w>
movi es</w>
bel ow</w>
Cen tral</w>
Heal th</w>
f ar</w>
at ors</w>
elec tron
eb all</w>
is su
forec asted</w>
/1 1</w>
fu l</w>
Col om
Pri ce</w>
9 ,
E l
E ast</w>
o m</w>
p pers</w>
w ine</w>
th em
it ted</w>
wor ks</w>
gro w</w>
19 .
tur al</w>
inclu de</w>
fun ding</w>
tain ment</w>
occu p
j ob
ec e</w>
chi ld</w>
fic it</w>
pay ment</w>
signific antly</w>
pol ice</w>
C up</w>
C ali
w age</w>
fu el</w>
part ners</w>
can cer</w>
marke ting</w>
ste m</w>
reve aled</w>
2010 /11</w>
Cali for
8 9</w>
k a</w>
s me
x ury</w>
sp read</w>
hou r</w>
199 2</w>
lu xury</w>
poli tan</w>
FI FA</w>
coff ee</w>
8 1</w>
E U
b ought</w>
e er</w>
um ul
di agno
pl ac
de p
de ficit</w>
be er</w>
cy ber</w>
soci ation</w>
belie ved</w>
kilomet ers</w>
re lea
ap er</w>
dis h</w>
is s
wat er</w>
Dem oc
3 0
8 4</w>
A sian</w>
F l
P I</w>
f -
li m
ra ft</w>
war d</w>
pu t</w>
ner ship</w>
travel ers</w>
Austri a</w>
2 1.
g o</w>
re qu
ul arly</w>
lo ss</w>
accoun ting</w>
mea sures</w>
Swe dish</w>
fun ds</w>
compu ter</w>
professi onal</w>
Comp any</w>
Over all</w>
tele vision</w>
2 3.
8 ,
S lo
s em
t s
20 .
sta b
ng s</w>
Argentin a</w>
9 2</w>
C oun
S u
grow ing</w>
mi gr
sug ar</w>
w aste</w>
ta ken</w>
con di
cl ubs</w>
trans actions</w>
ari o</w>
dro pped</w>
Tur key</w>
acquisi tion</w>
C ity</w>
G ener
ea t</w>
em issions</w>
/1 8</w>
expen sive</w>
aff ected</w>
c ou
c ents</w>
d le</w>
p ic</w>
z ations</w>
ci r
ther n</w>
part ner</w>
mac h
sy stem</w>
2017 /18</w>
9 9</w>
B a
k ron
ar ies</w>
sti ng</w>
stri c
so f
ban king</w>
can did
ga p</w>
lit ers</w>
jo b</w>
manag ement</w>
job s</w>
ver ages</w>
le vel
/1 6</w>
stream ing</w>
2015 /16</w>
stab li
8 8</w>
9 6</w>
B A</w>
C ar
a th
200 5
tu s</w>
manufac tu
mil k</w>
Califor nia</w>
I cel
co sme
so ft</w>
Gro w
provi des</w>
scho ols</w>
/0 6</w>
youn g</w>
alco ho
famili es</w>
2005 /06</w>
9 7</w>
L a
p ts</w>
ag ing</w>
em er
id enti
reas ons</w>
gre at
Me dic
As sociation</w>
Grow th</w>
I m
g l
ri es</w>
di ly</w>
res er
et y</w>
end ed</w>
wee ks</w>
Chin ese</w>
uni ver
agg reg
D is
L e
S e
e stabli
f er</w>
in e
ag re
val s</w>
sp on
cl ear</w>
brea kdown</w>
sup port</w>
Inf lation</w>
b ene
g lob
ti on
ll s</w>
st an
com b
mea t</w>
Gre ece</w>
acti vity</w>
provi ded</w>
Ap p</w>
Bas eball</w>
stea dily</w>
minu tes</w>
C z
E sti
k es</w>
co m</w>
youn ger</w>
holi day</w>
rema ined</w>
Jo h
motor cy
Colom bia</w>
Cz ec
Esti m
2 6.
4 th</w>
8 6</w>
D ut
F C</w>
di ed</w>
si de</w>
19 60</w>
2 7.
9 3</w>
e state</w>
h ere</w>
n ation
an ese</w>
li sh</w>
fac tion</w>
pers on
net works</w>
org ani
quarter ed</w>
fru it</w>
st on</w>
st oc
ci tiz
be verages</w>
tu al</w>
rea m</w>
tw are</w>
Chi le</w>
manufactu rer</w>
Dut ch</w>
A t
L os</w>
S M
n omin
s mo
ver ed</w>
mer ger</w>
ep tion</w>
met ro
curr ently</w>
Hung ary</w>
C ro
E n
m es</w>
m an</w>
m un
s en
on ce</w>
it ems</w>
un d
mar ri
wh e
pres cri
tw ear</w>
car eer</w>
hospi tal</w>
org an</w>
sli ght</w>
appl ic
Ang el
full -time</w>
Estim ated</w>
A d
b acc
en ni
mer chan
ub lic
dec ade</w>
To p</w>
comm unic
Afric an</w>
Phi li
umul ative</w>
F er
N et
f ell</w>
m ag
y a</w>
st m
sho ppers</w>
ap par
cha ined</w>
boo ks</w>
Angel es</w>
c ess
z u
U. S</w>
ld ings</w>
fir ms</w>
Sp anish</w>
prefer red</w>
Scot land</w>
9 1</w>
9 8</w>
doll ar</w>
ici p
sel f-
Chri stm
Gam es</w>
metro politan</w>
Christm as</w>
K en
P er</w>
h and</w>
p ho
ec ts</w>
em b
con ven
In di
no vel</w>
acc idents</w>
min ing</w>
ton n
sof tware</w>
P a
c o</w>
s et</w>
ta il</w>
ac h
ag ers</w>
con trac
ai l</w>
vic tim
1. 2</w>
web sites</w>
head quartered</w>
Ran king</w>
B r
c raft</w>
st a</w>
lo w
ris k</w>
posi tion</w>
go als</w>
second ary</w>
S y
b ill
b est</w>
ta ke</w>
sho w</w>
si ble</w>
ati vely</w>
le i
bas e</w>
foo twear</w>
accoun t</w>
cri mes</w>
fem ales</w>
touris ts</w>
particip ation</w>
lar ge</w>
aggreg ate</w>
M an
b ab
h and
l ing</w>
st er</w>
ic k</w>
nit ure</w>
Th ai
li ties</w>
ha vi
bu y</w>
pre dic
bas is</w>
Braz i
Jap anese</w>
Chi c
cre dit</w>
favor ite</w>
Thai land</w>
C ap
W al
b ed</w>
c k</w>
d ate</w>
w ays</w>
ti nu
se e</w>
val ence</w>
ow nership</w>
our g</w>
obser ved</w>
enro lled</w>
Icel and</w>
mun icip
R eal</w>
W est</w>
o graphi
w rit
ta x
be havi
1. 5</w>
suppl y</w>
Bas ketball</w>
H oc
i shed</w>
s si
v ac
v ation</w>
20 0</w>
20 30</w>
ar ing</w>
con tinu
to wards</w>
co al</w>
ter m</w>
cor por
no w</w>
loc ated</w>
recei pts</w>
ado r</w>
web site</w>
agricul ture</w>
dep end
bacc o</w>
Hoc key</w>
2 8.
B C</w>
M ad
f l
l and
in -
ex clu
att le</w>
recor d</w>
tre at
Lux emb
lei sure</w>
5 0
M ill
sta tus</w>
st ance</w>
str ength</w>
inclu des</w>
who le</w>
alcoho l</w>
Phili pp
victim s</w>
Luxemb ourg</w>
. com</w>
N BA</w>
d ou
f el
p et</w>
y ards</w>
th en</w>
ac tion</w>
sp ace</w>
ma ke</w>
goo d</w>
trans pl
categ ories</w>
pay ments</w>
Inter net</w>
hom icides</w>
Olym pic</w>
teen agers</w>
Brazi lian</w>
2 5.
O b
m ess
th ers</w>
di tional</w>
de fin
to ok</w>
lo ans</w>
co l
sp e
loc al</w>
go ing</w>
cul ation</w>
vari ous</w>
deli very</w>
A mon
F e
F L</w>
T ex
d in
e ding</w>
m al
p rin
sti ll</w>
pl ay</w>
to tal
sh ing</w>
Per u</w>
Re tail</w>
concer ned</w>
appar el</w>
E ast
G e
V ene
ad m
Vol ume</w>
2 4.
3 0.
M id
N FL</w>
O r
a use</w>
l ined</w>
o d
t elec
ro se</w>
li ke</w>
po sed</w>
co p
purchas es</w>
Mexic an</w>
kilo gram</w>
shar ing</w>
ev ents</w>
gawat ts</w>
Amon g</w>
b ook</w>
e ti
e ts</w>
n es
v ers</w>
ho wever</w>
ic ally</w>
de sh</w>
to bacco</w>
produc er</w>
1. 4</w>
Ch an
cl ass</w>
met ers</w>
rel s</w>
regi str
cri sis</w>
fur niture</w>
visit ed</w>
bec ause</w>
bar rels</w>
show ed</w>
Bl ack</w>
2 2.
b ound</w>
um p</w>
to -
1. 3</w>
199 8</w>
Me dian</w>
appl i
Philipp ines</w>
c amp
f ar
r ural</w>
s ale</w>
er o
do c
ac ad
di o</w>
ex change</w>
ru ption</w>
bu il
par ents</w>
ma in
3. 5</w>
cas e</w>
out put</w>
sit u
cha in</w>
destin ation</w>
spon sor
fel t</w>
A b
n al</w>
on al
di se</w>
as ts</w>
bi c</w>
dec lined</w>
ali zed</w>
kilo grams</w>
occurr ed</w>
tonn es</w>
B ul
e ted</w>
m ember</w>
p hi
y en</w>
on ia</w>
ru b
ser ies</w>
loc kdown</w>
Wh en</w>
speci alty</w>
satis faction</w>
cour se</w>
establi sh
Chic ago</w>
J am
h ear
th re
er -
el d</w>
pl us</w>
ing ton</w>
wh ite</w>
reg ularly</w>
vo te</w>
Inf ant</w>
9 4</w>
S au
T i
o x
expendit ures</w>
sy st
mat eri
sever al</w>
Vene zu
2 9.
A m
M il
W est
m ales</w>
u t</w>
su per
ow ners</w>
retail er</w>
lic en
influ en
audi ence</w>
merchan dise</w>
Venezu el
1 6
3 5.
d ating</w>
f y</w>
f ast
g yp
k er</w>
t ex
z a</w>
th i
er acy</w>
in vol
an ds</w>
ll i
st ant</w>
nu clear</w>
oper ated</w>
Pro j
2019/ 2020</w>
holi c</w>
agricul tural</w>
Nig eria</w>
organi zations</w>
acad emic</w>
- year</w>
e p</w>
f its</w>
f ree</w>
g an</w>
k in
o ta</w>
de partment</w>
urb anization</w>
alco holic</w>
quarter ly</w>
writ ten</w>
Sau di</w>
1 5
Y outh</w>
h ect
m unic
re presented</w>
Ar ab
sel ves</w>
drin ks</w>
manufactur ers</w>
them selves</w>
whe ther</w>
B ay</w>
I r
S i
f all</w>
n e</w>
ti t
an ing</w>
an other</w>
ta r</w>
ou s
li fe
ex ce
tri ps</w>
rec ently</w>
fac e</w>
ear ly</w>
inf ected</w>
tou rist</w>
new sp
claim ed</w>
succ ess
Democ rati
reser ves</w>
C a
E gyp
H ond
S ec
f it
f oun
p en
u ti
or ders</w>
ea p
sta t
con tr
mar t</w>
bi o
eg al</w>
fe w</w>
projec ts</w>
wai ting</w>
3 6.
C am
C PI</w>
d am
s co
t ests</w>
t ario</w>
st and
cu bic</w>
ca uses</w>
particip ated</w>
On tario</w>
destin ations</w>
fli x</w>
terro rist</w>
Forec ast</w>
3 7.
A ra
V ir
c li
e w
i -
t arg
ag ree</w>
thou ght</w>
2. 6</w>
vo ted</w>
ki stan</w>
org anic</w>
kilo wat
watch ed</w>
agre ed</w>
glob ally</w>
stoc k</w>
citiz ens</w>
Cro ati
Net flix</w>
mag az
Ara b</w>
0 7</w>
W in
e ds</w>
o -
ill ed</w>
di stin
li ght</w>
et ting</w>
qu ality</w>
hou sing</w>
gener ally</w>
fac i
uni ties</w>
hom icide</w>
kilomet er</w>
cir culation</w>
Bul gar
B e
m ic
ro om</w>
pro ce
un employed</w>
ran ks</w>
sur g
sum mer</w>
le ts</w>
fac tor</w>
out side</w>
198 0</w>
Pre mi
Mill enni
Egyp t</w>
C A
W ar</w>
W ash
b lo
c ks</w>
n ap
o tes</w>
u tion</w>
om s</w>
bi lity</w>
be ds</w>
dru gs</w>
industri al</w>
Tex as</w>
establish ments</w>
ox ide</w>
Venezuel a</w>
tex ti
A ge</w>
M ain</w>
U ni
f ts</w>
g ing</w>
l s</w>
o lds</w>
ar es</w>
con tac
fi f
mar gin</w>
ter rit
Af gh
Af ter</w>
dro p</w>
Produc tion</w>
industri es</w>
iss ue</w>
Fer tility</w>
Mid dle</w>
Arab ia</w>
3 4.
E B
I L
N i
b ack</w>
g ate</w>
k ings</w>
q ue</w>
s -
u ty</w>
re fer
st or
ec tive</w>
de scri
sh or
ir ates</w>
is ts</w>
with out</w>
den otes</w>
insta lled</w>
migr ation</w>
bene fits</w>
Ge or
Croati a</w>
S ports</w>
T ra
b a
d ings</w>
f all
g ers</w>
pl a
con nec
ci es</w>
par tic
over night</w>
vo ters</w>
amp ion
arri vals</w>
treat ment</w>
registr ations</w>
Ir an</w>
Democrati c</w>
IL O</w>
L im
P r
U k
e f</w>
p rac
vi ol
id ence</w>
ch at</w>
At lan
syst ems</w>
D onal
i o</w>
p aper</w>
coun t</w>
19 70</w>
be verage</w>
met er</w>
fe et</w>
off ici
ju ana</w>
unit y</w>
diagno sed</w>
situ ation</w>
hect ares</w>
ous ly</w>
Uk ra
B ud
M c
f ri
p rec
r ating</w>
201 4
200 6
me dium</w>
1. 6</w>
ke ts</w>
Mo bile</w>
on- year</w>
Co ronavirus</w>
clo se</w>
Com par
smart phones</w>
drin k</w>
some what</w>
work force</w>
distin gu
Wash ington</w>
P ublic</w>
S an</w>
w ood</w>
an al
at s
st ro
ag u
ex c
ex t
qu esti
ani stan</w>
2. 3</w>
fin dings</w>
Nor thern</w>
ei ther</w>
enter tainment</w>
Kore an</w>
Gener al</w>
West ern</w>
Afgh anistan</w>
0 6</w>
4 0.
om munic
ve ge
all o
chan ges</w>
resid ential</w>
hea d</w>
Whi le</w>
distingu ished</w>
O S</w>
m ur
re mo
com ing</w>
si mil
fi x
we al
bu ying</w>
rec re
1. 1</w>
gam ers</w>
purchas ing</w>
tec h</w>
view ed</w>
publi shed</w>
conven i
Bulgar ia</w>
prac tic
R a
h e
k id
r ace</w>
s port</w>
th u
er ship</w>
in j
ic als</w>
do or</w>
pl es</w>
pl an</w>
am m
vi ron
ci gar
fin al</w>
fe at
win d</w>
downlo ads</w>
bac k
comb ined</w>
Czec h</w>
Pa kistan</w>
exclu ding</w>
0 5</w>
P resident</w>
on a</w>
ri d</w>
ri se</w>
ic a</w>
un ion</w>
por tation</w>
lo s
mar ried</w>
mar ket
be gin
be aring</w>
2. 8</w>
3. 6</w>
acc ep
ali ties</w>
Wh ats
Par ty</w>
belie ve</w>
perform ed</w>
defin ed</w>
sponsor ship</w>
mic ro
0 3</w>
D omin
P C</w>
f en
g a</w>
r ene
ar ti
sho o
ol f</w>
ol a</w>
au th
respon se</w>
St .</w>
mari juana</w>
sol ar</w>
broad band</w>
Donal d</w>
Ukra ine</w>
begin ning</w>
F ur
y -
ow er</w>
me tho
le ar
pea king</w>
fin ance</w>
rea ding</w>
forec asts</w>
/1 0</w>
stud y</w>
bea uty</w>
watch ing</w>
automo tive</w>
corpor ate</w>
Ob ama</w>
appli ances</w>
cigar et
3 00</w>
9 /10</w>
D u
L in
M i
M ore</w>
P A
e f
i se</w>
l ength</w>
pro tec
200 9/10</w>
es p
pri son
2. 1</w>
199 4</w>
grow n</w>
provi ders</w>
/0 7</w>
Col um
issu es</w>
Proj ected</w>
contr ast</w>
2006 /07</w>
3 8.
4 6.
H ong</w>
c k
c al</w>
i ti
ro n</w>
ab or
sur plus</w>
pri or</w>
reas on</w>
gi ous</w>
indic ated</w>
Eng lish</w>
fre ight</w>
tali zation</w>
suppl ies</w>
On e</w>
electron ics</w>
predic ted</w>
Premi er</w>
conveni ence</w>
- bearing</w>
0 4</w>
E st
p ur
r i</w>
w a
en viron
do r</w>
pro grams</w>
com mon
ul t</w>
im um</w>
ad o</w>
pre valence</w>
5. 5</w>
tur n</w>
fe el</w>
child -bearing</w>
wat ch</w>
vie w</w>
air craft</w>
orig in
ath le
behavi or</w>
common ly</w>
A G</w>
B ur
I P
K ong</w>
S al
S wi
l ong
an im
en t
on ery</w>
ec h
li st
de l</w>
con tin
lo st</w>
off ered</w>
accoun ts</w>
/1 5</w>
car b
Al though</w>
recei ving</w>
eth n
of f</w>
success ful</w>
2014 /15</w>
metho ds</w>
M er
S en
S ome</w>
e ded</w>
g old</w>
k illed</w>
m as
n ation</w>
w ent</w>
in em
hi t</w>
pl ans</w>
de gre
we gi
ai g
gen cy</w>
su icide</w>
1. 8</w>
2. 4</w>
le -
ra structure</w>
Nor wegi
bo t
comm unity</w>
est -
shar es</w>
num er
cal cul
relea sed</w>
Fl or
great est</w>
stan ding</w>
tax es</w>
fit ness</w>
Lim ited</w>
0 1</w>
A T</w>
P an
T im
a vi
m us
m is
n on
r ap
z es</w>
in ing</w>
re ality</w>
ta bl
ho ld
ab road</w>
gro und</w>
ci vi
2. 2</w>
and a</w>
ans as</w>
off ic
divi des</w>
consi st
stud ent</w>
measur e</w>
access ories</w>
lat est</w>
El ec
motorcy cles</w>
transpl ant</w>
anal y
Whats App</w>
tabl et</w>
B 2
S A</w>
c ast</w>
o t
s un
t em
re ment</w>
al though</w>
ri a</w>
ic an</w>
li sted</w>
wor ked</w>
lo o
19 00</w>
lea gue</w>
1. 7</w>
2. 7</w>
cas u
op en
bo ys</w>
Li thu
lit eracy</w>
proper ties</w>
Em irates</w>
lab or</w>
Tr ump</w>
camp aig
0 8</w>
b at
c r
d r
s ons</w>
w able</w>
ro und</w>
re pres
at tri
ad es</w>
ran ge</w>
ep id
poun d</w>
trans portation</w>
ban k
air line</w>
net working</w>
Bo ston</w>
ce ll
plan ned</w>
fil m</w>
infec tion</w>
kron er</w>
level s</w>
Bud get</w>
prec eding</w>
los ses</w>
Lithu ania</w>
C ub
E S
G old
L ou
L at
L argest</w>
c key</w>
g ran
ho ckey</w>
de sk
et ary</w>
su ff
dis pos
4. 5</w>
min imum</w>
Ho t
Co sta</w>
clo s
presid ent</w>
suppl i
perform ance</w>
Chan ge</w>
Flor id
0 2</w>
D A</w>
V o
al ties</w>
ac hi
ag ain</w>
vi r
de al
ad ed</w>
lea ther</w>
ra dio</w>
199 7</w>
fac tors</w>
Ho ldings</w>
2018/ 2019</w>
pac k
la w</w>
pay ro
capi talization</w>
experi ence</w>
chem icals</w>
gradu ally</w>
candid ate</w>
Colum bia</w>
B i
I T
N H
P urchas
e ll
f ast</w>
f le
s am
w an</w>
w ear</w>
y al</w>
ar ity</w>
re porting</w>
sta ble</w>
ag en</w>
ap pe
de sig
Sta te</w>
2. 9</w>
3. 3</w>
cas in
employe e</w>
divi sion</w>
Cana di
Ap pro
Rep ublic
cosme tic</w>
buil ding</w>
contac t</w>
fen se</w>
pur po
desk top</w>
S k
S am
20 20
ti tu
in ten
ar ter
ta ined</w>
stati stics</w>
as ses</w>
as soci
sc re
ir ed</w>
consi der</w>
ca use</w>
cro w
rai sed</w>
tab les</w>
infec tions</w>
Ken ya</w>
telec ommunic
0 ,
D anish</w>
M y
N A
P ower</w>
S nap
h um
in ju
st and</w>
du res</w>
po t
we ll
dis ea
thous ands</w>
3. 7</w>
3. 8</w>
3. 4</w>
3. 2</w>
tur y</w>
inclu ded</w>
cen ters</w>
Ban g
Em plo
Slo v
Wal mart</w>
municip alities</w>
vac ation</w>
East ern</w>
ew el
proce dures</w>
Millenni als</w>
ampion ship</w>
prison ers</w>
Snap chat</w>
L ab
b re
h u
h er
t ro
v or
v acc
ti ngs</w>
re duc
on ds</w>
om ing</w>
st y
st ream</w>
sho p</w>
tr o</w>
tr ends</w>
we ight</w>
inf rastructure</w>
rel atively</w>
Bo li
cru ise</w>
ak ia</w>
On ly</w>
down s</w>
est er</w>
ev ent</w>
sm all
plan ning</w>
plac es</w>
questi on</w>
Swi ss</w>
ethn ic</w>
Florid a</w>
inju ries</w>
Slov akia</w>
B ro
P M
c inem
g all
m a</w>
n ame</w>
p in
r ated</w>
pro gram</w>
li am
fi li
comp eti
se qu
chan ged</w>
regi onal</w>
decreas ing</w>
af fili
cont ro
read y</w>
Min nes
Slo ven
Coun tries</w>
simil ar</w>
Purchas ing</w>
A R
B un
C D</w>
H ar
P u
S po
d ra
t g
ti fy</w>
st ron
di vor
pro cess
po lic
si ties</w>
et er
co a</w>
ab e
se e
ke d
tou ch
car d</w>
fu ture</w>
subscri ption</w>
ge ographi
frequ ently</w>
conf ecti
sem i-
stric t</w>
faci lities</w>
rene wable</w>
degre es</w>
Norwegi an</w>
numer ically</w>
Lat via</w>
disea ses</w>
Minnes ota</w>
Sloven ia</w>
4 00</w>
C el
D el
W i
e sted</w>
en s
ho l
co coa</w>
wh eat</w>
cor ruption</w>
sum mari
sc en
dec i
insur ed</w>
An dro
provi der</w>
educ ational</w>
cel eb
show n</w>
communic ation</w>
Jam a
texti le</w>
recre ational</w>
Domin ican</w>
Spo tify</w>
summari zes</w>
Andro id</w>
B run
F ri
H er
S to
S ain
a w
f ul
p r
ea n</w>
sta y</w>
ac k
di am
pro b
du ce</w>
we b</w>
3. 1</w>
ei ved</w>
Par is</w>
direc tly</w>
St ore</w>
sear ches</w>
gradu ates</w>
multi national</w>
Qu arter
Ser vic
condi tions</w>
col ate</w>
tit les</w>
weal th</w>
2020 /
Quarter ly</w>
1 4
B ir
E cu
S ub
W ar
a -
er se
in te
in iti
al -
po w
si l
produc ers</w>
comp on
ch arg
bi an</w>
exp ect</w>
ther more</w>
lan gu
inve sted</w>
char ac
ori ties</w>
univer sities</w>
epid emic</w>
stron g
1 2
C E
S ur
a i</w>
e ven</w>
s outh</w>
w ill
en tal</w>
201 1
200 8/
con s
mo del</w>
ha m</w>
gro s
ch ed</w>
all s</w>
dec lar
To yo
eng er</w>
Co .</w>
particip ating</w>
sal aries</w>
cen tury</w>
St ar
phys ical</w>
cho colate</w>
rai l</w>
Pl ay
Ba h
pho to
Fur thermore</w>
Cub a</w>
achi e
payro ll</w>
Canadi ans</w>
Appro ximately</w>
D o
P P
S E
S a
a tar</w>
e di
k sw
m ass</w>
t our
on y</w>
do es</w>
inc idents</w>
me d
me th
gu es</w>
sea son
mor tg
Wor ldwide</w>
Austr ali
run s</w>
Vol ksw
Bar ack</w>
compl eted</w>
etro le
year- on-year</w>
Ni ke</w>
fle et</w>
Bang la
Toyo ta</w>
Volksw agen</w>
B ran
D ay</w>
F requ
G r
R ate</w>
T ai
c umulative</w>
d it
g as
m ail</w>
u tions</w>
ta king</w>
or ado</w>
per man
perc eption</w>
fi sh</w>
ab use</w>
lea d</w>
ne ver</w>
quar ters</w>
gi a</w>
ra ther</w>
cas h</w>
fin d</w>
cer tain</w>
te en</w>
stea dy</w>
Phi l
publi sh
char t</w>
broad ca
electron ic</w>
spe ed</w>
materi als</w>
Boli via</w>
Bun de
Jama ica</w>
Ecu ador</w>
etrole um</w>
5 0.
G i
I ra
M ac
M is
T o</w>
V er
m ine</w>
m ar</w>
r us
er to</w>
201 3
re fin
ur ed</w>
st ress</w>
di c</w>
di stri
co verage</w>
ad vis
cor n</w>
me di
pre fer</w>
play ing</w>
gi r
pic s</w>
no tes</w>
arg o</w>
5. 6</w>
ess ion</w>
bo dy</w>
trans fer</w>
Al g
1, 7
contri bu
enterpri se</w>
sli ga</w>
ste el</w>
professi on
reli gious</w>
total ed</w>
fif th</w>
carb on</w>
dispos able</w>
confecti onery</w>
Frequ ency</w>
Bunde sliga</w>
L an
N ep
T w
W e
h ap
n ab
p es
w e</w>
y ment</w>
el phi
di abe
po st
Sta ti
con n
produc ing</w>
me gawatts</w>
CO 2</w>
le gal</w>
min er
sub si
hospi tali
Col orado</w>
bec ome</w>
anti ty</w>
obser vation</w>
tru st</w>
second -
satis fied</w>
Ric a</w>
candid ates</w>
cigaret tes</w>
Est onia</w>
Sal v
cell ular</w>
erse y</w>
C umulative</w>
E ner
V A</w>
c tion</w>
c le
c ement</w>
r ail
t le</w>
201 2
ar ms</w>
al one</w>
ri ce</w>
do g</w>
as e</w>
ex am
fi eld</w>
ad elphi
sh ore</w>
ven ture</w>
ch est</w>
the at
sp ea
hou ses</w>
le y</w>
our ces</w>
foo t</w>
4. 2</w>
5. 1</w>
fe es</w>
min i
fa ke</w>
Mon t
reve als</w>
manufactur ed</w>
mach ines</w>
kron or</w>
Joh n</w>
Ab out</w>
magaz ine</w>
Uni ver
Geor gia</w>
calcul ated</w>
Pu erto</w>
Australi an</w>
Phil adelphi
Ira q</w>
Alg eria</w>
/ 2018</w>
A ir</w>
B al
D all
F D
O s</w>
Q atar</w>
S .
Z eal
a pers</w>
d ur
f f</w>
f ro
f ans
h in
n or
w ages</w>
ri ghts</w>
ill s</w>
do ing</w>
pro ved</w>
em y</w>
wor ds</w>
ru p
bu y
ron to</w>
me aning</w>
be ef</w>
4. 7</w>
To ronto</w>
out bound</w>
8. 4</w>
ris m</w>
ris ing</w>
trans action</w>
comm unities</w>
Ar e</w>
18 00</w>
la un
On line</w>
star ted</w>
ref er</w>
2017 /2018</w>
Ha ve</w>
che ese</w>
cosme tics</w>
univer sity</w>
Dis ney</w>
marri ages</w>
Sy ria</w>
depend ent</w>
dam age</w>
Vir gin
stor age</w>
Elec tri
ewel ry</w>
declar ed</w>
Bangla desh</w>
profession als</w>
subsi di
fans /
2 5
A ri
E l</w>
G h
G overn
J u
S ou
a ware</w>
b es</w>
g olf</w>
i al</w>
n is</w>
perc eived</w>
di oxide</w>
ch e</w>
1. 9</w>
199 1</w>
4. 3</w>
ke l</w>
6. 5</w>
gre en
tea ch
bl ing</w>
did as</w>
EU -
gl ass</w>
person nel</w>
life time</w>
Hond ur
ext ent</w>
fix ed</w>
pes os</w>
Zeal and</w>
6 00</w>
O T
b ri
d omin
e Sports</w>
i st</w>
n ative</w>
s onal</w>
z en</w>
at titu
di es
ver ies</w>
ex pres
we ar
se ats</w>
bo ard</w>
1, 0
loc ation</w>
develop ed</w>
tor al</w>
Ric o</w>
fil ms</w>
Joh n
marri age</w>
applic ation</w>
ssi l</w>
invol ved</w>
Win ter</w>
casu alties</w>
perman ent</w>
Philadelphi a</w>
3 9.
B er
C level
P interest</w>
R ed</w>
i gh
j ewelry</w>
l arg
an n
re ti
ea ting</w>
ri chest</w>
di ver
id ent</w>
coun ter
10 ,000</w>
tw en
Di rec
mea n</w>
car ds</w>
comm itted</w>
insur ances</w>
individu al</w>
loc ations</w>
smar t</w>
cha ll
hour ly</w>
respon sible</w>
Pri vate</w>
ref l
Hou seho
Ser bia</w>
logi es</w>
tion ally</w>
dou ble</w>
stat ement</w>
EB IT
lear ning</w>
ent ary</w>
2008/ 09</w>
gros sing</w>
Nep al</w>
Virgin ia</w>
Hondur as</w>
B re
C i
C aro
F ir
U E
a h
l st</w>
l et
r ing</w>
an mar</w>
al a</w>
al ready</w>
ic y
el ve</w>
po ll
so li
199 3</w>
gener ate</w>
enta tion</w>
oper ations</w>
seg ments</w>
vo ting</w>
air y</w>
can nab
har ve
har ass
wai t</w>
En ter
Lin ked
hold ers</w>
campaig n</w>
My anmar</w>
Dall as</w>
2 9
6 0.
B BC</w>
F ood</w>
N ic
O ff
f air
h und
r ent</w>
t est</w>
ta ge</w>
at trac
sta ys</w>
ag ement</w>
si x
con cen
con stant</w>
co o
ad v
ad ditional</w>
ru n</w>
comp ound</w>
lea gues</w>
Ne v
ty pic
5. 4</w>
5. 2</w>
6. 7</w>
Al l</w>
air lines</w>
Bo s
sy m
Par ity</w>
pati ent</w>
sel f</w>
mat ches</w>
run ning</w>
Olym pics</w>
int ro
fri ends</w>
vege tables</w>
Republic an</w>
pr acti
Tai wan</w>
Gh ana</w>
Clevel and</w>
EBIT DA</w>
Caro lin
4 9.
G VA</w>
I ll
S D</w>
e dom</w>
ro oms</w>
ou d</w>
202 6</w>
po sts</w>
ex ec
val ues</w>
inter ested</w>
tra ditional</w>
5. 7</w>
tw elve</w>
ther ap
fu ge
Al b
deb ts</w>
cho o
Chri sti
dri vers</w>
emer gency</w>
pla stic</w>
Atlan ta</w>
Ener gy</w>
Govern ment</w>
Linked In</w>
. The</w>
4 7.
6 8.
O per
P en
P ra
R ati
R eg
S ri</w>
c s</w>
d funding</w>
d airy</w>
h er</w>
l ending</w>
t ory</w>
en e</w>
en der</w>
ll ment</w>
pl ants</w>
du ty</w>
to o</w>
coun ty</w>
bu i
cor responding</w>
il s</w>
3. 9</w>
ear ning</w>
estim ate</w>
hab its</w>
car ri
Pro portion</w>
mil es</w>
access ing</w>
pos sible</w>
premi um</w>
multi ple</w>
new ly</w>
Ro yal</w>
logi sts</w>
adm itted</w>
Tra vel</w>
ES P
strong ly</w>
meth od</w>
gir ls</w>
Nev ada</w>
intro duc
A wards</w>
C yp
E ts
E thi
O E
R ea
T en
e x</w>
j our
n '
s po
s porting</w>
z z
re stric
po ta
bi les</w>
ow ing</w>
Ne w
bas ketball</w>
op ia</w>
out door</w>
air ports</w>
Belgi an</w>
vide os</w>
visit or</w>
har d</w>
ak h
perform ing</w>
Hou se</w>
rub les</w>
exce eded</w>
CA G
shoo tings</w>
wa ve</w>
clos ely</w>
Emplo yment</w>
Lan ka</w>
diabe tes</w>
Ari z
dies el</w>
UE FA</w>
Cyp rus</w>
Ethi opia</w>
A .</w>
K az
M L
P over
U ru
b icy
d -
l ong</w>
r a</w>
u ally</w>
w ing</w>
in o
an -
an g
202 9</w>
em i
us ual</w>
fi re
ai res</w>
bu ll
cor poration</w>
dis ast
eng ine
projec tion</w>
/1 3</w>
1, 3
Bel ar
travel ing</w>
smo king</w>
cop per</w>
Ti k
fall ing</w>
inj ury</w>
hum an</w>
affili ation</w>
tour nam
conn ected</w>
2012 /13</w>
green house</w>
John son</w>
Carolin a</w>
Rati o</w>
akh stan</w>
Kaz akhstan</w>
Pover ty</w>
Uru gu
0 ,000</w>
1 50</w>
8 00</w>
C ur
P E
P i
R oc
S an
h one</w>
l un
s av
in a</w>
re fuge
ta ins</w>
st u
st ly</w>
as king</w>
li ves</w>
fi res</w>
inc in
ow ning</w>
pre par
ma ple</w>
gener ating</w>
4. 6</w>
4. 4</w>
pass ing</w>
cen ter</w>
ten nis</w>
mat ch</w>
win ning</w>
identi fied</w>
Medic are</w>
applic ations</w>
bill ions</w>
viol ence</w>
long -
tem per
ens ation</w>
ful l</w>
PP P</w>
season ally</w>
Bran ds</w>
miner al</w>
Salv ador</w>
n' t</w>
CAG R</w>
Ariz ona</w>
Belar us</w>
4 8.
5 7.
5 8.
A T
B M
B est</w>
D etro
E s</w>
N o
S ud
a war
b et
e /
f r
h its</w>
i an</w>
m on</w>
t el
t led</w>
z ing</w>
ti ves</w>
in str
at em
al ter
ic k
stati ons</w>
sho ps</w>
ad emy</w>
ab les</w>
popul arity</w>
le m</w>
Americ as</w>
fac t</w>
Ac ademy</w>
and /
To k</w>
grap h
av o
te sted</w>
1, 5
Ar m
fa tal</w>
uni que</w>
speci alized</w>
hom es</w>
bl ems</w>
lin ing</w>
compu ters</w>
presen ting</w>
Gu atem
occurr ing</w>
succ ess</w>
consist ently</w>
crow dfunding</w>
Fri day</w>
fro zen</w>
Ets y</w>
Sud an</w>
instr um
1 /0
6 9.
C lin
D ata</w>
I V</w>
K u
L t
N u
e ting</w>
f esti
v eter
at ory</w>
ic on
ac qu
pro mo
200 0
200 1/0
com es</w>
li a</w>
de pres
ex tre
wor st</w>
lo y
im pl
coun ted</w>
ch ester</w>
sp ite</w>
sec u
par ent</w>
gi ving</w>
Ch ar
tic a</w>
4. 8</w>
5. 9</w>
out standing</w>
fic ation</w>
1, 9
ren tal</w>
concer ns</w>
ref ers</w>
lat er</w>
For d</w>
Mic ha
SM Es</w>
prescri ption</w>
mess aging</w>
newsp apers</w>
ba by</w>
Bir th</w>
sil ver</w>
Tik Tok</w>
4 9
E uro</w>
L o
M u
N at
P ay
S om
T ec
W ill
a didas</w>
c argo</w>
i tal</w>
l or
o logists</w>
y i
re turn</w>
it i</w>
Th ese</w>
ver sion</w>
mo ther</w>
comp ensation</w>
gen res</w>
par ts</w>
high -
4. 1</w>
cl oud</w>
6. 4</w>
resul ting</w>
off ences</w>
ju ice</w>
oper ation</w>
/1 4</w>
9. 3</w>
develop ing</w>
sy ru
org anization</w>
suppl ements</w>
Hi gh
attac k</w>
De partment</w>
read ers</w>
Pl ay</w>
Su per</w>
Medic aid</w>
cess ion</w>
licen sed</w>
sco res</w>
cli ents</w>
territ ory</w>
kid ney</w>
Pan ama</w>
Hot els</w>
appe ar
prob lem</w>
2013 /14</w>
Urugu ay</w>
temper at
and/ or</w>
2001/0 2</w>
A n</w>
A round</w>
B S</w>
C u
H y
O ther</w>
P e
a ult</w>
c ream</w>
i tion</w>
p ted</w>
p ir
t ter</w>
u an</w>
en cies</w>
re presenting</w>
on t</w>
on ed</w>
ri ties</w>
di tionally</w>
pro blems</w>
li ans</w>
de spite</w>
co vered</w>
se ll
ch ec
In du
reg n
ron ic</w>
pe ts</w>
be hin
elec toral</w>
fir m</w>
tu res</w>
gam bling</w>
Mo re
Al ber
Mal ta</w>
ado s</w>
bel ong
manag ers</w>
Is land</w>
Man chester</w>
hear t</w>
Compar ed</w>
back ground</w>
offic ers</w>
vir tual</w>
pot ential</w>
touch downs</w>
will ing</w>
mortg age</w>
Pra desh</w>
engine ering</w>
Detro it</w>
Guatem ala</w>
5 ,000</w>
6 7.
E A</w>
K ansas</w>
P har
S te
T es
e i</w>
l am
t an
w ks</w>
ar t</w>
sta r</w>
st er
um es</w>
el ing</w>
pl c</w>
mo stly</w>
pri v
ow ed</w>
sc ale</w>
gi gawatts</w>
dec lining</w>
ty -
enti re</w>
oper ators</w>
ari an</w>
visi ting</w>
cen tral</w>
differ ence</w>
hist or
health y</w>
favor able</w>
publi shing</w>
eff ici
Air port</w>
influ ence</w>
reco vered</w>
Qu e
tab lets</w>
assi sts</w>
person ally</w>
prescri ptions</w>
in- store</w>
kilowat t</w>
offici al</w>
accep table</w>
attri bu
langu age</w>
Fir st</w>
cannab is</w>
hund red</w>
1 3
2 50</w>
B us
C ru
D aily</w>
M it
a o</w>
p ed</w>
p ublic
p regn
w ash
er ry</w>
re st</w>
ta t
ag ents</w>
am ong
ex hi
lo ok</w>
the ft</w>
tri p</w>
su s</w>
par ties</w>
ff ic
ep t</w>
199 6</w>
tic kets</w>
ni ghts</w>
Mo ro
off ering</w>
/1 2</w>
les bian</w>
wholes al
ion aires</w>
Hou ston</w>
mid -
lab el</w>
Mic ro
issu ed</w>
relea se</w>
motorcy cle</w>
descri bes</w>
suff ered</w>
semi- annually</w>
2011 /12</w>
EU- 28</w>
OE CD</w>
behin d</w>
More over</w>
among st</w>
A li
C incin
L au
M R
S um
b loc
g ay</w>
p reven
s s
u te</w>
v o</w>
ti m</w>
en i
re a</w>
hi a</w>
pl i
tr a</w>
to day</w>
ha ir</w>
wor ried</w>
mer ch
sc o</w>
vic tim</w>
employ ers</w>
tra ding</w>
Ch ampionship</w>
5. 8</w>
eng agement</w>
rel ation
sto p</w>
air port</w>
turn out</w>
Me dia</w>
presid ents</w>
holi days</w>
bec ame</w>
concer n</w>
drin king</w>
Consum ption</w>
some one</w>
So cial</w>
terro rism</w>
occup ancy</w>
cou ples</w>
SM E</w>
Fe der
thre at</w>
foun d
publish ers</w>
Alb ania</w>
syru p</w>
F T
W h</w>
a p</w>
d el
h ing</w>
l on
p ing</w>
s l
s we
v eal</w>
y cl
y uan</w>
z za</w>
er ies</w>
or ts</w>
ill e</w>
ec ting</w>
oun t</w>
nit y</w>
tr an
mo st-
to il
ab ama</w>
ol ine</w>
19 75</w>
bi t</w>
for mer
high ly</w>
le g
cl assi
out l
oc cas
ric ket</w>
te a</w>
Al abama</w>
1, 8
pay ing</w>
man aged</w>
speci ali
gradu ate</w>
show ing</w>
cot ton</w>
nam es</w>
Is ra
hy per
conf idence</w>
lim ited</w>
Czec hia</w>
Indi ana</w>
Mad rid</w>
fast est</w>
Sec ond</w>
kilowat t-
bat ter
telecommunic ations</w>
gall ons</w>
mini str
Direc t</w>
harass ment</w>
Ill ino
icon duc
2 7
2 8
B en
E b
H u
O k
a head</w>
f und</w>
f low</w>
g y
g etting</w>
p etroleum</w>
w in</w>
in ess</w>
en ing</w>
on ing</w>
ag encies</w>
de st</w>
de fense</w>
po d
mo der
id s</w>
lo t</w>
ci se</w>
bi g</w>
xim um</w>
dis orders</w>
all ed</w>
bo dia</w>
e- mail</w>
ali zation</w>
har d
lit er</w>
nat i</w>
mod els</w>
Tur n
read ership</w>
claim s</w>
graphi c</w>
La os</w>
pho to</w>
Br and</w>
newsp aper</w>
Cam bodia</w>
surg ery</w>
connec tions</w>
B2 B</w>
associ ated</w>
2020/ 21</w>
rus hing</w>
distri buted</w>
dur ation</w>
buy ers</w>
harve sted</w>
Reg ion</w>
bull ying</w>
Micha el</w>
Cincin nati</w>
Sum mer</w>
7 00</w>
A S
C lu
D ue</w>
D esp
E d
J or
U SD</w>
c lim
d an</w>
i zed</w>
p a
p an
s n
s ay</w>
w n</w>
in i</w>
in dependent</w>
en ses</w>
re main</w>
ta ll
al ists</w>
sta in
ill egal</w>
st ers</w>
ho od</w>
di sc
oun ce</w>
de -
es sions</w>
mar king</w>
sur vi
ven dor</w>
cor rec
bas ic</w>
out lets</w>
wat ches</w>
car di
finan cing</w>
pass ed</w>
Li ber
Po lish</w>
bor der</w>
Ex p
grocer ies</w>
eff ective</w>
Air lines</w>
fli ghts</w>
hy dro
automo biles</w>
gawat t</w>
Forec asted</w>
far m</w>
connec tion</w>
athle tes</w>
bot tled</w>
Lou is</w>
sam e-
liam ent</w>
achie ved</w>
Sa har
tournam ent</w>
bet ter</w>
Som alia</w>
Illino is</w>
Desp ite</w>
B rea
P ap
S ol
V R</w>
W om
Z im
e don
g ion</w>
i P
i OS</w>
s ul
w ar</w>
z er</w>
an while</w>
re als</w>
ri ght</w>
st ment</w>
qu antity</w>
bu s</w>
su icides</w>
me tal</w>
me tro</w>
op en</w>
foo ds</w>
is m</w>
ans w
Fran ci
Al most</w>
Li b
impac ted</w>
Malay sian</w>
reli gion</w>
nation wide</w>
Indi ans</w>
hand led</w>
continu ously</w>
mal ware</w>
cop ies</w>
targ et</w>
auth orities</w>
casin o</w>
geographi cal</w>
hol ding</w>
exam ple</w>
sym p
bui ldings</w>
sav ings</w>
alter native</w>
Nat ural</w>
Will i
Micro soft</w>
former ly</w>
kilowatt- hour</w>
Turn over</w>
Jor dan</w>
B eli
H allo
I C</w>
L eb
O ut
R w
S ea
S un
a way</w>
b etting</w>
d a</w>
s y</w>
t wee
z eg
an on</w>
at ri
pro spec
am i</w>
con c
mo thers</w>
ran s
str at
lea ve</w>
pre v
4. 9</w>
foll ow</w>
5. 3</w>
is ion</w>
6. 1</w>
ov ina</w>
equ ality</w>
att en
1, 4
den tal</w>
who se</w>
ge ther</w>
cc o</w>
/0 1</w>
ain ts</w>
Rom ney</w>
opin ions</w>
Ha wai
mid dle</w>
condi tion</w>
Cap ital</w>
Mil an</w>
feat ures</w>
protec tion</w>
sty le</w>
Brun ei</w>
Her zeg
broadca sting</w>
ML B</w>
2000 /01</w>
Phar mac
Moro cco</w>
Brea kdown</w>
edon ia</w>
Hallo ween</w>
Leb anon</w>
Herzeg ovina</w>
1 2,
2 ,000</w>
7 0.
S team</w>
V M
V AT</w>
Y an
b ai
b ad</w>
l ate</w>
p h</w>
s ent</w>
s en</w>
s us
t onom
w eap
in ery</w>
ta tions</w>
sta ff</w>
stati ng</w>
di etary</w>
de ter
si t</w>
si ans</w>
con tain
ab ly</w>
fo ssil</w>
be c</w>
be st-
for d</w>
ear th
shi pping</w>
1, 2
cip i
Bo t
Me anwhile</w>
of -
boo king</w>
occu pi
Ha iti</w>
downlo aded</w>
occup ation</w>
Le vel</w>
Se attle</w>
Fe deral</w>
main ly</w>
Am ount</w>
repres ent</w>
polic y</w>
diam ond</w>
gas oline</w>
rail way</w>
refuge es</w>
graph y</w>
Clin ton</w>
Alber ta</w>
wholesal ers</w>
merch ant</w>
Isra el</w>
Clu b</w>
Wom en</w>
Lib ya</w>
Beli ze</w>
Hawai i</w>
tonom ous</w>
- of-
/ average</w>
3 ,000</w>
7 7.
C y
G ender</w>
L GB
P it
R IT</w>
R io</w>
T a
T uni
W y
W e</w>
a wat
b n
b on
b ing</w>
d enti
n in
n ur
o sc
s ou
s af
v a</w>
v ement</w>
in t</w>
in der</w>
en h
re p
it ch
at ch</w>
el ess</w>
am as</w>
vi d
ver y
po site</w>
con tains</w>
por ter</w>
ad di
ad ministr
ter awat
ay ing</w>
ma ximum</w>
dec ision</w>
Ne arly</w>
vol ta
6. 3</w>
6. 6</w>
10 ,
eg es</w>
ris en</w>
ther e
Al p
hea t</w>
ge ts</w>
lit tle</w>
coll ected</w>
view ing</w>
ship ment</w>
fav or</w>
Air bn
bur gh</w>
reco veries</w>
sem iconduc
mach inery</w>
bab a</w>
influen za</w>
foun ded</w>
eap est</w>
targ eted</w>
environ mental</w>
Sen egal</w>
mas ks</w>
purpo ses</w>
scen ario</w>
photo volta
Sou th
Househo ld</w>
poll ution</w>
Oper ating</w>
ESP RIT</w>
Ku wait</w>
acqu ired</w>
Eb ola</w>
Franci sco</w>
osc ill
- Sahar
9 00</w>
H ome</w>
I f</w>
L VM
P V</w>
P and
U g
a ver
e k
f lo
s pl
v y</w>
ti er</w>
or a</w>
ur ch</w>
ic es</w>
oun ds</w>
as ka</w>
em en</w>
de pos
ati c</w>
ve -
es ity</w>
the fts</w>
sp ir
pres s</w>
ow l</w>
pre -
increas es</w>
par ks</w>
inter course</w>
consum ing</w>
tw ice</w>
oper s</w>
198 8</w>
fu els</w>
te ens</w>
devel opers</w>
hospi tality</w>
Par k</w>
nic kel</w>
cre ated</w>
techno logies</w>
concer ning</w>
institu tional</w>
eff ects</w>
cro p</w>
So x</w>
Min i
Lux ot
logi stics</w>
Democ r
Ba by</w>
Im pac
ographi c</w>
materi al</w>
Hond a</w>
blo od</w>
market ers</w>
Mi ami</w>
anim al</w>
Gold en</w>
contro l</w>
Bah amas</w>
Mac edonia</w>
FD I</w>
nor m
Bos nia</w>
sell ers</w>
Ali baba</w>
Rw anda</w>
-Sahar an</w>
LVM H</w>
depos its</w>
Luxot tica</w>
4 ,000</w>
5 9.
A zer
E con
J ersey</w>
R ec
T an
b ados</w>
c ket</w>
g ress</w>
i ron</w>
j an</w>
m ay</w>
m igrants</w>
o thers</w>
s le
w al
an ced</w>
en ted</w>
201 6
or dered</w>
um a</w>
oun ced</w>
li qu
po ll</w>
si zed</w>
mo di
por table</w>
to ys</w>
et e</w>
lo t
qu ali
ven s</w>
bu cks</w>
wh y</w>
tri tion</w>
gen re</w>
ani an</w>
pre ci
ne ed</w>
inter nal</w>
gi fts</w>
ra in</w>
tu ition</w>
fac ing</w>
rou ght</w>
6. 2</w>
sea s</w>
ass et</w>
trans ported</w>
oper ator</w>
indic ating</w>
respon ses</w>
profi le</w>
dru g
boo kings</w>
star t</w>
Bar bados</w>
anti -
plac ed</w>
nomin al</w>
adm issions</w>
kin d</w>
stand ard</w>
stro ng</w>
cinem as</w>
deci sions</w>
Star bucks</w>
attitu des</w>
bai jan</w>
occupi ed</w>
Pit ts
Airbn b</w>
spl it</w>
Impac t</w>
Azer baijan</w>
C l
F re
I o
N ation
R B
S w
S BC</w>
U ta
V eg
c ular</w>
h e</w>
h on
k now</w>
t el</w>
th erm
ar k</w>
ho t</w>
ec i
ac h</w>
em entary</w>
am bi
po is
po ol</w>
us ually</w>
qu ite</w>
all owed</w>
over seas</w>
6. 8</w>
7. 5</w>
7. 4</w>
ca p</w>
clo sed</w>
Bo om
go al</w>
Den ver</w>
coll eges</w>
Bas ed</w>
tom s</w>
Twit ch</w>
Gu ine
eri e</w>
eff ect</w>
Ang ola</w>
Pre valence</w>
reco very</w>
int enti
Mic hi
Res orts</w>
El ect
mach ine</w>
Ad ditionally</w>
bab we</w>
prin t</w>
partic ular</w>
suppli er</w>
small est</w>
pow er
compon ents</w>
hospitali zed</w>
wear able</w>
Indu stri
relation ship</w>
Zim babwe</w>
symp toms</w>
Tuni sia</w>
photovolta ic</w>
Ug anda</w>
Econ om
Pitts burgh</w>
Uta h</w>
Guine a</w>
A si
B on
C S
F Y
H or
L as</w>
M ass
M att
N iss
O hi
O man</w>
T rin
T amp
c ers</w>
d one</w>
i so
k Wh</w>
p at
t wit
y ana</w>
ar agu
om bar
el ementary</w>
di sp
U.S .
as h</w>
Th us</w>
li c</w>
us et
por tu
to gether</w>
ex i
im prov
ran k</w>
popul ated</w>
ch ronic</w>
cor e</w>
resp ective</w>
gr ade</w>
whi lst</w>
ep tions</w>
dec ades</w>
Ch em
form er</w>
out lines</w>
7. 2</w>
8. 6</w>
rel ative</w>
import ance</w>
mor ally</w>
2, 3
bl ack</w>
mid year</w>
Gener ation</w>
ach uset
continu ed</w>
hear d</w>
super markets</w>
surg ical</w>
practic ing</w>
PA Y
abor tion</w>
contin ue</w>
civi l</w>
bank rup
process ing</w>
Sub -Saharan</w>
post secondary</w>
cle aning</w>
Nic aragu
six th</w>
long- term</w>
Tec hno
Tes co</w>
same- sex</w>
prospec ts</w>
terawat t</w>
Alp hab
therm al</w>
Mass achuset
Niss an</w>
Ohi o</w>
- year-
B R
C re
C ri
E M
H SBC</w>
I N
M ag
M em
R i
Y emen</w>
c alled</w>
d om
e ing</w>
e very
k -
o ts</w>
p -
s low
in al</w>
ro w</w>
en ess</w>
re cipi
or al</w>
ou l
ea st</w>
ill ary</w>
di stance</w>
pro c
Th roughout</w>
po st</w>
po lls</w>
Sta r</w>
im migration</w>
In ve
be gan</w>
for d
ser v
no tic
op i
op port
out -of-
Nor dic</w>
7. 7</w>
vel op
fe wer</w>
oper ates</w>
Sp ending</w>
fic ally</w>
air e</w>
Co st</w>
Wh ite</w>
ga ve</w>
2, 0
hel or</w>
rati ngs</w>
non- life</w>
Pri me</w>
sk i</w>
sk in</w>
star ting</w>
sol utions</w>
Fo ll
full y</w>
nation ality</w>
low -
bill ionaires</w>
transpl ants</w>
doc tors</w>
super market</w>
pen sion</w>
stat ements</w>
magaz ines</w>
partic ularly</w>
bank notes</w>
charg ed</w>
Electri city</w>
ann ounced</w>
practi ce</w>
yi eld</w>
Que bec</w>
semiconduc tor</w>
pois oning</w>
Michi gan</w>
PAY E</w>
Nicaragu a</w>
Alphab et</w>
Massachuset ts</w>
opport unities</w>
- to-
4 2.
A ward</w>
B it
D A
G lob
I I</w>
I P</w>
L it
M or
M ess
P uma</w>
R en
S ony</w>
c attle</w>
h ec
k y
m alls</w>
s /
s ci
x i
ti vation</w>
in ation</w>
in bound</w>
en jo
on wards</w>
al ways</w>
202 7</w>
por k</w>
id ed</w>
lo ad</w>
ve y</w>
ch eapest</w>
rec ycl
tim ore</w>
elec ted</w>
ser i
consum e</w>
Ac t</w>
op portu
form at</w>
display ed</w>
eng ine</w>
6. 9</w>
7. 3</w>
Mo tors</w>
9. 5</w>
fic i
passeng er-
1, 1
scor ers</w>
Co ast</w>
recei ve</w>
fur ni
non- alcoholic</w>
bl ed</w>
Ex change</w>
institu tion</w>
Vol vo</w>
enro llment</w>
ed -
For t
emer ging</w>
identi ty</w>
Or g
uti li
territ ories</w>
NH L</w>
Bal timore</w>
S. A.</w>
teach ers</w>
reti rement</w>
chall eng
fair ly</w>
disast ers</w>
instrum ents</w>
Mu sic</w>
Mit t</w>
earth qu
Pand ora</w>
hec to
opportu nity</w>
3 1.
A g
C oo
F ore
I S
P ont</w>
S hi
S co
Y ear
b it
b ul
e es</w>
e Bay</w>
h or
r ul
r ing
s aying</w>
t es
â €
an es
or an
ac tual</w>
el der
pro duce</w>
pl ant</w>
as y
as cular</w>
res ources</w>
con sequ
ex porting</w>
ad d
gh ting</w>
sur pri
pri ze</w>
bu tter</w>
su m</w>
su ffer
su stain
gr ades</w>
inter viewed</w>
ep iso
ra dor</w>
ear th</w>
over -
is sion</w>
ess ed</w>
ess ential</w>
au g
sour i</w>
sup ported</w>
hea ds</w>
hea vy</w>
speci fically</w>
medic ine</w>
cho ice</w>
pos s
rema ining</w>
broad cast</w>
work er</w>
automo bile</w>
Nig er</w>
viol ent</w>
Atlan tic</w>
mur der</w>
list en</w>
Mer ce
sun g</w>
cr ash
inten sive</w>
Servic e</w>
Servic es</w>
Do ll
Mis souri</w>
Univer sity</w>
refl ects</w>
tel ep
Cu stom
exhi bi
itch en</w>
Io T</w>
Tamp a</w>
twit ter</w>
oul try</w>
elder ly</w>
1 4,
8 0.
B hu
C ho
G ri
G old</w>
G ren
H om
J e
P L
R eli
S oc
T y
V od
W ho
b ago</w>
c able</w>
c ell</w>
d ge</w>
d ors</w>
e ta
f low
p en</w>
w id
y wood</w>
th us</w>
an y
re views</w>
on e-
at o
sta ge</w>
sta dium</w>
st op
ag as
un ds</w>
li ver</w>
de s
con st
to pped</w>
id ad</w>
ex pl
lo g
co in</w>
co ca
ven dors</w>
inc idence</w>
pres ence</w>
appro val</w>
dis order</w>
ser ved</w>
compar es</w>
ep ing</w>
To bago</w>
Ita lians</w>
ke y
ke ep</w>
eng ines</w>
acc ident</w>
fe eling</w>
der i
off shore</w>
198 2</w>
9. 9</w>
sub st
Re gi
ob ese</w>
cri min
1, 6
provi de</w>
spec ies</w>
la hom
non- Hispanic</w>
speci fic</w>
ber ship</w>
Indone sian</w>
tin e</w>
Ex port</w>
bec oming</w>
compu ting</w>
avail ability</w>
De velop
multi -
cro s
tru cks</w>
bur g</w>
minu te</w>
requ ests</w>
Im ports</w>
gl asses</w>
sen ten
Mad agas
buil t</w>
fall en</w>
Pr ince</w>
abor tions</w>
Bi g</w>
purpo se</w>
charac ters</w>
SE K</w>
Enter tainment</w>
concen tration</w>
outl ays</w>
Ok lahom
Veg as</w>
Matt el</w>
Trin idad</w>
improv ement</w>
Inve stment</w>
ford able</w>
Year -
crash es</w>
Bhu tan</w>
Soc cer</w>
coca ine</w>
Madagas car</w>
Oklahom a</w>
3 9
B eng
D ar
E ar
M us
O ut</w>
P atri
R ome</w>
W is
Y ear</w>
a qu
b rought</w>
e ir
f ra
o th
s ki
u k
v ille</w>
y land</w>
y nam
z ania</w>
z ambi
th ings</w>
20 60</w>
er s
ro b
ro ads</w>
ar s
ou gh</w>
st ol
ac t</w>
ag ency</w>
un di</w>
li s</w>
se par
pri son</w>
pri mari
sp ring</w>
In stitu
pres ent</w>
appro ved</w>
lea n</w>
gr o</w>
employ er</w>
Ne ws</w>
op tions</w>
8. 1</w>
8. 5</w>
Mo zambi
au tonomous</w>
Di gital</w>
equ als</w>
Ho ll
Gre en</w>
Rus sians</w>
bran ches</w>
ob tained</w>
eli hood</w>
ki sh</w>
18 ,
2, 7
ak es</w>
3, 6
pu p
fore ig
Goo ds</w>
Tur kish</w>
nam ed</w>
tru ck</w>
sw ana</w>
So ci
under graduate</w>
IC P</w>
occup ations</w>
municip al</w>
rub ber</w>
Bur undi</w>
contin ent</w>
B2 C</w>
open ing</w>
Sam sung</w>
Lab rador</w>
Ci vi
Off ice</w>
bicy cles</w>
impl em
temperat ure</w>
Pe ople</w>
effici ent</w>
Cru de</w>
Bot swana</w>
LGB T</w>
Tan zania</w>
intenti onal</w>
Econom ic</w>
Foll owing</w>
const antly</w>
primari ly</w>
Mozambi que</w>
2 4
B owl</w>
C al
C ow
E -
E uros</w>
F it
G B</w>
H illary</w>
H ICP</w>
I p
K ing</w>
S -
S porting</w>
S ach
T ri
T inder</w>
V F</w>
b ying</w>
c ent</w>
e y
e m</w>
f air</w>
g er
h em
i or</w>
j ou
m ing</w>
n -
p oultry</w>
r are</w>
s age</w>
u a</w>
v ations</w>
th -
en ough</w>
ar ia</w>
re cording</w>
re duce</w>
sho t</w>
li br
po cket</w>
si us</w>
tr ail
us sal
ve g
co ld</w>
se a</w>
ci l</w>
In de
ond ents</w>
appro ve</w>
gr ain</w>
fir e</w>
over do
8. 9</w>
au ction</w>
min es</w>
curr ency</w>
av es</w>
Per sonal</w>
att em
vo ice</w>
An ti
tec h
ga ined</w>
dem ographic</w>
non- performing</w>
Vi de
men us</w>
10. 6</w>
prof its</w>
experien cing</w>
Viet nam
Air ways</w>
compl aints</w>
ori al</w>
Is lands</w>
Res p
Car din
emer ged</w>
depend ency</w>
dou bled</w>
Si ze</w>
Geor ge</w>
vege table</w>
est- paid</w>
civi lian</w>
loo king</w>
casin os</w>
reduc tion</w>
cinem a</w>
Sain t</w>
cons in</w>
expres sed</w>
choo se</w>
introduc ed</w>
jour n
restric tions</w>
New found
veter ans</w>
priv acy</w>
attribu table</w>
tat to
Feder ation</w>
hard ware</w>
sus p
saf ety</w>
challeng es</w>
hecto liters</w>
suffer ing</w>
Develop ment</w>
Dar ussal
Patri ots</w>
Wis consin</w>
Cow boys</w>
Darussal am</w>
- L
C had</w>
G o
H erm
N a
N un
N ami
R ap
V e
V ic
W ars</w>
Z am
b ag
b ar</w>
d ated</w>
e ye
f ted</w>
g est</w>
k i</w>
k ansas</w>
l ap
l ying</w>
p on</w>
p um
u d</w>
w an
in m
ar ts</w>
re b
ri ver</w>
do gs</w>
ac res</w>
pro gr
Th e
Th ey</w>
ul ture</w>
li ked</w>
si d
con stitu
con cession</w>
por ary</w>
ha wks</w>
im pres
gen ce</w>
inter actions</w>
gi ft</w>
mon it
vol ution</w>
8. 8</w>
der ship</w>
ov ascular</w>
0. 5</w>
divi ded</w>
min us</w>
av ut</w>
sub j
ob esity</w>
Ar kansas</w>
devel o
Co st
provi sion</w>
Bo x</w>
dro pping</w>
cul tural</w>
adverti s
soci ety</w>
stic ally</w>
regar ds</w>
shar ed</w>
sa fe</w>
prefer ence</w>
downlo ad</w>
Bl ack
audi ences</w>
nec ess
great er</w>
Jam es</w>
Vir gin</w>
refer ence</w>
remo te</w>
amm y</w>
esp eci
gran ted</w>
Stati sta</w>
fans/ Twitter</w>
fans/ twitter</w>
larg er</w>
typic al</w>
BM W</w>
High est</w>
Pharmac eutical</w>
Yan ke
aver aged</w>
norm al</w>
recipi ents</w>
Ren ault</w>
passenger- kilometers</w>
Vietnam ese</w>
Newfound land</w>
Nun avut</w>
Nami bia</w>
Zam bia</w>
especi ally</w>
1 30</w>
1 6,
2 6
7 6
8 ,000</w>
C P
G ul
I K
I v
K ors</w>
M C
O il</w>
S ha
T el
b a</w>
b each</w>
f s</w>
j i
k s
l in</w>
t ub
20 40</w>
an ta
an xi
ar k
ar m
or ing</w>
ec tion</w>
di sh
di strict</w>
de f
ver ing</w>
por no
to ols</w>
ati ves</w>
ex er
fi t</w>
im proved</w>
we es</w>
we igh
bu m</w>
pe er</w>
fo c
inter vie
inter val</w>
pic ture</w>
form ed</w>
shi re</w>
tur ned</w>
8. 3</w>
fe e</w>
Mo bi
port ers</w>
ene gro</w>
bus h
gre at</w>
recor ds</w>
hea ting</w>
Par agu
stea d</w>
Cen ter</w>
De fense</w>
cour ses</w>
insta ll
Tr ade</w>
Coun cil</w>
La kers</w>
smo kers</w>
contrac t</w>
50 ,000</w>
Pr ada</w>
Mc Donald</w>
Du Pont</w>
Vo D</w>
pack aged</w>
Cel sius</w>
compon ent</w>
We ek
spea king</w>
Mont enegro</w>
twen ty-
coo king</w>
therap y</w>
Christi ans</w>
carri ers</w>
lon ger</w>
Ed ward</w>
Pap ua</w>
bankrup t
Sco ti
exhibi tion</w>
tatto os</w>
bag s</w>
Yanke es</w>
Gul f</w>
intervie wees</w>
/ 2011</w>
3 6
3 2.
A M
B ay
C s</w>
E R
H D
P U</w>
P ay</w>
S mar
S AR
T ea
V /
e k</w>
e en
e th</w>
f am
f ers</w>
g en</w>
l ack</w>
m ail
o k
o ds</w>
t ected</w>
z ers</w>
z lo
z he
ti li
ar di
at er</w>
sta tion</w>
per f
per pe
um in
ac ks</w>
Th om
vi s</w>
vi sed</w>
po st-
si bility</w>
mo de</w>
to y</w>
lo an</w>
es /
ing ly</w>
qu ick</w>
ter ed</w>
sur ance</w>
se ven
sh are
pri me</w>
pri sons</w>
inc es</w>
me tals</w>
il ed</w>
gi gawatt</w>
ma kes</w>
le ans</w>
gu n</w>
bas ket</w>
cas ts</w>
dea d
7. 6</w>
Mo tor</w>
Nov a</w>
9. 7</w>
indic ators</w>
bran ch</w>
af ter
electri cal</w>
sal ons</w>
ge o
2, 5
2, 8
Fi at</w>
ten sion</w>
3, 0
3, 9
Rom anian</w>
ado ption</w>
ado pted</w>
week end</w>
Pac k
consider ably</w>
Gu yana</w>
2010 /2011</w>
deli vered</w>
teen age</w>
total ing</w>
life style</w>
exc ept</w>
ef for
ck y</w>
AR PU</w>
see ing</w>
Sto ck</w>
refin ery</w>
diver si
lun g</w>
awar eness</w>
Hy und
cardi ovascular</w>
prev ent</w>
rep air</w>
Democr ats</w>
RB I</w>
U.S. -based</w>
jou les</w>
zlo ty</w>
zhe im
ardi zed</w>
1 20</w>
1 10</w>
1 5,
A B</w>
D eb
D ow</w>
F i</w>
G ab
H ea
H IV</w>
L oc
L ombar
M en</w>
O pin
P S
R al
S m
c at</w>
d .</w>
g by</w>
h i</w>
h ome
i si
p sy
x it</w>
th in</w>
en for
it ob
sti on</w>
ur s</w>
ac tors</w>
di es</w>
di ffic
pl y</w>
du m</w>
com modi
ex trac
ter nal</w>
sur passed</w>
ci a</w>
inc ur
be dro
sc an
ne eds</w>
for ces</w>
stri kes</w>
ff al
so s</w>
ra p</w>
tic als</w>
ir e</w>
To ky
vol umes</w>
8. 7</w>
9. 8</w>
Re sid
mi x
vo ter</w>
Con go</w>
An d
Al aska</w>
Al zheim
thir ds</w>
smar tw
Bo ss</w>
fre edom</w>
Mal aw
Par liament</w>
2, 2
2, 4
hel p</w>
attend ed</w>
fun ded</w>
les ale</w>
gg age</w>
mat ter</w>
sk ills</w>
week day</w>
sing le-
mem bership</w>
cel ona</w>
commod ity</w>
Bar celona</w>
7, 4
fli ght</w>
under lying</w>
Dis ne
communic ations</w>
Man itob
mess ages</w>
mess enger</w>
mal aria</w>
nes see</w>
lli ed</w>
Ca tal
stand ardized</w>
arti sts</w>
NH S</w>
telecommunic ation</w>
divor ces</w>
deci le</w>
initi al</w>
Gi ants</w>
contribu tions</w>
Bre xit</w>
soli d</w>
Rea sons</w>
Ten nessee</w>
Lt d.</w>
appear ances</w>
wash ing</w>
Hu go</w>
clim ate</w>
Exp endit
answ ered</w>
contain er</w>
nin et
vid -19</w>
addi tion</w>
spir its</w>
Fre edom</w>
Boom ers</w>
Who lesale</w>
key words</w>
overdo se</w>
Cost co</w>
anxi ety</w>
Paragu ay</w>
Scoti a</w>
Hyund ai</w>
Lombar dy</w>
commodi ties</w>
Toky o</w>
Malaw i</w>
3 /
A C</w>
A R</w>
A ll
B or
B ol
B urb
D ak
G M
G ini</w>
H en
I d
I ri
O ri
P s</w>
R ak
S erie</w>
T er
a -based</w>
c am
c ab
c ricket</w>
d ried</w>
e gi
m ech
n ations</w>
p y</w>
r ying</w>
s ell</w>
x on
an es</w>
re comm
ea ble</w>
do ws</w>
em on</w>
li o</w>
tr ack</w>
mo tion</w>
coun ties</w>
ran ged</w>
ran kings</w>
sh e
ven ess</w>
gr ated</w>
ne -
dis agree</w>
mon t</w>
Mar ri
end ers</w>
lob bying</w>
chi lled</w>
no ted</w>
ra w</w>
dec or
lu ggage</w>
enta tives</w>
vol un
over -year</w>
is ol
7. 1</w>
ei gh
Di strict</w>
wat ers</w>
br ac
wi ld
198 9</w>
9. 4</w>
fer tili
Un der</w>
Con tri
with dra
af one</w>
mor al</w>
subscri bed</w>
den omin
Cor ruption</w>
bor ne</w>
medic ation</w>
3, 7
tor ia</w>
cho sen</w>
mari tal</w>
Hisp an
arri ving</w>
reco g
Bl ue</w>
Scot tish</w>
diagno sis</w>
Or leans</w>
far ms</w>
refer en
shor t</w>
offici ally</w>
origin ated</w>
Lou isi
deal ers</w>
bre ast</w>
geographi c</w>
charac ter
Sur vey</w>
med als</w>
theat ers</w>
OT C</w>
ah o</w>
extre m
Bus iness</w>
public ly</w>
swe et</w>
batter y</w>
â€ ™
Merce des</w>
Vod afone</w>
fra ud</w>
Ip sos</w>
veg et
Resp ondents</w>
wan ted</w>
progr amm
IK EA</w>
perpe tr
Manitob a</w>
Burb erry</w>
Dak ota</w>
mech an
Louisi ana</w>
B lo
C V
I B
I ce</w>
J an
K o
L y
M ol
M ast
O PE
O pen</w>
R ob
V -
V en
V inc
Y a
b ars</w>
b ak
g ur
l v
p ass</w>
s able</w>
w ea
w ns</w>
z one</w>
er ran
an tine</w>
ro le</w>
re -
it em</w>
om ware</w>
st ories</w>
st ern</w>
oun ces</w>
200 4
Th ings</w>
ul ts</w>
li est</w>
doll ars
mo vement</w>
ha z
ch ampionship</w>
the si
19 0</w>
00 ,000</w>
ye arly</w>
amoun ts</w>
lea dership</w>
dis ability</w>
gi ble</w>
nu ts</w>
tra ve
eng aged</w>
tw o-
7. 8</w>
au gh
resul ted</w>
0. 3</w>
off line</w>
9. 1</w>
fran cs</w>
mi le</w>
stud ying</w>
Con gress</w>
air s</w>
Co ll
Pol o</w>
tho lic</w>
posi tions</w>
Bo th</w>
sy lv
Com mer
Me dit
bud gets</w>
direc tors</w>
Pri mary</w>
ber g</w>
cul ture</w>
lik es</w>
prov inces</w>
gar den</w>
Ex xon
Consum ers</w>
experien ces</w>
Por t
sol di
5, 0
pi zza</w>
arri ved</w>
up per</w>
sever e</w>
Res earch</w>
texti les</w>
descri bed</w>
pla stics</w>
mur ders</w>
est- growing</w>
attri buted</w>
Gold man</w>
NA FT
well ness</w>
vacc ine</w>
divor ce</w>
Bah rain</w>
med al</w>
Gr and</w>
typic ally</w>
Pen n
fire arms</w>
Arm y</w>
iP hone</w>
twee ts</w>
drug -related</w>
Chem ical</w>
Bit coin</w>
earthqu akes</w>
Fore ign</w>
anes thesi
crimin al</w>
eir o</w>
rob ber
stol en</w>
Sach s</w>
Vic toria</w>
exer cise</w>
Mobi l</w>
Thom as</w>
effor ts</w>
incur red</w>
ffal o</w>
Expendit ure</w>
Id aho</w>
Rak u
recog ni
mechan ical</w>
erran ean</w>
Medit erranean</w>
Exxon Mobil</w>
NAFT A</w>
6 4.
A /
B ei
C ubs</w>
C BS</w>
E ag
G rou
O t
O reg
P al</w>
P ho
R I</w>
S ci
T ele
U l
U ber</w>
U sage</w>
V an
c and
n ical</w>
o live</w>
o sis</w>
p .</w>
p ence</w>
w are
y l
Ã ©
ti vity</w>
er t</w>
en a</w>
en ed</w>
ar t
re ports</w>
al bum</w>
ill ness</w>
um -
el ers</w>
202 3/
du l
as p
ap o
po or</w>
con version</w>
to es</w>
im porting</w>
co s</w>
se eds</w>
ch lor
19 79</w>
bu llied</w>
tri ed</w>
In dit
reg ul
ne igh
mon ized</w>
so y
tu cky</w>
esti ng</w>
yo gur
10 7</w>
mill enni
ig a</w>
8. 2</w>
ris ts</w>
au x
cu s</w>
off s</w>
9. 2</w>
Co vid-19</w>
Pol ice</w>
la under
Fin an
retail ing</w>
Val enti
speci al</w>
Cor p.</w>
men ted</w>
fore st</w>
Ex ports</w>
Ex press</w>
lin ked</w>
win ners</w>
win ner</w>
star ter</w>
sol es</w>
rai sing</w>
up ward</w>
up coming</w>
Heal th
great ly</w>
Im port</w>
spon s
Ken tucky</w>
Indi an
fl av
East er</w>
ero on</w>
invol ving</w>
uti lities</w>
Cam eroon</w>
EB IT</w>
exc eption</w>
practic es</w>
long est</w>
non profit</w>
rap e</w>
consist ent</w>
analy sis</w>
diam onds</w>
Sur in
advis ors</w>
hospitali zations</w>
soli dated</w>
carri er</w>
spo t</w>
an- American</w>
secu rities</w>
pregn ancy</w>
Lau ren</w>
Liber ia</w>
rans omware</w>
strat eg
weap ons</w>
enh ams</w>
Mini stry</w>
proc ess</w>
sustain able</w>
aqu ac
ynam ics</w>
Cardin als</w>
journ alists</w>
Smar t
SAR S-
Deb enhams</w>
Ral ph</w>
ninet een
Hispan ics</w>
referen dum</w>
bak ery</w>
sylv ania</w>
anesthesi ologists</w>
Raku ten</w>
Oreg on</w>
2023/ 24</w>
Indit ex</w>
launder ing</w>
- day</w>
2 6,
5 4.
6 0
6 1.
A ven
D ow
G en</w>
G olf</w>
J ack
M b
S ee</w>
a joules</w>
c ited</w>
g it</w>
h ate</w>
j ersey</w>
s .</w>
s et
s low</w>
v ast</w>
w ers</w>
er ate</w>
in no
in stead</w>
ar tic
at tainment</w>
al ong</w>
ur ric
st one</w>
ec ture</w>
di et</w>
as k
res ses</w>
com bu
de ta
Sta tes
con secu
ex ajoules</w>
we aring</w>
sh ings</w>
ch ing</w>
19 30</w>
19 76</w>
sec tion</w>
ow a</w>
ow ns</w>
hou se
high li
ma st
so le</w>
lu m</w>
3. 20</w>
Ch urch</w>
cl in
econom ies</w>
ni sh</w>
der ing</w>
0. 7</w>
off enses</w>
wat er
Nov arti
9. 6</w>
ari ly</w>
bro w
govern ments</w>
provi ding</w>
18 0</w>
part -time</w>
Fin nish</w>
2, 9
cy cl
/0 5</w>
verti sing</w>
Mon go
tom ato
frequ ent</w>
11. 8</w>
sa ving</w>
gradu ation</w>
gradu ated</w>
igran t</w>
tru sted</w>
Jo e</w>
sw ick</w>
bac helor</w>
work place</w>
acquisi tions</w>
IC T</w>
EU R</w>
30 ,
stan ds</w>
prescri bed</w>
Ad vertising</w>
Br us
bab ies</w>
hand ling</w>
doc um
Mil itary</w>
influen ced</w>
stand ards</w>
Be ars</w>
market place</w>
environ ment</w>
suppli ers</w>
Del aware</w>
Brun swick</w>
Gr ammy</w>
laun ched</w>
twen ty</w>
choo sing</w>
Christi an</w>
Pay Pal</w>
belong ing</w>
South east</w>
oscill ated</w>
hon ey</w>
serv ative</w>
Mess enger</w>
furni shings</w>
asy lum</w>
Doll ar</w>
Custom er</w>
wid ely</w>
subst anti
cros s-
Year- on-year</w>
Vide o</w>
diversi fied</w>
Alzheim er</w>
Iri sh</w>
Contri bution</w>
Blo om
OPE C</w>
2004 /05</w>
Penn sylvania</w>
yogur t</w>
Finan cial</w>
Valenti ne</w>
Indian apo
Surin ame</w>
nineteen th</w>
Aven gers</w>
combu stion</w>
consecu tive</w>
Novarti s</w>
tomato es</w>
4 1.
4 3.
6 3.
B ron
C E</w>
D I
F lin
F MC
G ER
I owa</w>
K i
K it
K nic
M S
P ic
Q 1</w>
R ou
S E</w>
S im
T ran
T EU
U p</w>
d or
d ron
d am</w>
e um</w>
g ent</w>
m it
m and
n d
p .
s m</w>
s chem
t ree</w>
t ended</w>
w ant</w>
ti v
ti ll</w>
in d
an as</w>
an ticip
ar d
re qui
on co
ll a</w>
sta l</w>
ic it</w>
ag a</w>
sho es</w>
com position</w>
com posite</w>
li qui
li thi
si ght</w>
to ll</w>
ati on-
id ers</w>
ex porter</w>
fi ght</w>
qu ad
popul ations</w>
ci ans</w>
sp reading</w>
fo lio</w>
lea sable</w>
me ant</w>
me als</w>
dis ab
peri ods</w>
quar antine</w>
par liam
nu trition</w>
so ap</w>
le ft</w>
our self</w>
Ne vis</w>
op posed</w>
cl asses</w>
bo ats</w>
Mo sco
0. 6</w>
198 6</w>
Fac t</w>
cer ti
bran ded</w>
clo th
sy n
Pri ces</w>
3, 3
11. 4</w>
11. 2</w>
head quarters</w>
ele ven</w>
Pre fer
Ran gers</w>
ori entation</w>
contrac ts</w>
Cap ri</w>
Wal t</w>
behavi ors</w>
din ing</w>
prin cip
od a</w>
lli gence</w>
cli ent</w>
Compar atively</w>
mis sion</w>
dr am
Wi thin</w>
2020/ 2021</w>
Enter pri
pota toes</w>
depres sion</w>
loy alty</w>
Char lot
hyper tension</w>
tall y</w>
Nation wide</w>
seri ous</w>
Org anization</w>
deri ved</w>
Holl ywood</w>
Iv ory</w>
twenty- foot</w>
Pho eni
Van cou
Health care</w>
SARS- Co
Flin t</w>
FMC G</w>
GER D</w>
Kit ts</w>
Knic ks</w>
TEU s</w>
1 11</w>
4 5.
5 1.
A lli
C .</w>
F u
G ar
J agu
L ions</w>
M unic
P ea
S on
S tr
S ab
a h</w>
c um
d well
g ation</w>
g lu
i lities</w>
l er</w>
l ens</w>
m enti
n a</w>
n ail</w>
o logy</w>
o ils</w>
o vens</w>
p rom</w>
p ain
r ho
s port
t our</w>
w t</w>
w all
y tes</w>
y et</w>
ã o</w>
er cul
in stant</w>
an ol</w>
en ers</w>
re l</w>
re di
ea sed</w>
ho b
ho o</w>
ic al-
el ons</w>
200 2
Th an
vi su
res ts</w>
de tected</w>
to p-
et ers</w>
co ver</w>
coun ts</w>
ol dest</w>
ch ari
19 20</w>
bi e</w>
resp ir
sec onds</w>
pres sure</w>
gr ation</w>
exp ec
il and</w>
Mar yland</w>
dic tion</w>
gener ic</w>
ph ase</w>
op tim
foo d
is land</w>
eg gs</w>
0. 8</w>
cu rement</w>
mea l</w>
projec t</w>
port folio</w>
Ar men
scor ing</w>
subscri ber</w>
don ations</w>
fre el
Me tro</w>
2, 6
cy cle</w>
Singap ore
St re
ber ries</w>
eu ticals</w>
view ership</w>
3, 2
3, 8
tom o
youn gest</w>
11. 7</w>
cho se</w>
az iland</w>
17 ,
tre ated</w>
win ter</w>
travel ed</w>
4, 7
bar ri
Pac kers</w>
Amaz on
sw ear</w>
dri ving</w>
famili ar</w>
hy gi
Bu ffalo</w>
Tr end</w>
30 ,000</w>
tion ers</w>
fl u</w>
prin ting</w>
tit le</w>
uti ves</w>
Millenni al</w>
kid s</w>
origin al</w>
Sam son
process ed</w>
a- Pacific</w>
edi ble</w>
Stati stics</w>
spea kers</w>
subsidi es</w>
domin ated</w>
concen tr
prepar ed</w>
Lt d</w>
histor ical-
best- selling</w>
Cy ber</w>
Sw aziland</w>
Asi a-Pacific</w>
every day</w>
Lit eracy</w>
aug mented</w>
telep hone</w>
Hom icide</w>
senten ced</w>
Inde ed</w>
inm ates</w>
tub ercul
weigh ted</w>
Week ly</w>
enfor cement</w>
scan ners</w>
smartw atch</w>
V- 2</w>
Ya hoo</w>
soldi ers</w>
yl ene</w>
aquac ulture</w>
States -based</w>
Mongo lia</w>
cross- border</w>
dor f</w>
Mosco w</w>
Munic h</w>
Armen ia</w>
historical- cost</w>
tubercul osis</w>
1 70</w>
3 3.
4 6
7 1.
A no
G l
G ame</w>
H el
L es
M A
M ond
M any</w>
P I
R ho
S int</w>
S VoD</w>
S aga</w>
U A
W i-
a ding</w>
a ke</w>
b onds</w>
c id
d ry</w>
e .
g -
h ac
k itchen</w>
n a
p ain</w>
v in
w au
w ins</w>
w aves</w>
y ourself</w>
ti ary</w>
in stance</w>
en ge</w>
ar rests</w>
re pu
it self</w>
ll er</w>
al b
ri ch</w>
per -
ur n</w>
ic ks</w>
do va</w>
ac re</w>
ap s</w>
po sted</w>
si ssi
wor se</w>
fi shing</w>
im posed</w>
co efficient</w>
ing redi
ter tiary</w>
the tic</w>
19 46</w>
In surance</w>
gen ders</w>
surve ys</w>
fo ster</w>
high est-paid</w>
Ch arg
fac ed</w>
Ac ti
op tion</w>
out look</w>
bir th
shi pped</w>
sea sonal</w>
7. 9</w>
ris ks</w>
fe it</w>
0. 4</w>
pp i</w>
cat s</w>
ren ov
can e</w>
expen se</w>
3, 4
3, 5
sk y</w>
11. 5</w>
10. 4</w>
bar rel</w>
star t-
kn ow
Lu cia</w>
Gu ard</w>
5, 5
stre ams</w>
De ath</w>
pi p
vari ed</w>
vari ety</w>
dri ve</w>
Gam bia</w>
fru its</w>
bac ks</w>
sever ity</w>
int ended</w>
cal end
Bu lls</w>
Res ources</w>
them e</w>
occup ational</w>
plac ement</w>
smo ke</w>
merchan dis
Mil wau
fast est-growing</w>
bio tech</w>
faci al</w>
accep ted</w>
IP Os</w>
mas k</w>
vacc ines</w>
reduc ed</w>
small er</w>
polic ies</w>
cons ul
edi tion</w>
Mis sissi
Tw o</w>
laun ch</w>
Electri c</w>
wear ables</w>
exec utives</w>
introduc tion</w>
Cur a
Arm our</w>
tran sit</w>
moder n</w>
bon uses</w>
Bon aire</w>
-year- olds</w>
opi o
Beng als</w>
foreig ners</w>
libr aries</w>
bush els</w>
Bay ern</w>
Disne y
veget arian</w>
programm ing</w>
Jan eiro</w>
Mol dova</w>
dollars .The</w>
Port land</w>
Mb ps</w>
mast urb
clin ical</w>
Indianapo lis</w>
liqui d</w>
SARS-Co V-2</w>
dwell ings</w>
Samson ite</w>
Ano ther</w>
Wi- Fi</w>
Milwau ke
Mississi ppi</w>
- insured</w>
. C.</w>
1 45</w>
7 6.
D eu
D ynamics</w>
G O</w>
G az
H eat</w>
J ets</w>
J PM
K y
K ick
L iga</w>
M at
N CA
P w
P D</w>
S mart</w>
T re
T um
T arg
T ig
b attle</w>
c wt</w>
f ail
f loo
j a
j ump</w>
l a</w>
l or</w>
n ated</w>
r ame</w>
s al</w>
s wit
s ani
s ick</w>
s ession</w>
y an</w>
z in
th eless</w>
20 ,000</w>
ti n</w>
er a</w>
in king</w>
an g</w>
an no
ro un
ar ding</w>
it es</w>
ri ti
om ass</w>
per m
st l
di stan
de es</w>
de vi
de bit</w>
ver theless</w>
ex ternal</w>
wor d</w>
lo ve</w>
coun ter</w>
sur face</w>
ven ues</w>
19 ,
rec ession</w>
me eti
exp on
ne eded</w>
increas ingly</w>
all oc
par ti
gi ant</w>
ma kers</w>
end -
Ne stl
Ch ase</w>
fac ility</w>
and o</w>
and ers</w>
fin ished</w>
tw enti
Sh ell</w>
ric s</w>
ju ris
trans l
sub sequ
maj ors</w>
ban anas</w>
mu tual</w>
18 96</w>
sig ned</w>
la ws</w>
measur ing</w>
fa ther</w>
eth anol</w>
/0 3</w>
Col ts</w>
ecti veness</w>
Ma ine</w>
Whi lst</w>
est e</w>
11. 3</w>
rac ist</w>
mul a</w>
4, 6
head phones</w>
eff ectiveness</w>
rema ins</w>
13. 5</w>
ion ally</w>
some thing</w>
ton ne-
mid term</w>
For mula</w>
conf lic
IC -insured</w>
establi shed</w>
bene fici
vac ancy</w>
corpor ations</w>
telec om</w>
camp ing</w>
phi shing</w>
kin son</w>
practic ed</w>
Ra iders</w>
cigaret te</w>
Tim es</w>
avi d</w>
desig ned</w>
scre en</w>
hu b</w>
gall on</w>
celeb r
celeb rities</w>
inte lligence</w>
advis ory</w>
hap py</w>
FD IC-insured</w>
attitu de</w>
counter feit</w>
awar ded</w>
high- end</w>
classi fied</w>
occas ionally</w>
pod casts</w>
atten tion</w>
administr ation</w>
BR IC</w>
slow ly</w>
notic eable</w>
episo de</w>
Gri ll</w>
Institu te</w>
Ve hi
reb ounds</w>
Gab on</w>
Resid ent</w>
GM V</w>
isol ation</w>
extrem ely</w>
â€™ s</w>
chlor ide</w>
DI Y</w>
dron e</w>
onco logy</w>
cloth es</w>
princip al</w>
Charlot te</w>
Phoeni x</w>
menti oned</w>
2002 /03</w>
visu al</w>
hygi ene</w>
UA E</w>
Charg ers</w>
Disney +</w>
Milwauke e</w>
JPM organ</w>
Kick starter</w>
NCA A</w>
Pw C</w>
distan cing</w>
meeti ngs</w>
twenti eth</w>
- up</w>
1 40</w>
1 23</w>
3 8
3 D</w>
4 8
5 2.
5 6.
7 2.
A rea</w>
C I
C A</w>
C O</w>
D ick</w>
E r
E qui
G M</w>
K ey</w>
K ering</w>
N O
P etroleum</w>
Q 2</w>
S qu
S atis
U SA</w>
W arri
a ero
b al</w>
c ally</w>
e ers</w>
l ess
p t</w>
s an
t un
t ories</w>
u x</w>
w el
y l</w>
y er</w>
th y</w>
th ered</w>
th ma</w>
20 35</w>
er ra</w>
an o</w>
en counter
ar o</w>
on going</w>
or ation</w>
ri ger
sta ke</w>
el ds</w>
di scre
ul ul
ver tical</w>
ver sus</w>
si lic
tr ue</w>
Sta tion</w>
con soles</w>
con sole</w>
por tr
id ing</w>
im migr
ru gby</w>
mar ked</w>
the -
19 64</w>
sec ured</w>
appro pri
ron ics</w>
me eting</w>
il er</w>
il ding</w>
for ced</w>
dis count</w>
par k</w>
compar ing</w>
no t
previ ously</w>
tu tory</w>
op po
To tal
Nor th
rel ess</w>
0. 9</w>
0. 2</w>
cu sto
off ers</w>
Di am
brea k
brea d</w>
ari ans</w>
e- book</w>
comm it
att end</w>
inve sti
import ers</w>
Con nec
Wh ereas</w>
posi t</w>
spec ta
ren tly</w>
fun c
St an
St ories</w>
coll ea
Chi ef
lik elihood</w>
Ban co</w>
amp ions</w>
mat ch
impac ts</w>
ado les
pharmac euticals</w>
10. 3</w>
17 89</w>
consider ing</w>
consider able</w>
fluctu ations</w>
ref riger
eri an</w>
Bar cl
prefer ences</w>
Qu antity</w>
Comp anies</w>
Is lam
2015 /
Bu ilding</w>
requ ired</w>
identi fy</w>
citiz en
nomin ee</w>
sen ior</w>
Fer r
conven tional</w>
land o</w>
total /average</w>
Or lando</w>
Si erra</w>
Uni on-
ampion ships</w>
anim als</w>
Mer ck</w>
Tim e</w>
dr ama</w>
Vo ter</w>
pack aging</w>
Sk oda</w>
Lab or</w>
Cel tics</w>
Tw en
Sou thern</w>
teach er</w>
larg ely</w>
chall enge</w>
bicy cle</w>
Cur rently</w>
festi val</w>
loy d</w>
MR I</w>
speciali zing</w>
Sea hawks</w>
atten dees</w>
Wy nd
sou thern</w>
there fore</w>
wal king</w>
Elect ronics</w>
out-of- pocket</w>
pup ils</w>
Soci ety</w>
Civi l</w>
tech nical</w>
eye wear</w>
lap top</w>
subj ect</w>
diffic ult</w>
Catal onia</w>
character i
CV S</w>
asp ects</w>
neigh bor
strateg y</w>
Bron cos</w>
Vancou ver</w>
alb ums</w>
birth day</w>
calend ar</w>
Gaz prom</w>
Tum bl
Targ et</w>
Satis faction</w>
ulul emon</w>
Total /average</w>
Connec tic
Chief s</w>
Islam ic</w>
Wynd ham</w>
1 75</w>
4 0,
5 3.
5 5.
A D
A v
A I</w>
A str
A CS
B AS
C H
C are</w>
C ine
D C</w>
D or
D ol
E ssi
F oun
F av
G ate</w>
G ran
H ere</w>
L a</w>
M s</w>
N I</w>
P h
R u
S tu
T hi
T elec
U t
W il
Y uk
Z al
a ward</w>
b en
d st
d ure</w>
d ates</w>
e uro
e als</w>
f ying</w>
g un
l enses</w>
l ululemon</w>
m und</w>
n i</w>
p ast
r o</w>
r ab
s ha
t ting</w>
u pli
w is</w>
in ations</w>
ar i</w>
ar u</w>
re al
re view</w>
ta ke
al umin
ill icit</w>
ho ld</w>
ac r
ac t
perc enti
pro curement</w>
as o</w>
em o
em ission</w>
de part
ver s
si m
us sia</w>
ex per
ld er</w>
im aging</w>
ad ines</w>
gh ly</w>
mar ks</w>
ol es</w>
popul ous</w>
19 72</w>
bi ke</w>
bi omass</w>
sp ark
In tel</w>
tim ef
ow ner</w>
lea ving</w>
be ans</w>
whi sky</w>
mon etary</w>
tra ins</w>
tra ining</w>
Ne vertheless</w>
Ac c
over weight</w>
sea t</w>
eg o</w>
trans plan
/1 7</w>
sub stance</w>
Un der
Gre ater</w>
indic ate</w>
gre en</w>
insur ers</w>
Con cession</w>
eli gible</w>
af ford</w>
af fordable</w>
pac k</w>
turn s</w>
don ors</w>
Mal i</w>
dem enti
fa tality</w>
Chi ld</w>
az z</w>
sear ched</w>
Por n
4, 2
lar cen
14. 5</w>
Insta lled</w>
15. 6</w>
6, 0
bur ger</w>
17. 4</w>
bac ked</w>
Fl emi
8, 7
sem ester</w>
alcoho l
nomin ation</w>
nomin ees</w>
Pa ul
Cap e</w>
treat ments</w>
licen se</w>
Ca tholic</w>
cli sts</w>
blo gg
mur dered</w>
remo ved</w>
feat ured</w>
protec t</w>
list ening</w>
Sen ate</w>
open ed</w>
bat ted</w>
well -
competi tion</w>
Del hi</w>
Sain ts</w>
Sub aru</w>
War craft</w>
charg es</w>
CE Os</w>
distri bu
subsidi ary</w>
Roc kets</w>
lun ch</w>
festi vals</w>
belong ed</w>
bloc k
speciali st</w>
correc tional</w>
2016 /17</w>
preci ation</w>
Industri es</w>
Mem orial</w>
recycl ing</w>
ring git</w>
Gren adines</w>
flow ers</w>
des ser
expl oration</w>
oth o</w>
ers dorf</w>
Rap tors</w>
monit oring</w>
necess ary</w>
ks giving</w>
porno graphic</w>
Opin ion</w>
Vinc ent</w>
robber ies</w>
Bei ersdorf</w>
Than ksgiving</w>
respir atory</w>
Les otho</w>
floo ds</w>
zin c</w>
benefici aries</w>
Equi Trend</w>
Warri ors</w>
2015/ 2016</w>
Connectic ut</w>
BAS F</w>
Yuk on</w>
Zal ando</w>
upli fted</w>
depart ments</w>
spark ling</w>
timef rame</w>
Flemi sh</w>
. .</w>
/ 2017</w>
/ 2012</w>
2 7,
6 6.
8 1.
B T</w>
B P</w>
B id
B oo
C o</w>
C ricket</w>
D a
D river</w>
E .</w>
H e
H e</w>
H ol
I II</w>
K on
L G</w>
L and</w>
L IN
M au
M etro
N G</w>
N int
O ak
P al
P lan
R is
S il
S elected</w>
S ask
S ão</w>
T ap
W H
a ins</w>
b rid</w>
d ay
d game</w>
e stry</w>
g one</w>
k it</w>
k no
p ure</w>
r ite</w>
t end
t end</w>
t esting</w>
t mund</w>
v s.</w>
y m
th an
ti cians</w>
in ers</w>
an e</w>
ro les</w>
ta bility</w>
or tho
sta yed</w>
ec tions</w>
ac es</w>
ac ute</w>
di sti
pro min
em ed</w>
em ark</w>
200 9/
Th inking</w>
vi ta
res ol
li min
li ability</w>
si est</w>
si vely</w>
tr aded</w>
mo du
ati cally</w>
ex po
ex posed</w>
fi ll</w>
lo sing</w>
co vering</w>
ing ness</w>
ru pi
gro unds</w>
produc es</w>
produc tivity</w>
ran ging</w>
19 55</w>
19 71</w>
bi kes</w>
xim ate</w>
ne ts</w>
play s</w>
1. 75</w>
end o</w>
dec eased</w>
lu s</w>
tra -
tra ffic
tu ally</w>
bas eball</w>
and -
reac tors</w>
rou te</w>
10 5</w>
shi r
inf ecti
acc ur
Au di</w>
ass ess
ni val</w>
fe der
enti ally</w>
cu t</w>
ju ices</w>
trans gender</w>
198 7</w>
sub sector</w>
ari os</w>
e- books</w>
e- to-
Re d
Re ds</w>
consi sts</w>
mi th
cer eals</w>
Pro te
invest ors</w>
Wh y</w>
don ation</w>
dem oc
ten ance</w>
hom o
Reven ues</w>
cre te</w>
pharmac y</w>
10. 8</w>
rac ial</w>
4, 4
4, 9
Inc reas
Fo ssil</w>
zer o</w>
12. 3</w>
12. 9</w>
son aro</w>
favor ed</w>
aff ect</w>
Ro che</w>
bur ned</w>
compl ete</w>
Hou sing</w>
17. 5</w>
deli veries</w>
IC S</w>
9, 0
relea ses</w>
Car nival</w>
Le wis</w>
nation als</w>
En dgame</w>
self- employed</w>
contrac ep
predic ts</w>
doc tor</w>
main tained</w>
main tenance</w>
hear ing</w>
Am ster
sco rer</w>
Win dows</w>
proce dure</w>
blo gs</w>
refer red</w>
inj ured</w>
Pan thers</w>
campaig ns</w>
pack age</w>
desig nated</w>
competi tors</w>
scen arios</w>
Sto ck
inte grated</w>
langu ages</w>
2011 /2012</w>
Play er</w>
refin ed</w>
Mont ana</w>
Univer sal</w>
S. p.
Househo lds</w>
Bre wers</w>
San tan
49 ers</w>
pir e</w>
chec k</w>
Ste ve</w>
pan el</w>
de- France</w>
denti sts</w>
2016 /2017</w>
Hor nets</w>
Techno logy</w>
EM EA</w>
DA U</w>
Reli ance</w>
ski ing</w>
bankrupt cies</w>
Tea m</w>
dead liest</w>
Bor ussia</w>
Bol sonaro</w>
Ori oles</w>
brac ket</w>
fertili zer</w>
haz ard
millenni als</w>
Rou ghly</w>
anticip ated</w>
food service</w>
Singapore an</w>
barri ers</w>
Rho de</w>
repu tation</w>
sani tiz
juris diction</w>
Vehi cle</w>
NO K</w>
Tumbl r</w>
Dor tmund</w>
LIN E</w>
Metro politan</w>
Nint endo</w>
Tap estry</w>
limin ary</w>
infecti ous</w>
Amster dam</w>
S.p. A.</w>
Santan der</w>
hazard ous</w>
1 25</w>
1 35</w>
1 27</w>
3 3
4 0
4 5
7 ,000</w>
7 4.
9 ,000</w>
A P</w>
A ber
B attle</w>
C T</w>
C I</w>
C all
D ji
E rit
F aso</w>
H I
J azz</w>
L ex
M acy</w>
P V
P E</w>
P eu
P lus</w>
R O
S ho
S ch
S ig
S cho
S mith
W ay
Z en
b out
b ined</w>
c all</w>
c el</w>
c ken</w>
c alls</w>
c lean</w>
d a
d ding</w>
e ties</w>
e volution</w>
g res
k ins</w>
l ay
p anic</w>
s at
s au
u l</w>
th row</w>
in cial</w>
an dic</w>
ro m
ar med</w>
re produc
re veal</w>
ta kes</w>
on shore</w>
or -L
at er
sta di
per ation</w>
ho lds</w>
pro tests</w>
as thma</w>
em porary</w>
un insured</w>
ul u</w>
li sts</w>
de stri
de posit</w>
po lled</w>
tr ad
con s</w>
con solidated</w>
id ly</w>
ex porters</w>
lo se</w>
co bal
se lls</w>
sh el
19 10</w>
19 77</w>
ai m</w>
pe destri
il ing</w>
for -
dis agreed</w>
1. 15</w>
ma ke
Mar vel</w>
chi ps</w>
chi cken</w>
gener ations</w>
tu ce</w>
tu ps</w>
fac ts</w>
cas ual</w>
Ac tive</w>
fin i
fin ding</w>
out come</w>
Nor dst
tur b
selec tion</w>
ass a
wi reless</w>
min ation</w>
av oc
fic ial</w>
inve sting</w>
Con servative</w>
thir d-
ici an</w>
Wh o</w>
resid ence</w>
Wor k
Com bined</w>
Fin al</w>
dem on
go t</w>
cc i</w>
Bas el</w>
prov incial</w>
11. 1</w>
11. 6</w>
10. 5</w>
shar p</w>
boo ked</w>
star tups</w>
sol ute</w>
Gu cci</w>
fluctu ation</w>
5, 2
5, 8
stre et</w>
14. 9</w>
12. 5</w>
aff ecting</w>
multi player</w>
13. 4</w>
char tered</w>
Ha wks</w>
claim ing</w>
Nig erian</w>
21. 9</w>
migr a
cou ple</w>
Icel andic</w>
glob e</w>
registr ation</w>
licen ses</w>
influen cers</w>
fast er</w>
kin a</w>
success fully</w>
dam ages</w>
Tra ffic</w>
ext ended</w>
recre ation</w>
Bur kina</w>
list eners</w>
le- de-France</w>
Tim or-L
mis sing</w>
rap idly</w>
gran d
Republic ans</w>
Bro wns</w>
dra stically</w>
Sto res</w>
Star wood</w>
medi ate</w>
hap pen
post p
Ju ven
Ci ties</w>
let tuce</w>
practi tioners</w>
BM I</w>
temperat ures</w>
preven tion</w>
toil et
leg alization</w>
batter ies</w>
pod cast</w>
Wy oming</w>
Industri al</w>
FY 2020</w>
Techno logies</w>
Coo peration</w>
oran ge</w>
Cho ice</w>
implem ented</w>
install ations</w>
geo t</w>
extrac tion</w>
bedro oms</w>
Commer cial</w>
A/ S</w>
Smart phone</w>
Amazon .com</w>
Mond ay</w>
riti us</w>
Squ are</w>
aero space</w>
encounter ed</w>
custo dy</w>
Barcl ays</w>
ACS I</w>
Ut tar</w>
alumin um</w>
Bid en</w>
Mau ritius</w>
2009/ 2010</w>
Dji bout
Peu geot</w>
Nordst rom</w>
Timor-L este</w>
Djibout i</w>
' The</w>
1 14</w>
1 13</w>
1 36</w>
2 10</w>
3 5
4 7
4 50</w>
5 8
A U
A S</w>
A th
B la
D ell</w>
D od
E mer
F al
F il
H ew
H urric
J ays</w>
M FI
N on-
S up
T V
T EU</w>
T rans
Y oun
c a</w>
e ven
e valu
f are</w>
f lower</w>
f anta
g rid</w>
h ub
h ash
i .
i e</w>
j i</w>
k ies</w>
m y</w>
m et</w>
m bie</w>
p a</w>
p aste</w>
s che</w>
t ext</w>
20 ,
in to
in ven
in ary</w>
in equality</w>
ro asted</w>
201 9
re t</w>
re sted</w>
ll ies</w>
ou ri
hi m</w>
at che
sta ges</w>
pro bab
nit e</w>
em power
vi an</w>
res i
com ments</w>
de plo
po ly
con crete</w>
mo ving</w>
ex plo
fi led</w>
co w</w>
ab s
qu in
oo l</w>
19 74</w>
bu siest</w>
sp ou
sec ure</w>
rec ru
respond ed</w>
sc rap</w>
dis k</w>
1. 65</w>
inter n
mon ary</w>
le gi
le ep</w>
tra in</w>
Ch ampions</w>
ke eping</w>
10 1</w>
10 4</w>
sea food</w>
eg a</w>
ass ed</w>
rel ations</w>
fe ed</w>
fe west</w>
cu is
off er</w>
Per u
att ending</w>
cat ering</w>
te e</w>
ca ta
bro kers</w>
1, 500</w>
Bra ves</w>
sup porting</w>
acti vely</w>
18 70</w>
clo sures</w>
resid ing</w>
mac ro
Po k
Po st</w>
fre e
valu ing</w>
eth ical</w>
Inter nal</w>
respon sibility</w>
Fi ve</w>
stitu tion</w>
men tions</w>
Produc ts</w>
pharmac ies</w>
ste in</w>
10. 9</w>
tre at</w>
4, 8
Phi llies</w>
14. 6</w>
14. 4</w>
12. 2</w>
13. 6</w>
15. 2</w>
cro mbie</w>
some times</w>
full -
dri ver</w>
7, 6
tab ly</w>
year- end</w>
che fs</w>
Colom bian</w>
9, 7
lim it</w>
cou p
27. 5</w>
nomin ations</w>
Ad v
ach es</w>
Sy n
bill s</w>
depend ence</w>
50 1</w>
thre at
partic ul
simil arly</w>
Ra j
feat ure</w>
avi ation</w>
mus ical</w>
non farm</w>
offic es</w>
Lab our</w>
touch down</w>
hol m</w>
inte ll
gas es</w>
advis or</w>
second- largest</w>
let t</w>
disast er</w>
Pi zza</w>
avo id</w>
avo iding</w>
extre me</w>
occas ions</w>
strat egi
nur ses</w>
disp en
Fort une</w>
over- the-
Fit ch</w>
76 ers</w>
mail s</w>
Pack ard</w>
withdra w
wea ther</w>
merchandis ing</w>
appropri ate</w>
specta tors</w>
citizen ship</w>
Sask atche
Red dit</w>
Aber crombie</w>
Erit rea</w>
reproduc tive</w>
Juven tus</w>
Dod gers</w>
MFI s</w>
hash ta
probab ly</w>
empower ment</w>
strategi es</w>
Saskatche wan</w>
- food</w>
1 18</w>
1 26</w>
2 P</w>
2 2.5</w>
4 4
5 6,
7 3.
8 2.
A M</w>
A ld
B ac
B ru
B ill</w>
F esti
F ast
H R
H am
H amp
J ones</w>
L ev
P G
P enetration</w>
P irates</w>
P 2P</w>
Q 3</w>
R ams</w>
S I</w>
S el
T en</w>
T IV</w>
U FC</w>
W G</w>
W all
Y am
a Zen
b s</w>
b un
c can
e S
h eight</w>
h ands</w>
k es
m om
m Health</w>
m itted</w>
p un
p per</w>
p ubs</w>
p etro
s k</w>
w ro
w ic
w rite</w>
è s</w>
20 1</w>
in take</w>
in door</w>
ro l</w>
en sive</w>
ar a</w>
ar m</w>
ar rested</w>
re ly</w>
re turned</w>
re turns</w>
ta ges</w>
it ed-
ll es</w>
ri llion</w>
om erate</w>
st ants</w>
ec a</w>
stati onery</w>
el ed</w>
as sum
as than</w>
em ens</w>
Th ron
ap poin
ap art
wit n
us h</w>
con gl
mo bi
mo ved</w>
mo tivation</w>
to m</w>
et ely</w>
ve gan</w>
comp an
gh t
sur ge
se -
sh -
sh e</w>
ven ue</w>
ch ea
19 40</w>
19 45</w>
In formation</w>
pre liminary</w>
ne ys</w>
dis covered</w>
par liament</w>
nu t</w>
gu a</w>
gu ests</w>
ep s</w>
dec ided</w>
Ne ts</w>
cl er</w>
Germ ans</w>
10 3</w>
acc umul
tur ning</w>
fe ver</w>
bo ating</w>
au to</w>
enti fic</w>
ric k</w>
wi de
oper ational</w>
Ho spi
Un til</w>
Gre en
Re ported</w>
Pro gram</w>
la w
la und
Com mon</w>
Me d
Me ts</w>
ail ing</w>
bud a</w>
fun ction</w>
cy ber
squ ad</w>
bor ders</w>
cont emporary</w>
Mon cler</w>
ado ptions</w>
Hi gh</w>
down ward</w>
phar ma</w>
10. 2</w>
vis a</w>
sex ually</w>
Por sche</w>
Foo t</w>
bar ley</w>
annu m</w>
imm ing</w>
5, 3
5, 9
14. 3</w>
12. 4</w>
arri val</w>
Bar buda</w>
13. 9</w>
Em pire</w>
up on</w>
Ran ked</w>
compl etely</w>
lat ter</w>
16. 5</w>
18. 9</w>
18. 4</w>
stream ed</w>
hy brid</w>
Bu ccan
year- over-year</w>
che wing</w>
assi sted</w>
IC U</w>
9, 4
EU 28</w>
lim ited-
ts /
reser ve</w>
Le one</w>
agre eing</w>
26. 7</w>
smo ked</w>
self- reported</w>
Mad den</w>
fl at</w>
to- peer</w>
er- to-peer</w>
exce eding</w>
Ca es
Sec ret</w>
contr ary</w>
bio technology</w>
fri end</w>
Ra dio</w>
loo ked</w>
casu alty</w>
appe ars</w>
inten tions</w>
Bro ok
CE O</w>
will ingness</w>
Play ers</w>
Play Station</w>
Ju st</w>
exec u
stu dio</w>
prepar ations</w>
fr ame</w>
instrum ent</w>
promo tion</w>
appear ed</w>
pir acy</w>
histor ical</w>
effici ency</w>
tat too</w>
moder ate</w>
hydro power</w>
twee ted</w>
nur sing</w>
quali fied</w>
exi sting</w>
Cri me</w>
sci ence</w>
consequ ences</w>
attem pted</w>
Anti gua</w>
pum p
develo p</w>
dish wash
fam ous</w>
seven th</w>
volun te
denomin ations</w>
trave lling</w>
Coll ege</w>
ware house</w>
soy bean</w>
highli ghts</w>
quad rillion</w>
Enterpri se</w>
Son ic</w>
expec tations</w>
optim i
Acti vision</w>
pip eline</w>
masturb ated</w>
Tre at
expon ential</w>
Nestl é</w>
subsequ ent</w>
tonne- kilometers</w>
oppo se</w>
Astr aZen
Fav or
dementi a</w>
Porn hub</w>
Paul o</w>
accur ate</w>
Stock holm</w>
Way fair</w>
stadi ums</w>
demon str
Raj asthan</w>
Festi val</w>
Hamp shire</w>
pun ctu
Thron es</w>
congl omerate</w>
laund ry</w>
Buccan eers</w>
limited- service</w>
AstraZen eca</w>
/ 2014</w>
1 28</w>
1 41</w>
2 20</w>
2 70</w>
3 20</w>
6 ,000</w>
A ID
A gency</w>
A dul
B lu
B ills</w>
C amp
D ub
D eg
E D</w>
E V/
F our</w>
G D</w>
K ia</w>
L A</w>
L ength</w>
M S</w>
O pe
R over</w>
R ail
S n
S tri
S RI</w>
T om
T our</w>
V anu
V all
W a
W ould</w>
Z -
Z u
b ent</w>
b ly</w>
b ra
b ered</w>
b ath
c lear
d ong</w>
f at</w>
f an</w>
g ol
h ero
i ties</w>
m oun
n y</w>
n ear</w>
n avi
n ouri
r u</w>
s ic
s les</w>
s essions</w>
t ence</w>
t on-
u plo
y /
ç ao</w>
ti zation</w>
in com
in ated</w>
in sul
ro y
en ab
on ary</w>
ou l</w>
at u</w>
al k
ri t</w>
sta ying</w>
ill es</w>
ill eg
st ling</w>
um bent</w>
ac tor</w>
el ings</w>
el ux</w>
pro te
em igrants</w>
am us
sho pped</w>
un married</w>
com pro
com for
li zz
tr e</w>
us s</w>
us er-
con current</w>
mo des</w>
mo bility</w>
to pic</w>
ex cise</w>
im pro
we stern</w>
co vers</w>
se ed</w>
pri mar
ch i</w>
ch urch</w>
19 9</w>
00 s</w>
sp ends</w>
cor d</w>
inc are</w>
tri als</w>
In come</w>
ond -
pres er
me gawatt</w>
pre domin
1. 27</w>
1. 53</w>
inter ests</w>
ser ving</w>
gi o</w>
ff any</w>
Mar iners</w>
no te</w>
fir st-
eb r
ph en
ear n</w>
rou s</w>
ke ting</w>
grap e
10 2</w>
eg g</w>
ass ault</w>
br ing</w>
mea sles</w>
e- mails</w>
Un it</w>
franchi ses</w>
mi d</w>
ob j
An ton
sig ns</w>
scho ol
100 0</w>
Li qu
vide o-
Po ta
Bo y</w>
den ds</w>
Com pound</w>
Par t
sal mon</w>
non- financial</w>
har monized</w>
direc ted</w>
visi ble</w>
ten th</w>
Cor p</w>
medic ations</w>
cul tivation</w>
mat er
cre ators</w>
sk incare</w>
11. 9</w>
stic al</w>
pu ts</w>
ly n</w>
10. 7</w>
sa illes</w>
4, 3
mari time</w>
pi g</w>
12. 6</w>
As s
15. 8</w>
Urb an</w>
ori e</w>
downlo ading</w>
17. 6</w>
16. 7</w>
16. 2</w>
famili arity</w>
7, 9
insta llment</w>
reli able</w>
Argentin e</w>
Ser ies</w>
Hung arian</w>
assi stance</w>
19. 2</w>
Fl am
21. 8</w>
21. 6</w>
23. 6</w>
Coun ty</w>
Su per
Medic al</w>
Se y
Se oul</w>
glob alization</w>
tion ing</w>
nation ally</w>
sen tence</w>
mag ne
contrac eption</w>
col or</w>
spe eding</w>
appli ance</w>
sponsor ships</w>
thre e-
Ti ffany</w>
licen sing</w>
Si emens</w>
Sec urity</w>
Sec ond-
fif teen</w>
shor tage</w>
micro finance</w>
shoo ting</w>
Du ke</w>
protec tive</w>
athle tic</w>
athle tics</w>
IP O</w>
hold er</w>
ot t</w>
repres entatives</w>
scre ening</w>
pin eap
divor ced</w>
see king</w>
pow der</w>
Ver mont</w>
Ver sailles</w>
Ber lin</w>
reti red</w>
fair trade</w>
attrac tions</w>
adv anced</w>
AT Ms</w>
Nu trition</w>
priv ately</w>
toil ets</w>
Ben elux</w>
gy m</w>
disc lo
hydro chloride</w>
Sol utions</w>
Willi ams</w>
Cre dit</w>
dom ain</w>
recycl ed</w>
utili zation</w>
Ag ricul
stop ped</w>
log ical</w>
Regi stered</w>
E- commerce</w>
trail ers</w>
develo per</w>
Loc ker</w>
Marri ott</w>
Eag les</w>
Grou pon</w>
artic les</w>
Pic ture</w>
certi fied</w>
freel ance</w>
hac king</w>
vin yl</w>
know le
Cura çao</w>
Deu ts
Tig ers</w>
anno ying</w>
alloc ated</w>
silic on</w>
neighbor ing</w>
Telec ommunic
percenti le</w>
exper ts</w>
WH O</w>
promin ent</w>
Call away</w>
Lex us</w>
sat ell
cobal t</w>
migra ine</w>
Fal cons</w>
abs ence</w>
particul ate</w>
Ald i</w>
Lev i</w>
witn essed</w>
Brook lyn</w>
Ope l</w>
Vanu atu</w>
illeg ally</w>
amus ement</w>
lizz ard</w>
- home</w>
- Z-
1 15</w>
1 29</w>
1 65</w>
1 44</w>
1 46</w>
1 49</w>
2 3
2 49</w>
3 70</w>
4 4.
7 9.
7 0,
8 3.
C -
C r
C er
C li
C off
D V
E nd</w>
F em
F res
F loyd</w>
G en
G la
G NI</w>
H P</w>
H um
I ron</w>
I WG</w>
J imm
J io</w>
K ar
L id
L CD</w>
M el
M et
N G
N o</w>
N C</w>
O D</w>
P M</w>
P ounds</w>
R W
R ates</w>
S pe
T rail</w>
U B
W u
a x
d erm
f rac
h at
h an</w>
h un
h us
j et</w>
k y</w>
l er
l et</w>
l aid</w>
l am</w>
l ement</w>
m ir</w>
m igrant</w>
n out</w>
o a</w>
r gy
s a</w>
s ound</w>
s els</w>
s burg</w>
t ter
u r</w>
v an</w>
v ul
x es</w>
y ers</w>
z on</w>
an t
ar ten</w>
re ments</w>
ta k
at e
at tr
at ric</w>
at ologists</w>
al o
sta tutory</w>
st ances</w>
di scri
ag ue</w>
em be
em bar
am ed</w>
am ph
sho ld</w>
ap p
ap e</w>
de stro
de preciation</w>
ver icks</w>
us h
mo ve</w>
to ast
ha r</w>
ex it</w>
co -
ab ilities</w>
gro up
gro oming</w>
sur passing</w>
oo ks</w>
ch amp
19 48</w>
val i
bi ll</w>
sp aces</w>
inc ident</w>
inc umbent</w>
In sight</w>
resp ect</w>
str aw
su per</w>
pe er-to-peer</w>
gr av
respond ent</w>
dis approve</w>
1. 25</w>
1. 35</w>
1. 45</w>
1. 57</w>
par tly</w>
gi ve</w>
nu m</w>
employ ing</w>
Mar l
no tably</w>
foo t
ni an</w>
fe elings</w>
der gar
Mo st-
0. 1</w>
cu ts</w>
off er
trans fers</w>
Di ego</w>
br o</w>
wi sh</w>
198 1</w>
Oc cu
Sp ani
Sp urs</w>
brea ks</w>
fer ence</w>
sub -
Gre ek</w>
Af fordable</w>
Swe des</w>
on- demand</w>
Con si
Con struction</w>
ca f
ali st</w>
Perc eption</w>
18 1</w>
clo sing</w>
Li k
Li ech
can ce
don ated</w>
pay er</w>
man n</w>
non- profit</w>
Lati no</w>
ten stein</w>
bor ro
Ma arten</w>
Ma vericks</w>
of i</w>
Rom a</w>
Rom an</w>
sing ly</w>
regar d</w>
ev a</w>
rac y</w>
4, 0
tain ing</w>
fluctu ating</w>
Cen sus</w>
14. 8</w>
14. 2</w>
12. 7</w>
manag er</w>
As si
neg atively</w>
13. 2</w>
15. 1</w>
new ly
Ro y
ori zed</w>
17. 7</w>
17. 8</w>
18. 8</w>
cal orie</w>
9, 9
cou pon</w>
La -Z-
aggreg ated</w>
agre ement</w>
En i</w>
conven tion</w>
in- app</w>
dou b
spe eds</w>
thi est</w>
kin dergar
surg eries</w>
s- S
descri be</w>
Tra vel
Pr o</w>
offici als</w>
Mc K
allo ws</w>
Tim ber
suppli ed</w>
sam ples</w>
desig n</w>
Sk y</w>
inten tion</w>
reduc ing</w>
12 -
CE E</w>
broadca sters</w>
2013 /2014</w>
refin ing</w>
Tw ins</w>
theat er</w>
attrac ted</w>
restric ting</w>
pota to</w>
stu dies</w>
attribu tes</w>
survi ve</w>
survi val</w>
sul fu
Willi am</w>
Sun day</w>
Ta x</w>
there of</w>
flo or</w>
sle ep</w>
sle eping</w>
lot ter
enjo y</w>
enjo yed</w>
oran ges</w>
poss essions</w>
Reli gious</w>
mix ed</w>
perpetr ators</w>
Rob ert</w>
spons or</w>
brow s
Brus sels</w>
tiv ated</w>
parliam entary</w>
Stre et</w>
cid er</w>
Ky rgy
portr ays</w>
break fast</w>
Stan ley</w>
refriger ator</w>
past a</w>
Hol ding</w>
expo sure</w>
traffic king</w>
assa ults</w>
Bla zers</w>
i. e</w>
coup ons</w>
dispen sed</w>
wide spread</w>
AID S</w>
bath room</w>
navi gation</w>
incom e/
predomin antly</w>
Anton io</w>
Coff ee</w>
Jimm y</w>
vul ner
amph eta
Liech tenstein</w>
La-Z- Boy</w>
- H
1 34</w>
1 22</w>
1 39</w>
1 63</w>
1 66</w>
2 100</w>
2 14</w>
5 0s</w>
5 8,
6 2.
A NG</w>
B L
B lizzard</w>
C B
C S</w>
C as
C ar</w>
C op
C oc
D K
D I</w>
D ep
E O
F ami
F ashion</w>
G P</w>
H as
H arri
H ulu</w>
I s</w>
I A</w>
I ts</w>
L T
L az
L ee</w>
M M
M ean</w>
N ap
O sc
P etro
R ays</w>
S C</w>
S tra
S OS</w>
S leep</w>
V la
V aux
a to</w>
b an</w>
b ali
b ury</w>
d we
d end</w>
d less</w>
e o</w>
e z</w>
f ab
f ine</w>
h all</w>
i ed</w>
i de
k ing
k new</w>
l ac
l ing
p al
p airs</w>
s ace</w>
u tility</w>
v ar
w ines</w>
x o
y es</w>
ti le</w>
or ed</w>
it rose</w>
ll y</w>
ur ban
st res
ho st</w>
do ors</w>
di e</w>
pro state</w>
ag e-
Th under</w>
un intentional</w>
res ear
com ic</w>
po x</w>
si e</w>
si tion</w>
id u</w>
ex tra</w>
et c</w>
fi a</w>
im age</w>
im porter</w>
ve -year</w>
ve ss
co ws</w>
es pres
ad vised</w>
ing /
ab s</w>
ru g</w>
gh t-
mar ine</w>
ran ges</w>
ter min
pul monary</w>
sh ers</w>
pri orities</w>
ch ance</w>
19 18</w>
19 65</w>
19 68</w>
ay ed</w>
bi es</w>
bi sexual</w>
ai ze</w>
sp inal</w>
In fin
su n</w>
su ggest</w>
pe dia</w>
,00 1</w>
fo cus</w>
pre f
vic tories</w>
dis play</w>
peri ph
1. 76</w>
1. 62</w>
par ity</w>
nu tri
CO PD</w>
COVID -
pic al</w>
chi ck
Euro pa</w>
gu m</w>
tu ries</w>
and ed</w>
form al</w>
cl aim</w>
met rics</w>
10 9</w>
inf ants</w>
sit ting</w>
bo arding</w>
enti ment</w>
cu tting</w>
off -
divi dend</w>
cur ed</w>
wat erm
min ed</w>
e- related</w>
Re v
Re pres
consi sted</w>
fic tion</w>
mi ght</w>
ob tain</w>
Con tin
cri tical</w>
Ar c
Ar med</w>
Perc eptions</w>
acti ve-
18 6</w>
18 60</w>
Afric an-American</w>
particip ate</w>
Po li
Bo eing</w>
ami d</w>
Com munic
sal ari
cy clists</w>
cen turies</w>
Col a</w>
St and
Ma c</w>
profi les</w>
Chi lean</w>
differ enti
sing er</w>
pharmac ists</w>
ner Media</w>
gradu al</w>
rac e/
sex u
perform ances</w>
kn ess</w>
jo int</w>
pi ece</w>
12. 1</w>
son ville</w>
anti depres
15. 7</w>
15. 5</w>
15. 9</w>
Ro ss</w>
compl e
dri ves</w>
17. 2</w>
16. 3</w>
16. 9</w>
7, 7
18. 7</w>
18. 5</w>
tab le
ed ly</w>
ed ge</w>
For ces</w>
Ric hem
cal culation</w>
Forec asts</w>
19. 5</w>
Su zu
cir cum
cir rho
Ba idu</w>
La ur
reser vations</w>
comb at</w>
comb ination</w>
At titu
SM S</w>
nomin ated</w>
Net work</w>
ach al</w>
municip ality</w>
continu ous</w>
land fill</w>
50 ,
25. 4</w>
din ner</w>
30. 5</w>
fif ty</w>
fri end
back -to-
arti ficial</w>
shoo ter</w>
PA C</w>
ech ers</w>
mus eum</w>
analy zed</w>
tem porary</w>
Hot el</w>
deal ing</w>
sam ple</w>
Sk echers</w>
associ ations</w>
Bro ad
competi tions</w>
affili ated</w>
Har ry</w>
celeb rate</w>
Her bali
War nerMedia</w>
publish er</w>
rus h</w>
medi um-
second- hand</w>
Mont real</w>
laun ches</w>
subsidi aries</w>
diver sity</w>
Bos ch</w>
San ofi</w>
fr ag
veter inary</w>
Ste elers</w>
pan cies</w>
disc us
Sun s</w>
denti st</w>
administr ative</w>
Mini ster</w>
Cl ubs</w>
Nation als</w>
Glob ally</w>
sci ences</w>
Fort nite</w>
add ress</w>
episo des</w>
over- speeding</w>
Gren ada</w>
susp ected</w>
Herm ès</w>
The at
constitu ted</w>
V/ AIDS</w>
share holders</w>
psy chi
cab b
she ep</w>
IB M</w>
augh ter</w>
Sci entific</w>
Jack sonville</w>
substanti ally</w>
Bloom in</w>
schem e</w>
Prefer red</w>
dram atically</w>
sport swear</w>
hob bies</w>
opio id</w>
discre pancies</w>
collea gue</w>
characteri stics</w>
euro zone</w>
vers ely</w>
transplan tation</w>
alcohol -related</w>
block chain</w>
Ris k</w>
than ks</w>
Increas e</w>
HI V/AIDS</w>
Scho ol</w>
Ath le
Hew lett</w>
Youn g</w>
macro -
Sel f-
surge ons</w>
accumul ated</w>
dishwash er</w>
punctu al</w>
Deg ree</w>
Stri ke</w>
Wa itrose</w>
grape fruit</w>
Second- ranked</w>
Agricul tural</w>
Telecommunic ations</w>
Cli ppers</w>
Gla xo
Lid l</w>
destro yed</w>
straw berries</w>
offer ings</w>
DK K</w>
Stra uss</w>
Vaux hall</w>
dwe lling</w>
pal m</w>
vess els</w>
espres so</w>
periph er
Contin ental</w>
active- duty</w>
antidepres s
Richem ont</w>
Suzu ki</w>
cirrho sis</w>
Herbali fe</w>
medium- sized</w>
1 12</w>
1 60</w>
1 16</w>
1 64</w>
1 53</w>
1 27.
2 78</w>
2 9,
2 8,
3 64</w>
3 80</w>
3 1.5</w>
5 6
6 5
7 5.
8 5.
A stro
B E
B ond</w>
D ea
D anes</w>
D avid</w>
E v
E re
E mi
F argo</w>
G er
H D</w>
K line</w>
K itchen</w>
M ul
M BA</w>
N ash
O range</w>
P S</w>
P ass
P UB
Q 4</w>
R el
S GD</w>
T am
T ong
U se</w>
Y o
b on</w>
b ing
c au
d ang
d raising</w>
e ed</w>
f th
f al
f ear</w>
f illed</w>
g ri
g ents</w>
h et
i z
k er
k ill
k le</w>
l em
l ero
o il
p ill
p ra
p ts/
r ys
s se</w>
s che
t ary</w>
é mon</w>
20 th</w>
ti s</w>
er ous</w>
in land</w>
in puts</w>
ro und
en try</w>
en plan
ar son</w>
re w</w>
re port
re alized</w>
re placement</w>
on ance</w>
on ions</w>
or dering</w>
ll ow</w>
al /
ri s</w>
ri vers</w>
sti ngs</w>
sta g
ho st
do ping</w>
ac ts</w>
pro por
pro posed</w>
pro fici
ag ri
ag grav
pl u
pl as
nit ro
em itted</w>
em ail</w>
am s-S
200 7
Th rough</w>
un ions</w>
com posed</w>
ul i
li mi
de sc
po ker</w>
tr ying</w>
con tain</w>
con struc
con tained</w>
con tested</w>
mo v
por arily</w>
to ps</w>
ati ni</w>
id ity</w>
ha ul</w>
fi gh
fi ghting</w>
we dding</w>
co very</w>
es a</w>
ad her
qu eries</w>
comp ris
pul p</w>
se iz
sh ment</w>
sh ine</w>
ch ers</w>
19 4</w>
19 2</w>
ye ong
tri ple</w>
In c</w>
appro ximate</w>
pe are</w>
pe anu
fo resta
lea se</w>
be l</w>
vic e</w>
1. 12</w>
1. 14</w>
1. 17</w>
1. 49</w>
1. 42</w>
1. 98</w>
dec ide</w>
tic ally</w>
ph y
op s</w>
4. 85</w>
To day</w>
To go</w>
chan ging</w>
is ed</w>
is lands</w>
estim ation</w>
10 8</w>
10 3.
onom a</w>
ans a</w>
sea sons</w>
ass essed</w>
off enders</w>
ju sti
divi dends</w>
divi sie</w>
Di vision</w>
equ aled</w>
br as</w>
mea su
min s</w>
min or</w>
mi x</w>
ban ds</w>
bus es</w>
Con feder
ca using</w>
govern mental</w>
18 2</w>
18 75</w>
recei pts/
part nership</w>
war es</w>
subscri be</w>
rin t</w>
Com m
Fin Tec
non- food</w>
har ash
har dest</w>
fun draising</w>
cen tim
Fi li
ten tion</w>
speci fied</w>
kilo tons</w>
suppl ement</w>
Ma harash
Pri ze</w>
ber y</w>
Chi ld
Vi kings</w>
soci o-
phys ically</w>
phys ician</w>
pu b</w>
regar dless</w>
rit eria</w>
10. 1</w>
shar ply</w>
num bered</w>
17 1</w>
rac ism</w>
Lu fth
5, 4
14. 7</w>
favor ability</w>
occu r</w>
13. 8</w>
vari eties</w>
Ang lo
bur nout</w>
ion aire</w>
17. 1</w>
Scot ch</w>
18. 6</w>
cour t</w>
sever ely</w>
terro rists</w>
lab or
teen th</w>
For bes</w>
Bu ll
IC C</w>
Res er
EU R
dep ending</w>
Fl anders</w>
requ ested</w>
23. 2</w>
Car ter</w>
ath on</w>
La ke</w>
Medic ine</w>
Se ver
bene fit</w>
26. 3</w>
26. 5</w>
stoc k
Cro cs</w>
whe elers</w>
communic ate</w>
contrac ting</w>
Br as
Br ad
22. 8</w>
far m
doc tor
thre ats</w>
thre shold</w>
syst em
29. 3</w>
influen cing</w>
Ca vali
36. 6</w>
Be ing</w>
ba g</w>
weal thiest</w>
Ra vens</w>
amm uni
auth or</w>
y- owned</w>
Lin de</w>
carb on
mus h
mus icians</w>
analy tics</w>
suff ici
clos est</w>
Bi ble</w>
Bi har</w>
Sam oa</w>
War ner</w>
initi ally</w>
achie ve</w>
Mac ao</w>
Ver sace</w>
We lls</w>
second- most</w>
expres s</w>
Oper ation</w>
Ten cent</w>
jour neys</w>
spo ken</w>
No bel</w>
fr am
depres sive</w>
pregn an
Lau der</w>
pli ed</w>
toil et</w>
sn ow
sn acks</w>
correc tly</w>
Exp ected</w>
Pap a</w>
Sol ar</w>
Willi ams-S
conc us
weap on</w>
deter gents</w>
power ful</w>
-year- old</w>
Mag ic</w>
Glob e</w>
surpri singly</w>
Ty pes</w>
Ear th</w>
Ear nings</w>
advertis ements</w>
CP G</w>
Sha kes
Sm ith</w>
psy cho
single- person</w>
Hen kel</w>
wild fires</w>
recogni zed</w>
cand y</w>
regul ated</w>
aux ite</w>
docum ented</w>
lithi um</w>
syn thetic</w>
Jagu ar</w>
chari table</w>
tomo graphy</w>
ingredi ents</w>
start- up</w>
roun ded</w>
end- use</w>
conflic t</w>
Cine world</w>
ben ch
gun s</w>
Oak land</w>
modu le</w>
PV H</w>
Smith Kline</w>
lay offs</w>
for- profit</w>
make up</w>
toilet ries</w>
fanta sy</w>
Pok émon</w>
withdraw als</w>
wic h</w>
optimi stic</w>
Camp ania</w>
Vall ey</w>
hero in</w>
enab led</w>
primar ies</w>
Deuts che</w>
Lik elihood</w>
cance lled</w>
Kyrgy z</w>
income/ loss</w>
Fami ly</w>
Laz io</w>
waterm elons</w>
Repres entatives</w>
differenti ated</w>
race/ ethnicity</w>
Glaxo SmithKline</w>
Astro s</w>
Ere divisie</w>
Nash ville</w>
PUB G</w>
Tong a</w>
fal se</w>
het ero
sche du
aggrav ated</w>
adher ents</w>
compris ed</w>
foresta tion</w>
receipts/ ticket</w>
FinTec h</w>
Maharash tra</w>
Lufth ansa</w>
Cavali ers</w>
Williams-S onoma</w>
Shakes peare</w>
' Avengers</w>
1 19</w>
1 21</w>
1 37</w>
1 20.
2 38</w>
2 3rd</w>
3 35</w>
5 4
6 5.
7 9
7 8.
8 8
9 4.
9 6.
A N</w>
A sh
A SE
B N
B ig
B ook</w>
B rit
C R
C it
C ook</w>
C rush</w>
D un
D es
D wi
E C
E duc
E qu
E sw
E ind
F a
F an</w>
F DA</w>
G all
H PE</w>
I TV</w>
J um
J et</w>
J air</w>
K ate</w>
K ak
K PM
L ic
M A</w>
M um
M oun
M anufac
N ad
N ebr
P res
P eter
R et
R PI</w>
R onal
S port</w>
S tea
S cand
S till</w>
T U
T ho
T op
T ech
V is
b i</w>
b Vi
c riteria</w>
d an
d ome
e ous</w>
e dy</w>
f ill
g /
h ound</w>
j ect
k ia</w>
l asses</w>
l acks</w>
m p</w>
m ans
m aize</w>
n ar
o it
o therap
p ful</w>
p rene
s ements</w>
t les</w>
t less</w>
w ool</w>
y ou
â €</w>
th ri
ti vely</w>
er o</w>
in direct</w>
in dependence</w>
ro ck</w>
ro unds</w>
en sing</w>
en tre
en cour
ar at</w>
ar ch
ar cer
or -
or tization</w>
ou ts</w>
al ine</w>
ea sy</w>
ea stern</w>
ri e</w>
om pu
st e</w>
st ems</w>
st ero
ho ven</w>
ec tual</w>
ic ations</w>
um ped</w>
ac o</w>
ac eta
ac tually</w>
perc ompu
di gi
pl ed</w>
as sociation</w>
am ortization</w>
200 ,000</w>
Unit ed
Th ree</w>
Th ai</w>
un acceptable</w>
res onance</w>
de ser
de tec
ver pool</w>
si onal</w>
si otherap
us ion</w>
con g
con ver
mo lasses</w>
por tals</w>
to oth
ati num</w>
ha y</w>
wor thy</w>
et rists</w>
lo d
co ins</w>
co aches</w>
es son</w>
ab ytes</w>
ven ti
ven ding</w>
wh ey</w>
inc arcer
In dividu
su percompu
pe ll
pe tab
tim ate</w>
lea sing</w>
me et</w>
be et</w>
be gin</w>
exp ans
exp ecting</w>
sc lero
ne uro
quar rying</w>
all er
1. 24</w>
1. 64</w>
1. 41</w>
1. 74</w>
1. 85</w>
1. 95</w>
1. 87</w>
1. 83</w>
1. 84</w>
Can dy</w>
inter nationally</w>
end or
2. 22</w>
no -
no vel
ep h
ra fts</w>
tra di
tra ject
gener ates</w>
Ch e
ty 20</w>
ph y</w>
op hi
op tical</w>
op tom
foo tage</w>
To t
To m</w>
househo lder</w>
out sour
out breaks</w>
10 6.
inf all</w>
acc essi
tur ed</w>
reach es</w>
fe llow</w>
bo at</w>
bo rough</w>
bo thered</w>
au re
wi se</w>
min orities</w>
Sp ade</w>
Re sta
fic ations</w>
enter ing</w>
cer em
ob sta
Al ex
thir ty</w>
ici ous</w>
Perc ent</w>
Co al</w>
deb ate</w>
18 7</w>
18 4</w>
18 50</w>
Pol es</w>
pac ed</w>
100 .
Li ve</w>
Li verpool</w>
hea vi
la b</w>
Com mit
ail s</w>
Par t</w>
who m</w>
man i</w>
ge sted</w>
2, 500</w>
hel pful</w>
Inter n
speci alists</w>
Cor por
coll ection</w>
sel fi
cre d
cre ative</w>
cre ator</w>
sk a</w>
cho ices</w>
Ex it</w>
appl es</w>
17 7</w>
17 2</w>
Tur k
eri tage</w>
read iness</w>
13. 1</w>
6, 8
aim ed</w>
Ang els</w>
sw imming</w>
Ran kings</w>
So chi</w>
16. 1</w>
reco ver</w>
audi o</w>
int end</w>
under nouri
Bu zz
che lles</w>
Res ults</w>
19. 7</w>
19. 8</w>
diagno ses</w>
Fl u</w>
23. 7</w>
23. 5</w>
23. 4</w>
Coun try</w>
condi ments</w>
Gener ally</w>
identi fication</w>
identi fying</w>
27. 1</w>
citiz en</w>
Cro w
appar ent</w>
Ken yan</w>
Mad ness</w>
Fe ed</w>
24. 8</w>
24. 6</w>
30. 6</w>
Chan ges</w>
22. 3</w>
22. 2</w>
situ ations</w>
Ab bVi
establish ment</w>
29. 5</w>
16 th</w>
exce ll
pen alty</w>
dam aged</w>
34. 5</w>
exc ess</w>
questi ons</w>
remo val</w>
fix tures</w>
market places</w>
arti st</w>
PA R</w>
PA Cs</w>
environ ments</w>
IP TV</w>
IP SOS</w>
bot tom</w>
calcul ate</w>
tem porarily</w>
suff er</w>
Vo ting</w>
scre ens</w>
pot entially</w>
vacc ination</w>
PM 2.5</w>
contro lled</w>
Cel tic</w>
Del oit
Wi z
12 th</w>
contribu te</w>
OT A</w>
bri bery</w>
diver se</w>
ah a</w>
Pen gu
Pen ney</w>
avo ided</w>
Lo ad</w>
public ation</w>
MR O</w>
most- followed</w>
classi fi
classi fication</w>
answ ers</w>
bon us</w>
liqu or</w>
quali fication</w>
pat ent</w>
pat ents</w>
seri ously</w>
hor se</w>
rul es</w>
poss ession</w>
telep h
Mus li
susp ended</w>
Na ver</w>
pum ps</w>
impres sions</w>
impres sive</w>
foc uses</w>
bankrupt cy</w>
AM C</w>
perf umes</w>
Hea throw</w>
recomm end
Ko be</w>
Mast er</w>
um- ion</w>
spons ors</w>
Dow DuPont</w>
Jack son</w>
inno v
deta ils</w>
Sim il
lithi um-ion</w>
ation- based</w>
Alli ance</w>
Sab a</w>
concentr ated</w>
e. g</w>
consul ting</w>
fail ed</w>
perm its</w>
celebr ity</w>
immigr ated</w>
not ebook</w>
investi g
match -day</w>
Twen ty20</w>
CH F</w>
real ms</w>
Under ground</w>
blogg ing</w>
ortho pe
da ta
shel ter</w>
Fil m</w>
hub .com</w>
cuis ine</w>
Bac helor</w>
Yam aha</w>
wro ng</w>
apart ment</w>
Caes ars</w>
Treat y</w>
clear ance</w>
gol fers</w>
comfor table</w>
Liqu ide</w>
Sey chelles</w>
magne tic</w>
satell ite</w>
Fem ale</w>
Wu han</w>
derm atologists</w>
Occu p
Consi dering</w>
McK esson</w>
12- month</w>
sulfu r</w>
ampheta mine</w>
CB D</w>
Dep end
Has bro</w>
var ying</w>
Rev PAR</w>
Poli tical</w>
Stand ard</w>
back-to- school</w>
frag ran
psychi atric</w>
antidepress ants</w>
Tam il</w>
dang erous</w>
report edly</w>
seiz ures</w>
phy siotherap
centim eters</w>
Fili pin
Bull hound</w>
Reser ve</w>
ammuni tion</w>
ASE AN</w>
Dwi ght</w>
Esw atini</w>
Eind hoven</w>
KPM G</w>
Lic ensing</w>
Nebr aska</w>
mans l
entre prene
United Health</w>
tooth paste</w>
supercompu ters</w>
petab ytes</w>
sclero sis</w>
traject ory</w>
optom etrists</w>
AbbVi e</w>
Deloit te</w>
physiotherap ists</w>
. For</w>
1 24</w>
1 32</w>
1 42</w>
1 62</w>
1 43</w>
1 61</w>
1 57</w>
1 68</w>
2 40</w>
2 46</w>
2 85</w>
3 4
3 90</w>
4 20</w>
4 60</w>
4 8,
5 1.5</w>
8 9.
A SM
A didas</w>
B ent
C ab
C lar
C iti
D C
D S</w>
D ic
E co
F ar
F ron
F air
F ed
I D</w>
I le-de-France</w>
J ac
J ewel
J .C.</w>
L '
L en
M ass</w>
N E
N T</w>
N A</w>
N am
P ep
P la
P PI</w>
P residential</w>
P Cs</w>
P yeong
R y
R oo
R ental</w>
R BS</w>
S I
S ex
S ici
S of
T T
T 1</w>
T O</w>
T ru
T eva</w>
V u
V OD</w>
Y el
a k</w>
a S</w>
a wards</w>
b om
b den
c als</w>
d '
d ation</w>
e at
g el</w>
g gets</w>
h ra</w>
h eritage</w>
i m</w>
j ets</w>
k shire</w>
l ub
m all</w>
m elons</w>
n es</w>
r he
s ong
s now</w>
s bury</w>
t um
v in</w>
v ill
v aries</w>
w ol
20 5</w>
20 55</w>
ti les</w>
er as</w>
er ation</w>
in o</w>
in ability</w>
an ning</w>
ro r</w>
ro bo
ro man
ro sse</w>
en ter</w>
re ci
re vised</w>
it ton</w>
hi p</w>
hi re</w>
at eg
al ert</w>
ri gs</w>
ri vals</w>
om a</w>
ho sting</w>
ec raft</w>
um ph</w>
el e</w>
di mir</w>
pro -
pro gres
pl um
pl ine</w>
pl ates</w>
pl ex</w>
as signed</w>
am ing</w>
sho pper</w>
Th er
vi et</w>
un changed</w>
un favorable</w>
res in</w>
com ics</w>
ul tra</w>
de par
de od
de emed</w>
de forestation</w>
po sit
tr am
con vic
por n</w>
to or</w>
ex pla
ex changes</w>
im eters</w>
ve stock</w>
we ds</w>
co st
co se</w>
co de</w>
co ke</w>
co st-
se where</w>
se ems</w>
sh ut
ch -
ch urn</w>
ci pline</w>
19 3</w>
19 19</w>
19 66</w>
19 69</w>
sp ar
cor p</w>
King s</w>
ond backs</w>
ron a</w>
mer gers</w>
sc an</w>
dis ruption</w>
dis cipline</w>
1. 55</w>
1. 38</w>
1. 88</w>
1. 93</w>
1. 03</w>
ser y</w>
mon oxide</w>
so da</w>
2. 25</w>
2. 35</w>
no table</w>
gu s</w>
Ch ampionships</w>
form ats</w>
ear ed</w>
rou tes</w>
ke ys</w>
Lea ders</w>
10 6</w>
acc ept
Au to</w>
mill ionaires</w>
mill imeters</w>
ig n
ni e</w>
bo y</w>
ng ly</w>
Mo der
decreas es</w>
off ender</w>
Ho t</w>
sub mitted</w>
e- based</w>
e- learning</w>
Re gus</w>
consi st</w>
consi sting</w>
indic es</w>
inve st</w>
ca kes</w>
1, 300</w>
Ar sen
Ar mani</w>
air a</w>
stru gg
Co sme
Co ach</w>
struc tive</w>
18 9</w>
18 64</w>
Wh ere</w>
100 0s</w>
posi tively</w>
ren ted</w>
man age</w>
sal ad</w>
go es</w>
ce lls</w>
Val ve</w>
Fi f
ten -
ten ham</w>
kilo s</w>
Ma z
ak er</w>
lit re</w>
profi table</w>
eu tic</w>
sel s-
mat ory</w>
Hi stor
Popul ar</w>
az ion
fore stry</w>
trac ks</w>
17 8</w>
17 4</w>
kilomet res</w>
attac ked</w>
rac ed</w>
4, 5
Inc idence</w>
imm igrant</w>
5, 7
14. 1</w>
12. 8</w>
neg li
Bar rick</w>
fres h
anti virus</w>
obser vations</w>
15. 4</w>
char ity</w>
autom ated</w>
rai se</w>
dri ven</w>
dri ve-
accommod ations</w>
So viet</w>
lat ors</w>
16. 4</w>
influ ential</w>
7, 0
7, 2
7, 8
fru str
Argen ti
bac ter
18. 2</w>
Is land
lab els</w>
Min ecraft</w>
ed way</w>
conf ident</w>
Hung arians</w>
plac ing</w>
30 -
20. 8</w>
Se a</w>
26. 4</w>
applic ants</w>
Man agement</w>
continu ing</w>
28. 6</w>
28. 5</w>
28. 9</w>
Mill er</w>
30. 8</w>
appli ed</w>
doc toral</w>
35. 6</w>
hect are</w>
fit ters</w>
bio diesel</w>
36. 5</w>
37. 2</w>
blo g</w>
shor t-
Compar ison</w>
allo ys</w>
kid nap
micro wave</w>
46. 5</w>
wa ke</w>
Bur ger</w>
Bur ma</w>
civi lians</w>
Elec tion</w>
analy sts</w>
sun flower</w>
sun shine</w>
open ings</w>
repres entation</w>
gran ting</w>
associ ate</w>
NA ICS</w>
Emplo ye
hu ge</w>
tro pical</w>
Har monized</w>
see m</w>
see kers</w>
ked a</w>
Sain sbury</w>
initi ated</w>
CE T1</w>
miner als</w>
rail ways</w>
nor thern</w>
rup t</w>
Ju sti
OT T</w>
ah s</w>
adv an
adv oc
therap eutic</w>
bui ld</w>
PE T</w>
Roc k</w>
prepar ation</w>
No kia</w>
tel em
ick -
Nu ggets</w>
High er</w>
Indu stry</w>
Tes la</w>
lam matory</w>
found ations</w>
conc eptions</w>
prev ailing</w>
contain ing</w>
Ta keda</w>
addi tions</w>
Chem icals</w>
opi um</w>
low- cost</w>
Lit tle</w>
Ag ri
bul k</w>
rul e</w>
surpri se</w>
surpri sing</w>
Cho o</w>
PL C</w>
PL F</w>
any one</w>
Regi onal</w>
Mus eum</w>
pup il</w>
implem entation</w>
Tri umph</w>
trail er</w>
advertis ers</w>
Black hawks</w>
porno graphy</w>
perf ume</w>
Sm all</w>
bedro om</w>
And hra</w>
Ter rit
Ly me</w>
trave lled</w>
Eag le</w>
cycl ing</w>
cycl ones</w>
Brus sels-
substanti al</w>
mand atory</w>
schem es</w>
dram atic</w>
Jagu ars</w>
Pea ce</w>
wall et</w>
chari ties</w>
MA U</w>
parti ally</w>
transl ated</w>
Er n
Diam ondbacks</w>
adoles cents</w>
Union- 28</w>
acr y
act resses</w>
emo tional</w>
larcen y-
desser ts</w>
Kon toor</w>
disti lled</w>
vita mins</w>
rupi ahs</w>
shir t</w>
homo sexual</w>
Sig net</w>
pedestri an</w>
fini shers</w>
avoc ados</w>
grand children</w>
happen ed</w>
postp oned</w>
into ler
deplo yed</w>
Peru vian</w>
threat ened</w>
intell ectual</w>
appoin t
mobi le-
pump kins</w>
Favor ite</w>
EV/ EBITDA</w>
sic kness</w>
mater nal</w>
Spe edway</w>
attr active</w>
discri mination</w>
embe zz
toast er</w>
newly weds</w>
Timber wol
Vla dimir</w>
lac rosse</w>
Communic ations</w>
table ware</w>
Laur ent</w>
friend ly</w>
cabb age</w>
macro- region</w>
nitro gen</w>
construc ted</w>
mov ements</w>
peanu t</w>
socio- economic</w>
bench mark</w>
hetero sexual</w>
Jum ia</w>
Kak ao</w>
Ret urn</w>
Tho se</w>
expans ion</w>
Tot tenham</w>
Intern azion
Buzz Feed</w>
excell ent</w>
classifi eds</w>
Simil arly</w>
Bent ley</w>
Citi group</w>
Sici ly</w>
Vu itton</w>
bden um</w>
roman tic</w>
deod or
accept ance</w>
Arsen al</w>
Island ers</w>
Brussels- Capital</w>
Timberwol ves</w>
Internazion ale</w>
- tax</w>
- called</w>
/ s</w>
/ 2015</w>
1 1
1 11.
1 38</w>
1 34.
2 C</w>
2 30</w>
2 12</w>
2 24</w>
2 11</w>
2 75</w>
2 26</w>
2 13</w>
2 80</w>
3 7
3 M</w>
3 10</w>
3 00,000</w>
4 38</w>
5 9
5 6.5</w>
6 4
8 6.
8 8.
A B
A L
A x
B and
B ene
B est-
C N
C ou
C ha
D .C.</w>
E .
E x</w>
E th
E ver
E ase</w>
F lu
F ree</w>
G H
G an
G ra
G ap</w>
H N
H an
H ap
H is</w>
H ut</w>
I S</w>
K er
L ine</w>
L and
L ob
L ines</w>
M an</w>
N P
O O
O live</w>
P /
P L</w>
P ul
P et
P fi
P au
P ref
P ress</w>
R each</w>
R SI</w>
S W</w>
T -
T it
T ou
T ay
V .</w>
V eri
W it
W ill</w>
a /
a ids</w>
b auxite</w>
d ying</w>
e h
e o
e fish</w>
f ing</w>
f ter</w>
f la
g ary</w>
g ar</w>
g au
h an
h edge</w>
i ses</w>
i ors</w>
j a</w>
j arat</w>
k o</w>
k g</w>
k in</w>
k ne
k house</w>
m -
m b
m ing
n ess
n esses</w>
o ph
p ap
p ne
p essi
r h
r ar
s in
s and</w>
s and
s entiment</w>
t /
t t</w>
t ari
t ton</w>
v as
w ri
y ro
Ã ©</w>
é e</w>
20 s</w>
20 36</w>
er on</w>
er ships</w>
in avi
an z</w>
en sure</w>
en t-
en core</w>
ar ean</w>
ar rest</w>
ar ena</w>
re j
re ver
re plied</w>
on el</w>
it ers</w>
at t</w>
at ories</w>
al ism</w>
al aure
ri de-
om i</w>
sta bility</w>
per spec
ho p</w>
ho sts</w>
ec h</w>
um onia</w>
ac ting</w>
ac ities</w>
el se</w>
el ines</w>
el ements</w>
perc eptions</w>
di ff
ag ine</w>
pl and</w>
pl ed
pl atinum</w>
am assed</w>
sho e</w>
vi ation</w>
un paid</w>
un adjusted</w>
un healthy</w>
res sion</w>
com edy</w>
ul tra-
li e</w>
doll s</w>
de us</w>
de stitution</w>
po t</w>
po p</w>
po lling</w>
tr um</w>
mo ly
to ol</w>
et -
fi sh
fi elds</w>
fi ve-year</w>
lo s</w>
im p
im pea
co rona
co des</w>
es eed</w>
ab and
mar gin
ter raced</w>
sur pass</w>
pri cing</w>
ch urch
ch ampionships</w>
ci ting</w>
19 8</w>
19 12</w>
19 53</w>
19 61</w>
bi li
bi sc
00 0</w>
cor k</w>
tri gg
In -
In Be
gen ta</w>
su sta
su ka</w>
rec all</w>
lea ds</w>
ne ar
ne dy</w>
for t
dis on</w>
dis placed</w>
all owing</w>
1. 19</w>
1. 16</w>
1. 23</w>
1. 37</w>
1. 47</w>
1. 48</w>
1. 58</w>
1. 59</w>
1. 68</w>
1. 73</w>
par el</w>
inter active</w>
gi es</w>
mon eti
so -called</w>
compar able</w>
ub le</w>
Mar i
Mar k</w>
pic k
chi ef</w>
2. 16</w>
2. 28</w>
2. 05</w>
Euro pe
gu est</w>
ra infall</w>
lu cr
eb o
Bri ti
dic ted</w>
enta tive</w>
Ch at</w>
Ch rys
ir s</w>
op posite</w>
4. 46</w>
cl ick</w>
Ita lia</w>
rea u</w>
grap e</w>
bir ds</w>
10 s</w>
inf lammatory</w>
Nor th-
Au tomo
mill s</w>
Sh e
ass ass
bo l</w>
bo ss</w>
bo xes</w>
ov en</w>
cu cum
trans mission</w>
oper ate</w>
198 3</w>
car ats</w>
e- added</w>
e- granting</w>
Rus sell</w>
mi sc
cer tain
busin ess
fem in
bro ad</w>
Al co
Al so</w>
ici ties</w>
ki e</w>
invest or</w>
18 3</w>
18 5</w>
sig n</w>
clo sure</w>
spi ke</w>
spi rit</w>
can ned</w>
don or</w>
la sted</w>
Ap pli
Ap parel</w>
Fin tech</w>
Par kinson</w>
ga ining</w>
sal on</w>
fa ith</w>
go t
hel in</w>
hel ped</w>
bud ge
Sing les</w>
ten ure</w>
ten -year</w>
Ma ple</w>
profi tability</w>
differ ences</w>
down stream</w>
sk ill</w>
Yor kshire</w>
ste p</w>
trac tors</w>
trac ker</w>
belie ving</w>
flu or
run -
run ner
plan ted</w>
Gu am</w>
Gu jarat</w>
stre ets</w>
De vi
De ere</w>
Goog le
As sets</w>
As da</w>
Ama deus</w>
13. 7</w>
6, 9
Air bus</w>
cro ps</w>
cro ss
bur gl
compl i
Hun ger</w>
17. 3</w>
17. 9</w>
t- to-
influ ences</w>
18. 1</w>
under stand</w>
19. 1</w>
19. 6</w>
19. 4</w>
Califor ni
30 th</w>
21. 7</w>
21. 1</w>
20. 7</w>
20. 9</w>
Car rab
ath let
tion ary</w>
27. 7</w>
27. 4</w>
person alized</w>
stoc ks</w>
Ken nedy</w>
Sy ri
Cap com</w>
tax is</w>
ssi um</w>
28. 3</w>
fl our</w>
fl ash</w>
fl exi
land sc
exclu sive</w>
exclu sively</w>
din ess</w>
mal e/
prin ter</w>
24. 1</w>
30. 1</w>
30. 9</w>
Chan g</w>
22. 7</w>
far ming</w>
Ab solute</w>
Ti er</w>
Am tra
35. 8</w>
35. 5</w>
invol vement</w>
Proj ection</w>
15 ,000</w>
exce eds</w>
Cam eron</w>
37. 9</w>
Bulgar i</w>
Be at
refer r
stor ed</w>
ba i</w>
2014 /2015</w>
Fur niture</w>
Mi gration</w>
degre e-granting</w>
Norwegi ans</w>
cr yp
vir us
deal ership</w>
deal erships</w>
Sk y
crow ded</w>
NA SA</w>
bre w
her bal</w>
tro lling</w>
pin ess</w>
competi tive</w>
process or</w>
prob ability</w>
charg ing</w>
photo graphy</w>
achie ving</w>
med tech</w>
We Chat</w>
cle an
theat re</w>
fro m
domin ant</w>
refl ect</w>
harass ed</w>
Off ensive</w>
attrac t</w>
attrac ting</w>
exec ution</w>
ESP N</w>
jour ney</w>
ang el
emi gration</w>
tournam ents</w>
Roc kies</w>
refuge e</w>
Char l
Pay ment</w>
lor Luxottica</w>
Hy att</w>
13 th</w>
pregn ant</w>
del ayed</w>
sl aves</w>
sl augh
swe et
ycl ing</w>
outl et</w>
Liber al</w>
best- paid</w>
South west</w>
Democr at</w>
liqu idity</w>
Sw iss
Boom er</w>
Bon efish</w>
dom ains</w>
proc esses</w>
Mess i</w>
Shi pping</w>
consequ ence</w>
Ty rol</w>
separ ate</w>
Cal gary</w>
libr ary</w>
The ir</w>
necess arily</w>
foc using</w>
install ation</w>
mail -
es/ compensation</w>
cam eras</w>
recomm ended</w>
Marri age</w>
denomin ation</w>
recogni tion</w>
Ot suka</w>
soy beans</w>
Tran sit</w>
requi rements</w>
Alli anz</w>
rho dium</w>
hob by</w>
Gl encore</w>
Hel sin
g- in</w>
ingredi ent</w>
renov ation</w>
start- ups</w>
less er</w>
tun a</w>
North west</w>
func tions</w>
adoles cent</w>
Union- 27</w>
AD HD</w>
Essi lor</w>
Essi lorLuxottica</w>
Gran t</w>
Ph ys
Acc ess</w>
well- known</w>
assess ment</w>
contracep tives</w>
turb ines</w>
Sup pl
cata stro
Syn genta</w>
over-the- counter</w>
Fast est</w>
PG A</w>
law yer</w>
execu tive</w>
Rail way</w>
phen om
knowle dge</w>
app ear</w>
kindergar ten</w>
brows er</w>
Petro bras</w>
salari es/compensation</w>
Theat res</w>
Athle tics</w>
Pass enger</w>
lem ons</w>
round wood</w>
plu g-in</w>
Confeder ate</w>
mush rooms</w>
fram e
Cit ro
Educ ation</w>
Mum bai</w>
Nad u</w>
Stea khouse</w>
Scand inavi
dome stically</w>
you ths</w>
ophi lia</w>
obsta cle</w>
Corpor ate</w>
cred its</w>
mansl aughter</w>
Dic kinson</w>
Fron tier</w>
Fed Ex</w>
Jewel ers</w>
Pyeong Chang</w>
Sex ual</w>
TT IP</w>
Maz da</w>
Argenti nian</w>
Territ ories</w>
deodor ant</w>
Pfi zer</w>
Pref ecture</w>
Tay lor</w>
fla g</w>
pne umonia</w>
alaure ate</w>
moly bdenum</w>
bisc u
InBe v</w>
lucr ative</w>
Chrys ler</w>
cucum bers</w>
burgl ary</w>
Carrab ba</w>
male/ female</w>
slaugh tered</w>
Helsin ki</w>
Scandinavi an</w>
- age</w>
- five</w>
. ru</w>
/ 2001</w>
1 17</w>
1 33</w>
1 67</w>
2 25</w>
2 16</w>
2 28</w>
2 2,
2 35</w>
2 65</w>
2 3,
2 2nd</w>
2 90</w>
2 71</w>
3 50</w>
3 30</w>
3 65</w>
3 3.8</w>
3 3.4</w>
4 10</w>
4 1.5</w>
4 3.5</w>
5 7
5 G</w>
6 50</w>
6 0s</w>
9 8.
A o
A me
A bor
A rub
B T
B att
B ect
C all</w>
D er
D on
D ur
D hab
E ven</w>
E pi
F ly
G a
G au
J our
K -
L oo
M P
M as
M organ</w>
M AT</w>
M bit
M GM</w>
N I
N ations</w>
N ext</w>
N aira</w>
P un
P ric
P arib
R S</w>
S mo
S port
S am</w>
S anders</w>
S acr
S lam</w>
T A</w>
T 20</w>
T NT</w>
U K
U N
W I</w>
W ings</w>
W PI</w>
W atch</w>
X box</w>
a verages</w>
a stal</w>
b all
b att
c or</w>
c ings</w>
c els</w>
c rafts</w>
d /
d res
e vol
e ful</w>
f eared</w>
g ain</w>
g ins</w>
g aps</w>
h re
i a
j umped</w>
k land</w>
k ni
k ick
k ept</w>
m um
m el
m ate</w>
n ea
n ow
p it
p ag
p ine</w>
p ig
r .</w>
s .
s or</w>
s ending</w>
s ement</w>
t ely</w>
u k</w>
u ts</w>
w a</w>
w rap</w>
x ed</w>
x on</w>
y ond</w>
y ard</w>
Ã §
á n
ó n</w>
20 45</w>
in duc
in spir
in aug
in vas
an air</w>
an eous</w>
ro ts</w>
en or</w>
en ting</w>
re ds</w>
re turning</w>
on ies</w>
it y
it ting</w>
at tained</w>
al ing</w>
al um
al e-
al pine</w>
ri bat
sti mul
om on</w>
ill ard</w>
ur a</w>
ur as
ur gent</w>
st eps</w>
ic ated</w>
ic abs</w>
do ses</w>
ac ted</w>
el and</w>
perc enta
di er</w>
di ves</w>
di stru
di os</w>
di apers</w>
oun d
du ties</w>
am en
ap preci
un pro
li ber
li vestock</w>
de si
de ep</w>
po stal</w>
si Co</w>
por tal</w>
por tions</w>
to se</w>
to wn</w>
ha i</w>
et te</w>
fi ber</w>
fi bers</w>
lo yal</w>
im agine</w>
co ver
co ach</w>
co astal</w>
es arean</w>
ad -
ad ers</w>
coun ting</w>
coun ters</w>
qu ery</w>
qu anti
comp are</w>
comp iled</w>
ran g
pul ses</w>
sur ge</w>
sur roun
sh i</w>
ven di</w>
popul ist</w>
ch o</w>
ch t</w>
the by</w>
ci o</w>
19 6</w>
19 59</w>
19 73</w>
19 10s</w>
val id</w>
ai ght</w>
reas ury</w>
sp a</w>
inc ess</w>
In dependent</w>
str eng
gen e
gen e</w>
gen ds</w>
pres sion</w>
rec alled</w>
me an
gr a
il ever</w>
vic tory</w>
dis inf
elec t</w>
all ow</w>
1. 29</w>
1. 26</w>
1. 46</w>
1. 39</w>
1. 54</w>
1. 51</w>
1. 66</w>
1. 72</w>
1. 77</w>
1. 09</w>
1. 92</w>
par ations</w>
par cels</w>
ser ver</w>
high way</w>
high ways</w>
high est-
ma ker</w>
ff ing</w>
so on</w>
Mar tin</w>
2. 12</w>
2. 15</w>
2. 55</w>
2. 39</w>
2. 58</w>
2. 87</w>
le /
gu ese</w>
199 9/
our s</w>
3. 29</w>
3. 21</w>
cap acities</w>
ph ine</w>
ph ins</w>
pea ce
op position</w>
op ticians</w>
4. 44</w>
cl ass
follow er</w>
5. 95</w>
out flow</w>
eng aging</w>
Lea fs</w>
10 4.
10 8.
Au tonomous</w>
mill ed</w>
Sh are
Sh ang
selec ting</w>
ass ing</w>
ass ess</w>
bo dies</w>
enti no-
0. 75</w>
wi pes</w>
ud a</w>
min ority</w>
sour ced</w>
Sp ace</w>
car rots</w>
fer red</w>
Un ilever</w>
mi um</w>
enter ed</w>
cer am
cer eal</w>
on- time</w>
vo d
vo ll
ob taining</w>
Con versely</w>
bro iler</w>
1, 100</w>
Ar am
Pro per
Bel l</w>
mu st</w>
Co sts</w>
struc tures</w>
provi sional</w>
recei ves</w>
Wh it
war ming</w>
Li onel</w>
spec trum</w>
ren e</w>
subscri bing</w>
can cel
can cell
la sting</w>
Bo ard</w>
fre e-
sy phi
valu e-to-
valu e-added</w>
Com mission</w>
Ap prov
Mal dives</w>
man ic
non- hazardous</w>
direc tor</w>
cen sus</w>
poli ticians</w>
Fi ghting</w>
bor ns</w>
access ory</w>
medic inal</w>
Ma ers
ak a</w>
bl ame</w>
Vi e
Vi vendi</w>
Mon aco</w>
cre ation</w>
ado p
stic ks</w>
Produc er</w>
vis as</w>
lin ens</w>
sex ting</w>
travel -related</w>
pos sibility</w>
ong side</w>
Fo x</w>
fluctu ate</w>
5, 6
head ach
manag ing</w>
industri alized</w>
rema inder</w>
read y-
13. 3</w>
15. 3</w>
char ter</w>
new borns</w>
6, 4
rai s
tru st
So theby</w>
Portu guese</w>
enro ll
insta ll</w>
reli ability</w>
tron ic</w>
Mic helin</w>
Austri an</w>
Tr entino-
year- olds</w>
9, 8
30 3</w>
21. 5</w>
21. 4</w>
23. 8</w>
8, 0
20. 1</w>
20. 3</w>
Coun ter</w>
Car emark</w>
organi z
sen iors</w>
whe el
self- paced</w>
tonn e</w>
hand bags</w>
predic tions</w>
tax icabs</w>
corpor ated</w>
28. 2</w>
dou bling</w>
25. 8</w>
25. 3</w>
25. 6</w>
25. 5</w>
Ob esity</w>
defin ition</w>
mal icious</w>
prin ted</w>
24. 5</w>
30. 7</w>
main tain</w>
Ab u</w>
Bul l</w>
Ti m</w>
29. 6</w>
Mil ano</w>
35. 7</w>
35. 3</w>
exce ed</w>
targ ets</w>
contac tless</w>
territ orial</w>
shor tages</w>
Mc C
40. 4</w>
40. 2</w>
remo tely</w>
feat uring</w>
micro grams</w>
auth ors</w>
46. 3</w>
origin ally</w>
Swi ft</w>
ech es</w>
ethn icities</w>
non surgical</w>
rap eseed</w>
cr y
repres entative</w>
dispos ables</w>
deal t</w>
payro lls</w>
ell aneous</w>
small pox</w>
competi tor</w>
Del ta</w>
Fri ends</w>
War saw</w>
a- Cola</w>
sil k</w>
SE AT</w>
mortg ages</w>
exam inations</w>
hin der</w>
bri dge</w>
Ber ry</w>
poll u
hund reds</w>
adv ance</w>
sym bol</w>
exec utions</w>
Rea diness</w>
pota sh</w>
emi grated</w>
Cur rent</w>
48. 1</w>
AT M</w>
AT P</w>
Nu clear</w>
promo te</w>
promo tional</w>
2000 /2001</w>
Char les</w>
yi elds</w>
pir ated</w>
sell er</w>
MR T</w>
preven ting</w>
relation ships</w>
del eg
hyper markets</w>
28 ,000</w>
pa per
sn ack</w>
Sol omon</w>
deter mine</w>
nin th</w>
enh anced</w>
pre- tax</w>
anti- corruption</w>
Mag az
Mag hre
every thing</w>
notic ed</w>
out-of- home</w>
utili zing</w>
earthqu ake</w>
Shi p
tes a</w>
add res
Je wish</w>
stop pers</w>
log ins</w>
subst ances</w>
Year- over-year</w>
separ ated</w>
foreig n-
Fit ness</w>
Herm an</w>
def ine</w>
Tea ms</w>
share holder</w>
Pack aged</w>
Opin ions</w>
PS N
home owners</w>
wild life</w>
IB D</w>
Commer ce</w>
Dow n
set t
set tings</w>
deta iled</w>
Ki ribat
disab ilities</w>
pain t</w>
sport s
swit ch</w>
conflic ts</w>
wel fare</w>
immigr ating</w>
Diam ond</w>
Dol phins</w>
Foun dation</w>
act ress</w>
larcen y</w>
desser t</w>
kno ts</w>
Prote stant</w>
democ racy</w>
contracep tive</w>
sanitiz ers</w>
sau ces</w>
trad emark</w>
third- party</w>
Emer ging</w>
Hurric ane</w>
inven tory</w>
2019 .</w>
spou ses</w>
legi s
hashta gs</w>
Bru ins</w>
Wall onia</w>
compan y-owned</w>
se- value-to-
chea p</w>
Hospi tal</w>
Green land</w>
Med tronic</w>
Dub lin</w>
Sn ap</w>
video- sharing</w>
Flam es</w>
pineap ple</w>
disclo sure</w>
hun ting</w>
ant i</w>
tak ea
Marl ins</w>
foot ball
borro wing</w>
lotter ies</w>
vulner able</w>
Coc a-Cola</w>
Harri s</w>
Osc ar</w>
ling erie</w>
pref ecture</w>
sexu ality</w>
comple tion</w>
Attitu des</w>
peripher al</w>
Dea ths</w>
Ev angel
Child ren</w>
Anglo Gold</w>
Bras il
pregnan cies</w>
Ash anti</w>
BN P</w>
TU I</w>
outsour cing</w>
accessi ble</w>
Resta ur
heavi ly</w>
teleph ony</w>
recommend ations</w>
data base</w>
Depend ency</w>
fragran ces</w>
Filipin os</w>
entreprene urs</w>
Eco lab</w>
Pep siCo</w>
Ry anair</w>
Yel p</w>
eat en</w>
lub ric
Cosme tics</w>
negli gent</w>
fresh water</w>
30- second</w>
embezz lement</w>
Pau l</w>
Veri zon</w>
pessi mi
corona virus
misc ellaneous</w>
Devi ls</w>
Californi a-based</w>
Swiss -based</w>
Ao sta</w>
Arub a</w>
Bect on</w>
Dhab i</w>
Loo king</w>
Mbit /s</w>
Parib as</w>
kick backs</w>
mum ps</w>
surroun ding</w>
Shang hai</w>
cancel ed</w>
syphi lis</w>
Approv al</w>
Maers k</w>
Trentino- South</w>
Maghre b</w>
Kiribat i</w>
- Maersk</w>
. ..</w>
. V.</w>
/ 2013</w>
/ transfer</w>
1 55</w>
1 51</w>
1 38.
2 17</w>
2 22</w>
2 33</w>
2 43</w>
2 56</w>
2 95</w>
2 92</w>
3 51</w>
3 56</w>
3 2.5</w>
3 3.5</w>
4 00
4 2.5</w>
4 2.6</w>
4 1.1</w>
4 01</w>
5 5
5 65</w>
5 3.7</w>
5 3.4</w>
6 7
6 26</w>
6 0,000</w>
7 7
8 7.
8 40</w>
9 7.
9 30</w>
A .
A F</w>
A aro
A PM
B S
B O</w>
B ill
B ombar
C F
C M</w>
C ars</w>
C BR
D -
D R</w>
D eli
D uty</w>
D avi
D OTA</w>
D illard</w>
E u
E GD
E ra</w>
E asy
F uk
G E</w>
G al
H il
H ome
H ud
H anes
I -
J er
J up
J erry</w>
K at
K FC</w>
L ill
L is
L egal</w>
M E
M 1</w>
M C</w>
M ur
M ay
N R
N um
O w
P N</w>
P at
P uti
R E
R ene
S hou
S cri
S AP</w>
T or
T ower</w>
U p
V ine</w>
W ine</w>
Y ell
Z y
a de
a es
b et</w>
b ad
b ales</w>
b ath</w>
b agg
b allo
b owl</w>
c t</w>
c loc
c rac
c ube</w>
c tose</w>
d ale</w>
d cube</w>
e en</w>
e per</w>
e ks</w>
e ums</w>
f ting</w>
f essi
f ry</w>
f ills</w>
g out</w>
g ger</w>
h o</w>
h t</w>
h ur
h am
h urric
i ting</w>
i stan</w>
j e
j u</w>
k o
k m</w>
k ar</w>
l umber</w>
l ately</w>
l king</w>
m ay
m ps</w>
m outh</w>
m att
m entation</w>
n on</w>
n one</w>
n hub.com</w>
o t</w>
o di
o ws</w>
p his</w>
p all
p ace</w>
r ur
r ham</w>
s son</w>
s ong</w>
s our</w>
s etting</w>
s lot</w>
t u</w>
t res</w>
t ell</w>
t ega</w>
v ary</w>
v ant</w>
v atives</w>
y e</w>
é al</w>
20 7</w>
20 8</w>
20 3</w>
in de
in struc
in her
an /
an os</w>
en comp
ar ed</w>
ar chi
ar ded</w>
re stling</w>
ta g</w>
ta tive</w>
ta ste</w>
on a
on ian</w>
or n</w>
or nam
it ely</w>
at -home</w>
ri mp</w>
sti n</w>
sta ffing</w>
sta lking</w>
ill a</w>
ill nesses</w>
st ars</w>
st ory</w>
st ering</w>
stati us</w>
stati stical</w>
ac om
el im
el ded</w>
di ve
di rham</w>
pro s
pro pos
ag er</w>
du al</w>
as ite</w>
as -based</w>
em ics</w>
am eni
un known</w>
un wanted</w>
un documented</w>
un certain
com o
com ed</w>
ul l</w>
li stings</w>
de v
si on
si ves</w>
si des</w>
con fin
mo i
por nhub.com</w>
to ld</w>
id al</w>
ha iling</w>
ex ten
ex abytes</w>
wor e</w>
duc k</w>
fi ve-
lo g</w>
lo ved</w>
lo como
im medi
ve s
co ok</w>
ing ful</w>
ab used</w>
ab bre
ab solute</w>
qu es</w>
comp rising</w>
se es</w>
se emed</w>
sh ale</w>
sh rank</w>
sh rimp</w>
pri ority</w>
ch y</w>
ch er</w>
19 1</w>
19 5</w>
19 15</w>
19 24</w>
19 78</w>
19 67</w>
val an
ay a</w>
ay al</w>
bi g-
ai t</w>
bu tter
sp am</w>
sp ices</w>
sp ur</w>
sp anning</w>
cor rupt</w>
In fo
str aight</w>
su pre
rec alls</w>
pe ti
pe ppers</w>
ow ance</w>
ow ling</w>
be x</w>
pre paid</w>
pre valent</w>
sc ams</w>
ne ph
il ers</w>
dis approved</w>
dis counts</w>
1. 11</w>
1. 34</w>
1. 44</w>
1. 33</w>
1. 81</w>
1. 05</w>
1. 04</w>
1. 02</w>
par ental</w>
stri es</w>
ser ve</w>
ser vers</w>
gi e</w>
ma a</w>
ma them
ff s</w>
ID R</w>
Mar ks</w>
2. 18</w>
2. 34</w>
2. 46</w>
2. 33</w>
2. 09</w>
2. 88</w>
2. 86</w>
no tions</w>
fir m
dec lines</w>
lu x</w>
our ce</w>
tra ditionally</w>
3. 58</w>
tu re
Ac tion</w>
tic o</w>
fin tech</w>
4. 38</w>
form in</w>
form ing</w>
ear ner</w>
yo ga</w>
grap es</w>
inf ring
oc ean</w>
econom ically</w>
ei m</w>
bo y
enti ties</w>
regi stering</w>
0. 16</w>
0. 74</w>
0. 68</w>
Di or</w>
cur ve</w>
br ush</w>
198 0s</w>
Oc cid
tou ch</w>
inhabit ed</w>
min bi</w>
car t</w>
car pets</w>
car egi
brea king</w>
fer ro
Gre y</w>
Rus si
mi ss</w>
ban ned</w>
cer y</w>
Gro cery</w>
gre eting</w>
te es</w>
te eth</w>
Con ven
Con tro
Con solidated</w>
An he
eli k</w>
ali tion</w>
fem icide</w>
fem icides</w>
categ orized</w>
Ar ts</w>
Pro fessi
air -
sup porters</w>
loc ation-based</w>
18 20</w>
18 40</w>
18 80</w>
100 ,001</w>
la wn</w>
valu ation</w>
electri cals</w>
Par ticip
Par asite</w>
fa thers</w>
ge m</w>
rati os</w>
non- EU</w>
non- permanent</w>
visi ons</w>
cen tres</w>
/0 8</w>
presid ency</w>
speci al
medic ines</w>
coll ecting</w>
cul tivated</w>
Ban king</w>
Mon san
nat u
nat ure</w>
tor n
tor ture</w>
cre w</w>
men u</w>
men istan</w>
sk ins</w>
gar den
sing les</w>
regar ded</w>
ste ep</w>
Ex pedia</w>
Inf rastructure</w>
17 3</w>
sa ff
sm el
boo m</w>
rac ing</w>
win ery</w>
bal ances</w>
bel ong</w>
nam ing</w>
Phi lli
jo ining</w>
pi er
You Go
eff ectively</w>
multi channel</w>
char ts</w>
new s
Em bra
autom ation</w>
broad casts</w>
6, 6
adju stment</w>
bur g
t- day</w>
16. 8</w>
16. 6</w>
Gam eS
fru ctose</w>
18. 3</w>
pol ye
tiz ens</w>
hy a</w>
reli ef</w>
Ric h
Ric hard</w>
sug gested</w>
assi vely</w>
IC I</w>
issu ing</w>
9, 5
El i</w>
them ed</w>
19. 3</w>
diagno stics</w>
30 7</w>
30 5</w>
30 2</w>
21. 3</w>
21. 2</w>
requ ire</w>
20. 6</w>
20. 4</w>
Su icide</w>
Su gar</w>
condi tioning</w>
cou gh</w>
cir cu
manufactu res</w>
Dis covery</w>
Le gends</w>
Se ars</w>
26. 9</w>
26. 2</w>
organi zed</w>
At tend
sen si
bacc alaureate</w>
communic able</w>
self- service</w>
self- published</w>
self- isolation</w>
contrac tion</w>
Man power</w>
hand -
vac u
vac ations</w>
28. 1</w>
Mad hya</w>
land sli
in- demand</w>
25. 9</w>
25. 2</w>
Tex ans</w>
East man</w>
adm ission</w>
24. 2</w>
main stream</w>
29. 9</w>
West field</w>
35. 2</w>
fast -
Si x</w>
bio tics</w>
36. 4</w>
36. 2</w>
37. 3</w>
37. 6</w>
Uni Credit</w>
EB -
shor t
shor tly</w>
ba ht</w>
remo ving</w>
Ra i</w>
back pac
back grounds</w>
market /transfer</w>
micro gram</w>
micro loans</w>
Domin ica</w>
Du fry</w>
Colum bus</w>
Est ée</w>
origin ations</w>
athle tica</w>
IP HR
Sal t</w>
contin ents</w>
mas sive</w>
bot tle</w>
bot tles</w>
mus eums</w>
mis ed</w>
rap id</w>
Hot spur</w>
achi ev
ell e</w>
bre ed</w>
sty rene</w>
contro lling</w>
Wi ld</w>
al- mining</w>
12 ,000</w>
2008/ 2009</w>
Bran d
50. 6</w>
Ver de</w>
1,7 00</w>
contribu tor</w>
hap piness</w>
second- highest</w>
2012 /2013</w>
theat res</w>
buy er</w>
39. 8</w>
39. 6</w>
Nic kel</w>
coo ks</w>
spo ke</w>
pota ssium</w>
an- speaking</w>
fire arm
stu died</w>
chec king</w>
67. 1</w>
ster eo
histor ic</w>
Bus ch</w>
exhi bit
bloc ked</w>
preven tive</w>
FT SE</w>
sl ump</w>
most- used</w>
Ben in</w>
pa stries</w>
Out fitters</w>
Sea gate</w>
flo od</w>
norm ally</w>
wal k</w>
Elect ronic</w>
Mem phis</w>
Mor tality</w>
Mor ris</w>
ed- line</w>
Coo pers</w>
sustain ability</w>
Hom eland</w>
wid er</w>
any thing</w>
Beng al</w>
ey e</w>
ey ball</w>
hem ophilia</w>
Inde sit</w>
attem pts</w>
attem pt</w>
inm ate</w>
subj ects</w>
Black Berry</w>
Tel enor</w>
arm y</w>
foc used</w>
post- baccalaureate</w>
seven ty</w>
diffic ul
volun tary</w>
eigh th</w>
brac kets</w>
withdra wn</w>
re- election</w>
Grou pe</w>
Tele vision</w>
flav ored</w>
inno vation</w>
house work</w>
house Coopers</w>
requi rement</w>
parliam ents</w>
Gar den</w>
glu ten</w>
glu cose</w>
freel an
fail ure</w>
transl ates</w>
wel comed</w>
commit tee</w>
investi gation</w>
Ferr ari</w>
Ru gby</w>
Thi r
sim ply</w>
blogg ers</w>
well- being</w>
Plan ned</w>
rupi ah</w>
shir ts</w>
Prote stants</w>
sau ce</w>
rom ance</w>
turb ine</w>
AU M</w>
Emer gency</w>
Hurric anes</w>
evalu ation</w>
recru iting</w>
Ham burg</w>
demonstr ates</w>
Adul t</w>
uplo ad</w>
compro mised</w>
user- Busch</w>
impro ve</w>
Part nership</w>
Ass am</w>
three- quarters</w>
Met Life</w>
NG Os</w>
champ ion</w>
LT E</w>
Nap ster</w>
Infin ity</w>
COVID- 19
Arc elik</w>
circum stances</w>
ker age</w>
pill ar</w>
enplan ements</w>
profici ency</w>
2007 /08</w>
limi ting</w>
measu rement</w>
EUR O</w>
stock p
suffici ent</w>
schedu led</w>
Gall up</w>
Moun tain</w>
Top -
fill ment</w>
lod ging</w>
venti lators</w>
aller gies</w>
cerem ony</w>
selfi e</w>
Turk menistan</w>
Crow dcube</w>
Pengu ins</w>
innov ative</w>
orthope dic</w>
Fair trade</w>
L' Or
song s</w>
vill e-
tram ado
convic ted</w>
expla ined</w>
cost- per-
drive- in</w>
Employe es</w>
Ern st</w>
Bene fits</w>
Ker ala</w>
m- commerce</w>
wri ting</w>
fish ery</w>
imp air
church es</w>
In- store</w>
Briti sh-
Amtra k</w>
referr al</w>
phenom en
biscu its</w>
Pric e
Sport swear</w>
Sacr amen
kni fe</w>
induc ed</w>
cover ings</w>
mean ingful</w>
disinf ect
vod ka</w>
voll eyball</w>
Proper ty</w>
cancell ations</w>
manic ure</w>
headach e</w>
trust worthy</w>
Magaz ine</w>
Ship ments</w>
takea way</w>
pessimi stic</w>
Aaro n</w>
APM -Maersk</w>
Bombar dier</w>
Eu statius</w>
EGD I</w>
Easy Jet</w>
Hanes brands</w>
Jup iler</w>
Lill y</w>
Puti n</w>
Shou ld</w>
aes thetic</w>
bagg age</w>
ameni ties</w>
immedi ately</w>
abbre viation</w>
supre mac
mathem ati
Occid ental</w>
caregi vers</w>
Contro l</w>
Anhe user-Busch</w>
Professi onal</w>
Monsan to</w>
YouGo v</w>
Embra er</w>
GameS top</w>
Attend ance</w>
IPHR P</w>
firearm -related</w>
exhibit ors</w>
- Being</w>
/ 2007</w>
0 /
0 17</w>
1 N
1 31</w>
1 48</w>
1 52</w>
1 59</w>
1 56</w>
1 69</w>
2 2
2 60</w>
2 21</w>
2 45</w>
2 44</w>
2 55</w>
2 47</w>
2 51</w>
2 61</w>
2 69</w>
2 93</w>
3 60</w>
3 21</w>
3 46</w>
3 52</w>
3 78</w>
3 2.6</w>
3 1.1</w>
3 1.8</w>
3 1.7</w>
3 1.9</w>
4 0s</w>
4 14</w>
4 90</w>
4 1.2</w>
4 2.2</w>
4 8.4</w>
5 20</w>
5 09</w>
5 2.8</w>
5 4.5</w>
5 4.3</w>
6 9
6 55</w>
7 0s</w>
8 0
8 4.
9 5.
9 9.
A G
A ja
A valan
B at
B ea
B est-paid</w>
B HP</w>
C C</w>
C R</w>
C lo
C ross</w>
C ups</w>
C lim
C inem
C ater
D J
D s</w>
D B</w>
D ri
E s
E d</w>
E S</w>
E very</w>
F M</w>
F on
F ast</w>
F our
F oc
G A
G reg
G od</w>
H F
H M
H V
H 1</w>
H R</w>
H 1N
I ran
K .</w>
L E
L S
L e</w>
L P</w>
L ess</w>
L SD</w>
M e</w>
M un
M ail
N D</w>
N ur
N ative</w>
N 26</w>
N ight</w>
O x
P om
P SA</w>
Q R</w>
Q ash
Q anta
R em
R AM</w>
R owling</w>
S em
S ter
S earch</w>
S anti
T R
T ro
T ree</w>
T ire</w>
U CI</w>
V C</w>
V in
V eter
V PN</w>
W O
W ea
W el
W im
W ran
W ell
W restling</w>
a c</w>
b y
b ited</w>
b reaches</w>
d u</w>
d eng
d -based</w>
d quartered</w>
d oms</w>
d rank</w>
f ed</w>
f en</w>
f et
g ast
g ative</w>
g ly
g etary</w>
i k
i zation</w>
k a
k u</w>
k ware</w>
k om</w>
k downs</w>
l o</w>
l ay</w>
l ays</w>
l ements</w>
m in</w>
m oms</w>
p ages</w>
p aints</w>
q ai</w>
r at
r ents</w>
r ay</w>
r aid</w>
s ar
s ands</w>
t z
t z</w>
t ar
u x
u rea</w>
v s</w>
v on</w>
v ag
w ars</w>
w ak
w asted</w>
w ash</w>
y ar
y right</w>
¨ s</w>
Ã ¨s</w>
th a</w>
th ro
th ylene</w>
20 6</w>
20 4</w>
ti s
ti ed</w>
ti zed</w>
ti ss
er Un
in ts</w>
in di
in directly</w>
in patient</w>
in comes</w>
an der</w>
an -based</w>
an nes
en tr
en tries</w>
en dow
en counter</w>
201 0.
ar an
ar ction</w>
ar rang
re le
re ally</w>
re mit
ta s
ta s</w>
ta lo
ta ka</w>
or t</w>
or din
or Mit
ou tages</w>
at ure</w>
al y
al together</w>
ea fter</w>
ri val</w>
ur ani
st em
st ments</w>
ho l</w>
ho sted</w>
ho ldings</w>
ic on</w>
stati onary</w>
ac are</w>
ac ha
ac tly</w>
ac ne</w>
el sewhere</w>
perc ei
di g
ag ements</w>
ag ne</w>
ag gio</w>
pl ague</w>
as -
em ental</w>
am acare</w>
un achal</w>
res orts</w>
li ghting</w>
li fted</w>
de fa
de tail</w>
de s-
ver si
ver se</w>
po ds</w>
Sta dium</w>
Sta mps</w>
con dom</w>
con ce
con servative</w>
mo tiv
to on</w>
to currency</w>
to tally</w>
id ences</w>
id eal</w>
ha bi
et a</w>
fi le</w>
fi les</w>
lo gin</w>
im prison
im mediate</w>
we i</w>
co le</w>
co ast</w>
co alition</w>
ad ap
ad ays</w>
ad vice</w>
ing ing</w>
ing en</w>
ab ria</w>
coun tr
coun sel
comp ete</w>
ran so
ol ing</w>
se l</w>
sh Corp</w>
pri ced</w>
ci ble</w>
19 7</w>
19 th</w>
19 29</w>
19 56</w>
19 01</w>
sp enders</w>
inc enti
inc idences</w>
tri m
tri logy</w>
reg im
gen ous</w>
appro vals</w>
pe stic
ani zed</w>
ow n-
me g
me tall
be ers</w>
exp ir
pre sti
ne o
ne tizens</w>
il a</w>
thou ghts</w>
for ty</w>
dis bur
1. 13</w>
1. 36</w>
1. 52</w>
1. 96</w>
inter ven
mon ton</w>
so aps</w>
Mar keting</w>
2. 14</w>
2. 65</w>
2. 45</w>
2. 32</w>
2. 53</w>
2. 57</w>
2. 95</w>
2. 84</w>
2. 93</w>
2. 06</w>
2. 03</w>
no t-
le grounds</w>
ra di
eb ok</w>
eb ooks</w>
depic ted</w>
gener ational</w>
3. 17</w>
3. 32</w>
3. 76</w>
cap tured</w>
tu tor
Ne gative</w>
Ch am
bas eline</w>
cas h
esti ngly</w>
pea s</w>
fin als</w>
4. 76</w>
4. 95</w>
4. 71</w>
To bacco</w>
over time</w>
over view</w>
dow ed</w>
eng age</w>
eng agements</w>
shi ft</w>
inf arction</w>
mill ionaire</w>
ig ent</w>
ig ion</w>
Sh ar
rel ating</w>
der all</w>
bo ards</w>
bo arded</w>
Mo vi
Mo tor
au ti
0. 65</w>
0. 67</w>
0. 71</w>
ric al</w>
off ence</w>
ju dic
equ ally</w>
br e</w>
wi fe</w>
wi dowed</w>
pp y</w>
Fac tory</w>
min oph
Sp en
Sp eci
car ry</w>
car rying</w>
sub stitu
pass words</w>
Gre ta</w>
Re ti
Re ebok</w>
franchi sed</w>
fu n</w>
mi st</w>
mi se</w>
ect ors</w>
te ller</w>
ob structive</w>
Con sequ
Con stitution</w>
Con ference</w>
ca sting</w>
ca tholic</w>
An der
An dr
bro kerage</w>
af firm
af raid</w>
1, 400</w>
1, 600</w>
thir teen</w>
Ar cel
Ar unachal</w>
Pro v
Mexic ans</w>
sup posed</w>
loc kdowns</w>
Perc eived</w>
Co tton</w>
18 8</w>
18 65</w>
part ner
Wh e
sig nings</w>
sig n-
urb anized</w>
net -
net t</w>
pac ks</w>
Belgi ans</w>
Li ke
Li ght</w>
hea ded</w>
Po tter</w>
dro ps</w>
dro me</w>
Com posite</w>
pay -
pay ers</w>
sal t</w>
go al
eth eless</w>
Den so</w>
har m</w>
Inter mediate</w>
Inter estingly</w>
uni or</w>
equi val
ffer son</w>
ten g</w>
St ars</w>
St ress</w>
St eph
Pri x</w>
Pri son</w>
cont ext</w>
coll ecti
coll ect</w>
custom s</w>
mat urity</w>
3, 500</w>
ado es</w>
holi day
ste als</w>
prof essions</w>
belie f</w>
appl y</w>
17 65</w>
drin kers</w>
flu id</w>
tre m
rac es</w>
compu ted</w>
Foo ds</w>
Foo twear</w>
Pac ers</w>
kn owing</w>
lar ies</w>
Cen tre</w>
De pot</w>
ref us
pi e</w>
head set</w>
head count</w>
eri al</w>
read er</w>
autom aker</w>
sw ays</w>
Pre d
Chri s</w>
compl eting</w>
dri lling</w>
Ha ving</w>
7, 5
Gam ing</w>
reco vering</w>
insta lls</w>
Lux ury</w>
nec tar</w>
For ce</w>
cal ories</w>
Bu reau</w>
Pl c</w>
assi stants</w>
IC ICI</w>
diagno stic</w>
23. 9</w>
8, 8
8, 9
Su ch</w>
migr ated</w>
stric ts</w>
sof as</w>
Car los</w>
gl er</w>
Le on</w>
Se lling</w>
Joh annes
26. 8</w>
person ality</w>
Ad derall</w>
communic ating</w>
Fer n
tonn age</w>
Br its</w>
hand le</w>
Cap i
Cap acity</w>
Wal -
writ ers</w>
tax i</w>
tax ation</w>
behavi our</w>
ssi er</w>
continu es</w>
depend ents</w>
28. 7</w>
28. 4</w>
land ings</w>
in- game</w>
50 5</w>
Ob amacare</w>
defin es</w>
defin itely</w>
col n</w>
col i</w>
spe eches</w>
Tex as-based</w>
prin ters</w>
Ge o
30. 2</w>
Or der</w>
od ine</w>
sponsor ed</w>
ox ides</w>
29. 8</w>
super vision</w>
influen cer</w>
35. 4</w>
fast -food</w>
Proj ections</w>
foun der</w>
37. 4</w>
Win d</w>
Premi ership</w>
34. 8</w>
34. 9</w>
Ni xon</w>
2006 /2007</w>
stro ke</w>
40. 7</w>
40. 8</w>
fix ed-line</w>
weal thy</w>
accep t</w>
micro processor</w>
Fur ther</w>
Lin coln</w>
Mi ele</w>
38. 6</w>
38. 2</w>
Est onian</w>
anim e</w>
anim ated</w>
mus ts</w>
offic er</w>
analy zing</w>
dr yer</w>
Gold corp</w>
clos er</w>
pack ages</w>
IT C</w>
desig ns</w>
Canadi ens</w>
inten sity</w>
NA TO</w>
her d</w>
her pes</w>
tro ops</w>
Bro wn</w>
PM I</w>
scen e</w>
celeb rating</w>
celeb rated</w>
Sain t-
Bir ming
initi atives</w>
charac ter</w>
strong est</w>
cons ent</w>
Play erUn
tour s</w>
meth amphetamine</w>
50. 8</w>
medi tation</w>
Stati stical</w>
rail roads</w>
Bal tic</w>
dur able</w>
25 th</w>
bri d
expres sways</w>
Ber nie</w>
Direc tor</w>
29 ,000</w>
attrac tion</w>
49. 6</w>
49. 5</w>
68. 3</w>
Ten dul
Pi aggio</w>
alter n
69. 6</w>
Nu tri
promo tions</w>
promo ting</w>
1,9 00</w>
chec k-
ster ling</w>
mid- 2020</w>
mid- career</w>
bloc king</w>
preven ted</w>
tran sition</w>
leg ally</w>
leg alized</w>
hyper market</w>
Ben z</w>
Ok rug</w>
Ed monton</w>
clim bed</w>
same- day</w>
iP od</w>
Out let</w>
Pharmac y</w>
12, 5
deter mined</w>
Bot tega</w>
LGB T
nur sery</w>
oscill ation</w>
oscill ating</w>
aver aging</w>
flo ws</w>
Rec ycling</w>
liqu ids</w>
preci ous</w>
Elect ro
disp ens
bankrup t</w>
Cre w</w>
Ri ver</w>
Ri yal</w>
Org anic</w>
utili zed</w>
IS IS</w>
add resses</w>
Merce des-
Je fferson</w>
Ty pe</w>
multi- channel</w>
senten ces</w>
Institu tes</w>
Holl and</w>
Civi lian</w>
Cal vin</w>
Cal abria</w>
tech ni
lap tops</w>
impres sion</w>
CP M</w>
Sha des</w>
AM L</w>
HD D</w>
15, 9
Hea dquartered</w>
Catal an</w>
Hen ry</w>
cam era</w>
decor ated</w>
perpetr ated</w>
Ko h
Ven ice</w>
Ven eta</w>
Vinc i</w>
two- thirds</w>
robber y</w>
Sci ences</w>
Ul timate</w>
regul ations</w>
Bloom berg</w>
Tran sport</w>
wall ets</w>
top- selling</w>
expec tation</w>
na taka</w>
renov ations</w>
Cura Ã§
opio ids</w>
ja b</w>
devi ated</w>
not ebooks</w>
collea gues</w>
Ferr ag
Av on</w>
Cine plex</w>
Foun ded</w>
sha fen</w>
take out</w>
distribu tor</w>
tend ency</w>
vita min</w>
resol ution</w>
democ rati
sanitiz er</w>
RO E</w>
pedestri ans</w>
avoc ado</w>
Work place</w>
Work shop</w>
happen ing</w>
TV s</w>
quin tal</w>
spou se</w>
intern ship</w>
Adv air</w>
over-the- top</w>
hashta g</w>
bun g
mom ent</w>
mom ents</w>
petro l</w>
chea per</w>
cyber crime</w>
volunte ering</w>
Adul ts</w>
Blu es</w>
Zu rich</w>
roy ale</w>
prote sters</w>
compro mise</w>
impro ving</w>
Pota shCorp</w>
Cer ner</w>
Kar nataka</w>
ate way</w>
caf es</w>
Assi stance</w>
doub t</w>
BL S</w>
MM R</w>
ide a</w>
urban ity</w>
resear ched</w>
nutri tional</w>
discus sed</w>
Emi li
Ger main</w>
Mul ti
Rel igion</w>
Yo u</w>
kill ing</w>
pra m</w>
al/ urban</w>
host el</w>
agri -food</w>
figh ters</w>
Sever al</w>
farm land</w>
Des k
Equ ity</w>
Peter sburg</w>
Ronal do</w>
arch it
deser t</w>
conver ted</w>
incarcer ation</w>
pell ets</w>
Alex ander</w>
Commit tee</w>
undernouri shed</w>
Wiz ards</w>
Musli m</w>
ASM L</w>
Cab o</w>
Nam co</w>
tum n</w>
robo ts</w>
plum bing</w>
depar ting</w>
Moder n</w>
advan tage</w>
Agri cole</w>
appoint ment</w>
Ax is</w>
Gan nett</w>
Tit ans</w>
Tou rism</w>
ride- hailing</w>
pled ged</w>
ultra- low</w>
trigg ered</w>
fort une</w>
Europe ans</w>
budge ted</w>
compli ance</w>
athlet e</w>
Charl ton</w>
mail- order</w>
Suppl emental</w>
Batt legrounds</w>
Epi P
Gau teng</w>
Jour nal</w>
K- 12</w>
Pun jab</w>
percenta ges</w>
liber al</w>
peace ful</w>
paper board</w>
foreign- born</w>
se-value-to- EBITDA</w>
A. P</w>
BS H</w>
Hud son</w>
Rene wable</w>
ade qu
rur al/urban</w>
five- star</w>
torn adoes</w>
burg laries</w>
polye thylene</w>
stockp iling</w>
disinfect ants</w>
Aja x</w>
Avalan che</w>
Cater pillar</w>
Foc us</w>
H1N 1</w>
Iran ian</w>
Mail .ru</w>
Qash qai</w>
Qanta s</w>
Santi ago</w>
Wel sh</w>
Wran gler</w>
Well -Being</w>
deng ue</w>
gast ro
ux e</w>
vag inal</w>
yar n</w>
tiss ue</w>
indi genous</w>
rele vant</w>
remit t
talo pram</w>
orMit tal</w>
urani um</w>
conce ded</w>
counsel ing</w>
ranso m</w>
not- for-profit</w>
minoph en</w>
Arcel orMittal</w>
Johannes burg</w>
Tendul kar</w>
Mercedes- Benz</w>
' S
- My
- offs</w>
. C</w>
. In</w>
/ PAYE</w>
1 54</w>
2 18</w>
2 1st</w>
2 34</w>
2 4,
2 41</w>
2 63</w>
2 62</w>
2 67</w>
2 82</w>
2 97</w>
2 98</w>
3 15</w>
3 25</w>
3 16</w>
3 14</w>
3 28</w>
3 29</w>
3 11</w>
3 /0
3 45</w>
3 75</w>
3 26</w>
3 55</w>
3 48</w>
3 59</w>
3 79</w>
3 9,
3 1.4</w>
3 2.8</w>
3 3.6</w>
3 2.1</w>
3 3.1</w>
4 G</w>
4 23</w>
4 32</w>
4 7,
4 87</w>
4 91</w>
4 5.4</w>
5 th</w>
5 50</w>
5 2,
5 90</w>
5 1.2</w>
5 5.6</w>
5 4.7</w>
5 00,000</w>
6 8
6 30</w>
6 40</w>
6 23</w>
6 32</w>
6 61</w>
6 1.4</w>
6 0,
6 6.7</w>
6 8,7
7 50</w>
7 60</w>
7 75</w>
7 80</w>
7 37</w>
7 4.2</w>
8 10</w>
8 0,
9 0
9 9
9 3.
9 50</w>
9 2.5</w>
A -
A qu
A way</w>
A war
A part</w>
A CA</w>
B ow
B ath</w>
B tu</w>
C ome
C ard</w>
C ath
C DC</w>
C esarean</w>
D E
D e</w>
D ani
D ans
D ev
D rug</w>
E Y</w>
E li
E ve</w>
E dison</w>
F .</w>
F ro
G f
G o</w>
G at
G ay</w>
G od
G Ps</w>
H on
H al
H im
H all
H earth
I A
I M</w>
I su
I SA</w>
J .</w>
J an</w>
J ob
J har
J r.</w>
K an
K ol
K le
K ev
K Ga
L or
L ion</w>
L un
M ir
M atch</w>
N y
N S</w>
N on
N ag
N ation</w>
N ene
N ot
N .V.</w>
O B
O m
O pen
O dish
O ilers</w>
P el
P andemic</w>
P residents</w>
Q do
R s</w>
R C</w>
R ac
R af
R yan</w>
S c
S chi
S af
S qui
S imm
S NA
S ources</w>
S ammy</w>
T u
T I</w>
U C
U R
U u
U s</w>
V I</w>
V AT
W o
W at
W oo
X ia
Z la
a the
a stri
a wei</w>
b b</w>
b or</w>
b le
b ond</w>
b ble</w>
b reach</w>
b rain</w>
c l</w>
c it
c ad
c tions</w>
c enter
d on</w>
d son</w>
d ance</w>
d den</w>
d ark</w>
e dic
e tiz
e vid
f ron
f old</w>
g on
g ars</w>
g led</w>
i er</w>
i di
i ze</w>
i Player</w>
i odine</w>
j ans</w>
k ok</w>
k hand</w>
k itch
l one</w>
l ard</w>
l ington</w>
l emon</w>
m o</w>
m 3</w>
m enta
m yo
m issions</w>
m ful</w>
m DAU</w>
n x</w>
n ex
o th</w>
o ther
p /
p l</w>
p on
p om
p are</w>
p est</w>
s q</w>
s lo
s way</w>
s nap
t v</w>
t ent</w>
t ted</w>
t reasury</w>
u -
u sia</w>
v ans</w>
v oc
v ard</w>
v re</w>
v ine
w ning</w>
w ick</w>
x -
x ter</w>
y er
y ant</w>
z u</w>
z z</w>
Î le-de-France</w>
ó le
20 2</w>
ti an</w>
ti re</w>
er an</w>
er ated</w>
er ries</w>
er bet</w>
in si
in sp
in ian</w>
an c
an al</w>
an cing</w>
ro gen
ro ll</w>
ro lling</w>
en cing</w>
en listed</w>
201 .
ar ch</w>
re es</w>
re pl
re insurance</w>
re uni
re viewed</w>
re medi
re tention</w>
re parations</w>
on ment</w>
on ic</w>
on ym
or ice</w>
it ance</w>
ll ywood</w>
at -
at or
at lan
al i</w>
al ongside</w>
al usia</w>
ea si
ea bly</w>
ri er</w>
ri ding</w>
ri ous</w>
ri de</w>
ri ders</w>
om y</w>
om er</w>
om mu
sta t</w>
sta ke
sta sy</w>
sta bili
per form</w>
ho si
ec stasy</w>
ic ans</w>
do w</w>
do sage</w>
ac a</w>
el sea</w>
di pl
di lu
di min
di stricts</w>
pro pri
pro gress</w>
ag o
ag ic</w>
ag eing</w>
ag na</w>
as ide</w>
am o</w>
am bul
200 0s</w>
200 3/0
Th re
Th un
vi ties</w>
ap est</w>
un limited</w>
un safe</w>
com m</w>
li gh
li se</w>
de tain
po ses</w>
si um</w>
si maa</w>
tr aline</w>
tr óle
Sta tutory</w>
con doms</w>
mo tivated</w>
to w
to s</w>
to pl
ha ir
ex ity</w>
wor n</w>
wor ry</w>
fi es</w>
lo gg
im ages</w>
we l</w>
co pe</w>
co habi
ad venture</w>
ad dicted</w>
ing -
ab sor
ru be
ru ptions</w>
gro cers</w>
comp ul
comp eting</w>
comp act</w>
mar athon</w>
mar gins</w>
ter -
se vel
se ille</w>
sh ing
ch en</w>
ch ment</w>
ci ally</w>
ci talopram</w>
ci gars</w>
19 28</w>
19 35</w>
19 49</w>
19 63</w>
19 03</w>
19 50s</w>
19 60s</w>
bi as</w>
bi ans</w>
ye ar
sp s</w>
sp ar</w>
sp end
tri al</w>
tri cy
tri pled</w>
reg ations</w>
resp ond</w>
appro ach</w>
pe g</w>
pe di
me ga
gr ains</w>
exp anded</w>
pre pare</w>
il es</w>
il ty</w>
for ints</w>
for cible</w>
dis rup
dis charged</w>
dis embar
dis ruptions</w>
anu s</w>
all owance</w>
whi stling</w>
1. 18</w>
1. 32</w>
1. 63</w>
1. 78</w>
1. 67</w>
1. 94</w>
1. 08</w>
Can nes</w>
par cel</w>
par kland</w>
gi stics</w>
ma ster</w>
mon etiz
so y</w>
COV ID</w>
Mar t</w>
Mar ia</w>
Mar athon</w>
Mar seille</w>
2. 29</w>
2. 27</w>
2. 13</w>
2. 64</w>
2. 36</w>
2. 37</w>
2. 76</w>
2. 63</w>
2. 61</w>
2. 85</w>
2. 97</w>
Euro zone</w>
le i</w>
le eks</w>
199 .
lu en
Bri d
Bri stol
3. 19</w>
3. 75</w>
3. 64</w>
3. 37</w>
3. 47</w>
3. 85</w>
3. 92</w>
3. 97</w>
Ne ut
Ch u
Ch ro
Ch elsea</w>
fac es</w>
cas s</w>
Ac ross</w>
pea ks</w>
fin ery</w>
4. 15</w>
4. 11</w>
4. 66</w>
4. 08</w>
cl ou
cl ick-
ear ners</w>
over y</w>
5. 49</w>
5. 76</w>
5. 08</w>
eng o</w>
6. 25</w>
6. 42</w>
6. 47</w>
inf l
acc el
Au th
Au di
mill e</w>
oc cur
gam er</w>
ni ght
ni peg</w>
fe ed
ess ment</w>
bo t</w>
bo asted</w>
bo wel</w>
ng a</w>
Mo lise</w>
au tumn</w>
enti rely</w>
lan e-
0. 53</w>
0. 76</w>
0. 61</w>
0. 77</w>
ju te</w>
goo gled</w>
Di es
Di agno
cur ling</w>
child birth</w>
child less</w>
br inging</w>
Fac e</w>
av a</w>
Sp i
Sp ring</w>
car d
car ts</w>
car cass</w>
hal ved</w>
e- retailer</w>
comm and</w>
Re volution</w>
fu eled</w>
on- based</w>
recor d-
Con n
Con version</w>
ca uli
An aly
ali ve</w>
bro ke</w>
Al ter
1, 200</w>
Ar ch</w>
Ar ena</w>
govern ing</w>
govern men
Pro tec
air plan
Co rona</w>
18 ,000</w>
poin ts
sig n
resid ed</w>
Li fe
ren ting</w>
ren owned</w>
can ola</w>
Po t
Bo b</w>
Bo dy</w>
hospi talization</w>
dro wning</w>
den s
den ied</w>
Ap parent</w>
Fin ance</w>
Par amount</w>
Par cel</w>
hot el
ga thered</w>
sal ty</w>
dem ographi
dem anded</w>
go at</w>
2, 700</w>
non- working</w>
non- negligent</w>
bud getary</w>
har mful</w>
Inter active</w>
Inter Continental</w>
direc t-to-
visi tation</w>
cen sor
tac kle</w>
poli tics</w>
Fi ji</w>
speci ally</w>
speci alties</w>
St ory</w>
Ma astri
Pri or</w>
ak i</w>
coll ap
coll ectively</w>
On ce</w>
bl ack
eu r</w>
Mon etary</w>
3, 300</w>
Rom agna</w>
cre dit
down time</w>
down turn</w>
soci ally</w>
clu ster</w>
sk ating</w>
week ends</w>
cho king</w>
gar lic</w>
gar cane</w>
ly -
10. 33</w>
Ex ternal</w>
mem ory</w>
shar k</w>
Inf luen
unic orn</w>
four -year</w>
17 ,000</w>
fav our
orig ins</w>
rac i
win d
win eries</w>
travel s</w>
thin king</w>
perform ers</w>
health -related</w>
bal anced</w>
star ts</w>
star ch</w>
imm une</w>
imm uni
Lu k
sol ved</w>
bel ts</w>
Cen tury</w>
head sets</w>
Viet tel</w>
anti biotics</w>
obser ve</w>
char est</w>
char ge</w>
6, 500</w>
Air Asia</w>
up hol
up dates</w>
vari ants</w>
Jo b</w>
Jo se</w>
Ro ss
bur den</w>
bur gers</w>
rupe e</w>
compl ications</w>
compl exity</w>
ori an</w>
ori zations</w>
deli ver</w>
occurr ence</w>
audi t</w>
audi ob
stream ers</w>
under taken</w>
under ground</w>
under weight</w>
under -five</w>
Min i</w>
Min nea
nec k</w>
reli gi
For t</w>
gawat t-
Dem and</w>
cal ves</w>
Over watch</w>
Bu en
Bu cks</w>
Bu charest</w>
agg ression</w>
Pl ant</w>
IC 3</w>
job less</w>
dep ends</w>
23. 1</w>
20. 5</w>
20. 2</w>
condi tion
cou rier</w>
cir cul
Ba xter</w>
sof tball</w>
Car l</w>
Car bon</w>
Im migration</w>
Dis ease</w>
Dis pos
Le on
tion ed</w>
motorcy clists</w>
27. 8</w>
27. 3</w>
nation alities</w>
organi s
At l
sen ators</w>
sen sor</w>
marri ed-
Phili p</w>
self- medication</w>
contrac ted</w>
Br ent</w>
Br yant</w>
low er-
Sy stems</w>
Chic ken</w>
behavi oral</w>
land ed</w>
land lor
land fills</w>
50 4</w>
Philipp ine</w>
25. 1</w>
mess age</w>
spe ech</w>
24. 7</w>
24. 3</w>
30. 3</w>
Mid west</w>
cop y</w>
cop yright</w>
22. 6</w>
22. 4</w>
main land</w>
situ ated</w>
er- owned</w>
29. 4</w>
29. 2</w>
tex t
Ir ving</w>
Si ber
life sty
bio gas</w>
bio fuels</w>
36. 7</w>
36. 1</w>
targ eting</w>
Win nipeg</w>
distin ct</w>
Be fore</w>
CA R</w>
34. 7</w>
34. 3</w>
34. 6</w>
s- producing</w>
shor test</w>
fall s</w>
Donal ds</w>
Ukra inian</w>
Bud apest</w>
Mc Donalds</w>
prec au
exc ep
questi oned</w>
40. 5</w>
40. 9</w>
he w</w>
Whats app</w>
micro blogging</w>
auth ority</w>
auth orized</w>
y- adjusted</w>
Mi ke</w>
PA CE</w>
38. 7</w>
38. 5</w>
38. 4</w>
46. 2</w>
origin ating</w>
list ened</w>
numer ous</w>
calcul ations</w>
rap es</w>
hold er-owned</w>
offic e-based</w>
Elec tions</w>
sun glasses</w>
loo ks</w>
epid emics</w>
Cub an</w>
gran ts</w>
Appro ximate</w>
NA S
Bang kok</w>
vacc inations</w>
vacc inated</w>
Har yana</w>
Har vard</w>
confecti onary</w>
aw a</w>
ful fillment</w>
pr o</w>
a- Romagna</w>
initi ative</w>
cons ci
Do ssier</w>
contribu tes</w>
contribu ting</w>
cle arly</w>
spea k</w>
mini ster</w>
dur um</w>
bri be</w>
ann i</w>
counter parts</w>
refl ected</w>
let ter</w>
60. 5</w>
coo kies</w>
coo kware</w>
adv ances</w>
47. 8</w>
47. 3</w>
OE M</w>
New mont</w>
ML S</w>
fire arm</w>
stu dios</w>
48. 2</w>
acqu ire</w>
extre mist</w>
impl ement</w>
Lo gistics</w>
appear ance</w>
Pe tróle
chec ks</w>
Phar ma</w>
Que en</w>
FT E</w>
del uxe</w>
tran ger</w>
27 th</w>
Hu awei</w>
pa ved</w>
pan cre
tall est</w>
survi ved</w>
correc t</w>
cardi al</w>
cardi ology</w>
hydro electric</w>
iP ad</w>
Out back</w>
Sea sonal</w>
conc ept</w>
conc essions</w>
deter gent</w>
best- rated</w>
Ta ji
sou p</w>
Rec overy</w>
modi fied</w>
Cl ass</w>
Cl oud</w>
Asi an/
Hor de</w>
Cri sti
slow ed</w>
serv atives</w>
notic eably</w>
Mor ris
hor ror</w>
consequ ent</w>
Custom s</w>
80. 7</w>
Vod ka</w>
cros sing</w>
Cardin al</w>
Go Euro</w>
Herm Ã¨s</w>
eye glasses</w>
26 ,000</w>
dish es</w>
bush fire</w>
HD B</w>
HD FC</w>
post- war</w>
share holder-owned</w>
dead ly</w>
after market</w>
after -tax</w>
home -
And alusia</w>
Disne yland</w>
cam p</w>
recomm end</w>
decor ation</w>
decor ating</w>
eigh teenth</w>
fertili zers</w>
extrem ists</w>
Ly ft</w>
Mast ers</w>
Bei j
Ot ta
ware houses</w>
highli ghting</w>
water sport</w>
water houseCoopers</w>
30, 017</w>
mand ate</w>
requi res</w>
disab led</w>
disab ling</w>
certi fic
Fu rious</w>
Str ateg
PI s</w>
per- capita</w>
pip elines</w>
Mat ter</w>
Tig er</w>
parti al</w>
CI S</w>
commit ment</w>
Av ail
Dol ce</w>
Stu art</w>
Thi rd</w>
block bu
kno ck
disti ll
and- collect</w>
trad ers</w>
even tually</w>
into x
resi dual</w>
free zers</w>
threat ening</w>
intell igent</w>
assum ing</w>
moun tains</w>
alk alo
prote in</w>
user- generated</w>
preser ved</w>
video- on-demand</w>
Ass essment</w>
Flam engo</w>
pineap ples</w>
disclo sed</w>
DV D</w>
DV LA</w>
RW C</w>
group ing</w>
champ agne</w>
Most- followed</w>
Spani sh-
Roy als</w>
age- standardized</w>
Broad casting</w>
bing e</w>
plas ma</w>
Comm ons</w>
Comm unity</w>
concus sion</w>
concus sions</w>
Big gest</w>
Brit ons</w>
CR M</w>
Fa tality</w>
Vis it
cong regations</w>
Individu als</w>
endor sements</w>
novel s</w>
tradi tions</w>
Occup ancy</w>
Roo sevel
Sof tware</w>
Tru st</w>
rhe um
pro- choice</w>
Ther esa</w>
shut downs</w>
Fif ty</w>
Histor ical</w>
bacter ial</w>
Justi ce</w>
telem edic
Band ai</w>
GH G</w>
HN WI</w>
sand wich</w>
tari ffs</w>
impea chment</w>
margin al</w>
near est</w>
Automo biles</w>
She eran</w>
Appli ance</w>
run- scorers</w>
Google Plus</w>
Syri an</w>
landsc ape</w>
cryp tocurrency</w>
frame work</w>
Citro en</w>
Ame y</w>
NI H</w>
UK IP</w>
now adays</w>
ity -based</w>
highest- grossing</w>
ready- to-
wheel er</w>
deleg ates</w>
sett lements</w>
lubric ant</w>
coronavirus -related</w>
Davi dson</w>
Home Away</w>
Jer emy</w>
Lis bon</w>
Ow nership</w>
Scri pts</w>
Zy nga</w>
ballo ts</w>
crac kers</w>
hurric anes</w>
propos als</w>
dev a
moi stu
Info comm</w>
Particip ation</w>
special ised</w>
garden ing</w>
backpac kers</w>
freelan cers</w>
L'Or éal</w>
British- headquartered</w>
Price waterhouseCoopers</w>
HF CE</w>
LS S</w>
fet ch</w>
arrang ements</w>
percei ve</w>
countr y
incenti ves</w>
pestic ides</w>
own- label</w>
neo plas
cash back</w>
auti sm</w>
Ander son</w>
Like wise</w>
equival ents</w>
Wal- Mart</w>
Geo x</w>
Saint- Germain</w>
Electro lux</w>
techni ques</w>
CuraÃ§ ao</w>
Ferrag amo</w>
democrati c</w>
Emili a-Romagna</w>
Desk top</w>
-My ers</w>
Cath ol
Dev on</w>
Gf K</w>
Gat wick</w>
Him achal</w>
Hearth stone</w>
Isu zu</w>
Jhar khand</w>
Kev in</w>
KGa A</w>
Nene ts</w>
Odish a</w>
Qdo ba</w>
Sc ania</w>
Squi bb</w>
SNA P</w>
Uu simaa</w>
VAT /PAYE</w>
Xia omi</w>
Zla tan</w>
kitch en
myo cardial</w>
slo gan</w>
yer ba</w>
insp ired</w>
rogen a</w>
ommu ting</w>
stake holders</w>
hosi ery</w>
dipl oma</w>
dimin ished</w>
2003/0 4</w>
Thun berg</w>
detain ees</w>
rube lla</w>
monetiz able</w>
Bristol -Myers</w>
Neut rogena</w>
click- and-collect</w>
lane- kilometers</w>
governmen t-
points -based</w>
Maastri cht</w>
Ross mann</w>
Minnea poli
married- couple</w>
Taji kistan</w>
Roosevel t</w>
telemedic ine</w>
- D
- R
- electric</w>
- star</w>
- Star</w>
. A.P</w>
/ rural</w>
1 1,000</w>
1 3,
1 58</w>
1 15.
1 24.
1 46.
1 30,
2 you</w>
2 32</w>
2 36</w>
2 39</w>
2 68</w>
2 79</w>
2 77</w>
2 81</w>
2 99</w>
2 91</w>
2 49.
3 G</w>
3 40</w>
3 1st</w>
3 22</w>
3 6,
3 68</w>
3 71</w>
3 8,
3 1.6</w>
3 2.4</w>
3 3.3</w>
3 3.9</w>
4 2
4 19</w>
4 12</w>
4 28</w>
4 75</w>
4 37</w>
4 47</w>
4 67</w>
4 1.3</w>
4 3.6</w>
4 2.4</w>
4 2.7</w>
4 4.5</w>
4 3.8</w>
4 4.7</w>
4 5.3</w>
4 4,6
5 10</w>
5 40</w>
5 46</w>
5 43</w>
5 61</w>
5 93</w>
5 91</w>
5 1.3</w>
6 35</w>
6 13</w>
6 74</w>
6 1.2</w>
6 4.5</w>
6 02</w>
6 3.1</w>
6 3.9</w>
6 4.4</w>
7 30</w>
7 35</w>
7 2.6</w>
7 5.4</w>
7 5,000</w>
8 5
8 20</w>
8 70</w>
8 54</w>
8 63</w>
8 52</w>
8 5.5</w>
8 7.7</w>
9 07</w>
9 04</w>
9 5.6</w>
9 0,000</w>
9 9.5</w>
= 100</w>
A L</w>
A D</w>
A do
A uro
A ff
A gre
A pac
B y
B ed</w>
B ing
B arg
B each</w>
B eer</w>
B ron</w>
C V</w>
C ir
C au
C air
C lear
C ase</w>
C IC</w>
D r
D re
D ance</w>
D oc
D urban</w>
D aim
D ota</w>
D VR</w>
D 2C</w>
D SW</w>
E i
E at</w>
E ff
E PI</w>
E din
E ach</w>
E HR</w>
F B
F ul
F all</w>
F ar</w>
F aro
F BS</w>
G L
G O
G V</w>
G as</w>
G ron
G ates</w>
G PV</w>
G .A.P</w>
H S</w>
H and
H ear
H BO</w>
I G
I R
I ber
I bra
J SC</w>
K it</w>
K mart</w>
K aw
L M</w>
L .</w>
L D</w>
L am
L ast</w>
L ei
L ud
L ong
L abor
L loy
L ego</w>
M O</w>
M ap
M es
M and
M eg
M ail</w>
M IN
M OO
N S
N L</w>
N em
N ail</w>
N BC</w>
N PS
O f
O N</w>
O lli
O wing</w>
O sl
O ax
P T</w>
P G</w>
P in
P em
P ad
P ru
P reven
P ubli
P ound</w>
P ion
P ublic
P OS</w>
Q '
Q i
Q at
R T
R BC</w>
R egal</w>
S T
S é
S L</w>
S .</w>
S at
S ic
S li
S ates</w>
S ong</w>
S watch</w>
S CO</w>
S ega</w>
S án
S tranger</w>
T ab
T ata</w>
T ali
T into</w>
T SA</w>
T LD</w>
U z
V im
V ale</w>
V ice</w>
V RB
V III</w>
W E</w>
W eb
W ear
W aste</w>
W allo
W ater
W TI</w>
X R</w>
Z v
Z elle</w>
a u</w>
a er
a dium</w>
b ron
b ow
b bed</w>
c -
c can</w>
c cio</w>
c acha
c coli</w>
d ar</w>
d les</w>
d ynam
d yes</w>
d rew</w>
d Press</w>
d 2you</w>
e e
e v</w>
e dia</w>
e ania</w>
e views</w>
f ly</w>
g ab
g ge</w>
g os</w>
g ang</w>
h en
h ep
h ull</w>
i ve</w>
i res</w>
i ther</w>
i um</w>
i table</w>
i ster</w>
i fication</w>
j ac
j ail</w>
k m
k r
k en
k ations</w>
k ka
l s
l i</w>
l an</w>
l ers</w>
l ator</w>
l -related</w>
l pool</w>
l bs</w>
m t</w>
m ass
m ud
m ill</w>
m ath</w>
m ington</w>
m assively</w>
n ill
n ci
n ation-
o at</w>
o ted</w>
o lia</w>
o sk</w>
p el
p ins</w>
p uni
p air</w>
r an</w>
r ings</w>
r star</w>
r hub
r lpool</w>
s i</w>
s at</w>
s le</w>
s have</w>
s its</w>
s end</w>
s ings</w>
s la
s having</w>
s lower</w>
s .com</w>
s burger</w>
t r</w>
t et
t equ
t ancy</w>
t ones</w>
t uli
v it
v ou
v or</w>
v ect
w ed</w>
w af
w ast
w anese</w>
x air</w>
y t</w>
y mium</w>
z ol
z ek
â ‚</w>
ç a</w>
é dit</w>
th qu
th yro
20 39</w>
20 20.
ti pping</w>
er Card</w>
in d</w>
in sec
in form
in coming</w>
in da</w>
in formal</w>
ro s</w>
ro ll
ro ses</w>
ro lled</w>
ro lla</w>
ro ller</w>
en se</w>
en tive</w>
en cry
201 0s</w>
ar b</w>
ar ama</w>
re j</w>
re as</w>
re age</w>
re ates</w>
re vol
re production</w>
re use</w>
re four</w>
re ward</w>
ta di
ta te</w>
on e
on ion</w>
or m
or ly</w>
or ic</w>
or rh
it -
it ri
it arian</w>
ll e</w>
ll ings</w>
hi movi
hi ma</w>
at ore</w>
at ches</w>
ea kers</w>
ea sure</w>
ri des</w>
ri es/
ri ght-
om es</w>
om ing/
sta gg
ill ance</w>
st ence</w>
st -time</w>
ho gs</w>
ho kes</w>
ho ods</w>
ec o
ec ake</w>
ic iled</w>
um ping</w>
ac ru
ac id</w>
ac reage</w>
el ement</w>
di stances</w>
pro p
pro hi
pro test</w>
ag -L
pl ying</w>
pl easure</w>
du al-
du bbed</w>
as go
as aki</w>
am me</w>
am lab
vi ous</w>
vi go
ap ing</w>
ap ter</w>
un -
un ted</w>
un likely</w>
un certain</w>
un surprisingly</w>
ul ic</w>
ul u-
li g
li zation</w>
li ra</w>
de fen
de posit
ver zek
po ppy</w>
po orly</w>
us hima</w>
con sec
mo on</w>
to ta
to pics</w>
to oth</w>
id el
id ental</w>
ha ll
ex tor
ex actly</w>
wor ries</w>
et ton</w>
fi bri
fi elded</w>
lo rec
lo aded</w>
ve a</w>
ve Corp</w>
we lls</w>
co con
co inc
co sting</w>
co ck</w>
co al-mining</w>
co lorec
es cho
es sive</w>
es cal
es co</w>
es ecake</w>
ad vi
ad ding</w>
ad ark
ab sent</w>
ru de</w>
gro und
gro oming/
qu e
qu it</w>
qu oted</w>
mar k
mar rying</w>
ol e
sur fing</w>
sh ell</w>
sh ape</w>
sh erbet</w>
ven ir</w>
ven tures</w>
ven sburger</w>
ch back</w>
ch erries</w>
ci an</w>
ci als</w>
19 39</w>
19 58</w>
19 05</w>
19 02</w>
19 00s</w>
19 20s</w>
19 40s</w>
ay as</w>
bi gger</w>
ai sle</w>
bu ff
bu tadi
reas on
sp ice</w>
cor respon
cor relation</w>
inc entive</w>
tri bal</w>
In no
In te
In clu
In dependence</w>
reg ated</w>
sec a</w>
sec ul
str z
su garcane</w>
pres cho
appro xim
surve illance</w>
pe dic
lea ge</w>
me ister</w>
gr aders</w>
be kistan</w>
be dding</w>
mer man</w>
sum s</w>
exp ects</w>
pre cipi
sc ous</w>
sc and
ne ar-
ne ither</w>
il it
for war
dis counters</w>
elec tro
anu el</w>
quar anti
quar tile</w>
all eg
1. 21</w>
1. 22</w>
1. 43</w>
1. 61</w>
1. 79</w>
1. 69</w>
1. 71</w>
1. 82</w>
1. 97</w>
1. 86</w>
1. 91</w>
1. 07</w>
inter action</w>
inter act</w>
inter provincial</w>
ser ves</w>
ser traline</w>
ma fia</w>
CO M</w>
CO ₂</w>
mon ds</w>
ff les</w>
so l</w>
so vo</w>
Mar ine</w>
Mar kets</w>
end ment</w>
end point</w>
pic king</w>
pic tures</w>
chi p</w>
2. 17</w>
2. 21</w>
2. 75</w>
2. 23</w>
2. 44</w>
2. 54</w>
2. 41</w>
2. 47</w>
2. 48</w>
2. 74</w>
2. 52</w>
2. 79</w>
2. 72</w>
2. 99</w>
Euro vision</w>
fir ed</w>
gu ide</w>
servic ed</w>
dic h
dic al</w>
3. 35</w>
3. 65</w>
3. 26</w>
3. 23</w>
3. 54</w>
3. 56</w>
3. 79</w>
3. 69</w>
3. 99</w>
3. 86</w>
3. 93</w>
3. 98</w>
Ch i</w>
Ch eapest</w>
Ac commod
Ac counts</w>
Ac ush
ph as
reac tion</w>
reac tor</w>
op ho
op ted</w>
foo d-
fin ally</w>
4. 25</w>
4. 16</w>
4. 36</w>
4. 73</w>
4. 99</w>
4. 97</w>
4. 86</w>
To gether</w>
cl ay</w>
cl icks</w>
ear ic</w>
vol ati
5. 16</w>
5. 34</w>
5. 44</w>
5. 36</w>
5. 53</w>
is -related</w>
met formin</w>
out performed</w>
out numbered</w>
6. 97</w>
shi llings</w>
inf eri
acc ru
acc idental</w>
ans wer</w>
7. 50</w>
7. 27</w>
ig inal</w>
Sh in
tur key</w>
gam ification</w>
8. 73</w>
ass et-
ni k</w>
ni ps</w>
ther ford</w>
ther eafter</w>
der -
Fran k</w>
ng -related</w>
Mo to
Mo ss
0. 35</w>
0. 22</w>
0. 43</w>
0. 79</w>
0. 81</w>
0. 99</w>
0. 05</w>
off ense</w>
ju an
divi sm</w>
trans ferred</w>
cur ative</w>
child hood</w>
equ ity-based</w>
br ush
Oc eania</w>
port ance</w>
min ers</w>
min im
av y</w>
car av
brea k-
Per sian</w>
sub urban</w>
ari ties</w>
e- in</w>
e- ship</w>
e- retailers</w>
e- parent</w>
Un surprisingly</w>
finan cially</w>
comm is
comm ission</w>
pass ports</w>
Re vol
indic ation</w>
mi leage</w>
ban a</w>
Gro ver</w>
bran dy</w>
ect omy</w>
vo ked</w>
Con cho</w>
Con tent</w>
An adark
eli o</w>
cri ption</w>
bro ccoli</w>
Ar rivals</w>
Pro gr
Pro gress</w>
are lla</w>
purchas ing-
ast ly</w>
ki osk</w>
mor phine</w>
Co rolla</w>
commer cials</w>
18 th</w>
18 30</w>
18 18</w>
18 45</w>
18 56</w>
18 90</w>
18 00s</w>
poin ted</w>
plat ea
100 0
Li ver</w>
Li ke</w>
cha irs</w>
turn around</w>
ren minbi</w>
can ton</w>
can cel</w>
tal -
la as</w>
la kes</w>
Bo got
Bo llywood</w>
fre ely</w>
conduc ting</w>
Wor th</w>
Wor dPress</w>
rin ks</w>
den -
den im</w>
Com ing</w>
Me di
org ans</w>
expen sed</w>
ga ther
ge sic</w>
ge stone</w>
go v</w>
go ers</w>
2, 800</w>
non- users</w>
non- European</w>
non- residents</w>
non- viewers</w>
non- specialized</w>
non- seasonal</w>
non- communicable</w>
eth ylene</w>
Kore ans</w>
fig er</w>
Inter Acti
tac k
signi fies</w>
Fi re
Fi sh
ten s</w>
ten ds</w>
ten ants</w>
Cor s
Cor ning</w>
Cor by
ecti ves</w>
kilo liters</w>
bor o</w>
ber ry</w>
lit res</w>
lit erate</w>
coll ective</w>
coll ections</w>
hom escho
Whi rlpool</w>
tin s</w>
cre ate</w>
cre denti
stic k</w>
pu zz
pu tting</w>
mod eling</w>
Ex ec
mem ber
trac king</w>
lin k</w>
lin ear</w>
bec omes</w>
sear ching</w>
web -based</w>
17 6</w>
17 9</w>
ev o</w>
sa ve</w>
sm an</w>
tre ating</w>
tre ats</w>
boo st</w>
rac e
sex es</w>
sex ist</w>
Por t</w>
pos si
mari juan
kn amed</w>
annu alized</w>
annu ities</w>
imm unity</w>
run k</w>
Lu is</w>
sol o</w>
sol ution</w>
ation /
Gu ess</w>
Gu ccio</w>
De x</w>
jo in</w>
pi on
pi pes</w>
head phone</w>
son ian</w>
aff ects</w>
Bar bie</w>
char ters</w>
Em m
up date</w>
up dated</w>
tru sting</w>
tru ffles</w>
Ro s
Ro ll
Ro ger</w>
Ro gers</w>
Ro tter
bur den
dri es</w>
So fia</w>
So dan
Hun ter</w>
Qu ik
audi ologists</w>
cour ts</w>
work places</w>
stream er</w>
under employment</w>
hy dr
hy dra
lab eled</w>
Min imum</w>
ed a</w>
ed mont</w>
insta bility</w>
fil ers</w>
Bu zz</w>
year- old</w>
che z</w>
Pl an</w>
motor ways</w>
9, 500</w>
19. 9</w>
EU 5</w>
Democ racy</w>
30 8</w>
30 4</w>
lim es</w>
requ est</w>
8, 4
sem ite</w>
Su n</w>
Su stain
condi tioners</w>
cou scous</w>
Car toon</w>
Car ls
Car refour</w>
emer gence</w>
Im portance</w>
Le ón</w>
Le Bron</w>
Se ven</w>
comb ine</w>
26. 1</w>
26. 6</w>
nation alist</w>
smo politan</w>
En during</w>
En viron
Ad ministr
self- publishing</w>
self- funded</w>
pho l</w>
Sy stem</w>
bill ionaire</w>
hand made</w>
Brazi lians</w>
Wal ter</w>
25. 7</w>
Fe b</w>
Vene to</w>
24. 9</w>
od ymium</w>
telec ommuting</w>
22. 9</w>
far es</w>
acad em
phi c</w>
Am gen</w>
Am endment</w>
Venezuel an</w>
16 ,000</w>
35. 9</w>
15 th</w>
Si ege</w>
newsp rint</w>
uti vely</w>
bio pharmaceutical</w>
36. 8</w>
36. 9</w>
37. 7</w>
37. 8</w>
Vir tual</w>
mic ro</w>
Premi um</w>
Ni vea</w>
s- up</w>
s- to-
descri bing</w>
Pr incess</w>
anal gesic</w>
exc av
ext end</w>
40. 1</w>
40. 3</w>
40. 6</w>
conveni ent</w>
Ra vensburger</w>
amm ation</w>
accep ting</w>
micro -
Domin o</w>
auth orizations</w>
y- confirmed</w>
y- operated</w>
Du stin</w>
38. 3</w>
environ menta
Sen ior</w>
non metropolitan</w>
open -
cr ash</w>
dr yers</w>
ES CO</w>
gran t</w>
Vo ice</w>
vir al</w>
deal er</w>
NH CS</w>
associ ates</w>
hum an
Emplo yed</w>
her o</w>
her nia</w>
tro y</w>
tro phy</w>
tro jans</w>
sty ling</w>
Boli vian</w>
sequ el</w>
contro ls</w>
AR T</w>
semi- trailers</w>
Wi ld
aw n</w>
ful ness</w>
prob ation</w>
Sub way</w>
pow ers</w>
pow er-
Star ting</w>
Play station</w>
photo s</w>
Do es</w>
Sa ve</w>
season ings</w>
Gr amm
Tai wanese</w>
broadca sted</w>
50. 9</w>
50. 4</w>
Gi anni</w>
Ver acru
gir l</w>
hap s</w>
hap pen</w>
diabe tics</w>
second- ranked</w>
Salv atore</w>
exam ples</w>
Bal four</w>
Bal earic</w>
teach ing</w>
EU- 27</w>
dies el
39. 3</w>
39. 4</w>
Ber lin
ann ex
cannab is-related</w>
harve sters</w>
29 th</w>
60. 2</w>
Off shore</w>
six ty</w>
coo ked</w>
adv anta
47. 7</w>
47. 5</w>
Pra xair</w>
Reg arding</w>
spo ts</w>
bull fighting</w>
PE RS</w>
Pi edmont</w>
Roc ket</w>
long- haul</w>
long- lasting</w>
48. 3</w>
58. 6</w>
No ble</w>
69. 7</w>
Nu evo</w>
festi val
icon ic</w>
Micha els</w>
Lo ve
Nat ura</w>
chec k
belong s</w>
67. 3</w>
tan ks</w>
tan ker</w>
Bus in
Cru ises</w>
public ations</w>
Moro ccan</w>
mid- June</w>
Lau reates</w>
bloc kers</w>
merch ants</w>
Feder er</w>
del ay</w>
lon itri
lon e-parent</w>
sl ative</w>
most- tweeted</w>
speciali zes</w>
28 th</w>
Ben etton</w>
gy -related</w>
hard ly</w>
clim bing</w>
sn eakers</w>
survi ving</w>
Zim merman</w>
70. 8</w>
Yan g</w>
Yan dex</w>
Cy m
sou venir</w>
South -
59. 8</w>
Rec re
Rec or
quali fications</w>
drug -
hon ey
FY 2019</w>
Hor tons</w>
disp arities</w>
U.S. -
Cri sis</w>
dom iciled</w>
slow down</w>
recipi ent</w>
ky l
furni shed</w>
furni shing</w>
bul bs</w>
â€ œ
Doll arama</w>
des k</w>
des ks</w>
key word</w>
deri vatives</w>
Ear thqu
ski e</w>
ski m</w>
E- book</w>
Sach in</w>
Tri p
Tri logy</w>
ger meister</w>
hem orrh
trail ing</w>
-L ED</w>
Na tal</w>
Na ples</w>
Rap tr</w>
Ve olia</w>
constitu tes</w>
monit or</w>
76 th</w>
CP A</w>
MC O</w>
ER P</w>
fam ine</w>
fam il
umin ous</w>
after math</w>
after shave</w>
Gab bana</w>
extrac ted</w>
smartw atches</w>
All -Star</w>
GM S</w>
she lls</w>
character ized</w>
perpetr ator</w>
Ko sovo</w>
Mast erCard</w>
Rob in</w>
two- wheelers</w>
Tele f
art .com</w>
flav or</w>
Smart phones</w>
60 -
artic hokes</w>
brow sing</w>
Ki k</w>
MS Ps</w>
Sim ple</w>
Prefer ence</w>
Prefer ences</w>
Fu ture</w>
glu ten-
top- level</w>
Stre amlab
Gl asgo
PI SA</w>
renov ated</w>
swit ching</w>
perm it</w>
devi ant
expon entially</w>
Nestl Ã©</w>
subsequ ently</w>
tonne- kilometres</w>
celebr ations</w>
CI A</w>
match day</w>
refriger ators</w>
Ferr ero</w>
Gran de</w>
Stu d
Wil mington</w>
real -time</w>
Acc or</w>
distribu tors</w>
Da um</w>
Oak land
Pal ace</w>
Sil ent</w>
Sil icon</w>
tra- EU</w>
assess ments</w>
homo sexuality</w>
PV C</w>
Smith sonian</w>
make -up</w>
grand parents</w>
toilet ries/
quin tile</w>
intern ally</w>
legi slative</w>
cuis ines</w>
free zer</w>
full- service</w>
Adv anced</w>
Bru gge</w>
Wall et</w>
appoin ted</w>
pump kin</w>
Dub ai</w>
Tom my</w>
moun tain</w>
roy alties</w>
obj ective</w>
obj ectives</w>
Part ners</w>
knowle d
Cr édit</w>
Fres nill
Hum an</w>
RW E</w>
ax y</w>
hat chback</w>
hus ks</w>
embar kations</w>
foot fall</w>
Spani ards</w>
Assi stant</w>
lotter y</w>
vulner abilities</w>
EO G</w>
fab ric</w>
fab rics</w>
urban /rural</w>
stres sed</w>
Infin iti</w>
chick ens</w>
BE C</w>
Yo semite</w>
oil seeds</w>
oil seed</w>
stag n
host els</w>
agri business</w>
figh ter</w>
farm ers</w>
doctor ate</w>
carbon ated</w>
psycho active</w>
Manufac turing</w>
Pres cription</w>
Tech nical</w>
or- borne</w>
stero id</w>
aceta minophen</w>
digi tally</w>
detec tion</w>
cong esti
Individu al</w>
novel ty</w>
tradi tion</w>
Che ese</w>
Che esecake</w>
investig ating</w>
Far fetch</w>
NE T</w>
reci divism</w>
spar ency</w>
short- term</w>
kidnap ping</w>
advoc ate</w>
acry lonitri
larceny- theft</w>
larceny- thefts</w>
intoler ance</w>
mobile- cellular</w>
AL G.A.P</w>
Flu or
Hap ag-L
Lob ster</w>
gau ge</w>
kne e</w>
pap ayas</w>
rar ely</w>
rej ected</w>
perspec tive</w>
aband onment</w>
susta ined</w>
pick up</w>
Alco hol</w>
runner -up</w>
flexi ble</w>
Beat ty</w>
Sky pe</w>
brew eries</w>
clean ers</w>
sweet eners</w>
catastro phic</w>
Abor iginal</w>
Mas an</w>
UN ESCO</w>
pit ch</w>
pag eviews</w>
pig ments</w>
inspir ation</w>
invas ive</w>
unpro voked</w>
desi red</w>
Share d2you</w>
ceram ic</w>
Aram ark</w>
Vie w</w>
organiz ational</w>
pollu ted</w>
PSN Dex</w>
Down stream</w>
football ers</w>
Fuk ushima</w>
Gal axy</w>
Hil figer</w>
ME NA</w>
Mur phy</w>
pall adium</w>
archi pel
ornam ental</w>
uncertain ty</w>
confin ed</w>
ves sel</w>
butter milk</w>
neph ro
boy cot
Russi an-speaking</w>
air- conditioning</w>
Philli ps</w>
pier cings</w>
sensi tivity</w>
hand- held</w>
vacu um</w>
EB- 3</w>
Brand Index</w>
stereo types</w>
Thir ty-
COVID-19 -
tramado l</w>
phenomen on</w>
Sacramen to</w>
supremac ist</w>
mathemati cal</w>
Bat man</w>
Clim ate</w>
Fon seca</w>
LE GO</w>
Mun icip
Sem iconduc
Veter ans</w>
Wea therford</w>
Wim ble
endow ment</w>
tas ks</w>
defa ult</w>
trim m
disbur sements</w>
tutor ing</w>
Spen cer</w>
Consequ ences</w>
affirm atively</w>
partner ships</w>
Whe els</w>
sign- ups</w>
Steph en</w>
collecti ble</w>
trem end
refus als</w>
Pred ators</w>
Nutri en</w>
LGBT Q</w>
Koh l</w>
archit ecture</w>
adequ ate</w>
remitt ance</w>
Dans k</w>
God rej</w>
Kle in</w>
Ny rstar</w>
Non etheless</w>
Not ebook</w>
OB ALG.A.P</w>
Pel icans</w>
Schi phol</w>
Simm ons</w>
athe ists</w>
center -
nex t-day</w>
other wise</w>
pom el
voc ational</w>
ator y-confirmed</w>
atlan tic</w>
propri et
tow els</w>
topl ess</w>
cohabi tation</w>
compul s
spend ings</w>
Brid gestone</w>
Chu ck</w>
Chro me</w>
clou d-based</w>
infl ammation</w>
Dies el</w>
Spi rit</w>
Alter native</w>
demographi cs</w>
direct-to- consumer</w>
censor ing</w>
raci ally</w>
immuni zation</w>
Cristi ano</w>
Morris ons</w>
Beij ing</w>
Avail ability</w>
alkalo ids</w>
deva stating</w>
Cathol ics</w>
kitchen ware</w>
Aff airs</w>
Agre ement</w>
Apac he</w>
Barg ain</w>
Cair o</w>
Daim ler</w>
Faro e</w>
GL OBALG.A.P</w>
Ibra himovi
Kaw asaki</w>
Lloy ds</w>
Map ei</w>
MOO C</w>
NS O</w>
NPS AD</w>
Olli e</w>
Osl o</w>
Oax aca</w>
Pem ex</w>
Pad res</w>
Pru d
Pion eer</w>
Public is</w>
Qi agen</w>
Qat ari</w>
Sé rie</w>
Tali ban</w>
Uz bekistan</w>
Vim eo</w>
VRB O</w>
Wallo on</w>
Zv w</w>
kr ó
nci pe</w>
nation- wide</w>
rhub arb</w>
tet anus</w>
tequ ila</w>
vect or-borne</w>
waf ers</w>
encry ption</w>
stagg ering</w>
vigo rous</w>
ulu- Natal</w>
consec utively</w>
extor tion</w>
fibri ll
ground nut</w>
grooming/ aftershave</w>
buff ets</w>
butadi ene</w>
correspon ds</w>
prescho ols</w>
pedic ure</w>
precipi tation</w>
scand al</w>
Accommod ation</w>
Acush net</w>
inferi or</w>
asset- backed</w>
Moss ack</w>
brush es</w>
break- ins</w>
Anadark o</w>
Bogot á</w>
InterActi veCorp</w>
Corby n</w>
credenti als</w>
Rotter dam</w>
Sodan kyl
Quik silver</w>
hydra ulic</w>
Administr ation</w>
Veracru z</w>
hemorrh agic</w>
gluten- free</w>
Streamlab s</w>
Glasgo w</w>
deviant art.com</w>
toiletries/ grooming/aftershave</w>
Fresnill o</w>
acrylonitri le</w>
Hapag-L loyd</w>
' Big</w>
- J
- S
- -</w>
- to</w>
- 13</w>
- adjusted</w>
- specific</w>
- for-
- Hungarian</w>
. n
. de</w>
. pl</w>
/ 2008</w>
/ loss</w>
/ issues</w>
1 10.
1 21.
1 23.
1 29.
1 3,6
1 3,2
2 /
2 1,000</w>
2 15</w>
2 31</w>
2 27</w>
2 23</w>
2 37</w>
2 76</w>
2 48</w>
2 66</w>
2 74</w>
2 52</w>
2 58</w>
2 86</w>
2 94</w>
2 -year</w>
2 1,6
2 4,9
2 5,2
3 12</w>
3 24</w>
3 27</w>
3 23</w>
3 32</w>
3 36</w>
3 33</w>
3 54</w>
3 37</w>
3 41</w>
3 63</w>
3 66</w>
3 61</w>
3 95</w>
3 7,
3 83</w>
3 82</w>
3 09</w>
3 89</w>
3 91</w>
3 1.2</w>
3 94</w>
3 39.
4 30</w>
4 18</w>
4 25</w>
4 40</w>
4 17</w>
4 35</w>
4 70</w>
4 36</w>
4 4,
4 51</w>
4 48</w>
4 66</w>
4 74</w>
4 43</w>
4 58</w>
4 61</w>
4 57</w>
4 6,
4 56</w>
4 69</w>
4 77</w>
4 83</w>
4 99</w>
4 88</w>
4 96</w>
4 97</w>
4 -year</w>
4 06</w>
4 5.5</w>
4 1.7</w>
4 1.9</w>
4 3.9</w>
4 5.9</w>
4 5,000</w>
5 70</w>
5 47</w>
5 59</w>
5 73</w>
5 2.5</w>
5 2.6</w>
5 5.5</w>
5 5.2</w>
5 5.7</w>
5 3.9</w>
5 4.8</w>
5 6.8</w>
5 000</w>
6 /
6 th</w>
6 19</w>
6 25</w>
6 10</w>
6 60</w>
6 70</w>
6 46</w>
6 47</w>
6 43</w>
6 69</w>
6 2.5</w>
6 09</w>
6 84</w>
6 1.5</w>
6 94</w>
6 03</w>
6 4.7</w>
6 4.1</w>
6 5,000</w>
6 5.8</w>
6 3,000</w>
7 th</w>
7 9/
7 40</w>
7 70</w>
7 55</w>
7 32</w>
7 51</w>
7 57</w>
7 6,
7 67</w>
7 87</w>
7 2.5</w>
7 98</w>
7 01</w>
7 08</w>
7 3.4</w>
7 5.6</w>
7 8.4</w>
7 6.1</w>
7 8.1</w>
8 25</w>
8 39</w>
8 53</w>
8 68</w>
8 90</w>
8 83</w>
8 2.6</w>
8 1.1</w>
8 2.8</w>
8 2.2</w>
8 02</w>
8 3.2</w>
8 6.4</w>
9 6
9 7
9 40</w>
9 11</w>
9 99</w>
9 5.2</w>
9 6.4</w>
9 7.5</w>
A K
A 4</w>
A Z</w>
A vi
A pe</w>
A mi
A gg
A PI</w>
A sus</w>
A VoD</w>
A PL</w>
A PIs</w>
A ires</w>
B h
B .</w>
B om
B en</w>
B ub
B order</w>
C F</w>
C in
C ul
C anu
C our
C able</w>
C PC</w>
C ateg
C 2C</w>
D en</w>
D ark</w>
D NC</w>
D RAM</w>
E F
E T</w>
E as
E state</w>
E nel</w>
E stabli
E very
E uras
E specially</w>
F s</w>
F S</w>
F lo
F all
F arm</w>
F MC</w>
F .C</w>
G as
G rin
G rub
G rap
G mail</w>
G Wh</w>
G CS
G arm
G mb
G CC</w>
H T
H em
H indu
H ali
I I
I .</w>
I bi
I AC</w>
I Ms</w>
J R</w>
J et
J im</w>
J uras
K S
K r
K S</w>
K um
K raft</w>
K ey
L ar
L ir
L ak
L ulu</w>
L ED</w>
L IMs</w>
M k
M ü
M y</w>
M F</w>
M ing</w>
M ine</w>
M ani
M ount</w>
M Ps</w>
M HS</w>
N -
N V
O p
O ld</w>
O lder</w>
O DI</w>
P P</w>
P R</w>
P ell</w>
P resid
P sy
P ages</w>
P edi
P lease</w>
R V</w>
R ing
R ol
R ice</w>
R ut
S B</w>
S t</w>
S ber
S AT</w>
S SE</w>
S elect</w>
T M
T ed</w>
T ic
T un
T est</w>
T erm
T own</w>
T re</w>
U -
U bi
U PS</w>
V V
V ans</w>
V AR</w>
W ol
W all</w>
W eal
W eight</w>
W ater</w>
X -
Y out
Y ES</w>
Z i
Z F</w>
a erial</w>
b ap
b one</w>
b its</w>
b ric
c c</w>
c in</w>
c king</w>
c ked</w>
c ross</w>
c am</w>
c hot
c le-
d re
d ys
d ited</w>
d raft</w>
d rought</w>
d ynamics</w>
e tal</w>
e ve</w>
e den
e water</w>
f ou
g i</w>
g an
g em
g es
g ical</w>
g ateway</w>
g TLD</w>
h el</w>
h ensive</w>
h itting</w>
i th
i le</w>
i onal</w>
i ous</w>
i vo
i bur
j in</w>
j erse
j unior</w>
k un
k ir
k ata</w>
k ill</w>
k us</w>
k uk</w>
l ou
l ace</w>
l enders</w>
m .</w>
m ates</w>
n an</w>
n ered</w>
o h
o o</w>
o ats</w>
p m</w>
p al</w>
p ads</w>
p ills</w>
r .
s ers</w>
s ch
s day</w>
s -related</w>
s ailing</w>
s ound
t i</w>
t up</w>
t ful</w>
u ri
u de</w>
u ten
u tral</w>
v ine</w>
w all</w>
w ig
x en
y ad
y sc
z a
z e
z h
z i
z able</w>
é s</w>
é bec</w>
é tico</w>
ë t</w>
í o</w>
ü r
th al
th anu
th rac
th ru</w>
20 9</w>
20 38</w>
ti p</w>
ti to</w>
ti res</w>
ti ous</w>
ti vations</w>
ti cian</w>
er /
er g</w>
er ad
er ner</w>
er berg</w>
in z</w>
in et</w>
in deb
in board</w>
in forest</w>
in corporated</w>
an ding</w>
an hy
ro t</w>
ro pic</w>
ro llment</w>
ro la</w>
en -
en te</w>
en tic
en thu
en orm
ar en
ar sons</w>
ar ism</w>
re z</w>
re cip
re form</w>
re wards</w>
re al-
re mortg
re volution</w>
re insurers</w>
re deemed</w>
re placing</w>
re modeling</w>
ta -
ta il
on /
on i
on in</w>
on to</w>
on so
on lin
or age</w>
or bi
or step</w>
it ement</w>
it ania</w>
ll -
ll i</w>
hi de</w>
hi ring</w>
at ers</w>
at eur</w>
al t</w>
al ants</w>
al ow</w>
al o-
ea sy
ri stic</w>
ri ses</w>
sti ll
per ry</w>
ur y
ur ation</w>
ur itania</w>
st ons</w>
st eal
st ones</w>
ho ok
ec es</w>
ic idal</w>
do s</w>
do orstep</w>
um en</w>
um ents</w>
ac e
el ev
202 9/
di p</w>
di st</w>
di str
di ties</w>
di ps</w>
di pped</w>
di stor
pro ne</w>
ag ro
ag o-
nit ude</w>
as ph
am er
am po
vi o</w>
ap ine</w>
ap art</w>
un a</w>
un able</w>
un linked</w>
un affiliated</w>
un surprising</w>
res ur
res pod
res ource</w>
com edi
com orbi
li f
li es</w>
li tis</w>
de z</w>
de duc
de fe
de pu
de fore
de tention</w>
de shi</w>
ver -
ver ticals</w>
ver bal</w>
ver oo</w>
po ols</w>
si on-
si mul
si ls</w>
tr us
tr ades</w>
Sta ge</w>
us able</w>
us eful</w>
us sar
con v
con tra
con clu
mo l</w>
mo biles</w>
por tive</w>
to wer</w>
to wns</w>
ati tis</w>
id -
id eas</w>
ha u
ex tin
ex ist</w>
ex hau
wor sen
fi able</w>
fi ghts</w>
lo tions</w>
ld ers</w>
we i
co l</w>
co ron
co litis</w>
es e-
es pion
ad or
ad he
ad a-based</w>
ad diction</w>
ing -related</w>
ab str
gro ws</w>
produc tions</w>
qu ick
comp re
pul se</w>
se ated</w>
se ized</w>
se alants</w>
oo ver</w>
sh a</w>
sh ut</w>
sh ell
sh ampo
ven eer</w>
ch eat</w>
ch erry</w>
ci um</w>
19 25</w>
19 31</w>
19 54</w>
19 37</w>
19 51</w>
19 70s</w>
ay -
ay an</w>
ay von</w>
bi d</w>
bi annually</w>
bi shi</w>
sp an</w>
wh el
inc itement</w>
In n</w>
In her
In corporated</w>
str a</w>
gen es</w>
plo ts</w>
su es</w>
su gg
su dden</w>
su icidal</w>
su bishi</w>
pres um
pe o
pe ars</w>
ani sm</w>
me time</w>
gr y</w>
gr ating</w>
be fore
be yond</w>
pre marital</w>
ne odymium</w>
ne utral</w>
il -
il ton</w>
il sk</w>
ome thing</w>
for ward</w>
for tun
dis posed</w>
dis satisfied</w>
dis covery</w>
peri o
play off</w>
1. 31</w>
1. 56</w>
1. 99</w>
1. 06</w>
Can nab
par aceta
inter net-
gi gawatt-
mon wealth</w>
mon arch
mon uments</w>
ID IA</w>
so cks</w>
employ s</w>
Mar ut
Mar io</w>
Mar cus</w>
end y</w>
end ants</w>
end ang
2. 24</w>
2. 42</w>
2. 66</w>
2. 62</w>
2. 59</w>
2. 68</w>
2. 67</w>
2. 69</w>
2. 71</w>
2. 82</w>
2. 89</w>
2. 04</w>
fir st-time</w>
le f
le y-
gu el</w>
gu ez</w>
gu aran
gu ilty</w>
ra inforest</w>
199 0s</w>
dec or</w>
lu ent</w>
servic e-
Bri dge</w>
dic tions</w>
gener ics</w>
3. 12</w>
3. 18</w>
3. 25</w>
3. 24</w>
3. 11</w>
3. 45</w>
3. 22</w>
3. 55</w>
3. 36</w>
3. 33</w>
3. 39</w>
3. 41</w>
3. 63</w>
3. 73</w>
3. 03</w>
3. 04</w>
3. 08</w>
cap sul
Ne war
Ch ec
Ch ronic</w>
Ch apter</w>
fac tory</w>
fac tories</w>
cas ian</w>
cas hew</w>
reta in</w>
tic ulture</w>
tic keting</w>
and an</w>
reac ted</w>
reac tions</w>
op pon
4. 14</w>
4. 65</w>
4. 54</w>
4. 58</w>
4. 57</w>
4. 96</w>
4. 07</w>
4. 05</w>
foll ows</w>
cl assed</w>
ear ns</w>
rou tine</w>
yo tes</w>
over dra
over whel
5. 24</w>
5. 75</w>
5. 69</w>
5. 06</w>
5. 03</w>
dea d</w>
out si
6. 35</w>
6. 65</w>
6. 75</w>
6. 53</w>
6. 88</w>
Germ any
10 5.
10 4.7</w>
10 8.4</w>
inf low</w>
Nor disk</w>
Nor ilsk</w>
tw in</w>
Au stro
mill i
7. 25</w>
Sh e</w>
Sh er
eg o
tur keys</w>
gam o</w>
8. 78</w>
8. 93</w>
ass ware</w>
der ers</w>
Fran k
Mo on</w>
Mo ët</w>
ov o</w>
0. 33</w>
0. 47</w>
0. 57</w>
0. 72</w>
ju ven
divi ding</w>
divi sions</w>
trans mitted</w>
Di ffer
cur y</w>
equ ated</w>
pp on</w>
Nov o</w>
oper able</w>
Fac tors</w>
Sp ec
car at</w>
9. 74</w>
Per spec
hal t</w>
hal f-
sub category</w>
fran c</w>
e- owned</w>
e- offs</w>
e- reader</w>
finan ced</w>
comm u
comm issions</w>
Re gener
Re finery</w>
seg mentation</w>
cer ative</w>
Gro s
Gro und</w>
bran d/
vo sa</w>
te d
ob sol
ob ics</w>
Con tra
Con cer
Con firmed</w>
Con sul
Con servatives</w>
Con sol</w>
ca tal
An ci
An ah
eli ers</w>
inclu sive</w>
cri tics</w>
cri sps</w>
ali zing</w>
fem ale-
af t</w>
af on</w>
af firmed</w>
Al bum</w>
Al ask
1, 800</w>
govern ors</w>
Pro c
Pro fit</w>
Pro gres
scri pted</w>
Bel fast</w>
sup portive</w>
ki pedia</w>
mu tations</w>
loc k</w>
Co -
Co smopolitan</w>
Co yotes</w>
18 63</w>
develop ments</w>
develop mental</w>
100 ,
Li st</w>
ren ters</w>
can cers</w>
don ating</w>
Po or</w>
Po lling</w>
Po int</w>
Po stal</w>
Po sition</w>
tal k</w>
Com mod
Com ics</w>
Com peti
Com monwealth</w>
Me gh
Me tho
Fin ns</w>
Mal one</w>
Par tito</w>
man goes</w>
ga ins</w>
fa x</w>
ge ta
go lds</w>
non- store</w>
non- resident</w>
non- essential</w>
non- hydropower</w>
Inter est</w>
direc ting</w>
Sing le</w>
Lati nx</w>
old -age</w>
cru cial</w>
cru ises</w>
respon sive</w>
poli shing</w>
Fi xed</w>
Col l</w>
capi tali
ten sions</w>
les bians</w>
ecti vity</w>
medic al-
Ma ximum</w>
Ma uritania</w>
ber t</w>
ber ately</w>
coll abor
hom eless</w>
cul min
cul ture
Vi acom
Mon arch</w>
nat ur
mat ure</w>
tom an</w>
tom ato</w>
activi ti
cre di
cre ating</w>
cre ams</w>
soci eties</w>
sk is</w>
sk illed</w>
sk yro
sk ysc
stic ker</w>
gar h</w>
gar a</w>
gar ment</w>
ner vosa</w>
10. 52</w>
vis or</w>
prof it
prof ess</w>
prof ession</w>
trac kers</w>
lin er</w>
lin ers</w>
lin ess</w>
lin ks</w>
belie vers</w>
concer t</w>
concer ts</w>
four teen</w>
17 90</w>
17 0,000</w>
sa ved</w>
tre es</w>
boo ts</w>
Goo d
win dow</w>
quarter back</w>
Tur in</w>
Tur ner</w>
bar ely</w>
star k</w>
star ring</w>
star tup</w>
imm er</w>
run ways</w>
ut ants</w>
5, 100</w>
5, 500</w>
5, 400</w>
nam ely</w>
premi ses</w>
14. 29</w>
14. 41</w>
pi pe</w>
pi eces</w>
12. 22</w>
publi sh</w>
As sem
aff airs</w>
aff luent</w>
rema kes</w>
multi plying</w>
Bar ry</w>
new born</w>
Air line</w>
adju sting</w>
aim s</w>
up take</w>
up scale</w>
tru th
tru th</w>
Ro ad</w>
bur ning</w>
bur g-
Ran ge</w>
compl ex</w>
some body</w>
dri de</w>
So ju</w>
abo ve-
17. 45</w>
deli berately</w>
FI S</w>
Qu ébec</w>
bac on</w>
occurr ences</w>
Is lam</w>
pol ar</w>
work -related</w>
terro r</w>
under went</w>
hy d
teen ager</w>
reli es</w>
For um</w>
Swit ch</w>
cal oric</w>
cal cium</w>
Mic hel</w>
fil med</w>
Tr ussar
Tr ayvon</w>
year- round</w>
che on
tele visions</w>
conf usion</w>
assi stant</w>
Res ol
El vis</w>
them atic</w>
dep th</w>
30 6</w>
lim its</w>
23. 3</w>
8, 5
Coun ter-
Car di
gl assware</w>
ine ken</w>
agre ements</w>
comb ines</w>
27. 6</w>
27. 9</w>
stoc ked</w>
En bridge</w>
En gie</w>
En rollment</w>
sen se</w>
Ad visor</w>
mag nitude</w>
self- bag</w>
contrac tor</w>
contrac tors</w>
bill i
hand guns</w>
predic tion</w>
Chic ago-
Cap tain</w>
writ e-offs</w>
tax ed</w>
fl ex
land line</w>
land -based</w>
land marks</w>
in- state</w>
exclu des</w>
50 8</w>
50 3</w>
Ob last</w>
col oring</w>
mal treatment</w>
mal ign
Ge ographic</w>
adm ired</w>
24. 4</w>
30. 4</w>
telec oms</w>
Chan nel</w>
camp us</w>
Ab bot</w>
35. 1</w>
invol ve</w>
Arab ian</w>
Si ri
tit led</w>
bio tic</w>
Cam p</w>
stand ings</w>
37. 5</w>
kilowat ts</w>
Croati an</w>
faci li
Be yond</w>
Be sides</w>
proce eds</w>
blo odi
contac ts</w>
Afgh ans</w>
34. 1</w>
Ni ppon</w>
Lim a</w>
prac tical</w>
Mc Coll</w>
anal ges
allo y</w>
mur derers</w>
remo del</w>
fix ture</w>
practic ally</w>
micro -LED</w>
Mi ami
Mi guel</w>
46. 1</w>
46. 8</w>
46. 6</w>
ck erberg</w>
origin als</w>
ent aries</w>
Sen ator</w>
Sen ators</w>
bot ten</w>
avi k</w>
mis si
mis diagnosed</w>
analy sed</w>
ot te</w>
ot ron</w>
ES C</w>
Lat est</w>
Florid a-based</w>
vir gin</w>
Bi om
ell a</w>
ell er</w>
desig ner</w>
scre ened</w>
crow n</w>
crow ds</w>
NA ND</w>
hum ans</w>
hum an-
tro uble</w>
reduc tions</w>
sty les</w>
Har mon
Har ley-
semi- final</w>
Wi i</w>
Wi kipedia</w>
14 ,000</w>
inte gr
gros sed</w>
edi tions</w>
tour ing</w>
Bangla deshi</w>
Gr um
perman ently</w>
publish es</w>
50. 1</w>
50. 5</w>
50. 2</w>
Gi ven</w>
Mac au</w>
Mis sion</w>
medi ates</w>
contribu tors</w>
Tw o-
conn ect</w>
conn ectivity</w>
cle ans
Univer se</w>
S. r.
nor th</w>
buy out</w>
subsidi zed</w>
25 ,000</w>
Ju an</w>
green est</w>
bri ef</w>
bri ef
John ny</w>
Ber gamo</w>
reti re</w>
counter top</w>
refl ecting</w>
cannab idi
29 -year-olds</w>
Nic knamed</w>
Off ici
six -year</w>
six teen</w>
therap ies</w>
47. 6</w>
47. 4</w>
68. 1</w>
68. 8</w>
68. 5</w>
68. 2</w>
Rea gan</w>
ang ana</w>
emi grating</w>
fire fighter</w>
Pi stons</w>
San tos</w>
sav ory</w>
long- distance</w>
48. 6</w>
48. 5</w>
57. 6</w>
57. 9</w>
57. 4</w>
58. 8</w>
AT AC</w>
graph ite</w>
69. 5</w>
Ku eh
festi vities</w>
impl ications</w>
lor ide</w>
high- speed</w>
67. 4</w>
Ste el</w>
lam b</w>
13 ,000</w>
Mit subishi</w>
exhi bited</w>
mid- March</w>
found ation</w>
lon ely</w>
leg ality</w>
occas ion</w>
Isra el
hyper activity</w>
27 ,000</w>
Hu b</w>
moder ately</w>
AS OS</w>
pa sti
pa stry</w>
disc our
Sahar a</w>
Out bound</w>
Out lays</w>
prospec t</w>
70. 7</w>
70. 1</w>
sus pic
77. 1</w>
Cy pri
Cy bex</w>
saf est</w>
administr ators</w>
10, 6
semiconduc tors</w>
Rec ession</w>
quali fying</w>
drug stores</w>
power house</w>
Asi an-
FY 2006</w>
pat ter
exi stence</w>
BR ICS</w>
EM R</w>
Mem bers</w>
Mem bership</w>
Ri yad
out-of- stock</w>
Bit coins</w>
Bit Tor
Glob es</w>
Org ani
Coo p</w>
IS P</w>
Shi ller</w>
bit uminous</w>
bit umen</w>
bul l</w>
hor ticulture</w>
rul ing</w>
ring er</w>
Doll ars</w>
eta m</w>
flow /issues</w>
any more</w>
expl ain</w>
crimin als</w>
Mus icians</w>
rob bed</w>
separ ately</w>
implem enting</w>
Tri p</w>
Anti etam</w>
Vide otron</w>
Rap id</w>
reb ate</w>
reb ates</w>
constitu tional</w>
monit ors</w>
advertis ement</w>
26 th</w>
CP I-
Tel ia</w>
Tel kom</w>
Tel angana</w>
tub es</w>
def eat</w>
weigh ed</w>
Week end</w>
Bay er</w>
dead weight</w>
PS V</w>
extrac tors</w>
Resid ential</w>
mix ture</w>
And rew</w>
Hen ness
Ter ro
Ter ex</w>
cab in</w>
decor ations</w>
eigh teen</w>
veget arians</w>
wea ken</w>
dollars .
Coll ins</w>
recogni zable</w>
Ot to</w>
Ot toman</w>
Sci ence</w>
Ul ster</w>
Ul tra</w>
Ã© mon</w>
Ã© rie</w>
asp ect</w>
millenni um</w>
flav our</w>
strateg ic</w>
deta ched</w>
house wares</w>
docum ents</w>
docum entaries</w>
MS W</w>
Pic tures</w>
mand ated</w>
p. m.</w>
syn drome</w>
Pea ks</w>
Str at
Str ength</w>
Sab res</w>
top- grossing</w>
optim ized</w>
barri er</w>
concentr ates</w>
na stics</w>
consul tancy</w>
masturb ation</w>
Deu tz</w>
swit ched</w>
celebr ation</w>
CI Os</w>
less ons</w>
discre tionary</w>
func tional</w>
Twen ty</w>
Twen ty-
rab bit</w>
take -up</w>
take -offs</w>
percenti les</w>
sim ple</w>
transplan tations</w>
Boo t</w>
Da ve</w>
He inz</w>
He ineken</w>
Pal m</w>
Plan et</w>
ym pic</w>
resol ve</w>
resol utions</w>
expo sures</w>
traffic -related</w>
45 th</w>
RO I</w>
AU D</w>
Trans portation</w>
Trans atlantic</w>
even ly</w>
deplo yment</w>
explo sive</w>
recru it
Peru vi
Pok Ã©mon</w>
withdraw al</w>
Fast est-growing</w>
Ham ilton</w>
PG -13</w>
Yam alo-
apart ments</w>
Green house</w>
law yers</w>
volunte er</w>
Treat ment</w>
Favor ability</w>
demonstr ations</w>
EV/ R</w>
Zu ckerberg</w>
uplo aded</w>
alk aline</w>
preser ving</w>
mater nity</w>
C- section</w>
Fres h</w>
Mel illa</w>
Mel inda</w>
frac king</w>
tak te</w>
group ed</w>
9,9 99</w>
doub les</w>
kindergar tens</w>
Travel er</w>
brows ers</w>
EO R</w>
Harri son</w>
ide ology</w>
stres s
COVID- NET</w>
Attitu de</w>
peripher als</w>
BE V</w>
cau ght</w>
cau cus</w>
enplan ed</w>
stag nation</w>
profici ent</w>
2007 /2008</w>
limi tations</w>
desc ent</w>
measu rements</w>
labor atory</w>
labor atory-confirmed</w>
Brad y</w>
carbon ate</w>
suffici ently</w>
snow boarding</w>
Ronal d</w>
g/ km</w>
thri ving</w>
encour age</w>
encour aged</w>
deser ts</w>
incarcer ated</w>
pell et</w>
Commit tees</w>
Musli ms</w>
Clar k</w>
Jac kets</w>
Len ovo</w>
Pla stic</w>
bom bs</w>
rhe a</w>
pro- life</w>
progres sed</w>
progres sively</w>
shut down</w>
ch- speaking</w>
strugg ling</w>
Histor ically</w>
frustr ation</w>
bacter ia</w>
11 th</w>
Best- rated</w>
CN N</w>
Cou ch
E. L.</w>
Land -based</w>
Lob bying</w>
NP As</w>
Pet er</w>
T- Mobile</w>
Wit ch</w>
gau ging</w>
perspec tives</w>
moneti zation</w>
moneti zed</w>
ebo ard</w>
assass ination</w>
femin ist</w>
got ten</w>
cross ings</w>
Phys icians</w>
catastro ph
BT S</w>
Der ek</w>
Fly ers</w>
MP RI</w>
batt les</w>
batt ling</w>
dres sing</w>
evol ving</w>
inaug ural</w>
alum ina</w>
alum ni</w>
distru st</w>
appreci ated</w>
streng th
gra vel</w>
1999/ 2000</w>
1999/ 00</w>
class room</w>
adop ting</w>
adop tive</w>
rais in</w>
legis lation</w>
legis lat
Evangel ical</w>
Evangel ism</w>
Brasil eir
Brasil eiro</w>
Restaur ant</w>
400 m</w>
Deli veroo</w>
Num bers</w>
Yell ow</w>
bad ly</w>
cloc ks</w>
matt ress</w>
inher itance</w>
encomp asses</w>
ona tal</w>
pros per
exten sive</w>
locomo tives</w>
Conven tion</w>
natu rism</w>
saff lower</w>
circu it</w>
landsli de</w>
fast- moving</w>
short fall</w>
achiev ement</w>
difficul ty</w>
Top- selling</w>
Clo thing</w>
Cinem atic</w>
GA F
Ster ling</w>
TR Y</w>
WO Z</w>
wak eboard</w>
ordin ary</w>
regim e</w>
metall ur
presti gious</w>
Speci alty</w>
substitu tes</w>
Prov ince</w>
pay- TV</w>
holiday makers</w>
Fern an
Capi tals</w>
brid ges</w>
dispens ary</w>
bung alow</w>
Multi ple</w>
EpiP en</w>
Awar eness</w>
Bow ls</w>
Hall ibur
Kol kata</w>
Lun g</w>
Nag el</w>
Raf a
Wo onso
Woo ds</w>
cit rus</w>
snap shot</w>
remedi es</w>
easi er</w>
stabili ze</w>
hair dressing</w>
Audi ence</w>
occur s</w>
record- breaking</w>
Pot ential</w>
dens ely</w>
credit ors</w>
uphol stered</w>
audiob ooks</w>
Buen os</w>
circul atory</w>
Dispos able</w>
Atl ético</w>
landlor ds</w>
text books</w>
excep tional</w>
Asian/ Pacific</w>
Otta wa</w>
certific ate</w>
blockbu ster</w>
intox ic
Visit or</w>
neoplas ms</w>
44,6 72</w>
Cau casian</w>
Gron ingen</w>
IR As</w>
Lud wig
Labor atories</w>
MIN I</w>
Nem ours</w>
Sat ur
Sán chez</w>
Wear ables</w>
aer obics</w>
hep atitis</w>
mud sli
vit ro</w>
right- wing</w>
eco system</w>
prop ylene</w>
deposit ory</w>
colorec tal</w>
advi sing</w>
que ue</w>
secul arism</w>
quaranti ned</w>
dich loride</w>
Shin cheon
Moto rola</w>
purchasing- power-
platea u
Exec u
member ships</w>
race track</w>
burden ed</w>
hydr o</w>
Sustain able</w>
Gramm ys</w>
Berlin -based</w>
[...]
