#version: 0.2 - Trained by `huggingface/tokenizers`
t h
i n
a n
e r
th e</w>
a r
t i
o n
e n
o r
o f</w>
o u
r e
l i
e d</w>
i n</w>
e r</w>
in g</w>
e s</w>
o n</w>
l y</w>
t o</w>
s a
a t
an d</w>
a l
i t
s t</w>
o r</w>
r o
th e
a n</w>
w h
s t
o m
a ti
a l</w>
i c
i s</w>
a c
a s</w>
e c
l e</w>
v e</w>
a t</w>
s i
e n</w>
a b
ar e</w>
t s</w>
l o
sa y</w>
l e
s e</w>
d i
p o
s u
n e
r i
m o
v er
a d
s e
en t</w>
an s</w>
er s</w>
p u
2 0
ou t</w>
or e</w>
a g
i g
a m
c on
h a
o l
w it
the y</w>
v i
w s</w>
s h
ou n
c e</w>
wit h</w>
d e
b li
m ore</w>
wh o</w>
f or</w>
i l
pu bli
R e
th an</w>
T h
s p
th at</w>
ati on</w>
A m
ab out</w>
p ar
v e
i r</w>
on s</w>
b e
U .
c om
o t
u r
' s</w>
ha ve</w>
o p
the ir</w>
u l
e l
20 1
s s</w>
en t
p ro
m a
U. S
t r
er ic
Am eric
n o
a r</w>
p or
U.S .</w>
t er
p re
on g</w>
r at
u s
f i
D e
e x
u n
er e</w>
c h</w>
a s
i m
c h
c oun
ro m</w>
ti on</w>
a st</w>
f rom</w>
w e
ag e</w>
c i
d en
mo c
o ver
th er</w>
publi c
l d</w>
f f
i t</w>
e w</w>
e ar
k e
De moc
b y</w>
m e
Re public
su r
u m
m ent</w>
Americ ans</w>
t o
h as</w>
Th e</w>
th is</w>
al l</w>
p er
i le</w>
a p
g i
w or
ne ws</w>
e ws</w>
t y</w>
a y</w>
at e</w>
m e</w>
d ing</w>
p e
ad ul
lo w
t ed</w>
b e</w>
i c</w>
d s</w>
f a
mo st</w>
th o
l in
v ot
v er</w>
ou ld</w>
adul ts</w>
it y</w>
q u
g r
sur ve
no t</w>
al ly</w>
- in
d u
i s
t en</w>
ab le</w>
g h
t h</w>
on e</w>
f or
u st</w>
w as</w>
I n</w>
e st</w>
wh ile</w>
o o
20 0
-in -
tho se</w>
ke ly</w>
ec on
am ong</w>
in c
Republic ans</w>
f ol
in g
li kely</w>
g e</w>
ig h
op le</w>
u t</w>
publi c</w>
ti c
g re
i r
Democ rat
c lo
ver y</w>
ma j
Democrat s</w>
t er</w>
i d</w>
an y</w>
o ther</w>
re c
ati ons</w>
on al</w>
an t</w>
fol low
d er</w>
fa v
-in- ten</w>
or i
m ar
w ere</w>
po li
ar ch</w>
ti es</w>
econ om
r a
pe ople</w>
in i
ac c
f e
g e
du c
s om
s o</w>
y e
surve y</w>
I n
b er</w>
ou r
o w
d ec
por t
st r
tr y</w>
com par
in ter
se ly</w>
t ri
sh are</w>
r an
t e
H i
clo sely</w>
sa id</w>
l u
e s
m ig
coun try</w>
Hi sp
ye ar</w>
se arch</w>
Hisp an
o ver</w>
C h
` `</w>
' '</w>
p l
al f</w>
C ent
fav or
i li
me di
si d
T r
en ts</w>
P ew</w>
m il
ti ons</w>
t w
vot ers</w>
g en
at es</w>
or ity</w>
Cent er</w>
su p
y ear
por t</w>
ar y</w>
re a
le ss</w>
d o</w>
h alf</w>
in ce</w>
vi ews</w>
lin e</w>
Re search</w>
gr ou
p a
k s</w>
over n
k ing</w>
th re
p ri
i d
um p</w>
j ust</w>
en ce</w>
al so</w>
W h
s o
Tr ump</w>
pu l
ti ve</w>
st or
tri es</w>
be t
ing s</w>
u se</w>
t a
it e</w>
coun tries</w>
g overn
we e
j o
year s</w>
el ec
e v
1 9
follow ed</w>
ch an
im mig
e m
m any</w>
u p</w>
il l</w>
ou s</w>
ati ve</w>
s er
b ut</w>
y ing</w>
po si
compar ed</w>
d ay</w>
di ff
o f
on ly</w>
f in
s c
re as
ac h</w>
po pul
den ts</w>
ac k</w>
li gi
k e</w>
h igh
be en</w>
A b
govern ment</w>
r ati
sh ould</w>
ti me</w>
ou gh
vi ew</w>
at ed</w>
d ed</w>
or ding</w>
oo d</w>
s ince</w>
C on
a li
Ab out</w>
ati onal</w>
ar ly</w>
p s</w>
stor y</w>
tic al</w>
t en
po in
den ti
y s</w>
so ci
sa me</w>
er al</w>
p h
w ould</w>
m s</w>
n i
wh en</w>
con t
the se</w>
st an
Democ rati
g h</w>
it s</w>
ha d</w>
O b
ic h</w>
am a</w>
ou gh</w>
l ar
li on</w>
ag es</w>
Ob ama</w>
l ast</w>
re l
w ill</w>
m u
th ir
l a
acc ording</w>
diff er
v ing</w>
favor able</w>
e p
c es</w>
h e
im port
d o
r ac
ow n</w>
Ch in
n um
e ach</w>
Am ong</w>
st s</w>
over age</w>
oun d</w>
sp ec
s ti
som e
mu ch</w>
h ol
f u
k ed</w>
we en</w>
maj ority</w>
a d</w>
wh at</w>
op ini
N ews</w>
b l
Democrati c</w>
w er</w>
c ent
om e</w>
0 0</w>
ran ts</w>
t t
al l
ad e</w>
o ff
ro w
wee k</w>
sa ying</w>
con fi
econom y</w>
ap pro
r u
g er</w>
mil lion</w>
bet ween</w>
popul ation</w>
Hispan ic</w>
th ere</w>
ou r</w>
ig n</w>
pre s
ot h</w>
le ast</w>
re ligi
c er
om en</w>
el l</w>
qu ar
sh i
sid ent</w>
t ur
import ant</w>
den ce</w>
th in
medi a</w>
d at
p en
ec t</w>
o w</w>
ser v
A n
Republic an</w>
sup port</w>
inc lu
ic e</w>
econom ic</w>
wh ich</w>
no w</w>
al s</w>
u d
v es</w>
ur r
ic s</w>
st er
for m
w ar
on line</w>
ent ly</w>
ough ly</w>
b oth</w>
g ood</w>
som e</w>
m in
di vi
posi tive</w>
f ic
si on</w>
li c
w i
poli tical</w>
ori ties</w>
1 8</w>
num ber</w>
M o
jo b</w>
Chin a</w>
P ar
an i
is su
re gi
ne w</w>
thin k</w>
c ol
ti m
gen er
n ational</w>
on e
us ers</w>
B ut</w>
inc reas
b or
w omen</w>
al th</w>
to p</w>
ou t
ne t</w>
d re
g a
com e</w>
grou ps</w>
le an
soci al</w>
le g
e i
sh ar
elec tion</w>
u ro
ig h</w>
immig rants</w>
E uro
com m
it es</w>
con duc
t ly</w>
en ti
per s
S t
g row
l l</w>
ol der</w>
a f
c overage</w>
a u
p ast</w>
Americ an</w>
, 0
v ed</w>
le ve
an ce</w>
ph one</w>
per cent
G er
M ore</w>
c y</w>
201 6</w>
s ing</w>
le ad
ear ly</w>
5 0</w>
per i
In ter
c am
se e</w>
be li
maj or</w>
il l
t ing</w>
ro ss</w>
f ac
ch il
An d</w>
us si
Hispan ics</w>
rec ent</w>
opini on</w>
dat a</w>
fi r
s ed</w>
ne g
e se</w>
wor ld</w>
shi p</w>
conduc ted</w>
3 0</w>
it ed</w>
Th is</w>
pro b
w ay</w>
M us
an d
lo w</w>
h igh</w>
ne arly</w>
R ussi
pre si
Mus li
y ed</w>
U n
follow ing</w>
1 0</w>
e l</w>
sp on
tw o</w>
par ty</w>
confi dence</w>
con cer
poin ts</w>
an di
andi d
the m</w>
e b
n o</w>
t on</w>
o c
y oun
ve ly</w>
ri gh
h el
gre ss</w>
h ou
de pen
chan g
F or</w>
I s
grou p</w>
p lo
z ed</w>
tt le</w>
to day</w>
2 9</w>
high er</w>
percent age</w>
2 0</w>
ur ing</w>
li ttle</w>
ma in
inter net</w>
beli e
b ec
tw o
e ss</w>
c andid
f ar</w>
h is</w>
s .</w>
B y</w>
e duc
L at
en ces</w>
fir st</w>
rat e</w>
re spon
Mo st</w>
s is</w>
v s.</w>
par ti
Lat in
b le</w>
P re
i ly</w>
l s</w>
ex ic
M exic
to o</w>
prob le
201 2</w>
he alth</w>
,0 00</w>
i denti
cam pa
U. S</w>
1 9</w>
en s</w>
h i
ge t</w>
h ar
k ers</w>
ic al</w>
ac ks</w>
A f
c urr
e -
m on
di sa
- thir
neg ative</w>
medi an</w>
dre n</w>
m en</w>
in u
si g
some what</w>
1 1</w>
v en</w>
ne w
el l
su b
y p
Con gress</w>
u p
chan ge</w>
d er
lo b
P ro
st e
se hol
V i
se l
c or
h ear
t u
w ell</w>
quar ter</w>
d uring</w>
pre sident</w>
en d</w>
ili t
s si
th ough</w>
chil dren</w>
ow n
Inter est</w>
s ci
th ers</w>
cont inu
war d</w>
P u
r ic
Par ty</w>
th ing</w>
over all</w>
p le</w>
ab ly</w>
1 2</w>
o u</w>
immig r
f am
st ly</w>
ac coun
pre ss</w>
ili ty</w>
6 5</w>
com es</w>
campa ign</w>
li m
al y
religi ous</w>
s m
at ten
com p
19 9
1 5</w>
ac ross</w>
mar ri
hou sehol
s ch
inclu ding</w>
e ff
i al</w>
t ers</w>
in depen
A s</w>
ver age</w>
201 3</w>
I ra
c ri
an aly
4 9</w>
g u
201 5</w>
vot e</w>
rel ati
ster ed</w>
o we
201 4</w>
Wh ile</w>
ev en</w>
as ked</w>
owe ver</w>
n ed</w>
st ed</w>
belie ve</w>
de b
g o
sc ri
a v
us ed</w>
sh o
fi ed</w>
4 4</w>
a ys</w>
su ch</w>
divi ded</w>
col le
v en
wh ere</w>
y ou</w>
li b
d eral</w>
m ilit
lo g
di d</w>
increas ed</w>
c o
3 5</w>
ar i
g est</w>
n on
in e</w>
ex p
lob al</w>
M e
e th
wh ite</w>
qu es
denti al</w>
1 7</w>
2 5</w>
P o
s es</w>
Ira q</w>
si mil
ag o</w>
-thir ds</w>
N o
P er
l ing</w>
in f
re g
ag re
O n
fi ve</w>
ac t</w>
' t</w>
b i
c are</w>
rea se</w>
m id
f our
t ec
C lin
r oughly</w>
ur e</w>
thir d</w>
Un ited</w>
o d</w>
n ation</w>
Clin ton</w>
regi stered</w>
sa n</w>
b s</w>
m ber</w>
bor n</w>
200 8</w>
gre e</w>
h ow</w>
surve yed</w>
e ther</w>
wor k</w>
issu es</w>
p p
mo stly</w>
ti s
d own</w>
en g
it u
o s</w>
si ons</w>
to ward</w>
indepen dents</w>
or s</w>
201 7</w>
A c
u s</w>
inter est</w>
2 7</w>
th s</w>
m i
n ations</w>
tur e</w>
ex press</w>
M a
chang ed</w>
righ t</w>
analy sis</w>
A si
J ap
n 't</w>
p pro
2 4</w>
C a
b ers</w>
presi dential</w>
1 6</w>
au th
4 5</w>
wh ites</w>
con tr
fe deral</w>
wh ether</w>
2 2</w>
N early</w>
a verage</w>
in form
c ell
e w
spec i
simil ar</w>
ar e
bet ter</w>
fav or</w>
colle ge</w>
s y
un i
for e
Russi a</w>
b ad</w>
J ust</w>
li ving</w>
differ ences</w>
h ome</w>
p e</w>
ni fic
f ound</w>
milit ary</w>
1 4</w>
3 4</w>
2 8</w>
4 0</w>
lo c
rat ings</w>
A r
Euro pe
or e
op po
lean ers</w>
c an</w>
e ment</w>
li gh
is m</w>
4 3</w>
ori es</w>
port ers</w>
2 6</w>
201 0</w>
leg al</w>
sig nific
ac e</w>
lo t</w>
3 7</w>
O ver
fe wer</w>
d e</w>
ot al</w>
em plo
3 9</w>
3 8</w>
n s</w>
par ents</w>
jo bs</w>
re main
af ter</w>
3 1</w>
4 6</w>
5 2</w>
2 1</w>
ma ke</w>
inc rease</w>
thre e</w>
Musli ms</w>
1 3</w>
ec ted</w>
poli cy</w>
4 8</w>
5 1</w>
G O
off ic
e qu
i l</w>
St ates</w>
auth ori
4 1</w>
5 5</w>
om in
ter r
inform ation</w>
re port</w>
bl ack</w>
educ ation</w>
ga p</w>
m ade</w>
ti c</w>
Ger many</w>
contr ast</w>
201 8</w>
maj orities</w>
g lobal</w>
in come</w>
ex am
dec lin
R oughly</w>
e igh
tic s</w>
curr ent</w>
ad m
poin t</w>
4 7</w>
i f</w>
itu ation</w>
a vi
e -in-ten</w>
eth n
5 4</w>
m ents</w>
id e</w>
2 3</w>
6 0</w>
f re
two -thirds</w>
t yp
ag a
GO P</w>
a ff
ti z
on g
con si
b rea
authori zed</w>
3 2</w>
200 7</w>
shar es</w>
f ore</w>
ic es</w>
Over all</w>
wor king</w>
parti san</w>
5 7</w>
b ro
Vi ews</w>
ter m</w>
3 6</w>
a se</w>
c le
d ent</w>
leve l</w>
T o
c our
lead ers</w>
of ten</w>
fu ge
bl acks</w>
L i
f our</w>
re d</w>
ci al</w>
differ ent</w>
re pres
four -in-ten</w>
ali ty</w>
x -in-ten</w>
ac h
appro ve</w>
b u
s ituation</w>
In di
wi th
i de
l ed</w>
oo l</w>
ru s</w>
Th ere</w>
rec ei
4 2</w>
5 3</w>
B us
st ate</w>
s ec
su s</w>
sup porters</w>
e d
oo k</w>
fin an
3 3</w>
l at
ou th</w>
wor kers</w>
6 4</w>
201 1</w>
Af ric
v al</w>
be ing</w>
inf lu
n u
Ma j
E n
J an
con serv
tr a
fe el</w>
Pre sident</w>
5 8</w>
ex peri
Pu bli
li ke</w>
be fore</w>
issu e</w>
c lim
r on
for ce</w>
as ed</w>
re por
im p
G re
d ro
f e</w>
rat ing</w>
low er</w>
leve ls</w>
de scri
h and
sci enti
ab ility</w>
acc ep
Ger m
fin ds</w>
sch ool</w>
A u
n am
t otal</w>
brea k</w>
Bus h</w>
tim es</w>
Is ra
D ec
ques tion</w>
a use</w>
on ally</w>
n ing</w>
re fuge
Euro pe</w>
par t
str ic
proble m</w>
7 0</w>
c ent</w>
ul ly</w>
fam ily</w>
s our
thre at</w>
en ni
si x-in-ten</w>
tr ust</w>
Wh en</w>
Mexic o</w>
immigr ation</w>
P e
en ds</w>
do es</w>
fu l</w>
de gree</w>
un authorized</w>
ke y</w>
mar t
pers onal</w>
youn ger</w>
sp e
me m
H ou
re s</w>
fi c</w>
im pro
u e</w>
ri s
W e
quar ters</w>
gener ally</w>
H owever</w>
high est</w>
disa ppro
non -
5 9</w>
D i
at e
es s
rac e</w>
ei ther</w>
peri od</w>
hear d</w>
a k
en e
atten tion</w>
Ca tho
5 6</w>
out break</w>
Publi c</w>
l ack</w>
p an
un favorable</w>
ci es</w>
sti ll</w>
rea d</w>
log y</w>
exam ple</w>
c ed</w>
d le</w>
t re
par ties</w>
pre f
dec i
str ation</w>
identi f
clim ate</w>
s ligh
po wer</w>
candid ate</w>
on avi
lar ge</w>
cor onavi
ro le</w>
6 2</w>
y ment</w>
th r
ar ound</w>
candid ates</w>
gu n</w>
coronavi rus</w>
M arch</w>
the m
Th at</w>
tic ul
Latin os</w>
s econ
sa tis
Americ a</w>
all er</w>
in to</w>
or g
ci tiz
On ly</w>
par ticul
dec line</w>
te ens</w>
househol ds</w>
cle ar</w>
ma in</w>
hol d</w>
S u
S outh</w>
ing ly</w>
rac ial</w>
lo o
6 3</w>
ti vely</w>
su m
thre e-
cont ro
bec ause</w>
loc al</w>
adm ini
influ ence</w>
b ac
Europe an</w>
T ur
ex pres
ap p
es tim
sid e</w>
o se</w>
200 9</w>
lean ing</w>
grow th</w>
tec h
7 2</w>
L e
M ill
lib eral</w>
conserv ative</w>
F ran
youn g</w>
f ew</w>
er ship</w>
Mill enni
en ding</w>
st an</w>
E U</w>
F ac
e st
re spec
th ings</w>
vot ed</w>
elec tions</w>
sel ves</w>
s mart
gr ad
gre at
ani z
imp act</w>
v al
opini ons</w>
speci ally</w>
6 1</w>
t able</w>
w ant</w>
li ve</w>
Latin o</w>
or ig
un e</w>
f ri
ti t
on es</w>
bro ad
1 .
ser i
go ing</w>
d ic
er g
st at
sub stan
8 0</w>
er ed</w>
sur e</w>
c ep
in st</w>
them selves</w>
e specially</w>
h e</w>
l ec
clo se</w>
Ch ri
identif y</w>
Fac eb
us ing</w>
deb ate</w>
Faceb ook</w>
I m
un der</w>
Pe ople</w>
A pri
su l
ster n</w>
par t</w>
grow ing</w>
ou s
se ver
gen eral</w>
sligh tly</w>
F e
S ome</w>
ti al</w>
pre vi
accoun ted</w>
agre e</w>
Apri l</w>
- leaning</w>
O c
t -in-ten</w>
st u
ne x
surve ys</w>
declin ed</w>
A t</w>
d es</w>
f all
o thers</w>
Musli m</w>
e t</w>
fore ign</w>
N or
di s
am oun
refuge es</w>
C overage</w>
m at
me a
wi de
Hou se</w>
J une</w>
S up
proble ms</w>
6 7</w>
a k</w>
p r
en sus</w>
Jap an</w>
0 s</w>
u ly</w>
org aniz
C om
M id
v an
do ing</w>
religi on</w>
three- quarters</w>
tech no
tit ud
6 8</w>
A l
p er</w>
ne t
str ong</w>
6 6</w>
at ing</w>
lar gest</w>
sm aller</w>
la w</w>
7 1</w>
a il
j ect</w>
dec ade</w>
6 9</w>
s ites</w>
ma king</w>
K ore
S ince</w>
200 0</w>
dec ad
compar is
Per cent</w>
Jan u
E con
a ir
re ad
po l
aga inst</w>
mem bers</w>
B u
e t
i es</w>
z e</w>
st ories</w>
pro vi
is h</w>
of f</w>
previ ous</w>
titud es</w>
ve lo
favor ably</w>
fu ture</w>
Germ ans</w>
disappro ve</w>
Econ om
J uly</w>
an tly</w>
de al</w>
r y</w>
di tion</w>
Chri sti
Janu ary</w>
d one</w>
w e</w>
se ven
rat es</w>
fi li
for m</w>
rec or
relati vely</w>
amoun t</w>
e ty</w>
m ing</w>
sa ys</w>
concer ned</w>
marri ed</w>
admini stration</w>
re sul
own ers</w>
comparis on</w>
gi ve</w>
gener ation</w>
oc c
bec ome</w>
decad es</w>
b al
v ol
w ide</w>
relati on
h o
consi st
nex t</w>
a ve</w>
s ol
serv ices</w>
To day</w>
re f
at t
ac ti
posi tion</w>
w ays</w>
con f
poli cies</w>
marri age</w>
eigh t-in-ten</w>
C urr
S ep
U S
ar ri
it h</w>
comm un
velo p
seven -in-ten</w>
f oc
vi ew
rea u</w>
pri ority</w>
repres ent
a m</w>
an ese</w>
comp ani
reg ul
con sid
no w
af fili
scienti sts</w>
- born</w>
ab or</w>
mon ths</w>
ethn ic</w>
an other</w>
200 6</w>
ta ke</w>
1 0
ig ure</w>
Th ese</w>
pro gr
sti tu
hand ling</w>
2 .
S y
gr ap
C O
as es</w>
s m</w>
concer n</w>
thr ough</w>
v ari
rel ated</w>
E x
fa ir</w>
x ed</w>
we st</w>
Pro te
sever al</w>
s h</w>
Maj orities</w>
grad u
on al
ab or
pl ace</w>
No t</w>
finan cial</w>
f t</w>
li fe</w>
sp ite</w>
confi dent</w>
stu dents</w>
grap h
ti onal</w>
mar ke
rel ations</w>
smart phone</w>
j u
ong ly</w>
Bu reau</w>
or d
tr ac
ph ones</w>
B lack</w>
d ou
it ing</w>
st ates</w>
ma y</w>
appro val</w>
N ew</w>
W or
un der
igh t</w>
particul arly</w>
orig in</w>
I D
vi ron
fa ir
pri mar
some one</w>
reg ar
Fran ce</w>
US S</w>
w ar</w>
wh el
one -in-
av ail
Millenni als</w>
T wit
k now</w>
n ec
c e
d r
it al</w>
ver s
sp ending</w>
ligi ble</w>
g o</w>
s ite</w>
in s</w>
ic ally</w>
de moc
201 9</w>
fi sc
st ri
comm on</w>
househol d</w>
seri ous</w>
fisc al</w>
or ism</w>
re si
mon th</w>
compani es</w>
F ully</w>
p at
s ment</w>
t or
in ed</w>
str ongly</w>
thre e-in-ten</w>
Twit ter</w>
N A
O n</w>
b an</w>
b ir
si x</w>
de velop
ssi onal</w>
En g
relation ship</w>
B ar
G en
er ing</w>
air s</w>
A d
S h
g in</w>
tr ade</w>
ough t</w>
tt ing</w>
Afric a</w>
C our
P al
Y oun
m plo
vi ol
gen der</w>
C u
a sh
al e</w>
ha ving</w>
Chin ese</w>
respon dents</w>
hear ing</w>
continu e</w>
signific antly</w>
Au g
ak i
h um
po or</w>
lat est</w>
est ini
onal d</w>
F eb
R ec
pers on</w>
citiz ens</w>
abor tion</w>
Pal estini
c ould</w>
k es</w>
t e</w>
in d</w>
sp read</w>
pl at
differ ence</w>
immigr ant</w>
exp ect</w>
Isra el</w>
CO V
3 .
J o
li er</w>
le an</w>
mo der
de f
Th ose</w>
ur ity</w>
ste m</w>
signific ant</w>
Kore a</w>
COV ID
O p
b ile</w>
in du
-in come</w>
tw ice</w>
lar ger</w>
hel p</w>
accep table</w>
satis fied</w>
T w
b ased</w>
pre me</w>
COVID -
7 3</w>
c ase</w>
en viron
om s</w>
vot ing</w>
ge ly</w>
pa id</w>
Su preme</w>
fair ly</w>
COVID- 19</w>
7 8</w>
B o
b ack</w>
m an
n er</w>
acc ess</w>
inter national</w>
Catho lic
conf lic
7 5</w>
7 6</w>
S en
de v
wor se</w>
new sho
aff airs</w>
Indi a</w>
repor ted</w>
ad van
200 4</w>
secon d</w>
great er</w>
Sup port</w>
newsho le</w>
7 7</w>
n ati
r an</w>
in es</w>
st ar
Sy ri
Catholic s</w>
S o
en ough</w>
se en</w>
reas on</w>
eff ec
terr orism</w>
Curr ently</w>
avail able</w>
hi m</w>
recei ved</w>
4 .
c um
k now
st er</w>
pp ed</w>
P aki
e ligible</w>
em ber</w>
lar gely</w>
la ws</w>
Bar ack</w>
Cour t</w>
C an
per form
grow n</w>
mi xed</w>
Dec ember</w>
Mid dle</w>
0 ,000</w>
M any</w>
ta in</w>
stan ce</w>
No ve
contro l</w>
D onald</w>
E ast</w>
m ent
o m</w>
Th e
be g
be st</w>
over whel
sy stem</w>
d ri
u es</w>
mo graph
Wh ite</w>
regi on</w>
deci sion</w>
techno logy</w>
Nove mber</w>
f ul
di g
ig n
mig rants</w>
popul ar</w>
7 4</w>
b ility</w>
di tions</w>
ve ment</w>
our n
ten d</w>
fam ili
F av
ati s
ri se</w>
se x</w>
ch ar
ci p
poli ce</w>
b ene
l an
s en
sp ap
poli tics</w>
organiz ations</w>
h owever</w>
l es</w>
at titudes</w>
po ssi
mo bile</w>
sup por
al most</w>
om e
ter ms</w>
ge lic
es sion</w>
soci ety</w>
concer ns</w>
Asi an</w>
C ol
W ash
m is
re main</w>
the n</w>
ear lier</w>
hel d</w>
Nor th</w>
S ti
U ni
en d
se s
ing ton</w>
ev en
har as
descri be</w>
1 00</w>
7 9</w>
n ot
se x
gi ven</w>
low ing</w>
bor der</w>
remain ed</w>
I ran</w>
d omin
f all</w>
re duc
li sh</w>
offic ers</w>
w at
off ice</w>
remain s</w>
fri ends</w>
M ay</w>
b il
st ud
Wash ington</w>
l abor</w>
an while</w>
sa m
sour ces</w>
Tur key</w>
th er
de mograph
for ms</w>
19 8
C ensus</w>
b o
b us
u m</w>
di rec
di tional</w>
con gre
pro j
gre at</w>
pat ter
v ity</w>
us ti
fic it</w>
Oc to
Sti ll</w>
S e
k ly</w>
lo west</w>
le s
me d
fe el
sci ence</w>
Jap anese</w>
perform ance</w>
D o</w>
G e
H ow</w>
N ot
se e
mar gin</w>
V ot
e ver</w>
n at
to o
id en</w>
expres sed</w>
ourn ali
c ases</w>
U.S .
to -
righ ts</w>
Fe wer</w>
sex u
B iden</w>
b er
new spap
nu clear</w>
Octo ber</w>
U k
i a</w>
s ing
chang es</w>
We stern</w>
N ational</w>
c ap
c ell</w>
li t</w>
ne mplo
adul t</w>
In de
stan ts</w>
experi ence</w>
fall en</w>
Uk ra
c all
po ll</w>
ur al</w>
pro duc
ev ents</w>
b ud
g es</w>
t al
an s
T V</w>
b and</w>
p as
r ing</w>
ali z
rac y</w>
bus in
o ice</w>
en ced</w>
ati ves</w>
de al
200 5</w>
tri bu
pa th
bi g</w>
with out</w>
n omin
an ti
lin es</w>
rec ently</w>
pa in</w>
num bers</w>
curr ently</w>
Me anwhile</w>
ide o
Aug ust</w>
b ig
m er</w>
re qu
st and</w>
Ac ross</w>
pref er
5 .
p ly</w>
an ts</w>
public s</w>
wor k
Sen ate</w>
Syri a</w>
N um
er ation</w>
ti ally</w>
si a</w>
am e</w>
de st</w>
te le
respec tively</w>
Prote stants</w>
Fav or
1 8
F igure</w>
S pain</w>
o ol
an gelic
con ditions</w>
inter e
ev angelic
fac t</w>
eff or
oppo se</w>
mea su
med ical</w>
t ro
de voted</w>
S a
S ur
T O</w>
W ith</w>
a si
c re
re ach
mo thers</w>
por tion</w>
str u
ous ly</w>
Eng lish</w>
Num ber</w>
S pan
a ily</w>
t or</w>
in vol
sp lit</w>
be low</w>
str y</w>
respon si
descri b
recor d</w>
Span ish</w>
L eb
d -
e p</w>
g ed</w>
ex tre
Af gh
nam e</w>
ate ly</w>
E g
t op
in comes</w>
presi den
comp le
commun ity</w>
demograph ic</w>
Eg yp
T e
k en</w>
m or
de ficit</w>
mig r
sour ce</w>
bal ance</w>
haras sment</w>
r e</w>
re search</w>
di sc
ad dition</w>
vi sion</w>
com pu
tic ally</w>
sch ool
Gre at</w>
pr in
Christi ans</w>
Sep te
NA TO</w>
p ay</w>
al ong</w>
ic ity</w>
ri sing</w>
sh ow</w>
Republic an
increas ing</w>
S im
a y
an a</w>
st -
am ati
gener ations</w>
with in</w>
nu al</w>
Ge or
too k</w>
Septe mber</w>
Sim il
at h</w>
ne ver</w>
se ven</w>
de fin
pre h
em ents</w>
deb t</w>
sho ot
democ racy</w>
I ta
t .</w>
le gi
ent ed</w>
ra ther</w>
pl ac
continu es</w>
consist ently</w>
8 4</w>
d ers</w>
l ong</w>
p ed</w>
li st</w>
ke p
resi dents</w>
conflic t</w>
preh en
u res</w>
th ought</w>
ad a</w>
pri v
ta in
leg ally</w>
respon se</w>
Econom ic</w>
viol ence</w>
Feb ru
sing le</w>
Sur ve
d ays</w>
e very</w>
thre at
do m</w>
Pro ject</w>
eff ect</w>
fre qu
repor ts</w>
pref er</w>
app lic
famili es</w>
Febru ary</w>
J ord
ani stan</w>
pers onally</w>
Me di
equ al</w>
marke t</w>
dr amati
cri sis</w>
ris en</w>
congre ssional</w>
bud get</w>
a di
l ate</w>
re le
al th
ac y</w>
se par
ex cell
elec ted</w>
Russi ans</w>
Is l
hi stor
lib er
consid er
Afgh anistan</w>
8 1</w>
8 3</w>
u nemplo
rat ed</w>
year -
dat ing</w>
sho ws</w>
Ac c
are as</w>
oppo sed</w>
val ues</w>
cep tions</w>
view ed</w>
Paki stan</w>
possi ble</w>
deal ing</w>
P ri
V er
c ul
as ses
compar able</w>
eng ag
emplo yment</w>
sec urity</w>
part ner</w>
presiden cy</w>
legi s
B ra
t ors</w>
ro w</w>
ne e
ad dre
ol ds</w>
un changed</w>
ge tting</w>
min ority</w>
cour t</w>
plat forms</w>
I t</w>
N o</w>
m ul
n in
pro t
ques tions</w>
sy m
6 .
8 5</w>
O ver</w>
f ell</w>
on -
st ra
typ ical</w>
dro pped</w>
estim ates</w>
progr am</w>
dig ital</w>
1 ,
8 2</w>
P E
P h
d ings</w>
r it
gr ound</w>
tur n</w>
continu ed</w>
sm all</w>
log ical</w>
fore ign
H alf</w>
si ve</w>
ne ss</w>
De spite</w>
me -
oo ds</w>
Mexic ans</w>
tu ally</w>
stat us</w>
att acks</w>
Bo om
c la
n out</w>
o b
il legal</w>
pl es</w>
Democrati c
educ ated</w>
Geor ge</w>
- to-
. .</w>
L ati
c ite</w>
d en</w>
g ing</w>
en se</w>
li ves</w>
fol low</w>
fin d</w>
la m</w>
do cum
ric es</w>
consi der</w>
foc used</w>
gradu ates</w>
excell ent</w>
Lati n</w>
m ale</w>
ti ci
ul t</w>
erg y</w>
substan tially</w>
Tw o
e li
in ve
re stric
ol d</w>
Th re
stan ding</w>
Is lam</w>
Pre ss</w>
moder ate</w>
Isl am
P ol
d ra
l ong
u t
ti n</w>
po ten
su c
vi de
du e</w>
lead ing</w>
one-in- five</w>
vers ity</w>
Cu b
advan t
Can ada</w>
Bra z
inclu des</w>
experi enced</w>
Ukra ine</w>
Surve y</w>
E ven</w>
E lec
L ar
a ke</w>
y our</w>
sa me-
ne igh
em erg
Po li
Not e</w>
Acc ording</w>
8 6</w>
h er</w>
r en
s k
ar d</w>
st ing</w>
20 20</w>
appro ved</w>
two -in-ten</w>
offic i
hum an</w>
stud y</w>
same- sex</w>
H e
an nual</w>
li ons</w>
ac tion</w>
ma il</w>
ch es</w>
he ad</w>
Po pul
ate g
broad band</w>
N ig
d ly</w>
li c</w>
pu r
me mber</w>
wor ri
cont ent</w>
eigh t</w>
wide ly</w>
reach ed</w>
d aily</w>
h om
o ve</w>
al ways</w>
Republican -leaning</w>
f ully</w>
p rices</w>
par ts</w>
du ce</w>
one -in-ten</w>
lead er</w>
mid -
substan tial</w>
primar y</w>
bil lion</w>
prot ect</w>
PE J</w>
Nig er
l and</w>
al though</w>
le ad</w>
de ath</w>
wee ks</w>
ethn icity</w>
sum mer</w>
Youn ger</w>
Democratic -leaning</w>
A no
c ement</w>
h ind</w>
v acc
po ver
op tim
200 2</w>
Palestini ans</w>
beg an</w>
nin e-in-ten</w>
Islam ic</w>
Ano ther</w>
N e
c ateg
f its</w>
p ing</w>
t wee
di sp
ad y</w>
pro portion</w>
mar ks</w>
fin dings</w>
off er</w>
divi du
Mexic an</w>
Europe ans</w>
sym path
foreign -born</w>
H ave</w>
e ly</w>
s sa
in dic
ap prehen
te sts</w>
inclu ded</w>
form er</w>
chil d</w>
mid dle</w>
emplo yed</w>
acti vi
sam ple</w>
Jord an</w>
O ther</w>
e vi
in stance</w>
an ds</w>
ne y</w>
bl ed</w>
accoun t</w>
Inde x</w>
poten tial</w>
c u
d one
con sum
be hind</w>
gre w</w>
In done
Ch an
loo k</w>
regar ding</w>
Op ini
Uni on</w>
patter n</w>
separ ate</w>
unemplo yment</w>
- year-
f ood</w>
li es</w>
par ent</w>
vot er</w>
pl ur
parti cip
impro ve</w>
Catho lic</w>
wide spread</w>
nec ess
docum ented</w>
A t
S ay</w>
W omen</w>
a in</w>
j usti
m ingly</w>
on ger</w>
ec h</w>
ci vi
wee kly</w>
cer tain</w>
inclu de</w>
shar ply</w>
ill ing</w>
hel or</w>
cri me</w>
are a</w>
ris k</w>
estim ated</w>
Sh are</w>
The y</w>
Ver y</w>
c y
c ess</w>
n ar
t -
ac tions</w>
ab ove</w>
sh or
com ing</w>
te m
tur nout</w>
Ar ound</w>
bu il
aliz ation</w>
mul ti
pover ty</w>
A n</w>
f un
s ro
v ic
or y</w>
ad s</w>
tr ue</w>
sur ing</w>
fic ation</w>
fre e</w>
resul t</w>
affili ated</w>
ju ana</w>
J ews</w>
f -
o il</w>
on ce</w>
st ant</w>
pro po
ch ur
min ation</w>
ven ue</w>
Ar e</w>
acti vity</w>
So cial</w>
ful l</w>
responsi bility</w>
offici als</w>
8 7</w>
8 8</w>
en cy</w>
al lowing</w>
serv ice</w>
Russi an</w>
net working</w>
read y</w>
ment al</w>
L ast</w>
d own
g as</w>
ta king</w>
of U.S</w>
mid term</w>
cell phone</w>
deci sions</w>
bac helor</w>
school s</w>
Simil arly</w>
Boom ers</w>
U K</w>
c ast</w>
i ze</w>
an on</w>
or der</w>
sa w</w>
ec e</w>
di scri
ver sa
sp ring</w>
ran ge</w>
some times</w>
fac tion</w>
-thir d</w>
spe ak</w>
Wor ld</w>
tele vision</w>
evangelic al</w>
Leb anon</w>
s er</w>
y -
in dividu
op position</w>
diff ic
shar ing</w>
enti al</w>
own ership</w>
Pu tin</w>
Indi ans</w>
scienti fic</w>
resul ts</w>
bir th</w>
Egyp t</w>
migr ation</w>
activi ties</w>
. ..</w>
c ited</w>
f el
l ation</w>
li sted</w>
ac tive</w>
str eng
mil lions</w>
increas ingly</w>
Rec ession</w>
neigh bor
B rit
O l
S ec
ro l
se t</w>
ig ures</w>
fi t</w>
ch ec
rec over
stan ds</w>
spec ts</w>
Asi ans</w>
equ ally</w>
Li b
def ense</w>
indu stry</w>
environ ment</w>
overwhel mingly</w>
even ly</w>
ournali sm</w>
7 .
T E
d a</w>
r ul
s kep
po w
am s</w>
port ing</w>
pri or</w>
one -
uni ties</w>
emplo ye
bac k
Y or
c a
w ell
as soci
min orities</w>
har d</w>
Ex cell
effor ts</w>
M ar
R om
Y et</w>
th u
st ay</w>
po sts</w>
gr y</w>
Wh ich</w>
disa gree</w>
equ ality</w>
Gre ece</w>
I s</w>
O f</w>
U S</w>
n ers</w>
w all</w>
in ing</w>
in ning</w>
en ergy</w>
con tribu
sp end</w>
ur ban</w>
tr end</w>
coun ter
posi tions</w>
identi fied</w>
les bi
busin ess</w>
alth y</w>
He alth</w>
W .</w>
a stern</w>
re se
al ready</w>
ac i
le d
ci r
me ssa
mar i
ough out</w>
stan d
On e</w>
aga in</w>
Maj ority</w>
develop ing</w>
Ita ly</w>
9 .
R at
en cour
ro se</w>
ma kes</w>
out side</w>
ste ady</w>
co h
typ es</w>
mea sure</w>
Com m
bene fits</w>
discri mination</w>
mari juana</w>
Rat ings</w>
M c
p pen
in stitu
li d</w>
200 1</w>
favor ed</w>
19 80</w>
satis faction</w>
anti -
consider ably</w>
Popul ation</w>
- time</w>
0 .
c ar
h ood</w>
w r
in a</w>
re venue</w>
com b
me ans</w>
te en</w>
ta x</w>
col l
,0 0
cam e</w>
ill s</w>
fac e</w>
atten d</w>
typ e</w>
part ment</w>
employe es</w>
F l
i ther</w>
r un
r ural</w>
y a</w>
ha pp
pro tec
tur ned</w>
divi de</w>
one -third</w>
sel f-
atis tics</w>
sro om</w>
op s</w>
wor ks</w>
te ach
pl an</w>
diff er</w>
enti ment</w>
educ ational</w>
exp ected</w>
Au stra
spe a
newspap ers</w>
big gest</w>
priv ate</w>
Austra li
5 ,000</w>
F ew</w>
G lobal</w>
J ournalism</w>
L ess</w>
re ly</w>
st a
si ze</w>
ab y</w>
un documented</w>
low ed</w>
lu m</w>
import ance</w>
war ming</w>
parti s
sm ents</w>
Afric an</w>
Jan .</w>
dro p</w>
consist ent</w>
foc us</w>
reduc ing</w>
stru c
emerg ing</w>
-year- olds</w>
Brit ain</w>
A s
R ic
S ome
c ally</w>
s entiment</w>
th ous
ne ither</w>
mo dest</w>
con nec
de m
tr u
pri s
Con fi
know n</w>
direc tion</w>
Favor able</w>
Two -thirds</w>
long -
Yor k</w>
Rom ney</w>
1 ,000</w>
G u
L G
c over
c are
g one</w>
m ight</w>
v als</w>
an gry</w>
re li
ver se</w>
ur y</w>
dec reas
ta ken</w>
identi ty</w>
Me a
cour se</w>
impro ved</w>
dev ice</w>
effec ts</w>
cla ss</w>
9 0</w>
O r
P aci
f l
o le</w>
an -
an c
re st</w>
di stric
ad op
ha ppen
Re ligi
as y
ch all
acc ur
favor ability</w>
high ly</w>
shar ed</w>
Inter net</w>
Ca in</w>
tra ditional</w>
affili ation</w>
Excell ence</w>
Paci fic</w>
- year</w>
B T</w>
E duc
F rom</w>
d le
j ud
l and
re form</w>
lo gi
le ts</w>
we alth</w>
wor ry</w>
em s</w>
Par ti
terr ori
Al though</w>
Econom y</w>
ref lec
proj ected</w>
Vot ers</w>
pas sed</w>
compu ter</w>
worri ed</w>
Confi dence</w>
G row
W ar</w>
d ru
g ay</w>
it ted</w>
ati vely</w>
ver sus</w>
ex t</w>
ch oice</w>
te sted</w>
199 0</w>
exp an
Germ an</w>
loo king</w>
occ up
progr ams</w>
Gen eration</w>
dev ices</w>
intere sts</w>
frequ ently</w>
Ph ili
LG BT</w>
I S
O ne
f igures</w>
m ism</w>
as si
reas ons</w>
tre at
bir ths</w>
necess ary</w>
thu si
Fl ori
Phili pp
B e
X i</w>
f er
wh y</w>
vi r
il ed</w>
pro tests</w>
per ceptions</w>
gi ving</w>
pe ak</w>
la w
regi ons</w>
repres ents</w>
regul ations</w>
Youn g</w>
Palestini an</w>
measu res</w>
apprehen sions</w>
- point</w>
h and</w>
u r</w>
le ave</w>
vi s
pre v
ex cep
is tic</w>
200 3</w>
econom ies</w>
speci fic</w>
nati on
overwhel ming</w>
ideo logical</w>
Cub a</w>
Niger ia</w>
Indone sia</w>
Flori da</w>
8 9</w>
G en</w>
G od</w>
S our
a i
c ou
c lu
e e</w>
m one
r ich</w>
t es</w>
w on</w>
x es</w>
in ten
al -
ec ts</w>
si z
il ing</w>
ul ts</w>
ex per
ke ep</w>
ge ts</w>
beli ev
rele ased</w>
diffic ult</w>
Mc Cain</w>
asy lum</w>
8 .
E astern</w>
T uni
d om
n ine</w>
r al</w>
y s
an t
ac ted</w>
ec u
ver y
sh ed</w>
clo ser</w>
he ad
co op
particul ar</w>
suppor tive</w>
Se e</w>
sexu al</w>
applic ations</w>
thusi as
Philipp ines</w>
mone y</w>
9 1</w>
S il
d ol
u el
er -income</w>
en ing</w>
al lies</w>
le ft</w>
un affiliated</w>
ci ally</w>
pl ays</w>
Wh at</w>
shi ft</w>
accoun ting</w>
Po si
agre ement</w>
terr it
Di ff
Com par
commun ic
Sa har
asses sments</w>
Elec tion</w>
B et
F ore
f oods</w>
l ac
p tion</w>
s -
z uel
di se
con n
sh ow
pro fe
fi el
sel f</w>
199 0s</w>
dou bled</w>
know led
U.S. -born</w>
threat s</w>
restric tions</w>
Lar ge</w>
plur ality</w>
counter parts</w>
C am
K en
V ene
a head</w>
g un
h n</w>
ac ter
ab ili
le ar
ver si
tr an
posi tively</w>
Con serv
shi f
fac tor</w>
nam ed</w>
Sep t.</w>
feel ings</w>
Medi an</w>
Pol and</w>
evi dence</w>
Vene zuel
A ppro
C oun
D ay</w>
G overn
I S</w>
M u
S i
W est</w>
b as
g am
sa ge</w>
de spite</w>
De partment</w>
im age</w>
im pres
pl a
mid dle
offic ial</w>
expres sing</w>
trac ked</w>
vide o</w>
well -
thous ands</w>
Mea suring</w>
5 0
f lu
n ative</w>
t om
v ary</w>
li ved</w>
it ely</w>
st able</w>
ter ans</w>
ra is
pl om
au di
Asi a</w>
Ar ab
ed iting</w>
Isra el
dis satisfied</w>
lan gu
plac es</w>
tain ment</w>
advant age</w>
Some what</w>
A verage</w>
N ew
c l
f igure</w>
m ini
er to</w>
wh ose</w>
st re
ne ed</w>
for cement</w>
ru n</w>
ga in</w>
Pu erto</w>
mi x</w>
Christi an</w>
represent ed</w>
under stand</w>
justi fied</w>
propo sa
Parti san</w>
IS IS</w>
Sahar an</w>
D uring</w>
T o</w>
g le</w>
s li
s sing</w>
wh om</w>
st oc
ha vi
sh own</w>
Democ r
ga ve</w>
St ate</w>
cor rec
Li kely</w>
recei ve</w>
dou ble</w>
shoot ings</w>
dramati cally</w>
-to- one</w>
sympath ize</w>
S we
i den
in ci
ic i
ac hi
di plom
fe male</w>
pl ay</w>
out lets</w>
cor por
declin ing</w>
ess ential</w>
stat ement</w>
organiz ation</w>
pol ls</w>
vari es</w>
environ mental</w>
feel ing</w>
call ed</w>
fel t</w>
L oo
S m
S p
v ice</w>
en thusias
it t
mo ve</w>
ad ju
ad ditional</w>
be havi
fi le</w>
ex i
un favorably</w>
ch ing</w>
so lid</w>
ta xes</w>
Con cer
some thing</w>
finan cially</w>
Ad ults</w>
dri ven</w>
requ i
lesbi ans</w>
vir tually</w>
- Saharan</w>
1 1
A ll</w>
C ri
S tr
T u
p rac
v .</w>
lo sing</w>
per cent</w>
ir e</w>
mar ry</w>
In depen
of us</w>
identi fication</w>
thr oughout</w>
Millenni al</w>
newspap er</w>
work force</w>
tro ops</w>
M ic
R E
T otal</w>
b an
w age</w>
an y
ti on
re duce</w>
lo st</w>
ad ver
20 50</w>
op en
pro gress</w>
no thing</w>
ex ecu
we b
wor th</w>
gre es</w>
pl an
ali ties</w>
co st</w>
secon d-
Le ad
read ing</w>
provi de</w>
occ ur
char acter
legis lation</w>
nee ds</w>
Braz il</w>
b r
r ap
v oice</w>
con dition</w>
us es</w>
rec ession</w>
pa ying</w>
pa ign</w>
govern ments</w>
popul ations</w>
high -
sti g
leg es</w>
St atistics</w>
sol ve</w>
Jo b</w>
defin itely</w>
engag ed</w>
tici sm</w>
ren ch</w>
knowled ge</w>
Democr at</w>
F rench</w>
M en</w>
a -
b oo
b ook</w>
ar ity</w>
en ship</w>
di versity</w>
es ses</w>
es tic</w>
ph ys
min im
presi dents</w>
belie f</w>
tis h</w>
Di vi
pan dem
ho sp
The ir</w>
ther n</w>
describ es</w>
addre ss</w>
dra w
back ground</w>
partis ans</w>
Cam paign</w>
Govern ment</w>
iden tical</w>
B aby</w>
H ill
Q u
p ic
t ari
w an
li ty</w>
li fe
su g
ne ar</w>
we ap
ap s</w>
ap ps</w>
ali zed</w>
lar s</w>
hol ds</w>
mat h</w>
indu stri
suppor ted</w>
U.S. -
prin t</w>
Ne g
At titudes</w>
wr ong</w>
stoc k</w>
Loo king</w>
pandem ic</w>
Hill ary</w>
1 ,00
B oth</w>
F or
F ol
S er
b ar
e k</w>
s ses</w>
le t</w>
po st-
con versa
ch ed</w>
ap pe
pe ssi
increas es</w>
au tom
lead ership</w>
go als</w>
pol led</w>
represent ative</w>
nat ur
tal k</w>
intere sted</w>
describ ed</w>
optim istic</w>
institu tions</w>
Sour ce</w>
Israel i</w>
adju sted</w>
' re</w>
9 5</w>
B ri
G i
S al
S TE
T im
U se</w>
a w
d ate</w>
g row</w>
o sexu
en rol
de grees</w>
un ity</w>
pa ss</w>
pri orities</w>
col leges</w>
ste adi
bro ad</w>
ref l
develop ments</w>
plat form</w>
Jo hn</w>
star t</w>
skep tical</w>
Australi a</w>
dol lars</w>
gun s</w>
9 2</w>
A A
C ali
G r
e mail</w>
s ha
y on
th ly</w>
ti sing</w>
con stitu
ve terans</w>
pro cess</w>
ch o
per man
vot es</w>
qu ite</w>
ep ing</w>
religi ously</w>
prob ably</w>
two -to-one</w>
recei ves</w>
great est</w>
tor y</w>
cap it
inve stig
Poli tical</w>
Bri tish</w>
steadi ly</w>
' ve</w>
B ro
H igh
S un
a ir</w>
c ha
e f</w>
f f</w>
f ru
v ast</w>
an n
en ded</w>
sa fe</w>
at ors</w>
lo ws</w>
ag ed</w>
op port
ear s</w>
fa thers</w>
ge ther</w>
new sroom</w>
cri tical</w>
oppo site</w>
To p</w>
refuge e</w>
Oc t.</w>
consid ered</w>
mor al</w>
vacc ine</w>
Sec urity</w>
encour age</w>
terrori st</w>
2 ,
H igh</w>
I f</w>
M i
M or
M ore
e dom</w>
m an</w>
li sh
wh ole</w>
mo de
mo vement</w>
oun ced</w>
de port
op e</w>
tr ends</w>
for ni
gen e</w>
percent ages</w>
sec ure</w>
Di sa
Im migration</w>
Col le
proj ec
measu red</w>
dramati c</w>
expan ding</w>
langu age</w>
STE M</w>
Cali forni
More over</w>
C o
O ur</w>
h our
j ournali
m p
n or</w>
s s
w illing</w>
re ach</w>
st atis
vi si
chan ce</w>
shar p</w>
campa ig
hi story</w>
broad er</w>
net work</w>
hum ans</w>
dom estic</w>
Swe den</w>
phys ical</w>
yon d</w>
A ge</w>
d less</w>
ti ed</w>
Re p</w>
ke eping</w>
pe a
qu ake</w>
rac es</w>
ga ys</w>
fac ing</w>
sub -Saharan</w>
lat er</w>
pol ling</w>
nati onally</w>
wat ch</w>
Opini ons</w>
civi l</w>
individu al</w>
teach ers</w>
decreas ed</w>
occup ations</w>
siz able</w>
hosp it
C are</w>
F re
G M</w>
S ci
W i
c is</w>
c ensus</w>
g ent
g aps</w>
in e
al ty</w>
st ood</w>
le a
qu ality</w>
ra di
Cent ral</w>
cent ury</w>
appro pri
wi der</w>
ga ins</w>
Ar gent
Fran cis</w>
gradu ate</w>
Feb .</w>
nomin ation</w>
big ger</w>
nee ded</w>
particip ation</w>
buil ding</w>
chall eng
Diff er
Bet ween</w>
occur red</w>
Neg ative</w>
3 ,
B l
L abor</w>
N et
c ess
m oms</w>
t ab
th -
ar ds</w>
al lowed</w>
po se</w>
se as
pu t</w>
ag an</w>
vi a</w>
de ter
tr ack</w>
as y</w>
tho do
Wh ites</w>
ser ve</w>
disa gre
new ly</w>
Vi et
are ly</w>
ed oms</w>
citiz enship</w>
Tw o</w>
Can adi
bene fit</w>
busin esses</w>
asi c</w>
invol vement</w>
shoot ing</w>
chur ch</w>
comb ined</w>
logi es</w>
exper ts</w>
corpor ations</w>
osexu ality</w>
Californi a</w>
campaig ns</w>
B i
M arri
S hi
U N</w>
b asic</w>
c ing</w>
h ur
p i
w a
th quake</w>
er ful</w>
ar ch
en forcement</w>
st ations</w>
Re l
Th an</w>
com for
fi f
compar es</w>
he avi
ani a</w>
ill ed</w>
Ac t</w>
ide a</w>
conserv atives</w>
Prote stant</w>
vers ary</w>
democ rati
twee ts</w>
associ ated</w>
audi ence</w>
adver tising</w>
industri es</w>
C ar
F ar</w>
T ex
W e</w>
e very
e asy</w>
g ar
k i
s on</w>
s po
w om
in equality</w>
er r
en h
ver s</w>
Re public</w>
op en</w>
ear thquake</w>
ap poin
In c
comm it
ari es</w>
Per cent
On line</w>
uni ons</w>
non- Hispanic</w>
broad ly</w>
effec tive</w>
patter ns</w>
addre ssing</w>
Posi tive</w>
territ ories</w>
radi o</w>
heavi ly</w>
9 3</w>
a id</w>
t ext</w>
in de
al u
po st
ur ther</w>
to gether</w>
pl ans</w>
pri ori
ev alu
of registered</w>
fin al</w>
appro ach</w>
lean ed</w>
199 2</w>
cri min
deb ates</w>
ligh t</w>
Tur ks</w>
Le an</w>
val ent</w>
sol u
vari ous</w>
lan ds</w>
cul ation</w>
shor tly</w>
Ol der</w>
Grow ing</w>
nation wide</w>
A p
X ers</w>
a ths</w>
f s</w>
l onger</w>
t ations</w>
in king</w>
ti l</w>
at trac
lo ts</w>
se qu
il legally</w>
poli tically</w>
ye t</w>
gen e
Af ter</w>
go t</w>
agre ements</w>
Asi a-
Isra eli
fri end</w>
ce e
ideo logy</w>
comple ted</w>
Te a</w>
histor ically</w>
liber als</w>
cy c
pow erful</w>
head ed</w>
gam es</w>
weap ons</w>
democrati c</w>
Asia- Pacific</w>
2 5
J usti
a way</w>
a spects</w>
g s</w>
g al</w>
l ling</w>
an ger</w>
ar re
si ans</w>
il s</w>
Th ough</w>
sp ou
pro file</w>
pre -
pre par
ch oo
fa ith</w>
ge -
Ch il
Wh o</w>
sc ale</w>
lib r
Indi an</w>
dro p
Im migrants</w>
vol un
arri ved</w>
arri vals</w>
regul arly</w>
viol ent</w>
Cu ban</w>
char t</w>
ans wer</w>
nomin ee</w>
18 -</w>
engag ement</w>
suc cess
long- term</w>
cover ed</w>
cou ples</w>
impres sion</w>
Colle ge</w>
wom an</w>
7 5,000</w>
B C</w>
D is
G a
G ood</w>
S even
c ore</w>
i an</w>
m es</w>
t ar
t ent</w>
ti onally</w>
li ans</w>
sp ace</w>
tr ou
por ted</w>
we althy</w>
is sions</w>
te ly</w>
cont act</w>
divi des</w>
neg atively</w>
tu al</w>
indepen dent</w>
finan ces</w>
val ue</w>
Al most</w>
net works</w>
10 .
beg inning</w>
not able</w>
effor t</w>
ut down</w>
sk ills</w>
categ ory</w>
run ning</w>
Educ ation</w>
Tuni sia</w>
bas is</w>
1 1.
2 9
3 0,000</w>
9 4</w>
e le
h it</w>
j ec
m ed</w>
v ad
in sur
re ve
at tribu
al one</w>
st ers</w>
st ag
vi rus</w>
de aths</w>
low er-income</w>
Tr ends</w>
stan ces</w>
pres ent</w>
serv ed</w>
Un authorized</w>
main ly</w>
Vi ew</w>
techno logies</w>
Paki stan
domin ant</w>
compu ters</w>
histor ic</w>
inve st
Braz ili
spea king</w>
adop tion</w>
correc tly</w>
Indepen dents</w>
Fol lowing</w>
N E
N eth
R o
W ide</w>
c able</w>
k ind</w>
p on
s ent
w ages</w>
er lands</w>
or ed</w>
at tainment</w>
al lu
ac k
mo ved</w>
Re p
sp or
per c
elec tor
col d</w>
mon thly</w>
lob ally</w>
cri mes</w>
typ ically</w>
Fe deral</w>
fall ing</w>
dou b
primar ily</w>
Medi a</w>
consum ers</w>
Chan ge</w>
Opini on</w>
recover y</w>
treat ment</w>
prev ent</w>
fiel d</w>
abili ties</w>
Conserv ative</w>
Tex as</w>
Neth erlands</w>
/ Lean</w>
B ased</w>
C z
N ations</w>
a h
c ut</w>
e ve</w>
ti lity</w>
de ep
as sa
dec rease</w>
divi sions</w>
col lec
comm unities</w>
respon ses</w>
lim ited</w>
exp ec
We ek</w>
smart phones</w>
domin ated</w>
see kers</w>
ans w
prefer red</w>
cir culation</w>
distric ts</w>
Religi ous</w>
excep tion</w>
Appro val</w>
Sal vad
perman ent</w>
projec tions</w>
1 6
4 ,
E th
I I</w>
M in
M ini
T ai
W ould</w>
b ur
h ere</w>
h ome
m en
an g
on ed</w>
en cies</w>
re porting</w>
sa fe
al ter
ec h
po sed</w>
ne ar
tr um</w>
for ces</w>
off en
af ter
lim it</w>
tec h</w>
emplo y
tiz e</w>
impro vement</w>
provi ding</w>
ful l
nat ural</w>
Sa ud
stru g
categ ories</w>
cy ber
rese tt
coh ab
happ y</w>
One -in-
coop eration</w>
Sil ent</w>
capit a</w>
Seven -in-ten</w>
F i
F ili
H ar
M er
M ilit
n am</w>
u sage</w>
y c
un acceptable</w>
un til</w>
str onger</w>
rel ative</w>
fre edoms</w>
sol ar</w>
regar d</w>
advan ced</w>
evangelic als</w>
Pri me</w>
pur cha
accur ate</w>
Compar ed</w>
show ed</w>
diplom a</w>
Bl acks</w>
attrac ted</w>
Israeli s</w>
success ful</w>
Mini ster</w>
Saud i</w>
A C
G allu
H un
I G
N on-
O w
b om
i se</w>
n ings</w>
p t</w>
p in
er a</w>
Re gi
De m</w>
un married</w>
wor d</w>
ir ing</w>
ran ks</w>
19 70</w>
spec trum</w>
pen alty</w>
belie fs</w>
agre ed</w>
experi ences</w>
dis pu
recor ded</w>
Sh ould</w>
sen se</w>
nat ure</w>
Inde ed</w>
defin ed</w>
Fore ign</w>
minim um</w>
sha pe</w>
opport unities</w>
challeng es</w>
Viet nam</w>
Canadi ans</w>
hur t</w>
fif th</w>
insur ance</w>
Fili pin
Gallu p</w>
9 /
C lo
b ab
b lo
b ol
g ot
p ar</w>
t ary</w>
w in
ti s</w>
on going</w>
re ally</w>
it self</w>
ac tually</w>
sh utdown</w>
de -
Re agan</w>
ent ering</w>
pro mo
pro ject</w>
str on
sid es</w>
ta kes</w>
ev ent</w>
sc and
fic ally</w>
conduc t</w>
fac tors</w>
main line</w>
bec ame</w>
sig ned</w>
199 5</w>
co sts</w>
declin es</w>
Afric ans</w>
stric ter</w>
impro ving</w>
fall s</w>
prefer ence</w>
extre mism</w>
advant ages</w>
hom osexuality</w>
optim ism</w>
streng th</w>
neighbor s</w>
land line</w>
reflec ts</w>
Sm aller</w>
crimin al</w>
choo se</w>
volun te
perc ei
Milit ary</w>
3 0
F in
G ul
H am
K e
b ership</w>
d ur
f il
g ni
o p</w>
o ti
s ity</w>
er -
re -
di ed</w>
di st
po st</w>
ag encies</w>
Re spon
ear ning</w>
me ly</w>
wor n</w>
igh ts</w>
rec yc
In come</w>
ran k</w>
shi ps</w>
war m</w>
Un favorable</w>
199 1</w>
No v.</w>
repres ent</w>
Thre e-in-ten</w>
chec k</w>
one- quarter</w>
coh or
fl u</w>
law ful</w>
believ es</w>
dise ase</w>
Mu ch</w>
execu tive</w>
refl ect</w>
fru st
appropri ate</w>
Justi ce</w>
ge- educated</w>
got ten</w>
B ill</w>
G oo
V ir
b ill</w>
c en
c tu
d y</w>
i z
i st</w>
i zed</w>
m ur
s ent</w>
v s</w>
an ces</w>
or d</w>
re ti
sa s</w>
al low</w>
the less</w>
di str
am id</w>
con vic
de ported</w>
el s</w>
ch i
ke t</w>
ke l</w>
wor ds</w>
wor ship</w>
is tics</w>
ow er</w>
fac ts</w>
hou se</w>
accoun ts</w>
uni versi
adm itted</w>
spe ech</w>
primar ies</w>
Gen eral</w>
Aug .</w>
mis tic</w>
Leb anese</w>
liber ties</w>
indic ate</w>
contribu ted</w>
coll ected</w>
struc tion</w>
behavi or</w>
Inc reas
Tai w
Mer kel</w>
Hun g
B I</w>
F am
F IG
I C
J ew
M al
N ow</w>
W ill</w>
c all</w>
f ar
s en</w>
t ation</w>
u su
w ins</w>
y mp
ti ous</w>
re ta
st age</w>
di verse</w>
ha ps</w>
ent al</w>
ma kers</w>
me tho
ap p</w>
lin ed</w>
lin ked</w>
mar k</w>
ra m</w>
la g</w>
fic i
Par tis
neg oti
hel ped</w>
mat ter</w>
mat ters</w>
10 0,000</w>
star k</w>
reduc tion</w>
call s</w>
produc ts</w>
prefer ences</w>
invol ved</w>
extre mely</w>
top ic</w>
priv acy</w>
asses sment</w>
Lib ya</w>
Comm unity</w>
dru g</w>
Venezuel a</w>
middle -income</w>
flu ctu
wan ted</w>
pessi mistic</w>
inde x</w>
priori tize</w>
Gul f</w>
universi ties</w>
FIG U
Jew ish</w>
- related</w>
F o
L oc
f urther</w>
k er</w>
l d
p ron
s ou
an ce
en ed</w>
en coun
at tem
the ast</w>
om ing</w>
se where</w>
ag ing</w>
ha iling</w>
Th r
ent ing</w>
pro min
tr ans
im medi
ci ties</w>
wor ked</w>
pa y
ev ol
Con si
hol ding</w>
min or</w>
har m</w>
oppo sing</w>
ak er</w>
Im port
Curr ent</w>
one-in- four</w>
conflic ts</w>
Uni versity</w>
stud ent</w>
extre mi
Egyp ti
disc us
prin ci
Ol ymp
cir cum
lac ed</w>
conn ected</w>
Ken ya</w>
ine ering</w>
Percent age</w>
invest ment</w>
9/ 11</w>
bab ies</w>
Goo gle</w>
C i
D P</w>
E ar
F our
F BI</w>
I denti
M at
P ope</w>
Y ou
b ing</w>
b ul
l ap
w inning</w>
sa les</w>
po pu
su ff
se es</w>
be yond</w>
tr o</w>
we igh
me an
qu e</w>
In stag
spec t</w>
gener ational</w>
pers ons</w>
chang ing</w>
continu ing</w>
199 6</w>
fre edom</w>
cle arly</w>
hand le</w>
spe ed</w>
estim ate</w>
regul ar</w>
ord in
fun ding</w>
Sun n
journali sts</w>
FIGU RE
circum stances</w>
Instag ram</w>
A ff
B ud
E mplo
H a
H as</w>
I ran
O ff
S om
d on
g ation</w>
j ected</w>
l y
m enti
s —
po sted</w>
ri de-
oun ds</w>
ex clu
ex cee
as k</w>
tic es</w>
ran ging</w>
favor s</w>
rea m</w>
sub ject</w>
199 4</w>
simil arly</w>
with draw
accep ting</w>
mem bership</w>
vari ety</w>
trac king</w>
Favor ability</w>
pow ers</w>
stand ards</w>
connec tion</w>
Or thodo
shif ted</w>
Ser vice</w>
enrol led</w>
mode stly</w>
pea ked</w>
Differ ences</w>
scand al</w>
ance stry</w>
1 2
F ir
H om
Y ou</w>
b ring</w>
d ads</w>
t el
v a
in st
at -
ic an
ic ide</w>
le ak</w>
de ta
op er
pre domin
pre valent</w>
ex ten
ex tent</w>
ear nings</w>
ing dom</w>
inter views</w>
Con gre
analy zed</w>
ven tion</w>
four th</w>
sy st
ide al</w>
ron t</w>
Gre e
Hou sehol
bac kers</w>
respec t</w>
respec ts</w>
fri end
stat ements</w>
bal lots</w>
marke ts</w>
under standing</w>
Rec ent</w>
migr ant</w>
legis lat
disp laced</w>
neighbor ing</w>
rul ing</w>
stand ard</w>
protec ting</w>
fer tility</w>
profe ssional</w>
inci dents</w>
sug ge
deter min
arch ers</w>
comfor table</w>
spou se</w>
Brazili ans</w>
after math</w>
4 0
9 9</w>
L ow</w>
L itt
S A</w>
S mart
b ase</w>
m ir</w>
o es</w>
en jo
at s</w>
sp ir
ex pen
we b</w>
ear th</w>
per si
19 60</w>
fin ding</w>
thin king</w>
urr ican
Par ents</w>
hou ses</w>
pp ing</w>
Dec .</w>
regar dless</w>
Gen er
def end</w>
call ing</w>
aliz ing</w>
cu st
chur ches</w>
individu als</w>
messa ges</w>
happ en</w>
jud ges</w>
Tu be</w>
autom ation</w>
Gr ou
safe ty</w>
stron gest</w>
You Tube</w>
popu list</w>
ride- hailing</w>
Litt le</w>
5 00</w>
F ri
H ear
M on
S har
c s</w>
d i</w>
d hood</w>
e asi
h er
h op
i f
i sts</w>
u se
u tr
y outh</w>
ar ily</w>
li am
le -
po or
ag no
De b
sid ent
Tr ade</w>
id ly</w>
of the</w>
confi r
religi ons</w>
dre w</w>
Inter national</w>
ill ance</w>
Pre si
colle ge-educated</w>
speci fically</w>
hand led</w>
sligh t</w>
1. 2</w>
provi des</w>
represent ing</w>
2. 2</w>
wat er</w>
Ukra ini
Simil ar</w>
plac ed</w>
1, 50
multi ple</w>
protec tion</w>
Si x-in-ten</w>
proposa l</w>
proposa ls</w>
statis tically</w>
libr aries</w>
elector ate</w>
Filipin os</w>
lap top</w>
C andid
G o
S and
c al
c au
k a</w>
in ess</w>
or ing</w>
re ment</w>
li an</w>
it ems</w>
the tic</w>
st rat
ac ts</w>
ec ting</w>
lo ss</w>
con s
pro duce</w>
por ts</w>
me t</w>
inc lined</w>
mar g
gen ce</w>
Con stitu
ali g
ali sm</w>
he althy</w>
An g
min d</w>
ga ined</w>
enti re</w>
youn gest</w>
hel ping</w>
hou sing</w>
mon it
sub urban</w>
ste ad</w>
Me dic
bi a</w>
sec tor</w>
accep t</w>
accep ted</w>
citiz en</w>
loo ked</w>
orig in
Nor theast</w>
ref er
2. 5</w>
top ics</w>
Te ens</w>
tain ing</w>
consider able</w>
suc cess</w>
Cub ans</w>
multi racial</w>
chec ks</w>
tru sted</w>
care er</w>
conn ect</w>
achi ev
enthusias tic</w>
web sites</w>
Lead ers</w>
character istics</w>
rap idly</w>
life time</w>
conversa tion</w>
Tim es</w>
Marri age</w>
ki ds</w>
Pakistan is</w>
full -time</w>
Fo x</w>
at- home</w>
A ri
J in
M it
P an
P en
S N
Y e
d ary</w>
f loo
i ans</w>
p ap
t ou
t ough</w>
u tion</w>
ar ing</w>
on est</w>
or it
ro bo
sh e</w>
de sk
ing u
fe ach</w>
19 65</w>
wi se</w>
out look</w>
e- point</w>
eng ineering</w>
identif ying</w>
stri king</w>
man ag
not ably</w>
requ ire</w>
tele phone</w>
responsi ble</w>
top ped</w>
Ita lians</w>
vide os</w>
vic tory</w>
streng th
rese archers</w>
Ric o</w>
Coun try</w>
rais ed</w>
Arab ia</w>
enthusias m</w>
prac ti
aw are</w>
cyc le</w>
dist inc
pron ounced</w>
Orthodo x</w>
Gree ks</w>
Ari z
2 4
3 ,000</w>
8 ,000</w>
B e</w>
C ity</w>
D omin
G DP</w>
R ights</w>
S ou
b it</w>
f and</w>
g ini
an ship</w>
ti ves</w>
ti vity</w>
en sure</w>
li ties</w>
at ure</w>
ati on
di es</w>
ol s</w>
vi sas</w>
Re fuge
ent ered</w>
pro fici
pre dic
un popular</w>
ear ned</w>
qu ic
du ty</w>
te e</w>
ten ure</w>
ten sions</w>
spec ial</w>
sti m
wi den
comm ents</w>
pers on
au g
ste ps</w>
cor ru
tu res</w>
atten ded</w>
Per s
tra ve
expres ses</w>
stri kes</w>
dri lling</w>
end a</w>
tal king</w>
comple tely</w>
mor ally</w>
rele ase</w>
Lib eral</w>
dru gs</w>
rais ing</w>
any ah
Disa ppro
Net anyah
tab let</w>
commit ment</w>
fil es</w>
Vir gini
cen s
Hung ary</w>
ld wide</w>
Olymp ics</w>
Mat ter</w>
ordin ary</w>
tel li
syst ems</w>
Ang el
Netanyah u</w>
Virgini a</w>
0 00</w>
1 7
A S</w>
E d
E stim
L a
L S</w>
N i
O P
P l
R is
n ered</w>
y /
y po
in -
er ate</w>
li ed</w>
li st
ro ws</w>
ro ad</w>
st ay
su nam
ag ency</w>
sh ore</w>
de ad
el sewhere</w>
as se
coun ties</w>
me tro</w>
sur ge</w>
sur pris
per -income</w>
ing -
so on</w>
stor es</w>
em p
em al
do c
leg alization</w>
lead s</w>
bec oming</w>
two -
Pro b
own ing</w>
itu al</w>
cell phones</w>
aff ects</w>
To o</w>
ed y</w>
est ab
seri ously</w>
read ers</w>
see ing</w>
nar row
nar row</w>
associ ate</w>
spea kers</w>
an- origin</w>
happen s</w>
dise ases</w>
cl assi
ann oun
Argent ina</w>
Cz ech</w>
offen sive</w>
strug g
cohab iting</w>
princi ples</w>
Fir st</w>
urrican e</w>
utr al</w>
Jin ping</w>
Ye ar</w>
stay -
sunam i</w>
surpris ingly</w>
7 0s</w>
9 8</w>
E m
E r
H o
K ingdom</w>
R ac
W all</w>
d ated</w>
g n
i m</w>
i ors</w>
i tis</w>
s w
t ty</w>
t one</w>
w ake</w>
y es</w>
or es</w>
al ed</w>
st e</w>
po ses</w>
se tt
con v
ma s
ex pl
surve illance</w>
ir r
clo se
mar t</w>
Ch ur
sup porting</w>
ta ined</w>
wee k
elec tr
sc ore</w>
spec ted</w>
sti lities</w>
bl ame</w>
war ds</w>
comm er
main land</w>
har der</w>
cri ticism</w>
av o
inf ec
remain ing</w>
Li ber
ris ks</w>
secon dary</w>
recor ds</w>
ce ed</w>
possi bility</w>
frequ ent</w>
tem per
Gu n</w>
distric t</w>
Concer n</w>
deport ations</w>
visi t</w>
spo ken</w>
enh anc
evalu ations</w>
expec tations</w>
alter native</w>
cyber attacks</w>
resett led</w>
frust rated</w>
Partis ans</w>
Loc al</w>
Iran ian</w>
predomin antly</w>
Mit t</w>
stay- at-home</w>
- 12</w>
A R
K -12</w>
T ri
a th
a ther</w>
b ills</w>
d am
e ing</w>
f ast</w>
h us
m y</w>
m a</w>
m ad
u ss</w>
in aug
re sources</w>
li ke
at emal
ac comp
po pe</w>
ne utral</w>
mo di
ad versary</w>
se ar
ag e-point</w>
ag enda</w>
ve ments</w>
com pe
op tion</w>
el se</w>
pro fit</w>
por tions</w>
public ly</w>
200 0s</w>
ali a</w>
num b
Mo stly</w>
one theless</w>
percent age-point</w>
hel le</w>
sig ns</w>
own ed</w>
199 3</w>
199 9</w>
eng age</w>
uni on</w>
terr or</w>
exam ined</w>
ed ge</w>
Publi cs</w>
stric t</w>
app ear
relation ships</w>
sol ving</w>
4. 1</w>
Col om
reduc ed</w>
disc uss</w>
applic ants</w>
cu ts</w>
As ked</w>
happen ed</w>
law makers</w>
Str ong</w>
Mic helle</w>
High er</w>
Wi th
err or</w>
appoin ted</w>
Chil dren</w>
fluctu ated</w>
Import ant</w>
Smart phone</w>
spir itual</w>
desk top</w>
Pers onal</w>
OP T</w>
- majority</w>
1 5
9 7</w>
9 6</w>
B ur
C D
D aily</w>
I l
L o
L ad
O K</w>
S c
S ene
b in</w>
c ro
c iting</w>
f o
n or
s sed</w>
t un
v o
er ous</w>
re action</w>
li ance</w>
di tionally</w>
su per
su me</w>
ol dest</w>
de si
sp ill</w>
us er</w>
as h</w>
as ks</w>
coun ted</w>
to ols</w>
poli tici
Tr ust</w>
id ed</w>
import ant
ussi ons</w>
go v
aff ect</w>
Li fe</w>
ed -
tra its</w>
Mid west</w>
provi ded</w>
occ asi
marke dly</w>
stri bu
4. 6</w>
198 7</w>
produc t</w>
cul ture</w>
Thre e-
hom es</w>
plur alities</w>
tem por
propo sed</w>
ca used</w>
Gu atemal
Fore ign
tran si
Divi ded</w>
cho ices</w>
every one</w>
Salvad or
Eth n
purcha sing</w>
AC A</w>
Egypti ans</w>
menti oned</w>
Presi dential</w>
strat e
Constitu tion</w>
Lad en</w>
B ei
E igh
E van
E bol
H on
J e
O ut
R ate</w>
R ace</w>
a ver
c ity</w>
e sts</w>
h onest</w>
j ing</w>
j um
k in
l ag
o gni
p le
s /
t sunami</w>
w in</w>
on a</w>
ab solu
di t</w>
po lar
ri es</w>
oun ded</w>
op pon
ent y</w>
tr ad
me et</w>
per haps</w>
gi r
fa ster</w>
tic k</w>
rec ogni
fe der
dec ess
str ations</w>
pl ay
sid ed</w>
pri me</w>
elec t</w>
em er
Con tro
cont acted</w>
rac i
appro ach
ster ners</w>
Mo di</w>
regi onal</w>
bor ders</w>
St re
main tain</w>
Vi ew
milit ants</w>
Per ceptions</w>
bi as</w>
aff ected</w>
Li ves</w>
dro pping</w>
We b</w>
Su b
sever e</w>
ho li
tor ture</w>
effec tively</w>
direc tly</w>
see king</w>
tal ks</w>
worri es</w>
messa ging</w>
reflec ting</w>
communic ations</w>
pla ying</w>
Arab s</w>
Concer ns</w>
br ought</w>
conversa tions</w>
AA AS</w>
hour s</w>
hour ly</w>
Ga p</w>
deep ly</w>
cohor t</w>
mur der</w>
Consi st
Som alia</w>
robo ts</w>
practi ce</w>
Three- quarters</w>
Bei jing</w>
Ebol a</w>
- percentage-point</w>
B or
B ir
B ack</w>
D en
F a
I ow
L u
R ight</w>
S o</w>
S te
U p</w>
W ant</w>
h ab
p ace</w>
s low
s mart</w>
w ent</w>
w ave</w>
th ered</w>
en ess</w>
re mo
re views</w>
re comm
sa l
al le
st y
ati on-
si m
lo sses</w>
Re pres
com pri
op tions</w>
pre tty</w>
pre decess
us se
De m
ff s</w>
wor ldwide</w>
gr an
acc es
lu tion</w>
sc re
all -time</w>
leg alizing</w>
depen ding</w>
Is su
har dly</w>
aff ecting</w>
ide as</w>
sec tors</w>
part ners</w>
ess enti
1. 5</w>
dis satisfaction</w>
pr ay</w>
pr ice</w>
Kore ans</w>
2. 8</w>
star ted</w>
ome ter</w>
198 0s</w>
work place</w>
invol ving</w>
disc ussions</w>
evi dent</w>
consum ption</w>
versa l</w>
connec tions</w>
believ ed</w>
coop erate</w>
lear n</w>
Venezuel ans</w>
Coun tries</w>
well- being</w>
sli pped</w>
Qu es
pic ture</w>
tari ffs</w>
Mi xed</w>
deport ation</w>
Sci ence</w>
Sci enti
lea ving</w>
usu ally</w>
Four -in-ten</w>
liam ent</w>
Medic are</w>
tou ch</w>
close st</w>
avo id</w>
sear ches</w>
Eigh t-in-ten</w>
Iow a</w>
2 7
7 ,
B an
B ec
D u
S ch
T A</w>
T ra
V la
Y es</w>
a the
a war
e m</w>
i er</w>
l ab
m itt
r arely</w>
t ot
z er
en ge</w>
li hood</w>
at a</w>
at or</w>
st one</w>
ati c</w>
ac king</w>
ab use</w>
di mir</w>
con cent
vi et</w>
sh r
de fe
il lin
be at</w>
ur ation</w>
el and</w>
ent u
De velop
as king</w>
sur passed</w>
lin ks</w>
te sting</w>
pl ed</w>
cent er</w>
tur al</w>
St ories</w>
respon ding</w>
comp any</w>
marri ages</w>
Ira q
eth ical</w>
mid terms</w>
mi su
loc k</w>
Maj or</w>
disappro ved</w>
represent atives</w>
2. 1</w>
Ad mini
3. 4</w>
moder ates</w>
So viet</w>
4. 2</w>
ther m
kep t</w>
Ph one</w>
vacc in
apprehen ded</w>
rul ings</w>
self- identified</w>
cover ing</w>
reli ef</w>
excep t</w>
lear ning</w>
boo ks</w>
post graduate</w>
arre sts</w>
recyc ling</w>
mean ing</w>
Ariz ona</w>
quic kly</w>
Chur ch</w>
Hon dur
gir ls</w>
Stre et</w>
Repres ent
essenti ally</w>
Vla dimir</w>
B J
B eli
E N
E ff
G lobally</w>
I A</w>
I de
Q ur
S lo
W H
W ar
b ot
f r
f y</w>
g oods</w>
l ment</w>
m irr
t ough
an ni
an cy</w>
en acted</w>
en cing</w>
re ments</w>
di stribu
po sa
su spected</w>
ag gre
sh ing</w>
oun ding</w>
sp ent</w>
be an</w>
com position</w>
ur o</w>
el ine</w>
pro mis
pro spects</w>
pre gn
as sig
as les</w>
um b
pe ace</w>
dec ide</w>
id es</w>
em bar
popul arity</w>
Con t
ph ot
do g
comm only</w>
disa ster</w>
ven ess</w>
non es</w>
Over whel
Gre at
Tur k
grad ers</w>
1. 3</w>
Op position</w>
Syri an</w>
dig it
les s-
see k</w>
produc ed</w>
pas s
requ iring</w>
histor ical</w>
cla im
ut es</w>
ren ew
skep ticism</w>
messa ge</w>
chall enge</w>
show ing</w>
behavi ors</w>
requi red</w>
high- speed</w>
U.S.- Mexico</w>
appe ar</w>
natur alization</w>
Tim e</w>
investig ation</w>
seas onally</w>
gene tically</w>
dispu te</w>
volunte er</w>
Respon dents</w>
distr ust</w>
negoti ations</w>
extremi st</w>
Bud d
Congre ssional</w>
Ukraini ans</w>
Sand ers</w>
classi fied</w>
enhanc ements</w>
like lihood</w>
occasi onally</w>
Contro l</w>
therm ometer</w>
Represent atives</w>
Qur an</w>
- only</w>
A N
B ad</w>
C ari
M M
M ad
N ar
Q a
R ating</w>
U nemplo
W ide
b att
b bean</w>
d ang
h ic
l ad
s anc
t ol
t ex
t ell</w>
t ance</w>
x im
an i</w>
ti v
re turned</w>
al leg
st abili
ab in
ri ses</w>
ve -
ent er
pro per
ex it</w>
coun t</w>
me an</w>
sur pri
ap e</w>
for ward</w>
In flu
pl um
gen cy</w>
pri de</w>
jo b
em b
ser ving</w>
Con ver
tur ning</w>
min ds</w>
min utes</w>
lic y</w>
chil dhood</w>
disa p
up per-income</w>
199 7</w>
Po st</w>
Po licy</w>
loc ation</w>
ed a</w>
spe aker</w>
contro versi
app ears</w>
orig ins</w>
pol lution</w>
3. 5</w>
Jo bs</w>
moder n</w>
sen iors</w>
suppor ts</w>
Thre e</w>
justi ce</w>
down turn</w>
anti- terrorism</w>
sta yed</w>
As soci
Tuni sians</w>
Conserv atives</w>
achi eve</w>
second- generation</w>
Gi ven</w>
ann ounced</w>
Shi a</w>
Clo se</w>
attem p
cons ensus</w>
strength ening</w>
Domin ic
announ cement</w>
Er dog
inaug uration</w>
Turk ish</w>
Cari bbean</w>
Erdog an</w>
. 1</w>
1 ,0
2 ,000</w>
6 0s</w>
A BC</w>
C N
E l
F TA</w>
H ome</w>
H urricane</w>
N ic
N onetheless</w>
P P</w>
a st
b ly</w>
b ri
e ma
f ten</w>
g ross</w>
j ury</w>
k illing</w>
l ay</w>
m ons</w>
o graph
p act</w>
p eline</w>
s i</w>
z ation</w>
re actions</w>
re tary</w>
it ors</w>
lo ad
su icide</w>
20 0</w>
Re gar
ter ly</w>
me dic
to w
lin ing</w>
gr ade</w>
ini tial</w>
ran ked</w>
em issions</w>
soci et
la y
off s</w>
off line</w>
off ered</w>
thin ks</w>
form al</w>
Mo thers</w>
St at
go al</w>
Po st
ligh tly</w>
adm issions</w>
Li ke</w>
sec u
ed ged</w>
admini stered</w>
bac ked</w>
app ly</w>
Le gal</w>
seri es</w>
substan tive</w>
bal lot</w>
ord able</w>
sen ators</w>
Not ably</w>
cre ated</w>
cre dit</w>
6. 6</w>
Two -in-ten</w>
Poli ce</w>
pur su
Niger ians</w>
rul es</w>
lesbi an</w>
coll ap
Religi on</w>
Grow th</w>
assi stance</w>
Be fore</w>
communic ation</w>
sug gest</w>
natur alized</w>
Bro ad
gene tic</w>
29 -year-olds</w>
Ro e</w>
home owners</w>
blo od</w>
Thr oughout</w>
immedi ately</w>
Ear th</w>
sugge sts</w>
Hear ing</w>
Candid ate</w>
Pan el</w>
widen ed</w>
Estim ated</w>
ypo logy</w>
Prob le
narrow ed</w>
electr on
infec tious</w>
numb ered</w>
CD C</w>
Sc ot
Sene gal</w>
politici ans</w>
kin ds</w>
Bor n</w>
sal ary</w>
tough er</w>
Budd hi
Qa eda</w>
sanc tions</w>
4 ,000</w>
6 ,000</w>
A ga
B r
B er
B order</w>
D K</w>
D oes</w>
F u
G h
O N</w>
O ut</w>
S how</w>
S atis
S lightly</w>
Z i
b arely</w>
c a</w>
c over</w>
e /
f ront</w>
g lobally</w>
h un
l ative</w>
n ership</w>
n thetic</w>
s end</w>
t in
v or
re b
re al</w>
re porters</w>
it i</w>
si c</w>
ag ue</w>
con clu
con struction</w>
fi es</w>
un able</w>
me a</w>
me asles</w>
qu ali
gr ounds</w>
fol der</w>
igh ting</w>
In stead</w>
Wh ere</w>
19 70s</w>
sc ores</w>
sc ape</w>
la ys</w>
he ar</w>
he ads</w>
hol ders</w>
bl ing</w>
off shore</w>
row n</w>
pres sure</w>
form ation</w>
comm itted</w>
e- up</w>
e- book</w>
Pro jected</w>
ste ep</w>
Po or</w>
cour ts</w>
tra jec
contro ls</w>
stu died</w>
ho stilities</w>
ce le
resi dence</w>
Ad ditionally</w>
man u
Fav or</w>
Vot e</w>
anti cip
Jord ani
pur pose</w>
vacc ines</w>
recover ed</w>
pris on
pris on</w>
care gi
Or g
accur ately</w>
treat ments</w>
Sil ents</w>
New sroom</w>
Cri mea</w>
Tu es
prac tices</w>
open ings</w>
statis tical</w>
Rel ations</w>
drop out</w>
bur den</w>
Fi ve</w>
Taiw an</w>
reta il</w>
promin ent</w>
Identi fication</w>
Ha iti</w>
withdraw al</w>
pap er</w>
ingu al</w>
Sou thern</w>
in- person</w>
ing- age</w>
strugg ling</w>
mad e-up</w>
vo ic
desi re</w>
Evan gelic
sty le</w>
Issu es</w>
WH O</w>
MM R</w>
societ al</w>
Aga inst</w>
Zi ka</w>
. m
9 ,
A gain</w>
B en
H ere</w>
I N
K a
L in
M an
P ower</w>
R ates</w>
S econ
S now
a favorable</w>
b or</w>
b aby</w>
c arri
d on</w>
d ance</w>
e -in-
f illed</w>
g ame</w>
h our</w>
k illed</w>
m er
m as</w>
m it</w>
m ach
n ight</w>
o bli
p lu
s lowed</w>
t est</w>
ti veness</w>
re ver
re place</w>
re verse</w>
ro wer</w>
st atistics</w>
ac qu
mo ther</w>
ad v
ad o</w>
ag u
con sequ
sh es</w>
sp i
sp reading</w>
ve hic
pro portions</w>
pre sident
De f
ear n</w>
gh t</w>
fol d</w>
clo sed</w>
ge t
tri l
tri p</w>
Ch ar
favor ing</w>
high s</w>
cont est</w>
sti c</w>
bl es</w>
An nual</w>
Mo der
Par liament</w>
out come</w>
enti rely</w>
au l</w>
gu ar
mi se</w>
tra dition</w>
Dec i
disappro val</w>
tre at</w>
tre ated</w>
broad cast</w>
Chri st
Im pact</w>
Sup porters</w>
ho st</w>
att ack</w>
view points</w>
Eng lish
Ad van
Sen .</w>
wat ching</w>
wat ched</w>
reach ing</w>
Te le
legis lative</w>
Boom er</w>
dra w</w>
twee ters</w>
Indone sians</w>
civi lian</w>
shor t</w>
profe ss
pla yed</w>
ici ent</w>
disagre ed</w>
pi peline</w>
NE T</w>
Rep /Lean</w>
percei ved</w>
Fam ily</w>
metho d</w>
Sunn i</w>
friend ly</w>
corru ption</w>
Rac ial</w>
sw ine</w>
jum ped</w>
Admini stration</w>
fr ame</w>
Cont inu
Unemplo yment</w>
plum me
Org aniz
Tues day</w>
.m .</w>
plu s</w>
7 0
B al
H indu
N on
O ri
T ali
T ech</w>
W ade</w>
b ed</w>
c r
c ar</w>
e ful</w>
f al
h al
l led</w>
w ary</w>
th y</w>
ar s</w>
or ado</w>
al es</w>
ac es</w>
ab road</w>
ver dic
se ats</w>
20 60</w>
Th inking</w>
Am id</w>
ul ar</w>
ma ss</w>
tr ying</w>
un fairly</w>
we igh</w>
is a</w>
econom ically</w>
ra ise</w>
inter net
inter viewed</w>
inter actions</w>
tri al</w>
te en
te ach</w>
rati o</w>
mu sic</w>
ru p
tur ns</w>
St ud
sub scri
sub sequ
inf lation</w>
eng th</w>
tra ining</w>
We sterners</w>
tech ni
est ing</w>
view ing</w>
vari ed</w>
Wor k</w>
one-in- three</w>
avail ability</w>
vers y</w>
NA FTA</w>
develop ed</w>
Gen der</w>
3. 6</w>
3. 9</w>
dri ving</w>
famili ar</w>
lan tic</w>
Col orado</w>
not ed</w>
bil ingual</w>
les s
Vot er</w>
cap ital</w>
produc tion</w>
5. 6</w>
cre ates</w>
comple te</w>
unemplo yed</w>
restric ting</w>
particip ate</w>
nar rower</w>
institu tion</w>
partis anship</w>
vis a</w>
tran spor
shif ts</w>
web site</w>
Qu ar
cho sen</w>
Rel atively</w>
assa ult</w>
near -
One-in- five</w>
percei ve</w>
Ham as</w>
Mal ay
discus sion</w>
Ci tiz
Aff ordable</w>
Emplo yment</w>
legislat ors</w>
Grou ps</w>
distinc t</w>
dead ly</w>
tempor ary</w>
feder al
holi day</w>
Ques tion</w>
mitt ances</w>
anni versary</w>
distribu tion</w>
proper ty</w>
Influ ence</w>
Conver sely</w>
CN N</w>
trajec tory</w>
Christ mas</w>
' d</w>
4 00</w>
B ig
H is</w>
M O
M ig
M em
N O
N A</w>
P aul</w>
R A</w>
S am
T I
T a
T err
a sts</w>
f rac
f ighting</w>
g lo
g lob
l a</w>
m ates</w>
n one</w>
o feach</w>
p ati
s qu
s ending</w>
t old</w>
u li
w ing</w>
w are</w>
in ation</w>
an im
ar gu
re turn</w>
re placed</w>
al and</w>
ac ting</w>
si x
le ment</w>
di mini
se y</w>
ol ina</w>
sh op
de mon
Re serve</w>
fi ve
De ficit</w>
ex ceptions</w>
we ather</w>
sur ged</w>
tic ked</w>
gre en
maj orit
mar y</w>
ra b</w>
In stitu
dec ided</w>
Hispan ic
sc en
ster day</w>
wi fe</w>
regi stration</w>
gener ated</w>
righ t-
hel p
up tick</w>
Pro tec
sel ected</w>
ssi ve</w>
atten dance</w>
co al</w>
co ho
non voters</w>
aga z
brea k
Bus iness</w>
Dec lining</w>
enni al</w>
contro lled</w>
contro versy</w>
1. 6</w>
Im pro
Nor way</w>
mat ching</w>
Kore an</w>
provi der</w>
view ership</w>
regul ation</w>
pat h</w>
NA SA</w>
develop ment</w>
So ci
So lid</w>
bo ys</w>
Se en</w>
Vot ing</w>
ob serv
Elec tions</w>
necess arily</w>
buil d</w>
down ward</w>
diffic ul
fel low</w>
happen ing</w>
Educ ational</w>
terrori sts</w>
sli m</w>
pessi mism</w>
Fre edom</w>
th- graders</w>
Bi g</w>
Bi ble</w>
Car olina</w>
25 -</w>
prepar es</w>
tar get</w>
collec tion</w>
men tion</w>
Ow nership</w>
bom bing</w>
encoun ter</w>
encoun ters</w>
evol ved</w>
excee ded</w>
Hom eland</w>
Househol ds</w>
cust oms</w>
cau c
marg ins</w>
emp ha
estab lish
Liber als</w>
hus band</w>
modi fied</w>
oppon ents</w>
raci ally</w>
hab its</w>
Ide o
dang erous</w>
e-in- four</w>
plumme ted</w>
Tali ban</w>
transpor tation</w>
8 ,
A ges</w>
C IA</w>
D .
D ig
E l</w>
N one</w>
O sam
P r
P ali
R ise</w>
T er
Y our</w>
a part</w>
e ting</w>
e ating</w>
f ill</w>
k -
l v
n al</w>
n sy
o ther
r are</w>
s lower</w>
w el
w ants</w>
in telli
ti er</w>
on y</w>
en suring</w>
re election</w>
re ject</w>
al liance</w>
ac compani
ne l</w>
am ing</w>
de pres
de leg
Re ad</w>
sp an</w>
pro mise</w>
un happy</w>
we ak
to m</w>
gi ves</w>
lin k</w>
gr and
is ol
inter esting</w>
pl ing</w>
pl enty</w>
Wh ether</w>
so li
ev entu
19 60s</w>
of all</w>
of adults</w>
Con f
ten ded</w>
ph one-
la un
all ed</w>
appro ving</w>
cer tain
tur ing</w>
ud e</w>
war me
fic ial</w>
wi re
out number</w>
leg acy</w>
peri o
presi denti
righ t
cri tici
Ac tion</w>
cell or</w>
recei ving</w>
part -time</w>
Sup er</w>
view ers</w>
represent ation</w>
trac ing</w>
3. 7</w>
nati ves</w>
mis sion</w>
ses sion</w>
haras sed</w>
sam ples</w>
198 5</w>
bo thered</w>
prin cip
alth ier</w>
ob jec
Pol es</w>
neigh bor</w>
consum er</w>
car ry</w>
struc k</w>
Ric ans</w>
reli able</w>
fl ag
Be yond</w>
exper im
Ken ne
Appro ve</w>
middle -
For ce</w>
refl ected</w>
constitu ted</w>
Co ast</w>
journali st</w>
hospit als</w>
hospit alized</w>
seas on</w>
disagre ement</w>
ele ments</w>
IC E</w>
metho ds</w>
easi er</w>
achiev ing</w>
Pen nsy
trave l</w>
Angel a</w>
Ris ing</w>
mas k</w>
Ethn icity</w>
play ers</w>
slow ly</w>
sim ply</w>
Bec ause</w>
awar eness</w>
bot tom</w>
stabili zed</w>
abin et</w>
disap poin
lay offs</w>
Fu ture</w>
tin y</w>
Snow den</w>
tril lion</w>
guar an
profess ors</w>
Organiz ation</w>
Hindu s</w>
verdic t</w>
glob alization</w>
majorit y-
coho l</w>
Dig ital</w>
Osam a</w>
Pali n</w>
accompani ed</w>
- off</w>
1 6.
1 7.
6 ,
8 00</w>
A rab</w>
B S</w>
B el
C ru
C lim
D ata</w>
E qu
F our</w>
G in
G ay</w>
J er
M ac
S um
S ituation</w>
V e
V al
a po
c at
c ard</w>
e mo
f ight</w>
g y</w>
g ment</w>
g ations</w>
j am
m ly</w>
o -
w o</w>
y i
th at
an ic</w>
ar ran
or tion</w>
re sig
al king</w>
st ate
st ream</w>
ac tual</w>
lo se</w>
di ver
ri o
ad equ
Re main</w>
el d</w>
pro spect</w>
un likely</w>
un ite</w>
un rest</w>
wor sen
fa il
ing ing</w>
clo thing</w>
In formation</w>
pl ant</w>
ili ties</w>
of -
high er-income</w>
differ ed</w>
regi ster</w>
and a</w>
and ling</w>
oc curr
new s
tu red</w>
lim its</w>
lim iting</w>
atten ding</w>
ven ues</w>
non white</w>
bi o
uni st</w>
ach ed</w>
accep tance</w>
part nered</w>
Di rec
Tur nout</w>
Le ve
Le ast</w>
great ly</w>
1. 8</w>
wide st</w>
occ ur</w>
ref ers</w>
Ex tre
3. 2</w>
4. 7</w>
famili arity</w>
mis si
direc t</w>
proj ects</w>
cre ating</w>
disc our
school ing</w>
plac ing</w>
applic ation</w>
eli sts</w>
Poli tics</w>
indic ators</w>
-year- old</w>
fun dam
contribu te</w>
9. 6</w>
One -in-ten</w>
fer ence</w>
vis ited</w>
Bet ter</w>
Sp ec
exi st</w>
exi sted</w>
requi rements</w>
open ness</w>
Divi de</w>
Gi uli
ss ful</w>
wa ste</w>
solu tion</w>
Salvad or</w>
employ er</w>
reti rement</w>
convic ted</w>
Taiw anese</w>
deta iled</w>
hop eful</w>
manag ement</w>
doc tors</w>
With in</w>
Bir ths</w>
predecess or</w>
Dem /Lean</w>
Scienti sts</w>
Ban k</w>
Iraq i</w>
War ming</w>
promis es</w>
collap se</w>
Ben jam
help ful</w>
Kenne dy</w>
Pennsy lv
Cru z</w>
Giuli ani</w>
- 1
- -</w>
1 4
9 ,000</w>
B LS</w>
C E
D r
E arly</w>
F un
H -1
I M
K now
M E
M ari
N u
N either</w>
P over
R S</w>
S el
Y ears</w>
a h</w>
b en
c es
d ream</w>
e to</w>
g ent</w>
h im
k y</w>
l ations</w>
l ying</w>
m ust</w>
p age</w>
p ack
r is</w>
r am
t ypology</w>
w ind</w>
w illin
in sul
in mates</w>
ar rest</w>
ti l
on ing</w>
li z
li n</w>
al cohol</w>
st on</w>
st ability</w>
st op</w>
ab sent
mo tiv
sh ire</w>
de ep</w>
publi shed</w>
Th ir
Th us</w>
par enting</w>
be long</w>
ul g
el ed</w>
por tion
ex pla
un ited</w>
we ds</w>
ke d
me eting</w>
qu es</w>
mar ked</w>
ye sterday</w>
dec ide
inter nationally</w>
tri pled</w>
es si
mil l
thre e-in-four</w>
pri ests</w>
of a</w>
Ab ortion</w>
ten ds</w>
cent ral</w>
off ering</w>
pres ence</w>
Mo bile</w>
out numbered</w>
out weigh</w>
hel ps</w>
main taining</w>
har d
up coming</w>
up date</w>
up dated</w>
up beat</w>
ste e</w>
cor related</w>
hear ings</w>
199 8</w>
scri p
log ically</w>
uni versal</w>
remain der</w>
ach ment</w>
influ enced</w>
En viron
nam es</w>
Dec line</w>
pan elists</w>
cep tion</w>
previ ously</w>
mat er
mat ch</w>
mat ches</w>
techno logical</w>
att or
consid ering</w>
Wor kers</w>
def ini
Op tim
sen si
Col d</w>
198 9</w>
198 8</w>
see m</w>
5. 3</w>
work ing-age</w>
cre ate</w>
Pri mary</w>
stra ight</w>
Elec tor
emerg ed</w>
particip ated</w>
buil t</w>
sta ying</w>
inten se</w>
lear ned</w>
mini ster</w>
stre ssful</w>
exi sts</w>
Mic h
br inging</w>
rap id</w>
tari an</w>
appe als</w>
Bro ad</w>
Sun day</w>
visi ble</w>
Marri ed</w>
arre n</w>
answ ers</w>
employ ers</w>
Ow n</w>
Fin an
Fam ili
deta ils</w>
use ful</w>
origin al</w>
cens or</w>
Ni eto</w>
Colom bia</w>
super power</w>
Guatemal a</w>
polar ized</w>
recomm end
gran ting</w>
vaccin ated</w>
Hondur as</w>
phot os</w>
Overwhel ming</w>
Wide spread</w>
ema ils</w>
Regar dless</w>
Buddhi sts</w>
prison ers</w>
carri ed</w>
mach ines</w>
rever sed</w>
Deci sion</w>
subsequ ent</w>
dimini shed</w>
Conf lic
middle- class</w>
Clim ate</w>
arran ge
Benjam in</w>
Pennsylv ania</w>
H-1 B</w>
Pover ty</w>
willin g
absent ee</w>
decide dly</w>
4 -year-olds</w>
5 0,000</w>
A gre
C an</w>
C ell</w>
D O
D NA</w>
G et</w>
H u
I f
I D</w>
L os</w>
O W
S wit
S ing
T an
T ed</w>
c ause</w>
d anger</w>
e es</w>
f at
k new</w>
m use</w>
m and
n ap
p .m.</w>
p shire</w>
r ation</w>
s ers</w>
t a</w>
t asks</w>
w rit
in k</w>
er y</w>
li ci
at all</w>
al ing</w>
ro man
ro portion
st ages</w>
st rating</w>
ac e
lo ve</w>
lo ad</w>
su sta
mo ving</w>
20 65</w>
ig an</w>
am es</w>
con stant</w>
de li
sp aces</w>
ot a</w>
ma ke
tr af
ter te</w>
un sure</w>
um ps</w>
wor st</w>
pe ers</w>
fa iled</w>
follow ers</w>
mar ches</w>
fe ature</w>
In du
inter act</w>
mil es</w>
thre sh
sc ored</w>
differ ently</w>
thin k
dat ers</w>
war mly</w>
ga ining</w>
af f</w>
fac ed</w>
and -
new ly
Vi ol
comp on
relati ves</w>
four -year</w>
mi x
inform ed</w>
En forcement</w>
stric tly</w>
pan el</w>
pan els</w>
org anic</w>
1. 1</w>
1. 4</w>
dic tion</w>
Im age</w>
Im migrant</w>
Nor thern</w>
Al so</w>
resul ted</w>
occ o</w>
under represented</w>
ce iling</w>
dr one</w>
dri ver</w>
mis conduct</w>
not e</w>
path way</w>
5. 5</w>
5. 4</w>
18 .
frequ ency</w>
Pri or</w>
cul tural</w>
on- related</w>
Thre at</w>
Lar gest</w>
Popul ar</w>
mid- October</w>
twee ted</w>
cu tting</w>
Mar tin</w>
teach ing</w>
sta ur
As ses
dem and</w>
jud ge</w>
al- native</w>
cl as
stre ss</w>
enrol lment</w>
Mor occo</w>
th- largest</w>
thodo logy</w>
appoin t
Dis satisfaction</w>
trou ble</w>
trou bles</w>
spor ts</w>
Non- Hispanic</w>
promo ting</w>
Ham pshire</w>
chi ef</w>
sou thern</w>
trans gender</w>
immedi ate</w>
Househol d</w>
easi ly</w>
floo ding</w>
floo ds</w>
Refuge e</w>
Refuge es</w>
Disappro ve</w>
conv enti
appear ed</w>
strate gy</w>
recogni tion</w>
Du terte</w>
athe ist</w>
zer land</w>
shr inking</w>
assig n
embar go</w>
digit al-native</w>
alleg ations</w>
load ed</w>
medic ine</w>
electron ic</w>
Gh ana</w>
quali fied</w>
Jordani ans</w>
voic ed</w>
Evangelic al</w>
Def ense</w>
Ori gin</w>
Malay sia</w>
Terr orism</w>
right- wing</w>
other wise</w>
pack age</w>
scrip ture</w>
defini tion</w>
Mich igan</w>
Swit zerland</w>
roman tic</w>
traf fic</w>
- up</w>
- elect</w>
. W</w>
1 3
3 0s</w>
5 ,
5 th</w>
9 0
A gency</w>
B ulg
C .</w>
C or
C au
D ow</w>
E cu
F ed</w>
H in
I ts</w>
L and
R onald</w>
S nap
T PP</w>
U sing</w>
U sed</w>
W eb
W arren</w>
a se
b ran
b rac
c k</w>
d ation</w>
e z</w>
e at</w>
e able</w>
f other</w>
f ting</w>
f lag</w>
g ri
g ate</w>
l la</w>
m un
m agaz
m umps</w>
o be
t g
t ask</w>
w is
an nu
er e
ar ed</w>
ar med</w>
or ation</w>
re mittances</w>
re staur
li ked</w>
li min
at red</w>
it em</w>
ro ll</w>
st op
st est</w>
st aff</w>
lo t
lo y
po sting</w>
mo od</w>
ad her
se tting</w>
pu sh</w>
ag ues</w>
am ed</w>
con vention</w>
ha sh
wit ne
par ental</w>
be lla</w>
el ders</w>
ent ation</w>
pro secu
ma il
ma ker</w>
us tices</w>
un like</w>
un fair</w>
im pe
ch at</w>
we ar</w>
um an</w>
is land</w>
ori al</w>
pa ir</w>
so le
jo ining</w>
19 .
19 67</w>
high ligh
lic ations</w>
col dest</w>
out p
two -year</w>
respon ded</w>
Latin x</w>
sub groups</w>
tu i
eff icient</w>
go es</w>
milit ant</w>
bi sexual</w>
auth orities</w>
sy nthetic</w>
loc ked</w>
GO P
aff ord</w>
sec retary</w>
lat ter</w>
tra ditions</w>
dro ps</w>
non- Hispanics</w>
non- parents</w>
pan ts</w>
Su ch</w>
app lied</w>
Le ague</w>
grad s</w>
dis posa
10 ,000</w>
Sy m
Rec ord</w>
Jo e</w>
end or
end ants</w>
wat ch
sam pling</w>
ther hood</w>
bo ard</w>
ber t</w>
cap tured</w>
pas sing</w>
nomin ees</w>
ideo logically</w>
5. 2</w>
tro op</w>
disp roportion
Chan ging</w>
civi lians</w>
streng then</w>
recover ing</w>
Australi ans</w>
struc ture</w>
Ric an</w>
adop t</w>
inten ded</w>
Si z
impres sions</w>
New spap
correc t</w>
inci dent</w>
Cri me</w>
Lead er</w>
opport unity</w>
Ap prehen
drop -off</w>
tar ge
reve lations</w>
attribu te</w>
doub t</w>
home work</w>
Regi onal</w>
Regi stered</w>
dispu tes</w>
dur ation</w>
iz ation</w>
Increas ed</w>
attem pt</w>
evol ution</w>
enjo yed</w>
Gener ally</w>
Grou p</w>
poor er</w>
Deb t</w>
monit or</w>
refer red</w>
achiev ed</w>
profici ency</w>
compe ti
transi t</w>
Salvador ans</w>
Consist ent</w>
Sch ool</w>
defe at</w>
Great est</w>
pass word</w>
Mad uro</w>
batt le</w>
enter tainment</w>
surpri sing</w>
tow n</w>
Stat us</w>
Lin ked
Moder ate</w>
fal se</w>
techni ques</w>
glo be</w>
soli dly</w>
eventu ally</w>
resig nation</w>
Nu clear</w>
him self</w>
willing ness</w>
susta ined</w>
newly weds</w>
Bulg ari
Ecu ad
wis dom</w>
limin ary</w>
- in</w>
3 00</w>
4 th</w>
4 0s</w>
A N</w>
A re
A ssa
B re
B as
C P
E U
E ach</w>
E ligible</w>
F igures</w>
H aw
H usse
H .W</w>
M ul
M ar</w>
M SN
N SA</w>
O thers</w>
S tri
S pr
T S</w>
T ake</w>
U N
U g
U sage</w>
U LS</w>
c al</w>
c ur
d u</w>
d ay
e ts</w>
f er</w>
f it
f over</w>
f illing</w>
h y
h atred</w>
i z</w>
i or
j ustices</w>
l y-
l ength</w>
o l</w>
o is</w>
p ages</w>
r out
s l
s or
s low</w>
t um
t ories</w>
t ful</w>
u bi
v very</w>
in t</w>
in ally</w>
in struction</w>
ar y
ou ts</w>
re sided</w>
st oms</w>
di al-
di vor
ver sion</w>
con ten
con tests</w>
con sume</w>
de ad</w>
de partment</w>
Re form</w>
el ing</w>
ter -
ex tr
ch am
we d
we aring</w>
over turn</w>
um bia</w>
to wards</w>
gi a</w>
wor thy</w>
fa stest</w>
tho od</w>
mar k
mar ital</w>
fe at
ran ged</w>
es h</w>
Ch ile</w>
pl ants</w>
medi ans</w>
sup ply</w>
so -
ta kers</w>
govern ing</w>
govern or</w>
19 45</w>
em en</w>
diff ers</w>
sc ru
reas on
ph o
appro ves</w>
ru bella</w>
min us</w>
divi sion</w>
Par is</w>
Par ties</w>
tim ents</w>
out put</w>
St ar
parti ci
e- to-
sig n</w>
ssi l</w>
ssi ons</w>
accoun table</w>
av y</w>
co ali
co gni
Po st-
Ac cep
avi d</w>
ethn ically</w>
bu reau</w>
En ergy</w>
Gre ek</w>
Au g</w>
We e
Di strict</w>
stu dies</w>
affili ate</w>
affili ates</w>
2. 7</w>
2. 3</w>
2. 9</w>
Ex peri
Cu stoms</w>
Op pose</w>
star kly</w>
ourn al</w>
sen timents</w>
Col umbia</w>
domin ate</w>
198 1</w>
Se x</w>
Ge tting</w>
cap able</w>
extre me</w>
top s</w>
Te en</w>
mor tg
threat en</w>
6. 5</w>
6. 3</w>
suc ceed</w>
Lar ger</w>
Chan cellor</w>
sro oms</w>
back grounds</w>
reli ance</w>
accur acy</w>
cou ple</w>
Ken y
shif ting</w>
Sp ani
Indepen dent</w>
life times</w>
post- election</w>
investig ations</w>
Differ ent</w>
Car ter</w>
cyc les</w>
libr ary</w>
Pakistan i</w>
NE E
Rep .</w>
Cz ech
answ ering</w>
strug gle</w>
cohab it
win ter</w>
win ner</w>
cohor ts</w>
Thr ough</w>
discus sed</w>
Ci vi
oper ating</w>
determin e</w>
Disappro val</w>
Ed wards</w>
week day</w>
Bur ma</w>
fo ssil</w>
absolu te</w>
approach es</w>
Den ver</w>
misu se</w>
Slo v
pregn ant</w>
controversi al</w>
cele b
anticip ate</w>
caregi vers</w>
Tele vision</w>
shop ping</w>
certain ty</w>
perio ds</w>
princip al</w>
Jer sey</w>
Sum mer</w>
occurr ing</w>
Leve ls</w>
Finan cial</w>
Conflic t</w>
make up</w>
thresh old</w>
mix ed-
assign ments</w>
Snap chat</w>
sole ly</w>
Apprehen sions</w>
Husse in</w>
Mul ti
MSN BC</w>
dial- up</w>
scru tiny</w>
cogni tive</w>
Czech s</w>
- ethnic</w>
2 1
5 0.
6 th</w>
6 00</w>
B ang
B rown</w>
C le
F air
F air</w>
F ront</w>
L O
M y
N at
N RA</w>
O E
P ence</w>
P interest</w>
P ath
Q An
R T
S an</w>
S pe
S ud
T en</w>
W at
W it
Y emen</w>
b row
b ases</w>
c lin
c ru
d ates</w>
f ati
g um
g ori
g rows</w>
h acking</w>
j ects</w>
k o</w>
k rup
l ar</w>
o d
r ent
r ounding</w>
t cy</w>
u vi
u ph
x i
y ou
z a</w>
z ania</w>
th ering</w>
an gle</w>
er o
ar gum
en -
or ds</w>
re pu
re pe
re mark
li sts</w>
al gori
st ore</w>
ati vity</w>
ab ase</w>
di stant</w>
po sure</w>
su res</w>
ne sses</w>
ri ble</w>
con ven
con cep
ol ars</w>
de par
il lu
sp ar
ent /
ent ry</w>
tr ace</w>
no ws</w>
pre ce
ex ac
im plan
over turned</w>
ke ts</w>
me anwhile</w>
um -
um e</w>
per spec
lin ois</w>
is sion</w>
inc ed</w>
tic ket</w>
gre en</w>
rec ess</w>
ow ed</w>
tri ed</w>
medi um</w>
so le</w>
ta il</w>
govern ment
ten tion</w>
cont in
mu ch
la h</w>
rac ism</w>
fu el</w>
off ers</w>
appro xim
war mer</w>
out weigh
comm it</w>
conduc ting</w>
ill ness</w>
fir st-
identi fies</w>
disa sters</w>
up per</w>
gu e</w>
co inci
non whites</w>
Per uvi
contr ac
cell -only</w>
bro ken</w>
sec ular</w>
En ter
tra il</w>
clim bed</w>
pan -ethnic</w>
sum mit</w>
admini strations</w>
bac king</w>
Le g
1. 7</w>
1. 9</w>
Al ong</w>
provi sions</w>
provi ders</w>
conf er
conf ron
arri ving</w>
2. 6</w>
Ex p
dr a</w>
bir th
aki a</w>
star ting</w>
4. 8</w>
char ges</w>
char ged</w>
Uni vision</w>
bil lions</w>
demograph ics</w>
Se ver
ber -
sing le-
describ ing</w>
Pri v
Pri orities</w>
prot est</w>
6. 7</w>
ob tain</w>
offici ally</w>
pur poses</w>
hom e-
mid- 1990s</w>
disp lay</w>
sympath ized</w>
At lantic</w>
multi generational</w>
fun ded</w>
vic ti
down s</w>
Sec re
7. 5</w>
9. 3</w>
Comm it
wr iting</w>
comb at</w>
decreas ing</w>
logi zed</w>
prev ail
Mu bar
requi res</w>
ban ks</w>
character ize</w>
draw n</w>
constitu te</w>
mode l</w>
Fre e</w>
lea ks</w>
deter ior
Shi fting</w>
wa iting</w>
doub ts</w>
collec ting</w>
answ ered</w>
4, 9
Min ority</w>
resett lement</w>
Ke y</w>
re- election</w>
recyc led</w>
convic tions</w>
chi p</w>
usu al</w>
extremi sts</w>
Sunn is</w>
inst ability</w>
poor ly</w>
alig n</w>
alig ned</w>
24 -year-olds</w>
Angel es</w>
sett ings</w>
conv inced</w>
temper ature</w>
ath le
lag ged</w>
absolu tely</w>
trad ing</w>
scre en</w>
tot als</w>
BJ P</w>
mirr or</w>
claim s</w>
tol er
Dominic an</w>
Broad band</w>
Proble ms</w>
reb ounded</w>
adv ance</w>
vehic les</w>
teen ag
Big ger</w>
squ are</w>
scen ari
Soci ety</w>
isol ated</w>
warme strating</w>
presidenti al
Direc tion</w>
Spec i
motiv ated</w>
Tan zania</w>
Indu stri
appoint ments</w>
impe achment</w>
disproportion ately</w>
Siz able</w>
Bulgari a</w>
Ug anda</w>
so- called</w>
partici pants</w>
Keny ans</w>
Bang lad
QAn on</w>
fati gue</w>
krup tcy</w>
algori th
Mubar ak</w>
2 8
2 ,00
6 0
7 ,000</w>
A pp
B om
C H
C able</w>
C ell
C BS</w>
D A
D ri
E v
F urther</w>
G ar
G 20</w>
G ames</w>
I ne
J an</w>
L E
L im
N .</w>
O ften</w>
P R
P A</w>
P R</w>
R E</w>
R ole</w>
S .</w>
S S</w>
S to
T ro
T ech
a /
b on</w>
b all</w>
b ra
b log
c o</w>
c e-
d ling</w>
e an</w>
f ini
f lows</w>
h a</w>
i op
i sure</w>
m ful</w>
m itted</w>
n a</w>
p tions</w>
r ent</w>
s la
t an</w>
t age</w>
y er</w>
th an
th west</w>
th en-
in er</w>
in te
ti more</w>
on y
on set</w>
en dra</w>
or ship</w>
re move</w>
re moved</w>
at eral</w>
al i</w>
st -</w>
ati cally</w>
si an</w>
si vely</w>
le isure</w>
di pped</w>
di agno
po d
ri de</w>
ri vals</w>
mo m</w>
mo vi
se as</w>
Re port</w>
be gin</w>
ul l
ul ture</w>
U.S -
ter rible</w>
pre liminary</w>
fi re
fi red</w>
De mograph
ex tend</w>
as sum
we althier</w>
over seas</w>
Democ racy</w>
gi um</w>
du al</w>
is ing</w>
for ec
poli tan</w>
ge o
te a</w>
te es</w>
Wh y</w>
Wh at
so f
stor ms</w>
19 76</w>
rel ation</w>
thir d-
all -
all s</w>
appro vals</w>
ru le</w>
quar terly</w>
An ti
form ally</w>
min ated</w>
Par t
ani zed</w>
comm unist</w>
St u
leve led</w>
fac ial</w>
fac turing</w>
fir m</w>
Un der</w>
belie vers</w>
up ward</w>
ste p</w>
ste ep
sm alle
sch olars</w>
ari ans</w>
eth ics</w>
Per haps</w>
exam ples</w>
ethn ici
Li thu
Dec lines</w>
erg ing</w>
Oc c
dis like</w>
mat ched</w>
read er</w>
vol ution</w>
ho va
sol o</w>
10 -point</w>
vari ation</w>
3. 1</w>
4. 5</w>
beg ins</w>
dig it</w>
even ing</w>
198 3</w>
bo dy</w>
tal ked</w>
Favor ably</w>
tro politan</w>
presiden cies</w>
Geor gia</w>
threat ened</w>
6. 9</w>
ob tained</w>
restric ted</w>
dra ws</w>
suc cee
emerg es</w>
Ne e
twee t</w>
sympath y</w>
fun c
ca uses</w>
contribu tes</w>
run k</w>
self- identify</w>
tru sting</w>
decreas es</w>
fl at</w>
land lines</w>
inten tionally</w>
dol lar</w>
fiel ds</w>
middle -</w>
langu ages</w>
cl ergy</w>
diplom atic</w>
Sm ith</w>
ban kruptcy</w>
plan ning</w>
second- most</w>
pic tures</w>
1,00 1</w>
Mor mons</w>
lish ments</w>
Disa gree</w>
hospit alization</w>
comfor t</w>
Ap ple</w>
reve als</w>
Eth iop
Clo sely</w>
volunte ered</w>
Ke ep</w>
Increas ingly</w>
expen d
Fri day</w>
Mon thly</w>
agno stic</w>
profici ent</w>
cens orship</w>
Em erging</w>
commer cial</w>
Tri angle</w>
Colom bi
Il linois</w>
gov 't</w>
strate gi
Je hova
aver aged</w>
View ed</w>
Fa ith</w>
usse ls</w>
acces sing</w>
Develop ing</w>
Beli eve</w>
Nar endra</w>
Br ussels</w>
e/ ethnicity</w>
consequ ences</w>
Bal timore</w>
Stud y</w>
green house</w>
empha sis</w>
D. C.</w>
Ter m</w>
deleg ates</w>
Bel gium</w>
Equ al</w>
apo logized</w>
emo tional</w>
worsen ed</w>
discour aged</w>
IM F</w>
ben ch
sensi tive</w>
Elector al</w>
Agre ement</w>
writ ten</w>
Land scape</w>
restaur ants</w>
adher ents</w>
disposa ble</w>
Sym path
Linked In</w>
Ecuad ori
Slov akia</w>
mixed- race</w>
Cle ar</w>
Sever al</w>
home- sharing</w>
smalle st</w>
ethnici ties</w>
Jehova h</w>
- nation</w>
- ended</w>
/ lean</w>
B est</w>
C up</w>
D E
D id</w>
D ru
H old</w>
H uman</w>
K agan</w>
L op
L ower</w>
M il
M assa
N ation</w>
O R</w>
P at
R i
S P
S w
S U</w>
S ays</w>
S kep
T H
U p
U r
W in
W as</w>
W ay</w>
Y outh</w>
Z im
a im
a spect</w>
b y
b ings</w>
b arri
d in
e y
e astern</w>
e vements</w>
f li
f ron
f ears</w>
h ope</w>
i ed</w>
i Phone</w>
m oun
m ation</w>
r ying</w>
s wit
s day</w>
s itu
s tics</w>
t ts</w>
t ag
u ps</w>
v ac
v ali
v ices</w>
x it</w>
y stone</w>
ñ a</w>
th us</w>
in ts</w>
in ju
in stead</w>
an ity</w>
an nex
an xi
an ony
er -</w>
ar ti
ar ms</w>
en du
re vi
re elected</w>
re venues</w>
sa ve</w>
the y
st ar</w>
st ake</w>
ic ial</w>
lo ans</w>
le y</w>
le stone</w>
di e</w>
di stress</w>
su red</w>
ver less</w>
ver theless</w>
ad vice</w>
ad diction</w>
se ase</w>
ag ric
ag ement</w>
am bi
ha u
ha el</w>
sh ad
de p
de signed</w>
be long
ul tim
ent ary</w>
pro -
pro te
ma r</w>
ma ster</w>
De port
ex c
ex plo
ex ceed</w>
ex posure</w>
un accompanied</w>
im e</w>
im moral</w>
im ports</w>
ch use
coun ting</w>
me tropolitan</w>
ap parent</w>
wor ding</w>
low -
low ering</w>
fa i
gh ter</w>
fol lows</w>
rec all</w>
ori entation</w>
ini ti
ini tially</w>
acc el
fe ed</w>
ran ges</w>
Hi stor
pl un
gen ders</w>
pa thetic</w>
so ft</w>
ta g</w>
19 -year-olds</w>
sc ep
Con sum
poin ted</w>
cont ext</w>
Ob am
do g</w>
rac e/ethnicity</w>
cent ers</w>
religi on-related</w>
cer em
dat ory</w>
dat abase</w>
pen ding</w>
wi shes</w>
out lays</w>
dre ds</w>
ga thering</w>
lean ings</w>
au gh</w>
main tained</w>
respon d</w>
Pre sident
e- calling</w>
up on</w>
sel ect</w>
ric h
colle agues</w>
non profit</w>
exp and</w>
reg ime</w>
uni verse</w>
uni que</w>
offic er</w>
equ i
exam ines</w>
bu ying</w>
En rol
tra it</w>
tra iled</w>
imp lications</w>
nam ing</w>
nam e-calling</w>
stric tions</w>
enni als</w>
Pe ña</w>
Di sease</w>
ate ver</w>
Su c
app ed</w>
respec ted</w>
respec tful</w>
smart phone-
grad es</w>
val u
ref er</w>
10 -
gradu ated</w>
fair ness</w>
moder ately</w>
4. 4</w>
cum b
dri verless</w>
char ge</w>
bil ateral</w>
congre gation</w>
too l</w>
bud gets</w>
tal ents</w>
cre ation</w>
mor ality</w>
threat to</w>
threat ening</w>
docum ents</w>
chec king</w>
Lib r
Comm on</w>
car ds</w>
car bon</w>
teach ings</w>
thous and</w>
tru st
long- running</w>
adop ters</w>
expan ded</w>
fer red</w>
vis itors</w>
prev enting</w>
Sour ces</w>
siz eable</w>
territ ory</w>
lac k
bas ically</w>
New s
11 5th</w>
any thing</w>
tion able</w>
plan ned</w>
weap on</w>
1,00 3</w>
capit alism</w>
High est</w>
Argent ines</w>
disagre ements</w>
spo t</w>
Ap p</w>
drop outs</w>
Ga za</w>
Brazili an</w>
sent enced</w>
expec ting</w>
16 -</w>
Min orities</w>
One-in- four</w>
promo te</w>
30 -
frust rating</w>
far m</w>
promin ence</w>
bul lying</w>
weigh ted</w>
Bud get</w>
Hom osexuality</w>
Hear d</w>
confir med</w>
1,50 3</w>
Go v</w>
cal cul
marg inally</w>
monit oring</w>
person nel</w>
La w</w>
asse ss</w>
two- parent</w>
sett led</w>
expl oration</w>
Foreign -born</w>
approach ing</w>
Consist ently</w>
Den mark</w>
compri se</w>
concent rated</w>
Develop ment</w>
BJ S</w>
Eff or
renew able</w>
emb race</w>
Associ ation</w>
ograph ers</w>
pursu e</w>
Satis fied</w>
obli gation</w>
spi ked</w>
Mem bers</w>
pati ents</w>
Ideo logical</w>
right thing</w>
objec tionable</w>
diver ge</w>
Fun d</w>
Mari juana</w>
expla ining</w>
mill ennials</w>
Sing le</w>
Hin du</w>
brac ket</w>
annu ally</w>
ere as</w>
witne ssed</w>
mail -in</w>
outp ac
Assa d</w>
Haw ai
Spr ing</w>
e-to- face</w>
Wee kly</w>
mortg age</w>
Path ways</w>
Sud an</w>
exac tly</w>
Commit tee</w>
scenari o</w>
Banglad esh</w>
Ine quality</w>
Tech no
Lithu ania</w>
Lop ez</w>
Massa chuse
ey e</w>
Histor ically</w>
Massachuse tts</w>
/ oppose</w>
0 8</w>
3 4.6</w>
6 5
7 00</w>
A G
A L</w>
B L
B lo
B oo
D ro
D om
D el
E liz
G on
H el
H andling</w>
I RS</w>
J O
J ud
K av
K im</w>
L an
N S
N ever</w>
N PR</w>
P a
R am
R ul
R ural</w>
S ta
S core</w>
W al
W ell</w>
a a</w>
a side</w>
c row
c ash</w>
e h
e th</w>
e migrants</w>
f ts</w>
f le
f ur
f ear
f low</w>
f laws</w>
h or
m ag
m ales</w>
n er
n ic
o sity</w>
r ound</w>
s of</w>
s it
t an
t ment</w>
t ability</w>
u ti
u ge</w>
y our
z ing</w>
in accurate</w>
an ying</w>
an augh</w>
ar ying</w>
ar agu
ti me
en counter
ou d</w>
re di
re turning</w>
li shed</w>
ro s
ro l</w>
ro gation</w>
the -
st y</w>
st am
st ation</w>
st alled</w>
ic ago</w>
ic ides</w>
si ble</w>
ab eth</w>
lo an</w>
le ach</w>
su sp
ne edy</w>
ri val</w>
ad em
ag e
con tain</w>
ol ine</w>
sh ment</w>
sh runk</w>
de velo
Re f
Re ps</w>
Re strictions</w>
com promise</w>
op eration</w>
ent er</w>
pro files</w>
tr uly</w>
Americ an
pre sum
De ms</w>
as oline</w>
ch ose</w>
den cy</w>
den omin
over y</w>
ff ords</w>
sur rounding</w>
per -
fa ste
gr ich</w>
for tun
inc ar
inc or
econom ists</w>
ra yer</w>
In dividu
inter active</w>
ran king</w>
lu es</w>
lu ent</w>
es sions</w>
Ch icago</w>
19 64</w>
19 78</w>
19 75</w>
chan ces</w>
ser mons</w>
fin to</w>
popul ous</w>
high -income</w>
ali st</w>
ali ke</w>
rel ying</w>
he avy</w>
sti mul
some day</w>
quar ant
form at</w>
min ors</w>
issu ed</w>
gener ous</w>
bor row
St ar</w>
fac e-to-face</w>
Un der
concer ning</w>
depen dent</w>
candid acy</w>
har mful</w>
new srooms</w>
sub group</w>
sel dom</w>
indepen dence</w>
ari an</w>
itu res</w>
Ma in</w>
Ar my</w>
brea king</w>
Li ving</w>
nam ese</w>
Hou sing</w>
impro vements</w>
We iner</w>
disappro ving</w>
deci ding</w>
org anized</w>
Su icide</w>
loo ks</w>
contro lling</w>
app lies</w>
respec tive</w>
Com mission</w>
Mid term</w>
air strikes</w>
Christi e</w>
sol di
att ached</w>
10 ,
2. 4</w>
Wor ry</w>
under stood</w>
regar ded</w>
resi dential</w>
resi stance</w>
3. 3</w>
environ ments</w>
Bo eh
4. 3</w>
perform ed</w>
bene ficial</w>
feel s</w>
ber g</w>
pas ses</w>
pas sage</w>
5. 7</w>
5. 9</w>
asi ve</w>
mor ning</w>
st- growing</w>
Surve ys</w>
rele v
separ ately</w>
1, 5
categ ori
neighbor h
back drop</w>
ca sting</w>
encour ages</w>
anti- government</w>
0. 5</w>
run s</w>
self- described</w>
an- Americans</w>
Parti cip
occup ation</w>
head ing</w>
Compar ing</w>
Compar able</w>
communic ate</w>
fiel ded</w>
Sp ace</w>
requi rement</w>
11 4th</w>
11 6th</w>
Str eng
Mic hael</w>
ban king</w>
open -ended</w>
high- profile</w>
boo m</w>
tari ff</w>
Gi ffords</w>
2, 2
Mi x</w>
Mi ke</w>
projec tion</w>
Wi ki
tab les</w>
Viet namese</w>
Canadi an</w>
gar nered</w>
inde ed</w>
spou ses</w>
prepar ation</w>
Chil dhood</w>
trou bled</w>
29 -
attribu ted</w>
doub le-
offen ses</w>
purcha ses</w>
Ke ystone</w>
reti red</w>
sou thwest</w>
pay ments</w>
Egypti an</w>
bul k</w>
suff ici
FIGURE 1</w>
exclu ded</w>
excee ds</w>
withdraw ing</w>
exten sive</w>
expen sive</w>
Gener ational</w>
cust om
Shar p</w>
her it
confir mation</w>
manag ers</w>
corru pt</w>
Pl ur
Ris es</w>
list ened</w>
dead line</w>
mas ks</w>
Tri b
accomp lishments</w>
appear ance</w>
transi tion</w>
Sub stan
remo ving</w>
remo val</w>
27 -
aggre gate</w>
pregn ancy</w>
lad der</w>
tol l</w>
attemp ts</w>
attemp ted</w>
Nic aragu
Scot t</w>
hun dreds</w>
Secon d</w>
get news</w>
English -
Advan ced</w>
Quar terly</w>
Citiz ens</w>
NO T</w>
demon strations</w>
five -year</w>
intelli gence</w>
Gin grich</w>
Mac on</w>
Ve terans</w>
Val ues</w>
adequ ate</w>
fail ures</w>
ces sive</w>
til t</w>
attor ney</w>
recommend ations</w>
OW N</w>
fat al</w>
lici t</w>
Viol ence</w>
compon ent</w>
clas ses</w>
gri m</w>
obe sity</w>
stop ped</w>
watch dog</w>
Bre xit</w>
CP S</w>
EU -
divor ce</w>
Experi ence</w>
Fair ly</w>
od ds</w>
rent ers</w>
repu tation</w>
approxim ately</w>
Secre t</w>
teenag ers</w>
Anti -
expend itures</w>
aim ed</w>
barri ers</w>
anony m
Eliz abeth</w>
Gon z
Kav anaugh</w>
Boeh ner</w>
- using</w>
- of-
. 2</w>
1 -
1 50</w>
3 6.6</w>
6 -
A I
A ir
A ID
B ene
C D</w>
C abinet</w>
D ou
D on</w>
D avid</w>
E a
G or
I rel
I ris
J ones</w>
K in
K er
K at
K ash
L ong
M is
N ative</w>
N et</w>
N ext</w>
N BC</w>
O O</w>
O hi
P essi
R an
R ich</w>
S ad
S ig
S ame</w>
T O
T s</w>
T yp
T ak
T ay
U sers</w>
V A</w>
W is
b ands</w>
b locked</w>
c ig
c ks</w>
d ad</w>
d am</w>
d den</w>
e state</w>
f ying</w>
f registered</w>
f iled</w>
g ments</w>
h an
h ot
j ournalism</w>
k in</w>
k ingly</w>
o fe
p sy
r us
r ina</w>
s worn</w>
t ant</w>
t ages</w>
u red</w>
v on</w>
v asive</w>
y an</w>
y von</w>
z bol
th ony</w>
in tro
in ely</w>
in va
an ced</w>
ar -
ar m</w>
on ial</w>
on ia</w>
en a</w>
en em
re gre
li est</w>
li zed</w>
al e
ro g
the ir
wh atever</w>
st ac
st ent</w>
st over</w>
st alking</w>
ic k</w>
ec tion</w>
ec tations</w>
lo ses</w>
lo si</w>
di stance</w>
su p</w>
se ems</w>
se gment</w>
se lues</w>
pu ni
20 th</w>
am ming</w>
con ver
con tested</w>
sh -
de le
Re as
ve -born</w>
be gun</w>
com prehen
ent ries</w>
tr ation</w>
De fin
ex hi
ex plan
ex posed</w>
un safe</w>
un certainty</w>
coun ts</w>
over ed</w>
over represented</w>
over shad
ke wise</w>
me ant</w>
me thodology</w>
per form</w>
per ception</w>
pe op
pe ace
low er-</w>
qu alities</w>
is er</w>
oo her</w>
inc umb
ing redi
ori ented</w>
mar king</w>
poli cing</w>
ra se</w>
In ve
dec lar
inter rogation</w>
es —
es cal
tw are</w>
sup p
so ften</w>
ta ke
ta ins</w>
jo in</w>
19 69</w>
em ed</w>
Con go</w>
ali sts</w>
ph rase</w>
differ ent
fu els</w>
religi osity</w>
serv es</w>
An aly
An thony</w>
min e</w>
Mo dest</w>
one sty</w>
bor n
dre ss</w>
peri or</w>
Inter est
cam pu
fac t-
main stream</w>
parti al</w>
Pre fer</w>
der ed</w>
sel fi
cor relation</w>
atten ders</w>
atten tiveness</w>
comp are</w>
comp iled</w>
co m</w>
co ast</w>
ari ties</w>
tis m</w>
eng ine</w>
eng ines</w>
Ac tual</w>
mi lestone</w>
Ma ss</w>
Ma ke</w>
are tt
uni versity</w>
aff luent</w>
Li kewise</w>
sec tion</w>
influ x</w>
influ ences</w>
experi encing</w>
imp acted</w>
imp acts</w>
Pe losi</w>
them selues</w>
Le ad</w>
respec ting</w>
Fe b</w>
Com pu
Al ways</w>
Econom ist</w>
fili ation</w>
recor d-
resul ting</w>
10 th</w>
progr amming</w>
Wor king</w>
Bo ston</w>
man datory</w>
nati ve-born</w>
effec tiveness</w>
ment ary</w>
dri ve</w>
ful ness</w>
Col bert</w>
bus y</w>
cap ture</w>
produc es</w>
comple ting</w>
engag ing</w>
cla im</w>
ob served</w>
ob stac
poten tially</w>
sk illed</w>
He zbol
Ne vertheless</w>
disp arity</w>
indic ates</w>
indic ating</w>
indic ator</w>
Chan ges</w>
Chan ged</w>
At tention</w>
down load</w>
Brit ons</w>
7. 4</w>
TE R</w>
ca su
Mar ket</w>
contribu ting</w>
long- standing</w>
Gu ant
One -third</w>
vis its</w>
inten sity</w>
8. 7</w>
8. 5</w>
8. 4</w>
8. 6</w>
very /
well- paying</w>
stre aming</w>
Swe des</w>
corpor ate</w>
Str ongly</w>
ban ning</w>
Lead ing</w>
occur s</w>
rap e</w>
boo st</w>
wan ting</w>
1,00 4</w>
Ser vices</w>
autom ated</w>
Gr ay</w>
constitu tional</w>
perman ently</w>
investig ating</w>
Bro therhood</w>
fru stration</w>
visi bility</w>
3, 8
every day</w>
every thing</w>
gar ners</w>
pre- recession</w>
elector al</w>
bom bings</w>
blo c</w>
Partis anship</w>
pay roll</w>
suff ered</w>
mean ing
FIGURE 2</w>
Aff airs</w>
Ha ving</w>
don ors</w>
va ks</w>
determin ed</w>
enjo y</w>
persi st</w>
persi sted</w>
Fri ends</w>
agno stics</w>
1,50 4</w>
Candid ates</w>
cons in</w>
refer endu
person ality</w>
doc tor
estab lished</w>
commer ce</w>
temper ed</w>
accomp anying</w>
Il legal</w>
fo ot
gov t</w>
Ethn ic</w>
polar ization</w>
Sub -Saharan</w>
gran ted</w>
Tra yvon</w>
athe ists</w>
lab eled</w>
tot aled</w>
Slo vaks</w>
aggre ssive</w>
Great er</w>
less- educated</w>
tex ts</w>
tex ting</w>
ve- duty</w>
controversi es</w>
Post al</w>
Proble m</w>
Ka iser</w>
argu ed</w>
Institu tions</w>
Protec tion</w>
observ ant</w>
difficul ties</w>
cauc us</w>
establish ing</w>
wel come</w>
laun ched</w>
guaran tee</w>
fundam ental</w>
arrange ments</w>
DO J</w>
Asses sments</w>
Cau c
bran ch</w>
tui tion</w>
GOP -leaning</w>
competi tive</w>
reason able</w>
Civi l</w>
Nat ur
OE CD</w>
Wit nesses</w>
remark ably</w>
illu st
contin ent</w>
Exp ectations</w>
athle tes</w>
sof tware</w>
Stu dents</w>
Occ up
Pat rol</w>
annex ation</w>
Hel p</w>
fle eing</w>
fear ful</w>
stimul us</w>
quarant ine</w>
soldi ers</w>
relev ant</w>
neighborh oods</w>
double- digit</w>
suffici ently</w>
AID S</w>
Irel and</w>
Iris h</w>
Ker ry</w>
Kat rina</w>
Kash mir</w>
Ohi o</w>
Sad dam</w>
Sig nific
Wis consin</w>
inva sion</w>
declar ed</w>
Interest ingly</w>
Hezbol lah</w>
referendu m</w>
0 0
0 6</w>
0 9</w>
2 2
3 4-year-olds</w>
4 9
6 4.1</w>
8 8
A tt
A side</w>
B ack
C er
C ap
D ra
D ue</w>
E R</w>
E is
E PA</w>
F ood</w>
G o</w>
G as</w>
G ab
G ir
H ard</w>
J ournal</w>
K ur
L ab
L ow
L ack</w>
M ot
M ur
M one
N =
N in
P O
P or
P rices</w>
P asse
R ous
S E
S ol
Z e
b ilities</w>
c k
c li
c ents</w>
c anc
c abinet</w>
d die</w>
e /</w>
e ps</w>
f a</w>
g ers</w>
g asoline</w>
h onesty</w>
i .
l on
m om
m ere</w>
m ani
n der
o ts</w>
p are</w>
p ts</w>
s n
s over</w>
s wee
t on
t ter</w>
t y-
t ude</w>
v it
v ings</w>
w a</w>
w al
w ill
w ish</w>
x emb
y gam
in tru
an am
an mar</w>
er ated</w>
ti vi
en ce-
re al
re view</w>
re sume</w>
re versal</w>
re turns</w>
al lows</w>
al together</w>
ro b
ro om</w>
the tical</w>
the job</w>
wh at
wh ereas</w>
st ol
st ence</w>
st ak
om y</w>
ac tively</w>
si l
lo le</w>
le f
di x</w>
di ence</w>
di stru
su scep
ri lole</w>
mo de</w>
mo st-
ad ded</w>
se ff</w>
20 35</w>
oun dation</w>
de part
de liber
il ers</w>
Re g
Re si
Re main
Re tail</w>
par tly</w>
ve s
U. N.</w>
com promises</w>
com Score</w>
el der
pro gre
pro ven</w>
ter ed</w>
pre ci
De ath</w>
De ferred</w>
un in
un fol
un lock</w>
un friendly</w>
as sment</w>
im ages</w>
over s</w>
ear liest</w>
ke eps</w>
sur pass</w>
sur passing</w>
per mitted</w>
per vasive</w>
ap t</w>
wor sen</w>
pe st</w>
low -income</w>
qu ad
qu iz</w>
gr am</w>
rec essions</w>
In f
our g</w>
inter pre
inter marriage</w>
inter nal</w>
pl ying</w>
Cent ers</w>
year -</w>
ta x
19 00</w>
19 50</w>
19 68</w>
19 71</w>
chan ne
of voters</w>
of US</w>
high light</w>
Con ditions</w>
la ir</w>
la id</w>
all ing</w>
off spring</w>
ster e
min ing</w>
lic en
out lier</w>
out standing</w>
out pace</w>
au to</w>
chil d
and ers</w>
Musli m
Pre s
har sh</w>
Af filiation</w>
e- sex</w>
new sc
sub ur
up dating</w>
Pro vi
Pro posa
own s</w>
sci ences</w>
analy ze</w>
milit ary
exp licit</w>
Me d
ques tion
inf o</w>
tis ers</w>
auth ority</w>
loc ally</w>
loc ations</w>
Ar rivals</w>
fre ely</w>
bu y</w>
hand ful</w>
ris ky</w>
non- rural</w>
pref ers</w>
val ence</w>
stat ing</w>
Fe el</w>
amoun ts</w>
mea suring</w>
Mid dle
Christi anity</w>
US A</w>
arri val</w>
consid ers</w>
dou bling</w>
under gone</w>
one-in- six</w>
dr inking</w>
Ad ver
hum an
3. 8</w>
def ending</w>
advan ces</w>
nati vity</w>
star ts</w>
4. 9</w>
know ing</w>
ment ally</w>
bene f
sen ator</w>
end ers</w>
les ser</w>
med dling</w>
Not es</w>
produc tivity</w>
deal t</w>
anti -</w>
5. 1</w>
5. 8</w>
comple tion</w>
prin ted</w>
defin e</w>
Ita lian</w>
liber tarian</w>
on- demand</w>
stra in</w>
1, 500</w>
dra ising</w>
Niger ian</w>
fun draising</w>
rol ls</w>
7. 1</w>
7. 6</w>
ca sts</w>
led ge</w>
9. 7</w>
9. 2</w>
9. 5</w>
9. 9</w>
encour aged</w>
Comm un
0. 6</w>
0. 8</w>
car ing</w>
coll ect</w>
coll abor
Australi an</w>
connec tivity</w>
Posi tively</w>
territ orial</w>
communic ating</w>
tran sa
Si x</w>
achi evements</w>
Sm all</w>
Concer ned</w>
any one</w>
character ized</w>
Divi sions</w>
draw ing</w>
For d</w>
post- 9/11</w>
appe al</w>
autom atically</w>
investig ate</w>
High ly</w>
Fre edoms</w>
Fre ddie</w>
Net work</w>
spo ke</w>
Inc rease</w>
pre- election</w>
tar gets</w>
ele mentary</w>
reve al</w>
attribu table</w>
invest ments</w>
Har ris</w>
blo g</w>
30 -</w>
iz ing</w>
mur ders</w>
convic tion</w>
Increas ing</w>
Mal i</w>
negoti ating</w>
pay rolls</w>
Consi der</w>
Import ance</w>
Off ice</w>
Som ali</w>
exclu ding</w>
expen ses</w>
persi sts</w>
Deb ate</w>
confir m</w>
predic ted</w>
asse ts</w>
hus bands</w>
nor thern</w>
Salvador an</w>
lag s</w>
recogni ze</w>
play er</w>
emer ge</w>
emer gence</w>
Bir th</w>
Lu xemb
ation- adjusted</w>
predecess ors</w>
zer o</w>
defe ated</w>
misu nder
pass words</w>
Dominic ans</w>
Satis faction</w>
conclu sion</w>
manu facturing</w>
IN G</w>
mer man</w>
spi ke</w>
cr ash</w>
subscri be</w>
less ness</w>
Citiz enship</w>
federal government</w>
Mig ration</w>
anim als</w>
difficul ty</w>
cauc uses</w>
depres sion</w>
grand parents</w>
wire less</w>
majority- minority</w>
news maker</w>
missi le</w>
Know n</w>
Thir d</w>
hard working</w>
Environ mental</w>
Optim ism</w>
Web -only</w>
magaz ines</w>
hash tag</w>
endor se</w>
Newspap er</w>
targe ting</w>
Are as</w>
rout inely</w>
extr a</w>
coali tion</w>
My anmar</w>
Spe aker</w>
you ths</w>
depar tures</w>
contrac ep
victi ms</w>
prevail ing</w>
Bom bing</w>
bra in</w>
succee ded</w>
strategi es</w>
bench mark</w>
Mil lion</w>
Sw ine</w>
Win ter</w>
Zim merman</w>
situ ations</w>
prote sters</w>
cerem onial</w>
President -elect</w>
equi valent</w>
Enrol lment</w>
Libr ary</w>
Hawai i</w>
crow d
encounter ed</w>
develo p</w>
per- capita</w>
incar cer
Particip ation</w>
Plur alities</w>
cig arett
comprehen sive</w>
ingredi ents</w>
obstac les</w>
Guant anam
Eis enh
Nin e-in-ten</w>
Passe l</w>
Rous seff</w>
Ze aland</w>
suscep ti
depart ments</w>
Remain s</w>
Luxemb ourg</w>
Guantanam o</w>
- country</w>
- terrorism</w>
- plurality</w>
. for</w>
/ not</w>
/ Spanish</w>
/ ABC</w>
0 1</w>
1 20</w>
1 2.2</w>
2 50</w>
2 5,000</w>
3 -
3 6
8 0
9 00</w>
A h
A l</w>
A gree</w>
B Y</w>
B en</w>
B ap
B ow
B rea
C ou
D I
E vi
E specially</w>
F as
F all</w>
F oundation</w>
G ad
H C
H il
H ill</w>
K ing</w>
K as
L on
M other</w>
M ale</w>
N ev
N omin
N ancy</w>
O F
P i
P er</w>
P ay</w>
P lat
R ati
R ubi
S inc
S even</w>
S tra
T or
T re
T em
W il
a z
a ks</w>
a il</w>
a ins</w>
a stating</w>
b ail
b ase
c op
c son</w>
e .</w>
e -</w>
e us</w>
e tration</w>
f ly</w>
f ate</w>
f early</w>
g all
h n
h am
h is
h iring</w>
h urricane</w>
k u
k ina</w>
n on</w>
n ment</w>
o t</w>
o le
p ounds</w>
p rayer</w>
r a</w>
s mo
s ound</w>
s que</w>
t y
t ac
t ally</w>
t our
t s—
w on
w ay
y ers</w>
— a</w>
in al</w>
in ations</w>
er ran
ar ts</w>
or -
ou l
re side</w>
re solution</w>
li ft</w>
al ties</w>
it ting</w>
ro oms</w>
ro ots</w>
the ory</w>
om es</w>
om ic</w>
om berg</w>
ic ers</w>
ac ci
ac ity</w>
ac ked</w>
ac adem
si dies</w>
ab ee</w>
le ans</w>
su spects</w>
ne ll</w>
ri el
mo sque</w>
ad d</w>
ad di
se at</w>
con sole</w>
sh er</w>
de als</w>
de dic
de voting</w>
Re duc
Re duce</w>
Re porting</w>
Re ports</w>
Th ought</w>
sp li
ve z</w>
ve ter
ve to
be aring</w>
com mu
ot yp
ul ation</w>
ul tural</w>
ent h</w>
ent ally</w>
pro sp
pro fits</w>
ma ssive</w>
tr ag
no tion</w>
ter nal</w>
pre pare</w>
De c</w>
De al</w>
ex change</w>
ex ternal</w>
un s</w>
un paid</w>
un known</w>
un anim
un decided</w>
im pul
ch -
ci l</w>
sur vi
pe ti
low ers</w>
fa ther</w>
for ced</w>
-in- 10</w>
gre edy</w>
clo sing</w>
follow -up</w>
ra i
fe ar</w>
ge ograph
In clu
In telli
dec ent</w>
inter ference</w>
tri c</w>
tri ple</w>
ran dom</w>
lu c
mig rate</w>
Cent er
favor /oppose</w>
pa yment</w>
ev ed</w>
19 8</w>
19 73</w>
19 79</w>
immig ran
sc ope</w>
Con nell</w>
denti fied</w>
cont acts</w>
he ight</w>
he alth
do z
rac ies</w>
some where</w>
fu n</w>
pen etration</w>
An gry</w>
war s</w>
col dly</w>
out let</w>
out reach</w>
St and</w>
af fir
fac tual</w>
fac ilities</w>
neg ativity</w>
Un like</w>
bec omes</w>
Pre vention</w>
Mexic an
Mexic an-
proble m
campa ign
curr ency</w>
sub stitu
sub jects</w>
hear t</w>
non -</w>
Me tho
Per si
bi partisan</w>
inform ative</w>
fore front</w>
Li ve</w>
En thusias
tra ils</w>
tra eus</w>
clim b</w>
ron es</w>
nam ent</w>
Pe traeus</w>
mem or
them ati
Le ft</w>
fri ended</w>
pr oud</w>
titud e</w>
Al lowing</w>
occ a
acti ve-duty</w>
conf used</w>
Sep t</w>
regul ated</w>
Sy stem</w>
CO N
vari ations</w>
Ex ecu
Wor se</w>
under graduate</w>
dr ama</w>
pat rio
Eng land</w>
Rec overy</w>
Jo hn
def endants</w>
dev astating</w>
dig its</w>
domin ates</w>
congre gations</w>
Se es</w>
cap acity</w>
produc tive</w>
nomin ated</w>
anti bio
5. 0</w>
work er</w>
invol ve</w>
Republican -
Republican -</w>
ay or</w>
defin es</w>
shoot er</w>
liber ty</w>
long time</w>
sympath ies</w>
indic ated</w>
multi ethnic</w>
Sec retary</w>
7. 3</w>
stand off</w>
encour aging</w>
Mc Connell</w>
anti- terror</w>
0. 7</w>
0. 9</w>
car s</w>
,00 0
self- reported</w>
reli ed</w>
Religi ously</w>
land scape</w>
expan sion</w>
Be ing</w>
8. 2</w>
head lines</w>
profe ssions</w>
gun -
Coun cil</w>
audi ences</w>
Sp lit</w>
Cri sis</w>
Tu cson</w>
execu tions</w>
plan e</w>
second- largest</w>
U.S.- China</w>
U.S.- led</w>
1,00 7</w>
Fol low</w>
sha ped</w>
Mor si</w>
pea king</w>
challeng ing</w>
Net working</w>
seas onal</w>
commit tee</w>
11. 1</w>
ele ment</w>
reve aled</w>
men tions</w>
bom b</w>
Filipin o</w>
re- elected</w>
dist ingu
distr acted</w>
Hung arians</w>
fluctu ations</w>
princi ple</w>
Identi ty</w>
Emplo yed</w>
12 th-graders</w>
Go v
Sand y</w>
orit y
predic t</w>
widen ing</w>
Ed ward</w>
La ws</w>
list en</w>
Ho stilities</w>
expl ain</w>
week end</w>
With out</w>
Bur kina</w>
nor ms</w>
tun g</w>
important to</w>
Guatemal an</w>
Foreign -
Out side</w>
ple ase</w>
oppon ent</w>
emer gency</w>
View ership</w>
Fa thers</w>
Ste ady</w>
slow down</w>
sim ple</w>
compri sed</w>
acces sed</w>
scre ens</w>
Scienti fic</w>
7, 9
lab el</w>
illin gs</w>
Eff ect</w>
assig n</w>
Overwhel mingly</w>
El sewhere</w>
bri d
caregi ver</w>
acqu i
adv oc
consequ ence</w>
vehic le</w>
English /Spanish</w>
cr yp
hal f-
Quar ter</w>
break down</w>
wel coming</w>
intelli gent</w>
critici zed</w>
experim ental</w>
yi el
rio ts</w>
Extre mi
Extre mism</w>
missi on
Sel fi
insul ts</w>
insul ting</w>
mater i
Famili es</w>
Hu ck
mand ate</w>
conventi onal</w>
conventi onally</w>
highligh ted</w>
wed ding</w>
pho to</w>
Spani ards</w>
celeb rate</w>
ero sion</w>
implan ted</w>
perspec tive</w>
outweigh ed</w>
Priv ate</w>
deterior ated</w>
Speci fically</w>
Industri al</w>
algorith ms</w>
DA Y</w>
Ev ents</w>
Gar ner</w>
fini shed</w>
steep ly</w>
Ethiop ia</w>
Ur ban</w>
arti ficial</w>
dep th</w>
ultim ately</w>
fai ths</w>
cumb ent</w>
Blo omberg</w>
Boo m</w>
faste st-growing</w>
custom ers</w>
herit age</w>
Trib une</w>
Substan tial</w>
Pessi mism</w>
Tak en</w>
intro duc
rog ant</w>
puni shment</w>
incumb ent</w>
meaning ful</w>
Cauc us</w>
Back ground</w>
Gab riel
Gir ls</w>
Mone tary</w>
ygam y</w>
tivi ties</w>
stol en</w>
channe ls</w>
stere otyp
military force</w>
crowd funding</w>
Eisenh ower</w>
suscepti ble</w>
Bap ti
Fas o</w>
Kas ich</w>
Lon don</w>
Rubi o</w>
Sinc lair</w>
bail out</w>
tour nament</w>
impul sive</w>
Huck abee</w>
Gabriel le</w>
, 4
- 1</w>
- level</w>
0 7</w>
0 0s</w>
1 2.5</w>
2 100</w>
3 9
9 99</w>
A P</w>
A be</w>
A ssi
A sy
B h
B P</w>
B ay</w>
C y
C re
C ha
C ons</w>
C AR
D at
D ACA</w>
E valu
F is
F loy
F SU</w>
G aps</w>
G rows</w>
H e</w>
I R</w>
I te
J ack
K i
K or
K nows</w>
L un
L es
L ines</w>
M ade</w>
M us</w>
M ide
N ati
N ec
N ex
N ation
O U
O r</w>
O ff</w>
P U
P ast</w>
R e</w>
R adi
R ather</w>
S ar
S ab
S ot
S qu
S ant
T V
T TI
W W
W r
W an
W ere</w>
W age</w>
W oods</w>
X L</w>
a stron
a ves
b others</w>
c ra
c ross</w>
d -</w>
d ar
d rones</w>
e ties</w>
e ase</w>
e ech</w>
e uro</w>
e aves
f i</w>
f of</w>
f ect</w>
f ought</w>
f tung</w>
g ated</w>
i or</w>
i ties</w>
i shed</w>
k o
k i</w>
k down</w>
k illings</w>
l -
l er</w>
l ly</w>
l le</w>
l out</w>
l one
l ady</w>
l ation-adjusted</w>
m on</w>
n av
p al</w>
r ant</w>
r ounded</w>
s lots</w>
t s
t une</w>
t lantic</w>
u n</w>
u u</w>
u sa
u ne
w wo</w>
z -
th ening</w>
an sas</w>
er as</w>
er ts</w>
er ge
er ia</w>
ar d
ar my</w>
ti zed</w>
ti on-
ti ff</w>
ti ghter</w>
en der</w>
en rich
en cryp
ou x</w>
re sc
re serv
re min
re cip
re jected</w>
re gained</w>
re luc
li kes</w>
sa lar
sa vings</w>
at omic</w>
at titude</w>
al a</w>
al ong
al way
it arian</w>
ro les</w>
the at
st al
st at</w>
st ep
om ayor</w>
ati tude</w>
ic ult</w>
ac com
si bility</w>
su perior</w>
ne ys</w>
ri val
mo sity</w>
ver ed</w>
ad an</w>
ad ding</w>
se -
se a</w>
se work</w>
pu ts</w>
pu tting</w>
20 .
con secu
ha fi</w>
sh im
sh andling</w>
oun s</w>
de st
publi shing</w>
Re venue</w>
Th om
Th en</w>
Th ur
Th em
Th ink</w>
par liam
be st
be ar</w>
op t</w>
ul l</w>
ul ed</w>
ul ative</w>
el sen</w>
pro li
pro ve</w>
ma y
ma ps</w>
ma xim
tr acks</w>
por tive</w>
ex ag
ex cited</w>
un successful</w>
as ka</w>
im plant</w>
over -
ear ns</w>
ke t
lin g
gr av
gr atitude</w>
-in ter
is i</w>
is ed</w>
-in- three</w>
rec re
ra structure</w>
acc used</w>
fe males</w>
inter vention</w>
te am</w>
es -
es cap
mig rated</w>
Hisp a</w>
Ch ec
favor ite</w>
Tr end</w>
Tr acking</w>
pri ority
19 46</w>
19 72</w>
em br
fin ance</w>
sc ar
sc ow</w>
popul ated</w>
high est
high er-
Con nec
Con sequ
do or</w>
off ended</w>
off enders</w>
ru pt</w>
pres ented</w>
quar ter-
ster ing</w>
divi sive</w>
Mo scow</w>
Par ent</w>
shar pest</w>
conduc ts</w>
pers onal
St able</w>
ill er</w>
fac tories</w>
fir ing</w>
fir ms</w>
Pre fer
Af D</w>
disa bility</w>
sig nature</w>
Pro duc
Pro gress</w>
Vi de
ssi vely</w>
sci ence-
cri tics</w>
analy sts</w>
colle ague</w>
co ast
ari zation</w>
exp ands</w>
Per u</w>
Per form
inf low</w>
inf rastructure</w>
agre eing</w>
Ma king</w>
loc ated</w>
loc ation-
ore ver</w>
oppo ses</w>
offic es</w>
authori z
eigh t-
To gether</w>
ed uled</w>
influ ential</w>
influ encing</w>
Au stri
Dec reas
impro ves</w>
We alth</w>
non- users</w>
non- gun</w>
non- English</w>
three- year</w>
three- to-
expres sion</w>
Le an
Le ads</w>
Le aks</w>
tit e</w>
stat e-
lec ting</w>
ous ness</w>
Fe der
Sup portive</w>
Al ber
comparis ons</w>
Bu il
ho b
att acked</w>
US S
foc using</w>
Sy nthetic</w>
democ racies</w>
resi ding</w>
Eng agement</w>
Sh r
Sh or
Rec ei
Bo ko</w>
Sti ftung</w>
end ar</w>
even -
not ing</w>
direc tor</w>
sexu als</w>
path y</w>
nomin ating</w>
disc re
school -
school work</w>
Isl anders</w>
year- olds</w>
Acc ess</w>
Pri ority</w>
Ver y/
asses sing</w>
nin th</w>
6. 8</w>
1, 9
foreign ers</w>
Two -
long er-
Lar gely</w>
ren e</w>
disp er
disp arities</w>
civi c</w>
chur ch
Lib by</w>
7. 8</w>
rul ed</w>
Mar co</w>
9. 4</w>
9. 8</w>
comb ination</w>
care ful</w>
Educ ated</w>
jud icial</w>
dru g
vis iting</w>
nation alities</w>
inten sely</w>
8. 8</w>
very /</w>
Diff icult</w>
Compar is
lac king</w>
s- up</w>
acter istics</w>
Si oux</w>
well- educated</w>
ici pal</w>
exi stence</w>
ban k</w>
any where</w>
adver tisers</w>
second- highest</w>
Divi des</w>
hosp ital</w>
pic ked</w>
U.S.- German</w>
Ser i
Gi ve</w>
aw a
Colle ge-educated</w>
appropri ations</w>
wa ves</w>
post secondary</w>
priori tized</w>
Justi fied</w>
pre- emp
prepar ing</w>
10. 7</w>
11. 3</w>
11. 9</w>
attribu tes</w>
pon ents</w>
pon tiff</w>
deep er</w>
deep ening</w>
bur ning</w>
safe ly</w>
ech es</w>
near s</w>
near est</w>
employ ment
full -</w>
Har am</w>
Vir tually</w>
reta ined</w>
reta ilers</w>
Ear lier</w>
Off shore</w>
don ations</w>
menti oning</w>
excee ding</w>
oper ations</w>
Congre sses</w>
legislat ure</w>
sugge sted</w>
persi stent</w>
Gener ations</w>
Fri end</w>
Shar es</w>
Ukraini an</w>
Go ing</w>
origin ally</w>
origin ated</w>
SN S</w>
Ariz .</w>
Estim ates</w>
Ni elsen</w>
Ho sn
tempor arily</w>
Je b</w>
holi days</w>
mirr ored</w>
embar r
digit ally</w>
renew ed</w>
Wide ly</w>
batt le
alleg ed</w>
load ing</w>
Ber lin</w>
Char acteristics</w>
Continu e</w>
Stud ent</w>
MO RE</w>
Mig rants</w>
frac king</w>
Institu te</w>
Protec ting</w>
Pr ince</w>
flag ge
flag ged</w>
experim ent</w>
disappoin ting</w>
cat ching</w>
adequ ately</w>
fail ure</w>
Environ ment</w>
mater ial</w>
Optim istic</w>
arrange ment</w>
If you</w>
UN HC
tum bled</w>
conten tious</w>
feat ured</w>
Multi racial</w>
LO OO</w>
uph eld</w>
prece ding</w>
confer ence</w>
toler ant</w>
presidential election</w>
Tro ops</w>
a/ an</w>
diagno sed</w>
pod casts</w>
movi es</w>
Demograph ic</w>
forec lo
Up per-income</w>
tag s</w>
vali dated</w>
revi sed</w>
agric ulture</w>
trust worthy</w>
calcul ated</w>
Effor ts</w>
Techno logy</w>
Ram adan</w>
Rul ings</w>
Ref lecting</w>
fortun es</w>
Streng thening</w>
anonym ous</w>
Bene fits</w>
Gor such</w>
ofe ligible</w>
psy cho
rus h</w>
dele ted</w>
explan ations</w>
peace fully</w>
supp lies</w>
Compu ter</w>
49 -year-olds</w>
Cer tain</w>
Cap it
Kur ds</w>
Mot ors</w>
canc er</w>
stak es</w>
lef t-
deliber ately</w>
elder ly</w>
progre ssively</w>
unin sured</w>
Inf lation</w>
child bearing</w>
Muslim -majority</w>
newsc asts</w>
subur bs</w>
benef ited</w>
Bow l</w>
Evi dence</w>
Gad hafi</w>
Nev ada</w>
his job</w>
tac tics</w>
academ ic</w>
addi tives</w>
veter an</w>
trag edy</w>
Intelli gence</w>
affir m
substitu tes</w>
Enthusias m</w>
John son</w>
half- century</w>
Selfi dentified</w>
Asy lum</w>
Bh ut
Fis cal</w>
Floy d</w>
Jack son</w>
Les bi
Mide ast</w>
PU BL
Radi o</w>
Sot omayor</w>
Sant a</w>
WW II</w>
lone ly</w>
enrich ment</w>
reserv ations</w>
recip i
salar ies</w>
along side</w>
accom mo
consecu tive</w>
shim a</w>
Them selves</w>
priority for</w>
Consequ ently</w>
Prefer ences</w>
science- related</w>
Austri a</w>
three-to- one</w>
pre-emp tive</w>
Hosn i</w>
UNHC R</w>
' t
- F
- Palestinian</w>
. S</w>
/ or</w>
0 2</w>
1 4.8</w>
3 3
3 4
3 5
3 7
3 1-
4 3
6 4
A A</w>
A gen
A war
A head</w>
A ppen
A TI
B C
B I
C at
C ro
C are
D o
D .</w>
D ali
D own</w>
D ad</w>
D oc
D ak
E P</w>
F F
F ru
F ace</w>
F requ
G 7</w>
G ore</w>
G SS</w>
H S</w>
I T
I Q</w>
I rene</w>
J am
J ong</w>
J im
L TS</w>
M es
M inu
M ind</w>
M oms</w>
N -
O M
O pen
O il</w>
P ot
P ent
Q 4</w>
R ou
R ud
S S
S T</w>
S an
S light</w>
T R
T en
T si
T able</w>
T ow
T ran
T ops</w>
T ypology</w>
U ber</w>
V ary</w>
a ust</w>
b re
b oun
b acks</w>
b read
b ath</w>
c c
c tion</w>
c rit
c esses</w>
d /
d y
d ing
d van
d ness</w>
e .
e sted</w>
e fs</w>
e worthy</w>
f o</w>
f are</w>
f iling</w>
g a</w>
g ins</w>
h ands</w>
h ypo
h ani</w>
h uge</w>
j in</w>
j job</w>
k h
k ingdom</w>
k nows</w>
l or</w>
l ent</w>
m i</w>
m bly</w>
n it
n ad
n ur
n ah
n onetheless</w>
o x
o de</w>
p tive</w>
r .</w>
r on</w>
r ad
r ative</w>
s a</w>
s me
s sion</w>
s outh</w>
s ought</w>
s ored</w>
s tick</w>
s App</w>
t ational</w>
u ri
v ul
v ail
v arying</w>
y —
z i</w>
á vez</w>
th umb
in no
in qu
in stant</w>
in stances</w>
in appropriate</w>
in efficient</w>
an /
an o</w>
er ro
er ity</w>
ar tic
ar ming</w>
ar rogant</w>
ti ers</w>
on ies</w>
en thood</w>
en erge
ou tw
ou red</w>
re member</w>
re al-
re signed</w>
re built</w>
re entry</w>
li ms</w>
at tr
at ures</w>
at ory</w>
al situation</w>
al lied</w>
al erts</w>
st a</w>
st ment</w>
om ed</w>
ati ble</w>
ac knowled
ec ho
si t</w>
ab out
lo p
le ment
di a</w>
di stan
di ox
su spect</w>
su dden</w>
ne s
ri c</w>
mo il</w>
mo vements</w>
ver -
se arch
pu n
20 ,000</w>
am ani
ol a</w>
de a</w>
de sc
de sign</w>
il ty</w>
il ors</w>
Re actions</w>
par ent
par ity</w>
ve l</w>
ve ge
com memor
ul a</w>
ent rants</w>
pro per</w>
ma themati
tr ay</w>
por tray</w>
pre tend</w>
pre valence</w>
us s-
ex er
ex ha
ex act</w>
ex ports</w>
un its</w>
un certain</w>
un comfortable</w>
as tically</w>
as signed</w>
ch i</w>
coun tr
we stern</w>
me tric</w>
sur y</w>
um s</w>
per mit</w>
per fect</w>
gi fts</w>
fa il</w>
gr and</w>
-in cumbent</w>
for -
inc enti
rec over</w>
fe ver</w>
fe et</w>
fe mini
In vol
str o</w>
str ative</w>
inter ven
tri als</w>
ran dom
Ch ávez</w>
pl agu
sid ers</w>
Tr u
sup er</w>
rea li
rea lity</w>
rea sury</w>
grou p
stor s</w>
bet ter
19 66</w>
19 30s</w>
of people</w>
sc oring</w>
Con tent</w>
ten s</w>
ten ed</w>
ten sion</w>
soci o
soci al-
ni e</w>
rel ating</w>
la ss</w>
la sting</w>
differ ing</w>
ep is
num erous</w>
some what
all y-
off ull
tur moil</w>
An ger</w>
An dro
An na</w>
form ly</w>
min ent</w>
min ded</w>
Par t</w>
ani mosity</w>
tim ate</w>
gener ate</w>
St an
au ts</w>
au ton
fir st-</w>
and /or</w>
Un affiliated</w>
Un til</w>
spon sored</w>
hou sework</w>
two -in-three</w>
Lat er</w>
parti ally</w>
Mexic an-origin</w>
har med</w>
e- cigarett
disa pp
sub set</w>
sub sidies</w>
Pro gram</w>
sel ecting</w>
sel ection</w>
cor responding</w>
comp atible</w>
sch eduled</w>
analy tical</w>
gu ide
gu ides</w>
sho t</w>
ven d
co st
co exist</w>
co efficient</w>
exp ects</w>
Me thodology</w>
inf ected</w>
inf lation-adjusted</w>
mid night</w>
mi stake</w>
Ma in
Ca stro</w>
contr asts</w>
speci alty</w>
uni formly</w>
loc aust</w>
oppo sit
authori zation</w>
eigh th-graders</w>
adm it</w>
brea ks</w>
cle ar-
bu b
with standing</w>
Afric an-Americans</w>
nu tri
En nah
imp lement
descri ption</w>
Dec ade</w>
spe eches</w>
non- STEM</w>
Di sp
them es</w>
Im medi
Oc ean</w>
mat ch
pr as</w>
Com b
Com position</w>
Al aska</w>
bal anc
bal ances</w>
vol ume</w>
ho sting</w>
grap h</w>
Prote stan
gradu ally</w>
gradu ating</w>
ord ers</w>
Wor th</w>
Wor ries</w>
NA EP</w>
Gen e</w>
Ad v
Ad ult</w>
Sh utdown</w>
Sh erro
Rec ently</w>
man age</w>
man aging</w>
conflic ting</w>
Sen iors</w>
dev ast
ful filling</w>
char ts</w>
possi bly</w>
Col umb
mis leading</w>
end -of-
not shown</w>
not eworthy</w>
not withstanding</w>
wat ers</w>
ther e
direc ted</w>
direc tions</w>
direc tors</w>
too /
U.S. /
ber ts</w>
work places</w>
18 +</w>
Sa ying</w>
reach es</w>
invol ves</w>
Afgh an</w>
comple x</w>
plac ement</w>
cul tures</w>
Bra in</w>
sym pathetic</w>
6. 1</w>
6. 4</w>
1, 4
Ph il
eli minated</w>
Pol ls</w>
Pol arization</w>
mid- term</w>
activi sm</w>
Chan nel</w>
particip ating</w>
nar rative</w>
y- related</w>
Sec ure</w>
recover s</w>
TE D</w>
Mar sh
rese m
anti- American</w>
comb ining</w>
Some times</w>
reli ant</w>
reli eved</w>
an- Origin</w>
jud gment</w>
jud gments</w>
reflec tion</w>
assi stants</w>
vir tual</w>
nation ality</w>
cou p</w>
inten si
siz es</w>
believ ing</w>
8. 3</w>
dom ains</w>
ant i</w>
Posi tions</w>
lac ked</w>
well- off</w>
50 -</w>
New t</w>
stre ets</w>
sli de</w>
diplom acy</w>
exi sting</w>
tion ary</w>
execu tives</w>
web -using</w>
Lead ership</w>
character istic</w>
high- level</w>
phys ically</w>
minim um-
pic k</w>
life style</w>
For t</w>
appe tite</w>
natur aliz
osexu als</w>
constitu tion</w>
constitu tes</w>
mode ls</w>
Co operation</w>
pea ks</w>
Bl ame</w>
tab lets</w>
Shi ft</w>
enh ance</w>
Israeli -Palestinian</w>
prepar ed</w>
choo sing</w>
Dis satisfied</w>
10. 5</w>
11. 2</w>
stag n
Ro berts</w>
assa ults</w>
collec tive</w>
Min or</w>
alter ed</w>
alter natives</w>
near by</w>
cyber security</w>
cyber bullying</w>
Fi eld</w>
AC S</w>
Ow ners</w>
promo tions</w>
Fin ally</w>
fil ings</w>
cen su
IC AN
far ther</w>
pron ouns</w>
Olymp ic</w>
Four square</w>
suff icient</w>
don ated</w>
exclu sively</w>
12 ,000</w>
exten ded</w>
friend ship</w>
friend ships</w>
determin ing</w>
40 0,000</w>
enjo ys</w>
Mon day</w>
hop ed</w>
cal endar</w>
Pan amani
Pen n</w>
pap ers</w>
quic k</w>
list ening</w>
Em manu
Ho locaust</w>
electr icity</w>
commer ci
Liber ties</w>
accomp lish</w>
numb ering</w>
important for</w>
Foreign -</w>
aver aging</w>
trad e-
raci al
hab it
27 ,000</w>
Iraq is</w>
Beli ef</w>
claim ing</w>
job less</w>
Nic ole</w>
pursu ing</w>
electron ics</w>
Buddhi st</w>
Ber nie</w>
vor a</w>
Jordani an</w>
Evangelic als</w>
Ka hn</w>
president -elect</w>
Continu ing</w>
internet users</w>
less ly</w>
Big gest</w>
frac tion</w>
pati ent</w>
six th</w>
Impro ving</w>
establish ment</w>
Ideo logy</w>
disappoin ted</w>
Mac ron</w>
state hood</w>
state house</w>
fundam entally</w>
CE S</w>
Dr one</w>
Know ledge</w>
ram page</w>
attor neys</w>
recommend ation</w>
deli vered</w>
mun icipal</w>
Newspap ers</w>
targe ted</w>
Bas is</w>
Stri kes</w>
fit ness</w>
ubi qu
feat ures</w>
pho on</w>
NEE T</w>
NEE Ts</w>
cohabit ation</w>
brow ser</w>
argum ent</w>
repe al</w>
conven tions</w>
concep t</w>
concep ts</w>
ent/ Good</w>
much /
coinci ded</w>
coinci des</w>
ber- Stiftung</w>
2,00 3</w>
App lic
Sto ck</w>
blog s</w>
What sApp</w>
Nee ds</w>
Nee ded</w>
Colombi ans</w>
Sympath ize</w>
SP M</w>
fli pped</w>
inju red</w>
ambi valent</w>
hau l</w>
belong ing</w>
Deport ations</w>
outpac ing</w>
Dom estic</w>
Lan gu
mag nit
your self</w>
incor rec
English- speaking</w>
Long -
TO DAY</w>
enem y</w>
Reas ons</w>
Defin itely</w>
exhi bit</w>
overshad owed</w>
escal ating</w>
Analy sis</w>
campu s</w>
Signific ant</w>
i. e.</w>
mani pul
intru sive</w>
Resi dents</w>
Proposa ls</w>
Commun ic
Ah mad
Stra uss-
cop y</w>
gall on</w>
won der</w>
dedic ated</w>
Reduc ing</w>
survi ve</w>
doz en</w>
Execu tive</w>
antibio tics</w>
materi als</w>
introduc ed</w>
Evalu ations</w>
Nex star</w>
Sar ah</w>
Sab bath</w>
TTI P</w>
astron auts</w>
eaves dropping</w>
resc ue</w>
reluc tant</w>
parliam entary</w>
maxim um</w>
-inter net</w>
personal freedoms</w>
coast line</w>
Perform ance</w>
USS R</w>
even- tempered</w>
Seri ous</w>
battle ground</w>
psycho logical</w>
accommo dation</w>
Awar eness</w>
Appen dix</w>
Dak ota</w>
Jim my</w>
Pot ential</w>
Rou hani</w>
Rud y</w>
Tsi pras</w>
crit eria</w>
nad oes</w>
sme tic</w>
vul ner
thumb s-up</w>
energe tic</w>
real- world</w>
attr act</w>
distan cing</w>
diox ide</w>
vege tables</w>
incenti ves</w>
femini st</w>
disapp ear
Ennah da</w>
Sherro d</w>
Columb ine</w>
minimum- wage</w>
Emmanu el</w>
magnit ude</w>
Strauss- Kahn</w>
' k</w>
' nones</w>
- April</w>
- again</w>
- neutral</w>
- and-
. -
. 3</w>
. following</w>
. 25-</w>
/ Latino</w>
/ ethnic</w>
1 30</w>
1 14</w>
1 2.8</w>
1 3.4</w>
2 n
2 2.2</w>
2 6-
3 th</w>
4 7
4 35</w>
5 0s</w>
8 -</w>
8 5,000</w>
A g
A II</w>
B A</w>
B ac
B eng
B lack
C l
C ore</w>
C ould</w>
C ir
C leve
C rown</w>
D -
D on
D one</w>
D PP</w>
E R
E st
E ric</w>
F er
F erg
F ail
F ind</w>
F ears</w>
G one</w>
G ates</w>
G row</w>
H E
H er
H er</w>
H ood</w>
H app
H olds</w>
H BC
I L
I N</w>
I ke</w>
J u
J om
K entu
K yi
L y
L ong</w>
L ula</w>
M ood</w>
M irr
N our</w>
N ine</w>
O L</w>
O be
O ther
P ut</w>
P ow
P lan
R on</w>
R oo
R ated</w>
S po
S ha
S ev
S pending</w>
S onia</w>
S isi</w>
T H</w>
T ot
T ext</w>
T reasury</w>
U n</w>
V ol
V acc
V ice</w>
W E
W a
W ell
W ed
Y a
a c</w>
a sting</w>
a .m.</w>
b a</w>
b on
b id</w>
b other</w>
b us</w>
b right</w>
b lock</w>
c ky</w>
d able</w>
d well
d win
e g
e ast</w>
e ds</w>
e de</w>
e yes</w>
f ing</w>
f ra
f ran
f light</w>
g al
g ro
h i</w>
h ran</w>
i est</w>
j un
j ump</w>
j ournal</w>
k y
k able</w>
k ings</w>
k fulness</w>
k ansas</w>
l t</w>
l one</w>
l ates</w>
l eng
l ame</w>
m el
o dy</w>
p se</w>
p ha
p id</w>
r ay</w>
r using</w>
r ys
r era</w>
r nment</w>
s y</w>
s /</w>
s lot</w>
s well
s ick</w>
t ti
t ably</w>
t place</w>
t enth</w>
u gh</w>
v a</w>
v ation</w>
w ed</w>
w alking</w>
y al</w>
y os</w>
y ota</w>
z es</w>
— the</w>
— and</w>
th -</w>
in t
in each</w>
in side</w>
in tend</w>
ar ate</w>
ti le</w>
ti fic
en on</w>
en om
en su
or ney</w>
ou ster</w>
re n</w>
re be
re sum
re source</w>
re less-
re pair</w>
sa telli
sa ilors</w>
al um
it -
it ous</w>
ro ads</w>
the following</w>
the .following</w>
st ays</w>
om ed
ic a</w>
ac u
ac tors</w>
ac knowledge</w>
si on
si zed</w>
si mul
si oned</w>
si ght</w>
ab and
ab les</w>
lo we
di sm
di versi
di men
po s
po ol</w>
po ised</w>
su e</w>
ne sday</w>
ne ver-
ri que</w>
mo bility</w>
mo squ
ad ing</w>
ad el
ad apt</w>
ad ole
se ssions</w>
pu rely</w>
20 1</w>
ag es
con spir
con taining</w>
con tained</w>
ha r</w>
ha zi</w>
vi ous</w>
sh u
sh rank</w>
de sig
de emed</w>
publi ci
publi sh</w>
Re li
Re mo
Re ported</w>
Re mittances</w>
sp ends</w>
sp read
sp am</w>
par alle
par liament</w>
be half</w>
com pen
ot -
op t-
ul ations</w>
el iness</w>
201 0
ent /</w>
pro ved</w>
pro mp
pro fit
pro cesses</w>
tr aff
tr apped</w>
us on</w>
us tion</w>
fi ed
De pres
De gree</w>
ex hau
un ch</w>
un clear</w>
un lawful</w>
un partnered</w>
un authoriz
as ser
im possible</w>
im pover
ch e
ci sc
ci bly</w>
public an</w>
ear ners</w>
me et
sur ges</w>
um p
ap er</w>
ap plying</w>
gi ant</w>
pe dia</w>
low ered</w>
low er-
qu in
oo k
Democrat s/
rec k
econom ics</w>
acc ord</w>
ge -</w>
duc k</w>
In comes</w>
str y-
inter racial</w>
te sti
lu e</w>
es it
Ch i
Ch rys
gen der
sup port
pri se</w>
so ared</w>
so cc
stor m</w>
bet ter-
19 28</w>
19 40</w>
19 39</w>
em in
of their</w>
of social</w>
of refugees</w>
rati os</w>
Con n
Con vention</w>
ali ve</w>
ali ze</w>
ph ia</w>
ph enom
cont ex
stan d-
rel ates</w>
la ying</w>
he at</w>
spec ulation</w>
sti ci
some time</w>
fu eled</w>
cent en
cent er-
ru de</w>
ru ption</w>
An y</w>
form ed</w>
form ats</w>
min ers</w>
min ism</w>
lic k</w>
Mo m</w>
Mo di
Mo tiv
Mo ham
Par k</w>
col oured</w>
out spoken</w>
dre ssing</w>
shar ers</w>
Euro stat</w>
enti ties</w>
Inter nationally</w>
Inter ests</w>
cam eras</w>
fac es</w>
fac ilit
neg atives</w>
Un fa</w>
eb b</w>
plo t</w>
main tains</w>
Pre ference</w>
curr ent
e- Sex</w>
mon y</w>
disa dvan
inu m</w>
new com
der i
der ing</w>
Pro t</w>
ste in</w>
ste al</w>
ste el</w>
ste em</w>
ric her</w>
fam il
cri mination</w>
gu ilty</w>
sho p</w>
milit arily</w>
co -
co smetic</w>
Po lish</w>
On ce</w>
bi sexuals</w>
four ths</w>
pp er</w>
eng ine
Ac tive</w>
Ac tivity</w>
Ac tivities</w>
contr asting</w>
speci alists</w>
Ar kansas</w>
equ als</w>
exam ining</w>
aff air</w>
cle an</w>
To ky
To yota</w>
cour age</w>
Li b</w>
recei pts</w>
ed itors</w>
lat eral</w>
clim bing</w>
repor ter</w>
mem ber
Hou ston</w>
We althy</w>
non- Muslims</w>
non- Mexicans</w>
ess ary</w>
Catho lici
Su spected</w>
three- fourths</w>
app ing</w>
Fran cisc
broad casting</w>
cep t</w>
sever ely</w>
Oc t</w>
nex t-
dis rupt</w>
wide ly-
Sup ple
pr o</w>
Com p
Com mission
Al ter
Al liance</w>
pol i</w>
pol ygamy</w>
bal lo
ho sti
arri ve</w>
foc uses</w>
view of</w>
10 2</w>
vari ance</w>
Ex am
Ex per
Ex press</w>
Ex ception</w>
Ex cept</w>
graph ic</w>
marke tplace</w>
Wor ldwide</w>
under ground</w>
under lying</w>
one-in- seven</w>
dr astically</w>
tor um</w>
tor nadoes</w>
Eng aged</w>
Eng ineering</w>
Bar rera</w>
Cour t
viol ations</w>
Op posed</w>
indu stry-
Tw ice</w>
advan cement</w>
star ker</w>
Syri ans</w>
So chi</w>
know ingly</w>
haras sing</w>
stud ying</w>
198 2</w>
198 4</w>
bo ts</w>
congre g
Vot es</w>
produc ing</w>
bud get
nomin ations</w>
anti -incumbent</w>
prefer ring</w>
work -related</w>
18 -
Afgh ans</w>
Te hran</w>
mor e-
amati c</w>
legi timate</w>
alth iest</w>
excell ent/
year- to-
Ver y
6. 2</w>
1, 3
1, 7
ob taining</w>
-to- day</w>
restric t</w>
vide ographers</w>
Poli tically</w>
hom icides</w>
hom osexuals</w>
mid- June</w>
mid- July</w>
Ne ar</w>
Indone sian</w>
shor ter</w>
shor tages</w>
down sides</w>
down loading</w>
discri minated</w>
rol lout</w>
7. 2</w>
7. 9</w>
TE RT
one- fourth</w>
Yor k-
ca using</w>
associ ation</w>
Excell ent/Good</w>
Mar ks</w>
aci ties</w>
led ged</w>
Comm union</w>
Comm unist</w>
anti- Muslim</w>
anti- American
0. 1</w>
self- employed</w>
spea ks</w>
As se
Ric k</w>
care giving</w>
land mark</w>
occup ational</w>
assi st</w>
ai res</w>
al- Assad</w>
al- Nour</w>
8. 1</w>
Diff er</w>
Diff ering</w>
tran spar
Venezuel an</w>
well- known</w>
50 0,000</w>
rais es</w>
Israel and</w>
stoc ks</w>
11 3th</w>
Str ic
prac tical</w>
RE AG
RE PUBL
open ed</w>
open ly</w>
execu ted</w>
boo k
minim izing</w>
wan ed</w>
wan ing</w>
1,00 2</w>
1,00 5</w>
For um</w>
Gr ads</w>
2, 3
Co hn</w>
mp 3</w>
ss ential</w>
hospit ality</w>
Wi -F
Wi reless-
Argent ine</w>
Argent ine
3, 7
hur ts</w>
pi ece</w>
Tex ting</w>
gar ner</w>
Percent ages</w>
evalu ation</w>
evalu ated</w>
solu tions</w>
Ap pe
arre sted</w>
Chil d</w>
volun tary</w>
Dis crimination</w>
10. 2</w>
10. 3</w>
attribu tion</w>
Ro bert</w>
sent encing</w>
collec tively</w>
16 ,
ech o</w>
promo tes</w>
scand als</w>
Fin land</w>
Respon se</w>
far es</w>
promin ently</w>
bul lied</w>
suff ering</w>
FIGURE 3</w>
Iran ians</w>
Off icers</w>
exclu des</w>
12 -point</w>
inst alled</w>
inst alling</w>
exten sion</w>
cust ody</w>
if the</w>
if they</w>
Deb ates</w>
cau tious</w>
strat ors</w>
alig ns</w>
monit ored</w>
Medic aid</w>
practi tion
24 -year-old</w>
Domin ates</w>
trave ling</w>
La ur
Ni x
in- depth</w>
enhanc ing</w>
dam age</w>
Lo sing</w>
Sene gal
cro ps</w>
cro ssing</w>
tun ed</w>
important role</w>
ed- immigrant</w>
Je sus</w>
aver ages</w>
lag ging</w>
Lu h
compri sing</w>
acces sible</w>
Ques tions</w>
Tra ditional</w>
awar ded</w>
lab eling</w>
mitt ance</w>
concent rate</w>
concent ration</w>
promis ing</w>
phot ographers</w>
less- only</w>
claim ed</w>
abin et
job -related</w>
Associ ated</w>
ast ro
Post /ABC</w>
Br its</w>
hun ting</w>
Man u
Char t</w>
Tele mun
Non white</w>
Non whites</w>
techni que</w>
less ons</w>
MO C
Sam e-Sex</w>
Ta king</w>
Ta xes</w>
argu e</w>
demon st
Impro ve</w>
depres sive</w>
weak ened</w>
grand children</w>
laun ch</w>
warme st</w>
wire less-only</w>
critici ze</w>
disappoin tment</w>
guaran te
worsen ing</w>
of- center</w>
discour se</w>
Dr amatic</w>
Sel f-
liz ing</w>
mill ennial</w>
Famili ar</w>
fat alities</w>
Viol ent</w>
compon ents</w>
Asses sment</w>
magaz ine</w>
loy al</w>
hash tags</w>
prosecu tors</w>
highligh ts</w>
Bas har</w>
Stri kingly</w>
day -to-day</w>
sor t</w>
cham bers</w>
Star k</w>
coali tions</w>
Spani sh-
clin ical</w>
argum ents</w>
conven i
spar ked</w>
prece ded</w>
implan ting</w>
perspec tives</w>
first- time</w>
Peruvi ans</w>
Leg alization</w>
confron tations</w>
birth place</w>
Priv acy</w>
toler ance</w>
Dri lling</w>
Sto cks</w>
Tro op</w>
blog gers</w>
sla very</w>
than kfulness</w>
inte g
diagno sis</w>
pod cast</w>
movi e</w>
fire arm</w>
assum ed</w>
geo engineering</w>
Ecuadori an</w>
DE MOC
Dru g</w>
Ri ver</w>
SP D</w>
inju ries</w>
anxi ety</w>
Deport ation</w>
initi ative</w>
Suc cess</w>
smartphone- only</w>
News week</w>
outpac ed</w>
JO LTS</w>
ros s-
age ous</w>
presum ably</w>
presum ptive</w>
denomin ation</w>
Individu al</w>
Wiki Leaks</w>
Wiki pedia</w>
Gonz ales</w>
Gonz ale
AI G</w>
Tay lor</w>
regre ssion</w>
peop les</w>
Inve stment</w>
take over</w>
born e</w>
fact- based</w>
record- low</w>
Att orney</w>
Dra ws</w>
Low er-income</w>
lon eliness</w>
swee ping</w>
real m</w>
sil lu
Adver tising</w>
human itarian</w>
collabor ation</w>
transa tlantic</w>
misunder stood</w>
incarcer ation</w>
80 0,000</w>
Cou ples</w>
Hil ton</w>
Plat form</w>
Tre at
Tem er</w>
unanim ous</w>
geograph ic</w>
Inclu des</w>
occa sion</w>
patrio tic</w>
Gov 't</w>
Foreign- Born</w>
acqui si
Cy ber
CAR TER</w>
Lun ar</w>
Nati onally</w>
Nec essary</w>
Nation wide</w>
z- Barrera</w>
remin ders</w>
alway s/
theat er</w>
step ped</w>
Thur sday</w>
proli fic</w>
exag g
recre ational</w>
embr yos</w>
highest -
quarter- century</w>
Vide o</w>
location- based</w>
Decreas ed</w>
longer- term</w>
Comparis on</w>
embarr assment</w>
affirm ative</w>
FF USS</w>
San torum</w>
bread winner</w>
dy nam
hypo thetical</w>
an/ Pacific</w>
lop sided</w>
desc endants</w>
exer ci
exha ustion</w>
random ly</w>
plagu ed</w>
epis ode</w>
Andro id</w>
guide lines</w>
vend ors</w>
cost ume</w>
opposit e-sex</w>
bub ble</w>
match up</w>
Protestan tism</w>
end-of- life</w>
Phil adel
Marsh all</w>
racial /ethnic</w>
ubiqu itous</w>
Communic ation</w>
2n d</w>
Ag gre
Beng hazi</w>
Cleve land</w>
Fer tility</w>
Ferg uson</w>
Jom aa</w>
Kentu cky</w>
Kyi v</w>
Ly ft</w>
Wed nesday</w>
dwell ers</w>
resum ed</w>
alum inum</w>
omed ical</w>
never- married</w>
adole sc
conspir acy</w>
publici zed</w>
traff ic
Depres sion</w>
unauthoriz ed-immigrant</w>
meet ings</w>
gender -neutral</w>
socc er</w>
phenom enon</w>
stand- alone</w>
Moham med</w>
Toky o</w>
Catholici sm</w>
Francisc o</w>
Commission er</w>
excellent/ good</w>
anti-American ism</w>
Wi-F i</w>
Wireless- Only</w>
Senegal ese</w>
Telemun do</w>
Gonzale z-Barrera</w>
Philadel phia</w>
' s
, 6
- quarter</w>
- Year</w>
- fold</w>
. 6
. 000</w>
/ are</w>
0 f
1 -</w>
1 st</w>
1 th</w>
1 71</w>
1 3,
1 4,
1 4.7</w>
2 ,0
2 3,000</w>
2 3.7</w>
2 5.4</w>
3 2
3 -</w>
3 50</w>
4 4
6 0,000</w>
6 4,000</w>
6 4-year-olds</w>
7 4
7 5
8 0,000</w>
A le
A gr
A SN
A kin</w>
A vail
B E
B an</w>
B ag
B il
B lue</w>
C C
C H</w>
C al
C EN
C abinet
D A</w>
D I</w>
D Y</w>
D one
D ads</w>
D HS</w>
E IS
E IA</w>
E volution</w>
F J
F M</w>
F ur
F oods</w>
F anni
F ull</w>
G ove</w>
H en
H al
H op
H our</w>
H OW
H NS
I r
J .
J on
J r.</w>
K o
K EN
L ate</w>
L earning</w>
M r
M org
N ep
N ei
O N
O F</w>
P y
P ur
P ul
P ar</w>
P ris
R and</w>
R ol
R yan</w>
S U
S ear
S ites</w>
S ide</w>
S occ
S ho
S elected</w>
S ize</w>
S pea
T y
T ha
T op
T one</w>
T ies</w>
T AR
U C
U z
U .</w>
U pper</w>
V ic
V aries</w>
V arying</w>
V ER
W inf
W ave</w>
W iden
Y an
Y our
a i</w>
a ism</w>
a ica</w>
b as</w>
b le
b lowing</w>
b y-
c ed
d or
d or</w>
d -in
d war
e g</w>
e ag
e du
e ous</w>
e ased</w>
e Mar
e migrant</w>
e fly</w>
e steem</w>
f lat
f ounding</w>
g g
g y
g out</w>
g oo
g lim
g ery</w>
h o</w>
h an</w>
h ada</w>
h overed</w>
h esit
i e</w>
j ail</w>
k s
l ments</w>
m ment</w>
m ate</w>
m ency</w>
m ace
n =
n ity</w>
n igh
n uns</w>
o b</w>
o for
p t
p ter</w>
p ledged</w>
r ar
r um
r ally</w>
r right</w>
s on
s le
s from</w>
s we
s inc
s ence</w>
s s-
t i</w>
t ons</w>
t ell
t down</w>
t ack
u d</w>
u tical</w>
u ine</w>
u lic</w>
v ig
v oc
w ou
w ounded</w>
x ing</w>
x ity</w>
y r
y an
y ment
z z
z o</w>
z ak
— in</w>
— are</w>
in ks</w>
in coming</w>
in active</w>
an .
an cement</w>
an ks
er ly</w>
er ating</w>
ar ray</w>
on lin
en o</w>
en able</w>
en ses</w>
en listed</w>
en ko</w>
re y</w>
re st
re war
re tain</w>
re acting</w>
re volution</w>
re placement</w>
li f
li e</w>
li ve
li ter
li qu
li am</w>
li gent</w>
sa y
at er
at op</w>
al o
al ter</w>
it a</w>
it able</w>
it ations</w>
it ously</w>
ro c
the ft</w>
wh it
st es</w>
st ap
st ated</w>
st aff
ati a</w>
ic acy</w>
ac are</w>
si ves</w>
si ssi
ab o
ab ric
ab sence</w>
lo g</w>
lo ver</w>
lo ween</w>
le es</w>
di m</w>
di p</w>
di sillu
po se
po site</w>
su icides</w>
ri ed</w>
ri sts</w>
mo st
ad u
ad es</w>
ad ds</w>
ad just</w>
se ve
se ver</w>
20 s</w>
20 24</w>
20 68</w>
ag o
ag ents</w>
am ent</w>
am ily</w>
am work</w>
am ending</w>
am end
con stan
con sci
con struc
ol ding</w>
wit ness</w>
vi sed</w>
vi lle</w>
sh e
sh ops</w>
sh oul
sh enko</w>
de tec
de porting</w>
de lity</w>
de em</w>
il leg
il ater
Re b
Re ach</w>
Th anks
sp y</w>
sp an
sp ans</w>
Am oun
Am az
par i
par ks</w>
be a</w>
be st-
be ki
be ars</w>
com ment</w>
com posted</w>
op ening</w>
ul t-
el y/
ma sc
tr un
no ts</w>
ter y</w>
pre cip
pre dominant</w>
us -
fi able</w>
fi delity</w>
De pen
ex tra
ex cessive</w>
un necessary</w>
un usual</w>
un friended</w>
un knowingly</w>
un ilater
as sed</w>
ch em
coun ter</w>
coun sel
we ight</w>
den ied</w>
over do
ff ers</w>
ear ly-
ke ter</w>
ke warm</w>
me at</w>
sur ance</w>
sur passes</w>
sur gery</w>
ap ing</w>
gi s
gi vers</w>
gi eg</w>
adul thood</w>
fa ult</w>
qu er
gr ation</w>
surve ying</w>
is es</w>
is sioned</w>
for cing</w>
for cibly</w>
oo d-
ing e</w>
tic ks</w>
tic kets</w>
ir y</w>
ori tize</w>
ra w</w>
acc um
fe ty</w>
fe west</w>
fe minism</w>
port able</w>
compar ing</w>
inter f
ran k-
te pid</w>
te amwork</w>
Hi m</w>
Hi story</w>
lu ster</w>
es tically</w>
Ch ris</w>
pl as
tw enty</w>
gen uine</w>
sup ple
pa st
pa ir
pa ys</w>
pri vi
pri me-
id n
id ance</w>
Wh it
ta h</w>
govern ors</w>
govern mental</w>
elec tability</w>
19 -
19 7</w>
19 th</w>
19 58</w>
19 74</w>
chan cellor</w>
ser vers</w>
posi tives</w>
of online</w>
sc ant</w>
Ab u</w>
Con ference</w>
soci alizing</w>
soci alism</w>
stan ders</w>
lar ge-
mu ted</w>
thir ds</w>
la z
he a</w>
he althier</w>
bl ack
bl amed</w>
tt on</w>
off end</w>
ru pled</w>
pres ents</w>
tur key</w>
min ate</w>
lic al</w>
lic ated</w>
lic ense</w>
Par enting</w>
ani es</w>
ani ties</w>
regi sters</w>
regi stering</w>
col onies</w>
out set</w>
ga ther</w>
ga uge</w>
leg alized</w>
shar ia</w>
comm issioned</w>
enti t
St ay</w>
cam ps</w>
prob ability</w>
Russi an-
Un married</w>
depen dence</w>
depen dable</w>
Is lan
identi ties</w>
har dest</w>
har d-
e- mail</w>
e- reader</w>
mon t</w>
disa bled</w>
ell ate</w>
up dates</w>
Pro mo
Pro portion</w>
Pro spects</w>
Pro ponents</w>
Pro minent</w>
Vi sibility</w>
cor ps</w>
ssi ble</w>
own er</w>
lim itations</w>
sm an</w>
atten tive</w>
sch edu
eff icacy</w>
gu ided</w>
gu idance</w>
colle ge-</w>
co he
non political</w>
non traditional</w>
non -internet</w>
Me tro</w>
Po ssible</w>
No v</w>
Per ry</w>
Per sian</w>
inf requ
bi ennial</w>
four -to-one</w>
pp i</w>
Asi an-
Asi an-Americans</w>
Ca se-
inform ation-
cell ular</w>
uni versa
signific ance</w>
exam ination</w>
adm ission</w>
adm itting</w>
aga inst
tiz ing</w>
ong yan
consi sts</w>
bro ke</w>
cle ared</w>
cour ses</w>
ach ing</w>
ach es</w>
Indi ana</w>
with draw</w>
ed ly</w>
ed it
ed ging</w>
En d</w>
En rique</w>
tra iling</w>
tra ditionally</w>
Au dience</w>
stric ts</w>
Pe ace</w>
mem b
ris diction</w>
disappro ves</w>
non- U.S.</w>
non- college</w>
non- broadband</w>
non- Mexican</w>
non- violent</w>
non- seasonally</w>
Di ver
Di verse</w>
Di stricts</w>
Su ffers</w>
admini strative</w>
app ellate</w>
tech -
Le gis
tit le</w>
seri ousness</w>
sever ity</w>
Fe els</w>
nex t
dis content</w>
dis rup
dis liked</w>
mat tered</w>
pr ince</w>
net workers</w>
decad es-
read ership</w>
pol l
Bu tti
provi sion</w>
bal anced</w>
vol c
ho stage</w>
ref use</w>
att le</w>
regul ating</w>
regul atory</w>
10 3</w>
ju risdiction</w>
Wor k
Wor ried</w>
stri kingly</w>
resi stant</w>
resi dency</w>
tor ic</w>
Ad ju
Sh iller</w>
Cour ts</w>
hum anities</w>
3. 0</w>
Op en</w>
4. 0</w>
cum ulative</w>
perform ing</w>
sen ior</w>
mis de
mis sed</w>
mis information</w>
reduc es</w>
ther more</w>
ther ners</w>
bo ss</w>
Octo ber-
Se attle</w>
Vot ed</w>
cap abilities</w>
cap acities</w>
deal ings</w>
18 50</w>
Sa fety</w>
responsi bilities</w>
comple xity</w>
disc overed</w>
defin ing</w>
Surve illance</w>
threat of</w>
separ ating</w>
liber tari
consider ations</w>
Pri oritize</w>
Ver mont</w>
sym pt
1, 200</w>
1, 201</w>
Ph ones</w>
ob serve</w>
eli te</w>
Islam ic
dra ulic</w>
vide o-
Poli cies</w>
sk ill</w>
mid- March</w>
mid- January</w>
mid- 1970s</w>
disp lays</w>
disp arate</w>
indic ation</w>
consum ed</w>
justi fy</w>
nar rows</w>
nar din
shor t
shor t-
buil dings</w>
down beat</w>
down loaded</w>
y- June</w>
rol ling</w>
7. 7</w>
skep tics</w>
one- fifth</w>
one- sided</w>
employe e</w>
Mar ine</w>
Mar kets</w>
anti- Wall</w>
car ed</w>
run -up</w>
protec ted</w>
As k</w>
connec ting</w>
Gu ard</w>
cover s</w>
care ers</w>
Mea sured</w>
Grow n</w>
One -quarter</w>
Be low</w>
Be sides</w>
vis ors</w>
nation alist</w>
inten tion</w>
8. 9</w>
profe ssi
bas ket
gam ers</w>
50 4</w>
Arab -
Arab ic</w>
New town</w>
stre t
stre ams</w>
stre amed</w>
sli ce</w>
Democr a</w>
Loo ked</w>
adju sting</w>
11 -point</w>
Cri ticism</w>
prac tic
ban ned</w>
boo sts</w>
boo sted</w>
minim al</w>
industri al</w>
industri alized</w>
Neg atively</w>
1,00 6</w>
Fol lowed</w>
bar s</w>
bar go</w>
post- graduate</w>
appe aling</w>
autom atic</w>
Gr adu
sha ping</w>
fru its</w>
2, 7
Mor ality</w>
Mor mon</w>
Co st</w>
lea ves</w>
appropri ately</w>
3, 1
3, 3
3, 6
3, 9
Net works</w>
Bi partisan</w>
Shi as</w>
pi rates</w>
Rel ative</w>
every where</w>
enh ancement</w>
appoin tees</w>
commit ment
commit tees</w>
post war</w>
post graduates</w>
evalu ate</w>
evalu ating</w>
attrac tive</w>
25 0,000</w>
pre- recorded</w>
Chil d-
Dis content</w>
Ga ins</w>
trou bling</w>
10. 6</w>
11. 6</w>
jec tion</w>
NE DY</w>
sent ence</w>
spor t</w>
assa ult-
Min im
after -
after ward</w>
One-in- seven</w>
Regi on</w>
Regi ons</w>
volunte ering</w>
Fin ance</w>
Respon ses</w>
iz -
Increas es</w>
far ed</w>
negoti ate</w>
sou red</w>
trans late</w>
trans lates</w>
pay er</w>
discus sing</w>
Identi fy</w>
bul lish</w>
weigh ed</w>
weigh ting</w>
FIGURE S</w>
Orthodo x
12 th</w>
oper ate</w>
oper ates</w>
predomin ate</w>
exten ds</w>
syst em
legislat or</w>
legislat ures</w>
40 6</w>
Smart phones</w>
urrican es</w>
Fri end
Shar ed</w>
Shar ply</w>
hop ing</w>
if a</w>
1,50 1</w>
cau ght</w>
Pen a</w>
strength ens</w>
strength ened</w>
distinc tion</w>
Sou therners</w>
ation .
ation ist</w>
profici ently</w>
predic table</w>
17 -year-olds</w>
Ed ge</w>
Pl an</w>
Pl ans</w>
emp ire</w>
two- state</w>
narrow ing</w>
classi fy</w>
strugg led</w>
strugg les</w>
Em bargo</w>
Er a</w>
Ho li
expl oring</w>
infec tion</w>
compe ting</w>
compe tit
15 -</w>
Lo t</w>
cro sses</w>
cro ssed</w>
cro ss-
recomm ended</w>
Issu e</w>
Sch ool
shr ink</w>
vaccin ate</w>
Hondur an</w>
EN HOW
bot tom
Mad off</w>
Nar row</w>
Nar rows</w>
dang ers</w>
surpri se</w>
job -
job lessness</w>
1,0 10</w>
bri ties</w>
bri efly</w>
Regar ding</w>
Broad cast</w>
Scot land</w>
Ber nardin
reb ound</w>
conclu sions</w>
cele brities</w>
Secon d-
carri es</w>
obli gations</w>
acqu iring</w>
Deci sions</w>
Continu ed</w>
70 0,000</w>
internet -
subscri ption</w>
near- record</w>
near- minimum</w>
Malay sians</w>
Mem bership</w>
frac turing</w>
six -
Hispanic -
empha size</w>
weak ness</w>
weak ening</w>
certain ly</w>
wire lessly</w>
Gin i</w>
apo logy</w>
yi p</w>
bio logical</w>
CE O</w>
ram ped</w>
expla ined</w>
If the</w>
deli very</w>
think of</w>
and- file</w>
18. 5</w>
lot /
19. 3</w>
GOP -
watch ers</w>
competi tion</w>
Are a</w>
hy draulic</w>
conten ders</w>
cham ber</w>
cham pi
reason ably</w>
Post- election</w>
Accep table</w>
cohabit ers</w>
21 st</w>
clin ic</w>
cru cial</w>
government of</w>
government to</w>
Peruvi an</w>
Enter tainment</w>
confron tational</w>
victi m</w>
Speci fic</w>
Industri es</w>
algorith m</w>
2,00 2</w>
Cell phones</w>
Lim ited</w>
sla u
U.S- Mexico</w>
Demograph ics</w>
assum ptions</w>
geo social</w>
func tion
Colombi an</w>
Sympath ies</w>
Skep ticism</w>
fron t-
fron trun
moun ting</w>
swit ching</w>
swit ched</w>
they feel</w>
agric ultural</w>
explo sion</w>
accel erated</w>
plun ge</w>
plun ged</w>
Consum ers</w>
Obam acare</w>
30- Nov.</w>
Effor t</w>
65 +</w>
JO HNS
Jud aism</w>
NS F</w>
nic he</w>
uti lized</w>
uti lizing</w>
the- board</w>
stam ina</w>
susp ici
susp ended</w>
denomin ations</w>
incor por
borrow ers</w>
categori zed</w>
categori ze</w>
EU- 28</w>
Dou b
Dou bled</w>
Kin dle</w>
Mis sissi
Ran ge</w>
Typ ical</w>
Tay yip</w>
regre t</w>
their s</w>
born -again</w>
selfi sh</w>
record- high</w>
casu alties</w>
very/ somewhat</w>
illust rates</w>
Occup y</w>
22 -
Lab our</w>
Por tu
mom ent</w>
will be</w>
rob ust</w>
distru st
unfol ding</w>
quad rupled</w>
tax is</w>
Med ical</w>
Middle -
Rati o</w>
Tor ture</w>
Wil liam</w>
smo king</w>
acci dent</w>
veto es</w>
prosp erity</w>
Center /
health -related</w>
Mexican -born</w>
Persi sts</w>
Republican- controlled</w>
yiel ded</w>
Extremi sts</w>
stereotyp es</w>
Bapti sts</w>
Assi stance</w>
Squ are</w>
Wr ong</w>
Wan ing</w>
cra shed</w>
nav ig
encryp tion</w>
Thom as</w>
grav it
Lean ers</w>
state- level</w>
Shr inking</w>
Shor tly</w>
church going</w>
drug -related</w>
flagge d-in
Capit ol</w>
Bhut an</w>
recipi ents</w>
ATI ON</w>
Cat al
Cro atia</w>
Care givers</w>
Dali ts</w>
Fru stration</w>
Frequ ency</w>
Jam aica</w>
Tow ard</w>
inqu iry</w>
artic les</w>
echo es</w>
for- profit</w>
reali stic</w>
better job</w>
auton omy</w>
e-cigarett es</w>
Main line</w>
nutri tious</w>
Immedi ately</w>
balanc ing</w>
devast ated</w>
ICAN S</w>
trade- off</w>
incorrec tly</w>
vulner able</w>
Bac helor</w>
Mirr or</w>
Roo seve
Tot als</w>
Well -
gro cer
jun ction</w>
leng thy</w>
mel tdown</w>
swell ed</w>
tific ate</w>
rebe ls</w>
satelli te</w>
simul tan
spread s</w>
paralle l</w>
compen sa
exhau sted</w>
asser tions</w>
impover ished</w>
Chrys ler</w>
centen arians</w>
newcom ers</w>
deri ved</w>
engine ers</w>
Comp anies</w>
Alter native</w>
industry- funded</w>
year-to- year</w>
Very /</w>
Asse mbly</w>
Stric ter</w>
REAG AN</w>
Laur a</w>
Nix on</w>
Luh ans
ross- the-board</w>
Cyber attacks</w>
always/ most</w>
exerci se</w>
adolesc ents</w>
Ale x
Agr ic
ASN E</w>
Cabinet -level</w>
Done ts
EIS ENHOW
FJ P</w>
Fur thermore</w>
Hal loween</w>
KEN NEDY</w>
Mr s.</w>
Morg an</w>
Py ongyan
Socc er</w>
Sho ot
Spea kers</w>
TAR P</w>
Uz beki
Winf rey</w>
eag er</w>
eMar keter</w>
glim pse</w>
mace utical</w>
ofor ig
rar er</w>
swe pt</w>
wou ld
rewar ding</w>
abric ated</w>
constan tly</w>
Thanks giving</w>
Amaz on</w>
masc ul
precip itously</w>
rank- and-file</w>
prime- time</w>
Islan der</w>
schedu le</w>
Case- Shiller</w>
universa lly</w>
Butti gieg</w>
sympt oms</w>
basket ball</w>
assault- style</w>
Bernardin o</w>
Mississi ppi</w>
flagged-in active</w>
Rooseve lt</w>
EISENHOW ER</w>
Pyongyan g</w>
Uzbeki stan</w>
' ll</w>
' major</w>
' somewhat</w>
, 5
, 1</w>
- 18</w>
- 37</w>
- 39</w>
- July</w>
- card</w>
- year-</w>
- un</w>
. m</w>
. 4</w>
. 6</w>
. 300</w>
/ C
/ K
/ L
/ partner</w>
/ DK</w>
0 -</w>
0 4</w>
1 12</w>
1 17</w>
1 22</w>
1 39</w>
1 23</w>
1 -point</w>
1 4,000</w>
2 32</w>
2 2.5</w>
2 9.6</w>
2 6.5</w>
2 1.7</w>
2 2.4</w>
3 60</w>
3 8,000</w>
3 9,
4 -
4 5,000</w>
4 9.3</w>
6 8
6 -in-10</w>
7 9
7 4,9
8 8,000</w>
8 4,9
9 -
9 0s</w>
9 0,000</w>
9 2,000</w>
A L
A m</w>
A way</w>
A go</w>
A chi
A /K
B O
B y
B O</w>
B ase</w>
B ills</w>
C in
C all</w>
C ite</w>
C ome</w>
C ases</w>
C ateg
C alls</w>
C lass</w>
D e</w>
D D</w>
D F</w>
D ot
D im
D ays</w>
E D
E D</w>
E mo
E ight</w>
E mail</w>
E very
E VER
F Y
F .</w>
F em
F ight</w>
F allu
F ull
F alls</w>
F -1</w>
G E</w>
G ow
G ran
G all
G and
G ays</w>
G ene
G MO
H .</w>
H as
H it</w>
H ad</w>
H and
H ome
H ay
H ai
H onest</w>
H urricanes</w>
I c
I P</w>
I II</w>
I ON</w>
J as
J et
J im</w>
K M
K ö
K am
K ep
K now</w>
K yr
L ou
L as</w>
L owe
L ash
L ength</w>
M E</w>
M and
M ath</w>
M EN
N C
N or</w>
N ear
N aga
N DP</w>
N CES</w>
O s</w>
O reg
O pp
O PE
P s</w>
P .</w>
P O</w>
P ool</w>
P aid</w>
P BS</w>
P AN</w>
P LO
R a
R us
R ice</w>
R arely</w>
S H
S T
S r
S ite</w>
S af
S car
S later</w>
S mart</w>
T E</w>
T ig
T ol
T ough</w>
T ell</w>
T end</w>
T sunami</w>
T im</w>
T ony</w>
T AL</w>
U su
U ps</w>
U /C
V ati
V ast</w>
V s.</w>
V ital</w>
W ages</w>
W ants</w>
Z ers</w>
a x</w>
a he
b it
b out</w>
b righ
b inge</w>
c tions</w>
c rac
c ements</w>
c rown</w>
c ook
d —
d in</w>
d ded</w>
d ited</w>
d aries</w>
d ot-
e ously</w>
e fold</w>
f an
f out</w>
f oun
f ty</w>
f est</w>
f la
f ric
f fic</w>
f anti-</w>
f lowers</w>
g over
g ola</w>
h on
h dad</w>
i ds</w>
i red</w>
j e
j ur
j our
j use</w>
j ad</w>
k ar-
k idn
l ds</w>
l ough
l abor
l voting</w>
l ential</w>
l um-
m o</w>
m in</w>
m al</w>
m am
m one</w>
m uni
n n
n t</w>
n ing
n ical</w>
n ard</w>
n bul
o x</w>
o shenko</w>
p a</w>
p en</w>
p ers</w>
p ack</w>
p ales</w>
p raise</w>
r t
r or</w>
r he
r allies</w>
r enting</w>
r ber-Stiftung</w>
s .
s an
s and</w>
s news</w>
s ms</w>
s ni
s our</w>
s quar
s bur
s lack
t ori
t ta
t elec
t ect</w>
t on-
t ached</w>
u pri
u ster</w>
u sive</w>
u tility</w>
u ght</w>
u ko
v y
v ations</w>
w n</w>
w /</w>
w il
y n</w>
y u</w>
z er</w>
z on</w>
z stan</w>
ó n</w>
— to</w>
th ority</w>
th ful</w>
in .
in v
in si
in sp
in ity</w>
in her
in vit
in fidelity</w>
an /</w>
an no
an ch
an ism</w>
er on</w>
er ks</w>
er ance</w>
ar di
ar ital</w>
ar dly</w>
ar maceutical</w>
ti pped</w>
on ers</w>
on ate</w>
on ents</w>
on ides</w>
on aires</w>
en e</w>
en g</w>
en th
en er</w>
en de
en comp
en ce
or a</w>
or ous</w>
ou se</w>
ou tri
re e</w>
re a</w>
re sur
re port
re fin
re sident</w>
re gain</w>
re placing</w>
re memb
re jection</w>
li p
li king</w>
li fel
li onaires</w>
sa fer</w>
sa lah</w>
sa ki</w>
sa ga</w>
al .
al -income</w>
it ly</w>
it ure</w>
it ement</w>
it oes</w>
it erran
it ely/
ro of</w>
ro om
ro shima</w>
ro yal</w>
wh o
wh ati
st ati
st al</w>
st ems</w>
ic ations</w>
ac kers</w>
ac tor</w>
ac ross-the-board</w>
ec o
ec es</w>
si on-
si bling</w>
ab le
ab usive</w>
lo oms</w>
lo ff</w>
le ver</w>
le agues</w>
le tter</w>
di se</w>
di sta
po p</w>
po sing</w>
su n
ne gi
ne wer</w>
ri ding</w>
ri dden</w>
mo s</w>
mo on</w>
mo ves</w>
ver i
ad ly</w>
ad fast</w>
se ts</w>
se em
se ments</w>
se archers</w>
se aled</w>
se emed</w>
pu shing</w>
20 30</w>
20 25</w>
20 55</w>
ag on</w>
am p
am ings</w>
am arital</w>
con sul
con ce
con dem
con sent
con junction</w>
ha ves</w>
ol d-
vi su
sh ers</w>
sh el
sh ut</w>
sh ness</w>
de m</w>
de lin
de man
de pic
de lay</w>
de lays</w>
bli cal</w>
il and</w>
Re porters</w>
Re ality</w>
Re sul
Re turn</w>
Re spects</w>
Re jected</w>
Re aring</w>
Re volution</w>
Re mittance</w>
Re searchers</w>
sp er</w>
par don</w>
par enthood</w>
ve /
be l</w>
be fore
be ating</w>
be sides</w>
be dded</w>
com pla
com posed</w>
com posting</w>
com posite</w>
op ens</w>
ul ar
ul ated</w>
ul tu
el ds</w>
el sey</w>
201 5
201 0s</w>
ent ment</w>
ent ine</w>
pro p</w>
pro sec
pro ce
pro cess
pro ces
U.S -born</w>
tr ended</w>
eric ans</w>
no vel</w>
ter ers</w>
ter min
pre s</w>
pre mi
pre marital</w>
pre ced
fi x</w>
fi ers</w>
De scri
De tro
De sk
ex ce</w>
ex changes</w>
un d</w>
un less</w>
un iting</w>
un tary</w>
un wanted</w>
un healthy</w>
un usually</w>
un loaded</w>
as c
as ing</w>
as sing</w>
as simil
as set</w>
as sume</w>
im port</w>
im pose</w>
im prison
im plants</w>
im onides</w>
we a
we ak</w>
we aker</w>
we althiest</w>
ci o</w>
ci alsituation</w>
den -
over turning</w>
over sight</w>
public ation</w>
public ations</w>
ke st</w>
ke ener</w>
me tr
me time</w>
per pe
ap par
ap pen
ap point</w>
gi c</w>
pe t</w>
pe stici
fa ke</w>
fa shi
lin s</w>
vot e-
vot ing-age</w>
qu i
qu it</w>
gr ad</w>
du res</w>
du al-income</w>
is /are</w>
for d</w>
for der</w>
-in- Ten</w>
inc ur
igh tened</w>
tic a</w>
ir acy</w>
clo sure</w>
maj or
rec ording</w>
rec ru
ori zon</w>
mar rying</w>
ra h</w>
ra in
acc ess
fe e</w>
ge l</w>
In to</w>
In dic
In cumb
In surance</w>
dec ennial</w>
str a</w>
str ust</w>
inter personal</w>
inter married</w>
inter acting</w>
tri pling</w>
te dness</w>
Hi roshima</w>
lu kewarm</w>
es .
Ch ance</w>
pl ate
Cent ury</w>
favor ites</w>
Tr uman</w>
Tr ump
tw ay</w>
pri ses</w>
so aring</w>
pul ling</w>
stor y
jo ined</w>
jo int</w>
elec ti
19 4</w>
19 30</w>
19 36</w>
19 63</w>
19 70
19 40s</w>
19 00s</w>
chan dise</w>
em bro
em pathy</w>
em bedded</w>
posi t</w>
of political</w>
of 18</w>
of confidence</w>
of parents</w>
of members</w>
of adult</w>
fin ish</w>
ligi on</w>
ough ts</w>
Con tr
Con cent
Con tribu
Con versa
Con struction</w>
Con feder
ten se</w>
soci ally</w>
ph armaceutical</w>
cont entment</w>
rel ate</w>
la sted</w>
la Per
he ightened</w>
import anti
cent ered</w>
all ment</w>
off e
off ore
off set</w>
confi d</w>
appro vers</w>
pres sing</w>
religi on
cer tificate</w>
serv ants</w>
min al</w>
min ating</w>
min or-
divi ding</w>
lic itly</w>
Mo ve</w>
Mo vement</w>
col ored</w>
tim iz
gener ates</w>
out -
out comes</w>
out lining</w>
ga ther
leg al
leg ality</w>
shar per</w>
comm entary</w>
St ands</w>
au ed</w>
ill -
fac ul
chil dless</w>
fir e</w>
fir ings</w>
prob ab
Un documented</w>
Un surprisingly</w>
concer t</w>
depen d</w>
Is ol
respon dent</w>
Latin o
Latin a</w>
Pre -
Pre vious</w>
identi fiers</w>
e- related</w>
e- books</w>
mon arch
new s-
ell er</w>
sub jected</w>
sub mitted</w>
der ón</w>
lob by
Pro fici
Pro tect</w>
cor respon
continu ation</w>
continu ally</w>
ric k</w>
fam ine</w>
sm ission</w>
comp assi
comp licated</w>
cri ti
gu s</w>
gu ide</w>
deb tors</w>
go ve</w>
ven tive</w>
non violent</w>
Po or
No thing</w>
agre es</w>
bi es</w>
bi ased</w>
bi omedical</w>
bi blical</w>
four -point</w>
four th-
four th-graders</w>
tis er</w>
Ac tions</w>
mi red</w>
mi stakes</w>
Ma y
Ma c</w>
Ma e</w>
Ma imonides</w>
Asi an/Pacific</w>
Jap an/</w>
auth orit
contr acting</w>
cell phone-
sy n
uni fied</w>
fore sees</w>
loc ality</w>
Ar tic
Ar men
emplo y</w>
equ aled</w>
exam ine</w>
eigh th</w>
fre e
fre sh
consi st</w>
cle ar
cle mency</w>
To ome
cour te
cour ageous</w>
Li st</w>
Li fe
ide als</w>
sec re
sec tarian</w>
lat ely</w>
nu g
En ough</w>
En courage</w>
tra di
imp ac
imp acting</w>
Gre edy</w>
descri ptions</w>
hand guns</w>
accep tability</w>
Au tom
Au thority</w>
Dec lined</w>
Dec ades</w>
part of</w>
part y/
sour i</w>
mem ori
non- voters</w>
non- white</w>
non- Latinos</w>
non- citizens</w>
non- parent</w>
non- voice</w>
non- Tea</w>
non- Cuban</w>
non- marital</w>
non- adopters</w>
Di stribu
Di strust</w>
deci sion-
loo m</w>
Tur n</w>
Tur nbul
expres sions</w>
Le h
Le ak</w>
Fran k
est er</w>
est or</w>
Chri st</w>
Im mi</w>
Fe eling</w>
dis se
dis posed</w>
dis connected</w>
amoun ting</w>
Com ple
Com promise</w>
Mid -
Mid terms</w>
Al b
Al lies</w>
Janu ar
ho o</w>
ho ly</w>
consist ency</w>
ref used</w>
commun ism</w>
regul ate</w>
10 7</w>
10 9</w>
10 00</w>
CO NA
Ex it</w>
Ex pl
gradu al</w>
gradu ation</w>
abor tions</w>
trac es</w>
dr ought</w>
vers a</w>
NA AC
Ad option</w>
Ad dressing</w>
Cour tis</w>
Jo ining</w>
def enses</w>
Op rah</w>
environ mentally</w>
Bo ys</w>
Bo thered</w>
Bo sni
Sen ator</w>
nati onal
dri go</w>
ful filled</w>
ign ored</w>
lan ta</w>
suppor ter</w>
Col lins</w>
Wash ing</w>
Uni ons</w>
end -
end less</w>
bil lionaires</w>
demograph ically</w>
198 6</w>
198 8-</w>
bo y</w>
bo ards</w>
bo dies</w>
bo omed</w>
Se a</w>
med als</w>
Not atall</w>
U.S. -</w>
sexu ally</w>
ber of</w>
sing les</w>
bud ged</w>
path ways</w>
anti pathy</w>
requ ests</w>
prefer able</w>
Favor ed</w>
18 ,
cre ative</w>
d- minded</w>
compu ter
applic able</w>
Medi ans</w>
rele ases</w>
separ ati
year- old</w>
addre sses</w>
addre ssed</w>
nin e-point</w>
sym bol
1, 8
1, 800</w>
PE W</w>
ob by</w>
ob servers</w>
Democratic -
-to- 1</w>
-to- 29</w>
inve stors</w>
Pol l</w>
long standing</w>
ren amings</w>
He ad</w>
pur pose
mid- April</w>
mid- 2006</w>
Ne ed</w>
evi den
At lanta</w>
justi fiable</w>
t- ticket</w>
multi lateral</w>
vic tori
y- based</w>
streng ths</w>
neighbor hood</w>
one- party</w>
Yor ker</w>
ca ste</w>
Mar ry</w>
contribu tions</w>
9. 1</w>
institu tional</w>
0. 2</w>
0. 4</w>
wr ite</w>
coll ar</w>
Fl u</w>
happ iness</w>
protec ts</w>
Ric an-origin</w>
Ric hard
tru th</w>
tru sters</w>
pris ons</w>
long- awa
Mea sures</w>
fl ying</w>
anc estor</w>
asy lum-
Educ a</w>
logi sts</w>
occup ied</w>
assi sted</w>
treat s</w>
thusi asts</w>
Philipp ine</w>
Be hind</w>
cou ps</w>
Posi tion</w>
s- on</w>
show down</w>
Cam eron</w>
tran smission</w>
Mu eller</w>
Si kh
gam ing</w>
well- regarded</w>
audi o</w>
New s/
cl erks</w>
sli pping</w>
corpor ation</w>
Cri tical</w>
Cri minal</w>
Str onger</w>
Mic ro
Mic he
RE SE
tion ed</w>
high- capacity</w>
life sty
U.S.- based</w>
For mer</w>
post- recession</w>
post- communist</w>
natur ally</w>
Sal a
Sal aries</w>
enrol lees</w>
perman ent
Bro o
cha in</w>
2, 6
2, 500</w>
Mor ally</w>
Californi ans</w>
Co .</w>
ss ings</w>
ss ination</w>
ine jad</w>
3, 4
tab ulations</w>
deter mination</w>
Bi as</w>
pi eces</w>
wa it</w>
comfor tably</w>
Car son</w>
Car negi
post grads</w>
priori tizing</w>
crimin als</w>
pre- crisis</w>
prepar ations</w>
success fully</w>
Dis like</w>
10. 0</w>
10. 4</w>
10. 9</w>
10. 10</w>
11. 5</w>
11. 8</w>
29 -year-old</w>
Ro drigo</w>
assa ssination</w>
expec tation</w>
16 -
16 th</w>
4, 2
4, 4
4, 7
Tai ba</w>
bur den
employ er-
full -
One-in- six</w>
Fi re
Har ry</w>
Har assment</w>
Non- broadband</w>
bom bs</w>
dispu ted</w>
30 ,000
Fin ances</w>
reti ring</w>
reti re</w>
chi ps</w>
IC Ts</w>
Fo ot
sou l</w>
Ci ties</w>
Ear nings</w>
suff er</w>
FIGURE 4</w>
Emplo ye
Off er</w>
don ation</w>
don ate</w>
ly /
exclu de</w>
withdraw n</w>
va stly</w>
inst allment</w>
exten ding</w>
exten sively</w>
sugge sting</w>
Mon it
Mon th</w>
Shar ing</w>
Shar if</w>
hop es</w>
poor est</w>
1,50 2</w>
Go als</w>
cal culation</w>
Pen alty</w>
pap acy</w>
robo t</w>
desk top
distinc tions</w>
trave led</w>
Ed itors</w>
Pl um
list en
doc tor</w>
Prob a</w>
narrow ly</w>
Rac e/</w>
close d-minded</w>
Chur ches</w>
temper atures</w>
temper ament</w>
AR E</w>
AR T</w>
AR ING</w>
AR CH</w>
dam aged</w>
inaug ural</w>
modi fication</w>
With draw
CD U/C
Lo sses</w>
nor m</w>
super visors</w>
politici an</w>
ed- citizen</w>
occasi onal</w>
Evan g</w>
jum ps</w>
View ers</w>
Lu ther</w>
Ste adfast</w>
scre ening</w>
Tra its</w>
shr ines</w>
vaccin ations</w>
Beli efs</w>
mirr ors</w>
distribu ted</w>
AN C</w>
AN ING</w>
enter prises</w>
surpri sed</w>
disap points</w>
Associ ations</w>
1,0 18</w>
1,0 11</w>
El -
El ected</w>
bri ef</w>
ema il
tow ns</w>
Post -</w>
pursu ed</w>
collap sed</w>
Broad ly</w>
Scot tish</w>
Scot ch-
Fu ku
Gh rai
conclu ded</w>
quali fy</w>
cele br
manu al</w>
manu fac
anticip ated</w>
voic ing</w>
Man ch
Man agement</w>
Secon d-</w>
mer chandise</w>
obli gated</w>
rever sing</w>
acqu a
acqu itt
president to</w>
president not</w>
Advan tage</w>
Continu es</w>
Non -</w>
Ori gins</w>
fal loff</w>
hal ted</w>
teen age</w>
subsequ ently</w>
Mig rant</w>
Sam ple</w>
Sam e-sex</w>
Terr ori
shop pers</w>
green field</w>
green -card</w>
Hispanic or</w>
scen e</w>
break up</w>
break downs</w>
observ ation</w>
observ ance</w>
Pr inc
Ter ms</w>
deleg ate</w>
isol ationist</w>
eventu al</w>
critici sms</w>
flag s</w>
guaran tees</w>
17. 1</w>
17. 6</w>
Bel tway</w>
Equ ally</w>
Val entine</w>
that the</w>
CE Os</w>
IM PO
ME N</w>
ME DI
ben ch</w>
Thir ds</w>
hard ship</w>
Elector ate</w>
Famili arity</w>
DO D</w>
Hu ff
Hu go</w>
mand ates</w>
deli ver</w>
clas sroom</w>
5, 5
90 0,000</w>
Cor ruption</w>
brac kets</w>
lot tery</w>
witne ssing</w>
prosecu ted</w>
prosecu tions</w>
19. 5</w>
outp aces</w>
tui tion-
rout ine</w>
sl ump</w>
tum ultu
divor ced</w>
Accep ted</w>
celeb rated</w>
Multi generational</w>
Wat ched</w>
cru de</w>
ero ded</w>
remark able</w>
depar ture</w>
outweigh s</w>
Enter ed</w>
confer red</w>
single- race</w>
App lications</w>
Cell -
Cell phone</w>
LE ANING</w>
Lim it</w>
PR D</w>
PR I</w>
then- President</w>
all- white</w>
all- minority</w>
steep er</w>
func tion</w>
Ethiop ians</w>
strategi c</w>
Ecuadori ans</w>
Dru gs</w>
Skep tical</w>
TH E
TH OM
by fiscal</w>
moun t</w>
vac ation</w>
ambi tions</w>
dep ths</w>
exc use</w>
exc used</w>
exc itement</w>
explo sives</w>
initi atives</w>
accel erating</w>
Consum er</w>
Consum ption</w>
Obam a
rich est</w>
Suc ceed</w>
10- item</w>
News Hour</w>
calcul ations</w>
Dro ps</w>
Del laPer
Lan ka</w>
Pa ss</w>
Wal ter</w>
Wal ker</w>
fur lough
nic /Latino</w>
tan dem</w>
time span</w>
ros y</w>
stam ps</w>
age 18</w>
Ref used</w>
fortun ately</w>
borrow ed</w>
Under stand</w>
Under standing</w>
Streng then</w>
27- Aug.</w>
27- Mar</w>
Nicaragu a</w>
Ea st-
Ea sterners</w>
Mis souri</w>
TO TAL</w>
Typ e</w>
han ded</w>
hot els</w>
enem ies</w>
Reas on</w>
exhi b
peop le
Inve stig
different race</w>
campu ses</w>
fact- checking</w>
selfi shness</w>
casu al</w>
very/ fairly</w>
doctor ate</w>
Natur alization</w>
Natur alized</w>
illust rated</w>
Signific antly</w>
Por oshenko</w>
SE NET</w>
cli ff</w>
interpre t</w>
licen sees</w>
Med iterran
contracep tion</w>
contracep tive</w>
Brea kdown</w>
Rati os</w>
ku yu</w>
ty phoon</w>
spli tting</w>
veto ed</w>
peti tion</w>
immigran ts—
Mexican -</w>
Mexican- American</w>
problem atic</w>
Metho di
Metho ds</w>
CON TERT
gun- control</w>
distingu ish</w>
7,9 17</w>
brid ge</w>
brid ges</w>
advoc ates</w>
Extremi st</w>
Bapti st</w>
Cha pter</w>
Ite m</w>
Ite ms</w>
Ki kuyu</w>
dar k</w>
usa tions</w>
une th
rival ed</w>
best job</w>
may or</w>
may be</w>
ling ering</w>
escap e</w>
scar ce</w>
Produc tivity</w>
eight- year</w>
Buil d</w>
hob by</w>
hob bies</w>
discre tionary</w>
Very/ Fairly</w>
disper sed</w>
foreclo sure</w>
foreclo sures</w>
left- right</w>
Lesbi an</w>
Lesbi ans</w>
Agen da</w>
BI A/K
Doc tors</w>
Minu tes</w>
N- word</w>
Pent agon</w>
boun daries</w>
outw ardly</w>
mathemati cs</w>
Tru sted</w>
socio economic</w>
offull -time</w>
Stan ding</w>
too/ Notatall</w>
U.S./ Germany</w>
intensi fies</w>
naturaliz ed-citizen</w>
censu ses</w>
commerci alism</w>
much/ Not</w>
Applic ation</w>
Langu age</w>
manipul ation</w>
Ahmad inejad</w>
disappear ed</w>
Don bas</w>
HE ARING</w>
Happ y</w>
HBC U</w>
Other /DK</w>
Pow ers</w>
Vacc ine</w>
WE ST</w>
Ya hoo</w>
bon uses</w>
dwin d
fra ud</w>
pha se</w>
sion ment</w>
lowe st-
dimen sions</w>
pos session</w>
desig n
Reli ef</w>
profit able</w>
reck oning</w>
testi mony</w>
better- educated</w>
contex ts</w>
hosti le</w>
Exam ining</w>
budget def
18- to</w>
book mobile</w>
practition er</w>
Manu facturing</w>
demonst rate</w>
guarante eing</w>
DEMOC RA</w>
Treat y</w>
exagg erated</w>
Aggre gate</w>
Avail ability</w>
Bag hdad</w>
Cal derón</w>
CEN TER</w>
Fanni e</w>
J. P.</w>
Nep al</w>
Nei l</w>
Tha iland</w>
Vic tory</w>
Widen ing</w>
Yan uko
Your self</w>
by- mail</w>
gy zstan</w>
goo d
hesit ant</w>
tell ing</w>
voc al</w>
say free</w>
alo g</w>
staff ers</w>
disillu sionment</w>
consci ous</w>
illeg al-
Amoun t</w>
pari shes</w>
chem ical</w>
counsel ing</w>
large- scale</w>
hard- working</w>
Promo ting</w>
decades- long</w>
volc ano</w>
Adju sted</w>
practic ing</w>
commitment group</w>
Child- Rearing</w>
after- tax</w>
Friend ly</w>
internet- connected</w>
Hispanic- origin</w>
slau ghter</w>
function ing</w>
JOHNS ON</w>
Portu gal</w>
distrust ful</w>
navig ating</w>
simultan eously</w>
compensa tion</w>
Agric ulture</w>
oforig in</w>
74,9 99</w>
84,9 95</w>
BO TH</w>
By standers</w>
Cin dy</w>
EVER Y</w>
Fem ale</w>
Fallu j
GMO s</w>
Hay ward</w>
Ic eland</w>
Jet Blue</w>
KM T</w>
Kö rber-Stiftung</w>
Kam ala</w>
Kep t</w>
Kyr gyzstan</w>
Lowe st</w>
Lash kar-
Naga saki</w>
Oreg on</w>
Opp onents</w>
Sr i</w>
Tig er</w>
Tol erance</w>
Vati can</w>
cook ies</w>
dot- com</w>
mam mo
rhe toric</w>
sbur g</w>
telec om
vy ch</w>
outri ght</w>
itely/ probably</w>
dista ste</w>
seem ingly</w>
consent ing</w>
delin qu
deman ds</w>
Resul ts</w>
before hand</w>
prosec ution</w>
proce dures</w>
process ors</w>
premi um</w>
Descri be</w>
imprison ment</w>
perpe tr
pestici des</w>
vote- by-mail</w>
access ories</w>
plate aued</w>
1970 -</w>
embro iled</w>
Conversa tion</w>
timiz ations</w>
gather ings</w>
Profici ency</w>
compassi onate</w>
Distribu tion</w>
decision- making</w>
Turnbul l</w>
CONA PO</w>
NAAC P</w>
symbol s</w>
victori ous</w>
Richard son</w>
long-awa ited</w>
RESE ARCH</w>
lifesty les</w>
Carnegi e</w>
employer- provided</w>
CDU/C SU</w>
Scotch- Irish</w>
Fuku shima</w>
Ghrai b</w>
MEDI AN</w>
tuition- free</w>
tumultu ous</w>
THOM AS</w>
DellaPer gola</w>
furlough ed</w>
Mediterran ean</w>
CONTERT ATION</w>
BIA/K elsey</w>
Yanuko vych</w>
' l</w>
' mostly</w>
' angry</w>
' cold</w>
' fearful</w>
, 900</w>
- 2</w>
- population</w>
- 11</w>
- 2013</w>
- 44</w>
- 25</w>
- 27</w>
- leaners</w>
- 43</w>
- 26</w>
- 41</w>
- 23</w>
- 32</w>
- partisan</w>
- 36</w>
- force</w>
- educated</w>
- order</w>
- quality</w>
- hailing</w>
- Time</w>
- minded</w>
- it-
- resistant</w>
. 7
. J</w>
. foods</w>
/ has</w>
/ would</w>
/ U.S</w>
/ leaners</w>
/ Dem</w>
/ Fair</w>
0 5</w>
0 3</w>
1 15</w>
1 35</w>
1 25</w>
1 48</w>
1 5.
1 1,000</w>
1 4.1</w>
1 -percentage-point</w>
1 4.2</w>
1 3.9</w>
1 5.5</w>
1 2.7</w>
1 2.3</w>
1 2.9</w>
1 5.7</w>
1 10th</w>
1 5.1</w>
2 3
2 o
2 91</w>
2 8,000</w>
2 4.1</w>
2 3.5</w>
2 6,
2 10,000</w>
2 2.6</w>
2 6.7</w>
2 8.6</w>
2 3-
2 7.3</w>
2 8.2</w>
2 -to-1</w>
3 70</w>
3 78</w>
3 92</w>
3 1.3</w>
3 5.2</w>
3 0.8</w>
4 5
4 2,
4 4,
4 1.5</w>
4 5.6</w>
4 8,
4 7.6</w>
4 0.6</w>
4 14,
5 9
5 2,
5 7,
5 2.1</w>
6 7
6 ,0
6 -point</w>
6 4.6</w>
6 6,000</w>
6 4.5</w>
7 0,000</w>
7 50,000</w>
8 th</w>
8 0s</w>
8 -in-10</w>
9 8,000</w>
9 9,
A D
A d</w>
A T</w>
A I</w>
A G</w>
A the
A ur
A id</w>
A ud
A usti
A NATO</w>
A spects</w>
A differ</w>
A ME
B t
B it
B each</w>
B row
B har
B ach
B ook</w>
B arely</w>
B ase
B orders</w>
C M
C e
C um
C had</w>
C lar
C yp
C lear
C open
C ultural</w>
C lick</w>
D il
D all
D own
D ating</w>
D owns</w>
E -
E M
E S</w>
E ch
E very</w>
E ven
E EU</w>
E CO
E rit
E uro</w>
E FTA</w>
E ast
E ssential</w>
E tta
F A
F O
F K</w>
F all
F oc
F act</w>
F ide
F ron
F ighting</w>
F OR</w>
F AA</w>
G .
G ro
G lo
G ol
G ra
G aming</w>
H ow
H of
H ook</w>
H ash
H eld</w>
H DI</w>
I sa
I den
I most</w>
I deal</w>
J ac
J ong
J ames</w>
J FK</w>
K .</w>
K al
K an</w>
K ab
K ant
K hy
L ó
L e</w>
L ew</w>
L ine</w>
L ook</w>
L ay
L ady</w>
L onger</w>
L aw
L overs</w>
L ION</w>
M -
M Y</w>
M ol
M umb
M agaz
M IL
N .
N I
N Y
N C</w>
N avy</w>
N ativity</w>
N BA</w>
O '
O f
O k
O m
O S</w>
O ak
O OL</w>
O .J</w>
P C</w>
P S</w>
P en</w>
P ak
P ay
P ath</w>
P lac
P PP</w>
P rayer</w>
P PO
P /ABC</w>
Q 1</w>
R I
R a</w>
R C</w>
R T</w>
R en
R ally</w>
R ut
R ICANS</w>
R BO</w>
R DD</w>
S k
S in
S li
S at
S mo
S em
S cri
S imp
S elect</w>
S trip</w>
S CH
S OU
T Y
T i
T on
T on</w>
T al
T ic
T ag
T igh
T ene
T US</w>
T ier</w>
T alking</w>
U ne
U tah</w>
V E</w>
V V</w>
V is
V alle
V RBO</w>
W O
W y
W in</w>
W ays</w>
W al-
W P/ABC</w>
X .</w>
X T</w>
X er</w>
Y u
Y ear
Z aa</w>
a x
a ï
a g</w>
a -</w>
a p</w>
a ked</w>
a points</w>
b n
b á
b in
b al</w>
b ans</w>
b ar</w>
b lin
b ust</w>
b ump</w>
b low</w>
b side</w>
b om</w>
b an-
c andi
c lick</w>
d s
d ons</w>
d den
d ge</w>
d ges</w>
d foods</w>
d dit</w>
e e
e u
e ded</w>
e uro
e dition</w>
e lit</w>
e migration</w>
e migrate</w>
e migrated</w>
f lo
f ers</w>
f ice</w>
f ights</w>
f abricated</w>
g .</w>
g en</w>
g ents</w>
g ering</w>
g ged</w>
h h
h ag
h ate</w>
h acks</w>
h tun
h amed</w>
h ood-
h ackers</w>
h orizon</w>
i -
i more</w>
i ke</w>
i fic
i pi
j ev
j up</w>
j acking</w>
k er
k at
k day</w>
k tor</w>
k iller</w>
l en</w>
l are</w>
l ance</w>
l acks</w>
m al
m ers</w>
m us
m ure</w>
m ore
m son</w>
m ber-
m itting</w>
n -
n t
n ic</w>
n ds</w>
n aï
o ci
o fa
p es</w>
p al
p line</w>
p ps</w>
p lea
p son</w>
p iracy</w>
r in
r and</w>
r ations</w>
r ough</w>
r ennial</w>
r allied</w>
s in</w>
s or</w>
s lo
s not</w>
s one</w>
s ings</w>
s ect</w>
s new</w>
s way</w>
s ends</w>
s lowing</w>
s pur
s ands</w>
s ory</w>
s facing</w>
s wa
s sman</w>
t 0</w>
t t</w>
t of</w>
t who</w>
t less</w>
t ying</w>
t asked</w>
u te</w>
u .S</w>
v o</w>
v i</w>
v out</w>
v ens</w>
v ital</w>
v ard</w>
v ores</w>
v enth</w>
w /
w ore</w>
w with</w>
w ant
w oes</w>
y able</w>
y als</w>
y men</w>
y land</w>
y ware</w>
z ou
z one</w>
z ene
á cio</w>
— of</w>
— is</w>
— that</w>
— from</w>
— by</w>
— accounted</w>
th i
th um
th row</w>
th an-
in tr
in able</w>
in ated</w>
in tim
in e-
in ward</w>
in still</w>
in eligible</w>
in Syria</w>
in millions</w>
in struc
in verse</w>
in ching</w>
in tent</w>
in directly</w>
in jury</w>
in complete</w>
in sensitive</w>
in herit
in siders</w>
in zo</w>
an tic</w>
an eous</w>
er ce</w>
er ings</w>
er ative</w>
er up
er ial</w>
er -to-
er ian</w>
er s—
er nity</w>
ar ena</w>
ar ises</w>
ti a</w>
ti gh
ti pping</w>
ti rement</w>
ti ght</w>
ti es—
on i</w>
on als</w>
on place</w>
en s
en act</w>
en sions</w>
en gender</w>
en sive</w>
en roll</w>
en genders</w>
en ities</w>
en jin</w>
en vi</w>
or dered</w>
re l</w>
re -</w>
re in
re sts</w>
re form
re married</w>
re stri
re publics</w>
re lies</w>
re tweets</w>
re taining</w>
re son
re pair
li ent</w>
li ers</w>
li fied</w>
li via</w>
li eve</w>
sa d</w>
sa l</w>
sa le</w>
sa ving</w>
sa cri
sa ints</w>
sa lient</w>
at riots</w>
at edly</w>
al or</w>
al le</w>
al be
al years</w>
al ous</w>
it was</w>
it ania</w>
it zer</w>
ro ot
ro ff
the me</w>
the ories</w>
the astern</w>
st acks</w>
st after</w>
st ain</w>
om ni
om itted</w>
ati le</w>
ati ya</w>
ati ve-
ac ter</w>
ac ies</w>
ac eful</w>
ec tive</w>
ec lip
si de
si mp
si sters</w>
si veness</w>
si blin
ab ama</w>
ab ide</w>
ab sent</w>
lo d
le m</w>
le a</w>
le -</w>
le tt
le verage</w>
le ments</w>
le ash</w>
di an</w>
di ag
di sh
di oc
di sci
di ligent</w>
po c
po ol
po thetical</w>
su b</w>
su dden
ri ve
ri fic</w>
ri lle</w>
mo c</w>
mo therhood</w>
ver ages</w>
ad ed</w>
ad ap
ad vis
ad joining</w>
se st</w>
se ttle</w>
se gments</w>
se /partner</w>
se venth</w>
pu m
20 4</w>
20 3</w>
20 45</w>
20 22</w>
20 21</w>
20 -year</w>
ag a</w>
am e
am mar</w>
am muni
am enities</w>
con s</w>
con fin
con tains</w>
ha ir</w>
ha ve-
ol ly</w>
vi e
vi ously</w>
sh kin</w>
de l</w>
de gre
de fic
de serves</w>
de din</w>
de tached</w>
il ton</w>
publi shers</w>
Re ed</w>
Re al</w>
Re pu
Re id</w>
Re action</w>
Re move</w>
Re spect</w>
Re venues</w>
Re search
Re ading</w>
Re ddit</w>
Re tirement</w>
Th ous
sp a
sp are</w>
sp ying</w>
sp here</w>
sp yware</w>
Am e</w>
Am ish</w>
Am end
Am anda</w>
par ities</w>
par dons</w>
ve /</w>
be verages</w>
U. N</w>
U. K.</w>
com pl
com pul
com promising</w>
ot ine</w>
ur s</w>
ur itania</w>
op ted</w>
ul arly</w>
ent ers</w>
ent ure</w>
ent y-
pro por
pro hi
pro sel
pro found</w>
pro testing</w>
ma p</w>
tr ate</w>
tr ending</w>
no tic
por trait</w>
ter restri
pre sti
pre scri
pre tax</w>
pre ventive</w>
rat s</w>
rat ch
fi x
fi st</w>
fi lib
fi xed</w>
fi le-
fi ve-
De an</w>
De ep</w>
De aths</w>
De vout</w>
De moc</w>
ex pe
ex port</w>
ex trac
ex changing</w>
un g</w>
un t</w>
un ve
un te
un satisfied</w>
un willing</w>
un kind</w>
un changing</w>
un surprisingly</w>
un armed</w>
un weighted</w>
un patriotic</w>
un preced
un happiness</w>
as a</w>
as /lean</w>
im m
im ag
im ported</w>
ch a</w>
ch at
ch all</w>
ch ina</w>
coun ty</w>
we ights</w>
we sterners</w>
ci t</w>
ci dent</w>
over use</w>
over la
over ies</w>
over loaded</w>
over haul</w>
ff e
ff us</w>
ear ning
ke ted</w>
ke ys</w>
Republic ans
sur pl
sur faced</w>
sur fing</w>
to day
per mis
ap preci
gi ft</w>
pe z</w>
pe of</w>
pe er</w>
pe er-to-
adul ts—
fa c</w>
fa st-
fa st-growing</w>
lin er</w>
vot al</w>
qu est</w>
qu anti
qu iz-
gr ity</w>
gr ant</w>
gr ants</w>
gr ams</w>
gr ounding</w>
du s</w>
du ties</w>
du al-
is land
for c
for ce
for ums</w>
oo ks</w>
-in- five</w>
-in- hand</w>
econ om</w>
inc u
inc ep
fol k</w>
ing /
tic ut</w>
ir o</w>
ir on
ir relevant</w>
clo sers</w>
clo sures</w>
rec alled</w>
rec essi
rec eded</w>
mar ch</w>
poli ten
poli cy
ini que</w>
acc usations</w>
fe es</w>
fe dfoods</w>
fe elit</w>
ge able</w>
ge dly</w>
In te
In do
In ácio</w>
In cident</w>
ow ing</w>
dec ently</w>
dec ides</w>
dec rying</w>
dec lare</w>
str ong
str ang
compar ative</w>
inter n
tri x</w>
ran ted</w>
te m</w>
lu ck</w>
es thood</w>
Ch all
favor a</w>
favor able
ili es</w>
Tr ue</w>
tw in</w>
sup posed</w>
year from</w>
year long</w>
rea k</w>
grou ping</w>
pa ints</w>
thre efold</w>
pri esthood</w>
id ation</w>
id ate</w>
id den</w>
Wh ereas</w>
stor ing</w>
ta ught</w>
govern s</w>
elec ts</w>
19 ,
19 6</w>
19 51</w>
19 55</w>
19 77</w>
19 -point</w>
19 40
chan ge
em ent
em ic</w>
em pow
ser ge
ser mon</w>
posi ti
posi tivity</w>
of Americans</w>
of news</w>
of Hispanic</w>
of job</w>
of China</w>
of Hispanics</w>
of children</w>
of workers</w>
of households</w>
of fiscal</w>
of officers</w>
of marijuana</w>
of -year</w>
of 16-</w>
of u.S</w>
fin e</w>
fin ite</w>
fin als</w>
sc at
sc ared</w>
high ly-
Ab ove</w>
ough s</w>
Con tra
Con siders</w>
ali ens</w>
ali stic</w>
ali ob</w>
ten ance</w>
ten ures</w>
soci alist</w>
soci eties</w>
ph e</w>
ph en</w>
ni vores</w>
Ob rad
rel ax</w>
mu tual</w>
la b</w>
la sts</w>
la yed</w>
la hom
la dies</w>
differ ential</w>
he v</w>
he ir</w>
he ated</w>
do ch</w>
do ors</w>
rac ed</w>
rac ist</w>
spec tive</w>
fu sion</w>
all a</w>
off ending</w>
off ense</w>
off fan
off erings</w>
row ing</w>
ru shed</w>
pres sions</w>
pres sures</w>
shi ers</w>
tur n
tur ation</w>
dat ase
pen d
pen d</w>
serv ic
An nu
form ations</w>
form erly</w>
war -
war d
war iness</w>
war rant</w>
war zene
war ranted</w>
Mo hamed</w>
Mo ammar</w>
Par ticul
Par agu
Par enthood</w>
ani ans</w>
gener ic</w>
gener al-
one ously</w>
out breaks</w>
ga thered</w>
Euro scep
comm ission</w>
comm onplace</w>
enti le</w>
St ation</w>
af amily</w>
leve ling</w>
percent of</w>
peri al</w>
Inter racial</w>
Inter ested</w>
fac tor
chil dr
chil lier</w>
presi d</w>
Un sure</w>
Un rest</w>
Un accompanied</w>
oc alls</w>
depen ds</w>
depen dents</w>
main tenance</w>
Pre ssed</w>
Pre liminary</w>
Pre ferred</w>
hi jacking</w>
har ms</w>
har ming</w>
har sher</w>
e- adjusted</w>
e- Taiba</w>
mon es</w>
disa grees</w>
ell ar</w>
sub -
sub way</w>
sub side</w>
up grad
up set</w>
der for</w>
der gar
ste ver</w>
Vi ktor</w>
cor d</w>
ilit y-based</w>
fam ous</w>
sm all-
comp atriots</w>
marri ed
cri ses</w>
analy ses</w>
gu ine</w>
deb ts</w>
deb ris</w>
go ti
go ers</w>
go sla
av or</w>
av al</w>
ven ile</w>
ven tions</w>
log s</w>
co ot
ari se</w>
non supporters</w>
non probability</w>
exp licitly</w>
Me an</w>
Me Too</w>
Me asles</w>
Me trix</w>
Po d
Po int</w>
Per c
Per f
Per son</w>
Per ot</w>
inf ants</w>
bi -partisan</w>
mid career</w>
four -
four th-largest</w>
four th-</w>
Ac adem
mi sts</w>
Ma ine</w>
Ma y-June</w>
Ma uritania</w>
Asi a/
Ca iro</w>
auth ors</w>
contr ary</w>
ew ed</w>
fore see</w>
Over view</w>
authori ze</w>
fre sh</w>
fre eing</w>
aff ording</w>
aff ordable</w>
bro ther</w>
cle aring</w>
To ols</w>
Li st
bu tton</w>
ide alsituation</w>
sec uring</w>
sec ession</w>
ed ic
ed ited</w>
finan cialsituation</w>
lat ors</w>
lat ures</w>
nu kes</w>
nu clear-
En g</w>
En tries</w>
Jan ata</w>
tra -
tra in</w>
tra ined</w>
clim at
imp or</w>
Gre ens</w>
dro ve</w>
hand les</w>
hand s-on</w>
hand -in-hand</w>
Dec rease</w>
refuge es.
part y
Pe ak</w>
Pe aked</w>
mem ory</w>
ris m</w>
non- coverage</w>
non- whites</w>
non- working</w>
non- Muslim</w>
non- dis
non- book</w>
non- veterans</w>
non- criminal</w>
non- daters</w>
non- caregivers</w>
non- EU-
non- practicing</w>
Di versity</w>
Di plom
ak in</w>
pan ding</w>
tre ating</w>
coronavi rus
thr one</w>
satis fying</w>
satis fied
org ans</w>
Su b</w>
Su per
Su perior</w>
three- way</w>
admini strators</w>
bac hev</w>
Tur ned</w>
estim ation</w>
tech nical</w>
Le e</w>
Le ave</w>
Fac ing</w>
respec t
great deal</w>
tit led</w>
broad est</w>
broad ca
1. 0</w>
1. 25</w>
dic t
stat ure</w>
stat us-
substan ce</w>
Im pressions</w>
Im perial</w>
sever alyears</w>
Fe ar</w>
fall out</w>
dis continu
dis connect</w>
amoun ted</w>
Sup porting</w>
Com mon
Mid career</w>
Mid western</w>
Mid westerners</w>
Al i</w>
Al together</w>
Al abama</w>
air time</w>
Bu y</w>
Bu sh
Bu ying</w>
Bu sh-
Econom ics</w>
Econom ies</w>
bal ah</w>
vol atile</w>
ho stages</w>
sol ved</w>
att a</w>
att achment</w>
acti vit
regul arity</w>
regul ators</w>
consid eration</w>
10 0
10 4</w>
10 6</w>
10 4th</w>
2. 0</w>
Ex change</w>
Ex cessive</w>
Ex panding</w>
Prote sts</w>
onal -
graph ics</w>
ju st
ju ries</w>
trac ted</w>
trac ial</w>
Wor ked</w>
under way</w>
under going</w>
under graduates</w>
under writing</w>
ID EN
fair amount</w>
regar ds</w>
one-in- twenty</w>
Twit terers</w>
dr ink</w>
dr inks</w>
stri ke</w>
pat ernity</w>
Bar bar
Gen -
Ad versary</w>
Sh inzo</w>
Cu ts</w>
hum anity</w>
Rec ep</w>
Rec ipi
Jo b
environ ment
Bo y</w>
Bo ard</w>
Bo livia</w>
man n</w>
man ner</w>
man aged</w>
Catholic -majority</w>
conflic t-
advan cing</w>
star ter</w>
So le</w>
know /
ment of</w>
The m</w>
dri vers</w>
ful fill</w>
Fav ors</w>
char ging</w>
char acter</w>
bene fit
lan ding</w>
lan do</w>
sen ger</w>
possi bilities</w>
mis sing</w>
mis sions</w>
not -
not es</w>
not Hispanicor</w>
domin ance</w>
domin ating</w>
reduc tions</w>
wat ches</w>
ther ap
198 9/
bo ve</w>
bo il</w>
bo xes</w>
bo gus</w>
congre ssi
les sen</w>
feel about</w>
see ker</w>
to- do</w>
sexu ality</w>
ber ry</w>
call ous</w>
pas senger</w>
deal /Fair</w>
nomin a</w>
prefer ential</w>
5. 01</w>
work ings</w>
tele work</w>
tele worked</w>
tele vised</w>
Favor a</w>
18 4</w>
18 00s</w>
measu rement</w>
measu rements</w>
Sur passes</w>
asi onal</w>
cre d
cre w</w>
cre ators</w>
d- active</w>
d- Pressed</w>
top -
comple ters</w>
Te ach
Te gn
disc over</w>
disc overies</w>
school children</w>
prin ts</w>
Medi um</w>
Isl and</w>
year- round</w>
Pri de</w>
cul ated</w>
asses sed</w>
nee ding</w>
nin e-
stra igh
stra ined</w>
1, 2
1, 6
1, 600</w>
1, 197</w>
foreign .
foreign -</w>
ob lasts</w>
-to- 24</w>
-to- 64</w>
tici ans</w>
eli tes</w>
eli minate</w>
eli cit</w>
inve sted</w>
restric tive</w>
Thre e-in-four</w>
Islam ist</w>
Pol lution</w>
Pol ygamy</w>
dra ft</w>
suc cessive</w>
Cub an-origin</w>
Poli ticians</w>
ren ew</w>
sk in</w>
He alth
Popul a</w>
Popul ations</w>
Popul arity</w>
hom o
hom eland</w>
mid- 2016</w>
mid- market</w>
mid- summer</w>
mid- 2000s</w>
mid- 1980s</w>
optim ists</w>
Ne utr
twee ting</w>
sympath izing</w>
indic ations</w>
activi sts</w>
necess ity</w>
shor es</w>
shor tage</w>
multi -
fun d</w>
fun ds</w>
vic tories</w>
vic timizations</w>
Sec uri
chec ked</w>
recover ies</w>
Lib yan</w>
7. 25</w>
ca sus</w>
well -</w>
Excell ent/</w>
Mar t</w>
Mar gin</w>
Mar yland</w>
Mar zou
Rom antic</w>
contribu tion</w>
cir cul
stand ardi
Comm unities</w>
anti- Jewish</w>
anti- Sem
0. 3</w>
car es</w>
car go</w>
car din
comb inations</w>
,00 1</w>
protec tions</w>
self- identification</w>
Ric her</w>
Some thing</w>
connec ts</w>
connec tedness</w>
tru sts</w>
Confi dent</w>
long- lasting</w>
LG B</w>
care fully</w>
Or leans</w>
Or bá
Or lando</w>
adop ted</w>
jud ge
jud ged</w>
logi c</w>
logi st</w>
reflec tive</w>
assi stant</w>
treat y</w>
Be ar</w>
vir gin</w>
prev ented</w>
excep tionally</w>
nation als</w>
clu bs</w>
dom estically</w>
Sil va</w>
Posi tives</w>
Sahar an.
lac ement</w>
s- related</w>
s- based</w>
knowled geable</w>
tran sp
Govern or</w>
Govern ments</w>
Mu ham
bas sa
bas sy</w>
impres sed</w>
impres sive</w>
well- publicized</w>
50 -year</w>
stre et</w>
sli p</w>
correc ted</w>
inci dence</w>
ici ans</w>
ici ary</w>
diplom ats</w>
Sp li
Sp ike</w>
Sp itzer</w>
11 -
11 th</w>
11 -country</w>
Cri mson</w>
Str ength</w>
Indepen dence</w>
tion a</w>
execu tion</w>
plan es</w>
plan et</w>
plan ets</w>
second- best</w>
br and</w>
a- half</w>
Qu ite</w>
Qu iz</w>
Qu ick</w>
pic ks</w>
1,00 8</w>
For ec
For ward</w>
For tune</w>
Ser bia</w>
bar rel</w>
post- 2000</w>
post- World</w>
enrol lments</w>
AA M</w>
Gr ound</w>
yon ic</w>
High -
High er-income</w>
cha ir</w>
cha sed</w>
fru strations</w>
2, 4
2, 504</w>
Mi x
Mi am
Mor al</w>
Mor ning</w>
Disa p
Disa gre
Disa bled</w>
Disa sters</w>
Wi der</w>
challeng ers</w>
Differ ence</w>
3, 2
3, 600</w>
Bl ago
th- grade</w>
disagre eing</w>
Marri ages</w>
pi lot</w>
pi votal</w>
arch i
fif ths</w>
wom en
err oneously</w>
enh anced</w>
cyc lical</w>
25 +</w>
25 th</w>
25 -point</w>
pre- emin
Ga .</w>
10. 8</w>
11. 7</w>
insur gents</w>
reve aling</w>
stag gering</w>
Ro ss</w>
sent ences</w>
Rep u</w>
Rep /lean</w>
perc entile</w>
doub tful</w>
doub tless</w>
deep en</w>
Min ds</w>
Min nes
home ownership</w>
home maker</w>
ech an
One-in- three</w>
Fi g</w>
Fi elds</w>
Har der</w>
Har vard</w>
Har d-Pressed</w>
purcha se</w>
purcha sed</w>
Non- Mexican</w>
Regi stration</w>
Clo sest</w>
bab we</w>
win ds</w>
win ners</w>
promo tion</w>
30 0,000</w>
Ham ilton</w>
Ke eping</w>
re- use</w>
re- establishing</w>
re- entrants</w>
re- establishment</w>
Respon sible</w>
iz es</w>
reti re
distr action</w>
chi efs</w>
Mal ta</w>
Mal ala</w>
far ing</w>
far ms</w>
trans formation</w>
evol ving</w>
Ear l</w>
Four th</w>
Four -in-Ten</w>
Mat ters</w>
lap tops</w>
popu lists</w>
weigh ing</w>
mean ors</w>
ordin arily</w>
Aff ect</w>
Off icial</w>
Off ensive</w>
ly —
s— a</w>
s— the</w>
12 2,000</w>
Fir st-</w>
Hom es</w>
tel -related</w>
inst all</w>
oper ated</w>
oper ators</w>
Gree k-
sugge s
40 ,
40 -year</w>
40 -Year</w>
enjo yable</w>
if gene</w>
poor -quality</w>
Deb tors</w>
Deb t-
confir ming</w>
Presi dency</w>
Ukraini an-
1,50 7</w>
Go t</w>
cau tion</w>
Constitu ent</w>
refer ence</w>
Mit ch</w>
SN S
SN RA</w>
tou rists</w>
manag er</w>
distinc tive</w>
Sou theast</w>
ation —
predic tions</w>
person alization</w>
person alities</w>
trave ls</w>
17 ,000</w>
17 89</w>
Pl ay</w>
Pl ace</w>
y/ because</w>
two- way</w>
two- party</w>
Prob ability</w>
announ ce</w>
announ cements</w>
sw ing</w>
sw ung</w>
sett lement</w>
expl ore</w>
infec tions</w>
Liber tari
Tri poli</w>
modi fied
modi fedfoods</w>
compe ted</w>
15 th</w>
15 -year-olds</w>
Bur me
Bur den</w>
Il lent</w>
Lo ws</w>
Lo ses</w>
cro ssings</w>
fo iled</w>
nor theast</w>
nor mal</w>
desi r
desi res</w>
gov 't
Foreign ers</w>
Salvador an-origin</w>
Out lets</w>
Out lays</w>
jum ping</w>
kin dergar
ple as
trad e
trad ed</w>
recogni zed</w>
Sub urban</w>
Lu iz</w>
Ste vens</w>
Ste phen</w>
remo vals</w>
remo tely</w>
recomm end</w>
recomm ends</w>
alle vi
alle gedly</w>
Dem /</w>
Dem /lean</w>
7, 2
Ban g</w>
Ban ks</w>
Bec ome</w>
Bec oming</w>
Sch warzene
lab els</w>
concent rations</w>
misu sing</w>
Admini stered</w>
Hondur ans</w>
Eff ects</w>
War s</w>
AN T</w>
tex ters</w>
enter tain
proper ly</w>
plum met</w>
emb raced</w>
Conver ts</w>
Associ ate</w>
attemp ting</w>
1,0 12</w>
El ena</w>
Nic ol
ema iling</w>
ograph ical</w>
medic al
medic ations</w>
Stat ements</w>
Ber nard</w>
reb ounding</w>
conclu sive</w>
9, 8
9, 800</w>
Ben edic
IN C</w>
Ka Zaa</w>
Lin k</w>
Secon dary</w>
Snow den-
mer ger</w>
mach ine</w>
get from</w>
Moder n</w>
guar ded</w>
Advan tages</w>
profess or</w>
Organiz ations</w>
70 8</w>
Bal lot</w>
hal fof</w>
subscri ptions</w>
near- minimum-wage</w>
federal governments</w>
Mem orial</w>
NO MY</w>
Ta x</w>
dimini shing</w>
demon strators</w>
five -point</w>
five fold</w>
Institu tion</w>
Hispanic s
Hispanic s/
right- of-center</w>
Impro ves</w>
Impro ved</w>
Impro vement</w>
8, 2
D. R</w>
Pr int</w>
depres sed</w>
grand parent</w>
laun ching</w>
presidenti aliob</w>
princip als</w>
objec tions</w>
majority- male</w>
16. 1</w>
16. 9</w>
17. 4</w>
17. 3</w>
Ve gas</w>
Ve hic
Val ue</w>
cat astro
cat chall</w>
o- Japanese</w>
occurr ence</w>
news lett
Leve l</w>
Spec ter</w>
14 -point</w>
14 -country</w>
Fun k</w>
ME Ps</w>
Mari a</w>
Sel f</w>
ram ific
til ts</w>
essi ties</w>
sensi tivity</w>
Finan cially</w>
Conflic ts</w>
Tan k</w>
mand ated</w>
Indu stry</w>
think it</w>
18. 7</w>
18. 6</w>
appoint ment</w>
13 -point</w>
Cor por
Cau casus</w>
Hin di</w>
Land line</w>
bran ches</w>
mun ications</w>
obe se</w>
annu alized</w>
stop ping</w>
lot of</w>
adher ence</w>
mail -order</w>
Sym pathetic</w>
endor sed</w>
Linked in</w>
Ecuad or</w>
Assa ult</w>
EU is</w>
cur tail</w>
cur bside</w>
hy dro
sl ated</w>
extr amarital</w>
wed ding
Star ting</w>
Star bu
Accep tance</w>
Wee kday</w>
Experi ences</w>
mortg ages</w>
Civi lian</w>
50. 9</w>
Nat ural</w>
RT ANT</w>
Wat ching</w>
Wit ness</w>
brow sing</w>
clin ics</w>
cru ise</w>
uph old</w>
uph olding</w>
repu tations</w>
repe atedly</w>
government -
contin ental</w>
much /</w>
first- generation</w>
Peruvi an-origin</w>
contrac tor</w>
Enter prise</w>
Leg alizing</w>
Exp ect</w>
birth rate</w>
single- family</w>
prevail s</w>
deterior ate</w>
deterior ating</w>
teenag er</w>
60 3</w>
CH A</w>
CH ART</w>
Dri ving</w>
Gar land</w>
Lim its</w>
fini shing</w>
than ks</w>
inte met</w>
inte gration</w>
fire works</w>
fire arms</w>
assum ption</w>
forec a
third- largest</w>
Part nership</w>
Part y—
Stu dies</w>
Occ asional</w>
succee ding</w>
func tions</w>
Ecuadori an-origin</w>
Sw at</w>
Skep tics</w>
TH E</w>
Ur du</w>
Zim babwe</w>
fli p</w>
fron ts</w>
moun ted</w>
swit ch</w>
tag ged</w>
vac ant</w>
vac ancy</w>
vali d</w>
anxi eties</w>
arti sts</w>
they favor</w>
belong ed</w>
ultim ate</w>
pro- Russian</w>
accel erate</w>
smartphone- using</w>
smartphone- dependent</w>
valu ed</w>
Libr aries</w>
trust ful</w>
lack luster</w>
30- May</w>
Techno logical</w>
Dro p
Dro p</w>
Dom inique</w>
Pa ying</w>
Rul ing</w>
Sta lin</w>
Sta unch</w>
hor rific</w>
hor mones</w>
mag ni
time frame</w>
the- counter</w>
stam p</w>
American /</w>
faste st-</w>
Individu als</w>
borrow ing</w>
10, 5
2,2 45</w>
2,2 52</w>
custom er</w>
Trib al</w>
Substan tially</w>
Nicaragu an</w>
Nicaragu ans</w>
English- language</w>
EU- Turkey</w>
Anti- Muslim</w>
Anti- Terrorism</w>
anonym ity</w>
6- item</w>
Air bn
Ea ster</w>
Gor bachev</w>
han ging</w>
conver gence</w>
explan ation</w>
overshad ow</w>
escal ate</w>
take overs</w>
Analy zing</w>
Compu ters</w>
doctor ates</w>
foot age</w>
foot print</w>
foot prints</w>
Natur a</w>
Occup ations</w>
22 -year</w>
88 0,000</w>
88 9,000</w>
Att acks</w>
Low -
Mur der</w>
Mur doch</w>
Sol ving</w>
cli ps</w>
i. e</w>
mom ents</w>
rob ocalls</w>
sil ver</w>
most- used</w>
Reg ular</w>
Reg ularly</w>
preci se</w>
preci sion</w>
unfol ded</w>
quad rennial</w>
interpre tation</w>
licen sed</w>
Pres sure</w>
Provi ded</w>
Proposa l</w>
question n
question ing</w>
Middle -income</w>
human jobs</w>
collabor ative</w>
incarcer ated</w>
36 -point</w>
Brea king</w>
DI K</w>
Hil oni</w>
Nomin ation</w>
Nomin ating</w>
Pi S</w>
Plat forms</w>
Tor rent</w>
Wil son</w>
ty peof</w>
erran ds</w>
commu tations</w>
prosp erous</w>
peti t</w>
geograph ically</w>
Inclu ding</w>
immigran t
problem -
campaign against</w>
occa sions</w>
patrio tism</w>
distingu ished</w>
acqui red</w>
advoc acy</w>
stereotyp e</w>
Assi sted</w>
Kor an</w>
Squ ee
cra ft</w>
ko sher</w>
nav al</w>
ard working</w>
stal ked</w>
rival ry</w>
20. 5</w>
20. 4</w>
dest ination</w>
Thom pson</w>
best describes</w>
over- covered</w>
escap ed</w>
Chec k</w>
Chec king</w>
higher- generation</w>
Connec ticut</w>
Feder ation</w>
Feder ally</w>
Alber t
Alber to</w>
Buil ding</w>
Recei ve</w>
Recei ved</w>
school- based</w>
Very/ Somewhat</w>
Two- Thirds</w>
church goers</w>
employment -related</w>
employment -population</w>
flagge d-active</w>
left- of-center</w>
recipi ent</w>
31- Sept.</w>
Agen cies</w>
Do ing</w>
IT Y</w>
Mes sa
Minu shkin</w>
Pent eco
bre ast</w>
e. g</w>
e. g.</w>
kh wa</w>
nur ses</w>
rad ar</w>
inno vation</w>
inno vations</w>
acknowled ging</w>
countr ymen</w>
Invol vement</w>
interven e</w>
offull -</w>
clear- cut</w>
implement ed</w>
implement ation</w>
Comb ining</w>
Adv enti
there of</w>
1,4 80</w>
resem ble</w>
intensi fied</w>
stagn ated</w>
censu s-
Panamani an</w>
Langu ages</w>
Long- Term</w>
Ahmad is</w>
26- Aug.</w>
47 -nation</w>
Black berry</w>
Est ab
Est onia</w>
Fail ures</w>
Ju l</w>
Obe sity</w>
Obe dience</w>
Spo ken</w>
Sev enty</w>
Vol untary</w>
ensu ing</w>
aband oned</w>
dism is
diversi fied</w>
mosqu itoes</w>
shu ttle</w>
Remo val</w>
Remo vals</w>
opt- in</w>
opt- out</w>
promp ted</w>
promp ting</w>
che ap
lower- middle</w>
quin tile</w>
Chi leans</w>
center- right</w>
center- left</w>
Modi fied</w>
disadvan tage</w>
famil y-related</w>
co- religion
widely- used</w>
Supple ment</w>
Supple mental</w>
ballo on</w>
congreg ational</w>
congreg ants</w>
more- educated</w>
transpar ent</w>
transpar ency</w>
2,3 15</w>
3,7 48</w>
Appe al</w>
astro logy</w>
conveni ent</w>
conveni ence</w>
integ rated</w>
acquisi tion</w>
acquisi tions</w>
highest- earning</w>
dynam ic</w>
dynam ics</w>
traffic king</w>
2,0 15</w>
75 ,000
Hop es</w>
Ir ma</w>
ON E</w>
Pur chased</w>
Pul se</w>
Pris oners</w>
Rol l</w>
Sear ch</w>
Ty phoon</w>
dwar f</w>
flat ten</w>
nigh tly</w>
rum ors</w>
sle ep</w>
sinc ere</w>
tack ling</w>
yment rate</w>
zak at</w>
onlin e
rest room</w>
lif ted</w>
live streamed</w>
liter acy</w>
roc keted</w>
stap h</w>
amend ments</w>
Reb ounds</w>
best- known</w>
extra ordinarily</w>
unilater ally</w>
overdo se</w>
quer ied</w>
accum ulated</w>
plas tic</w>
supple ment</w>
privi leges</w>
19- Aug</w>
laz y</w>
black -
Russian- speakers</w>
cohe sion</w>
infrequ ently</w>
Asian- American</w>
information- sharing</w>
Legis latures</w>
disrup tions</w>
poll sters</w>
misde meanors</w>
October- April</w>
libertari ans</w>
Islamic religion</w>
video- sharing</w>
professi onals</w>
Arab- American</w>
stret ch</w>
Minim um</w>
Orthodox -majority</w>
Holi day</w>
competit or</w>
bottom ed</w>
job- seeking</w>
lot/ some</w>
GOP- led</w>
frontrun ner</w>
suspici ous</w>
incorpor ate</w>
Doub t</w>
Middle- Income</w>
Center/ USA</w>
Catal ans</w>
grocer y</w>
Luhans 'k</w>
Alex is</w>
Donets 'k</w>
Shoot ing</w>
would /would</w>
mascul ine</w>
Achi evements</w>
Categ ory</w>
Full -Time</w>
Gow alla</w>
Gran d
Gall ery</w>
Gene tically</w>
Home owners</w>
Hai yan</w>
Lou is</w>
Mand ate</w>
PLO Y
Rus h</w>
Saf e</w>
Scar ce</w>
ahe ada</w>
crac kdown</w>
gover n</w>
hon or</w>
je alous</w>
jour ney</w>
labor -force</w>
rt phone</w>
san guine</w>
squar ely</w>
upri sing</w>
in. Afghanistan</w>
invit ations</w>
enth used</w>
resur gence</w>
rememb ered</w>
room mate</w>
whati s</w>
veri fied</w>
conce de</w>
old- fashi
shel ter</w>
depic ted</w>
ular ism</w>
Detro it</w>
Desk top</w>
assimil ation</w>
wea kest</w>
metr ics</w>
appar ently</w>
appen dix</w>
rain b
Incumb ency</w>
electi on-related</w>
offore ign</w>
out- earn</w>
legal status</w>
facul ty</w>
probab ility-based</w>
news- oriented</w>
lobby ists</w>
criti que</w>
Artic le</w>
Armen ia</w>
free zing</w>
clear ance</w>
courte ous</w>
nug gets</w>
party/ ideology</w>
Frank lin</w>
Alb ania</w>
Expl oration</w>
Bosni a</w>
end- of-year</w>
computer ization</w>
purpose ful</w>
eviden ced</w>
asylum- seekers</w>
Sikh s</w>
Micro soft</w>
Sala fist</w>
permanent residents</w>
Broo kings</w>
full- power</w>
30,000 -</w>
Foot ball</w>
listen ership</w>
Withdraw al</w>
acquitt al</w>
Princ ess</w>
IMPO RTANT</w>
exhib ited</w>
people who</w>
Methodi sts</w>
uneth ical</w>
dwind led</w>
good will</w>
illegal- drugs</w>
Falluj ah</w>
Lashkar- e-Taiba</w>
mammo gram</w>
telecom munications</w>
delinqu ent</w>
15. 77</w>
Athe ists</w>
Aur ora</w>
Aud ited</w>
Austi n</w>
AME RICANS</w>
Bt u</w>
Bit Torrent</w>
Bhar atiya</w>
Bach mann</w>
Base ball</w>
Ce iling</w>
Cum ulative</w>
Cyp rus</w>
Copen hag
Dil ma</w>
Dall as</w>
EM PLOY
Ech o</w>
Even ing</w>
ECO NOMY</w>
Etta kat
Hof stra</w>
Isa ac</w>
Iden tical</w>
Jong -un</w>
Kal enjin</w>
Kab balah</w>
Kant ar</w>
Khy ber</w>
Ló pez</w>
Lay offs</w>
Mumb ai</w>
Ok lahom
Om nivores</w>
Oak land</w>
Pak htun
Plac es</w>
Ren ewed</w>
Rut gers</w>
Sin o-Japanese</w>
Sat ur
Scri pps</w>
Simp son</w>
SCH OOL</w>
Ton ight</w>
Tag alog</w>
Tene t</w>
Valle y</w>
Wal- Mart</w>
Yu gosla
jev ich</w>
naï ve</w>
plea sure</w>
inherit ance</w>
albe it</w>
roff icers</w>
omni bus</w>
siblin gs</w>
diag onal</w>
disci pline</w>
sudden ly</w>
ammuni tion</w>
confin ed</w>
have- nots</w>
Research /
Thous ands</w>
Amend ment</w>
compl ain</w>
compul sory</w>
prosel y
terrestri al</w>
prescri ption</w>
file- sharing</w>
unpreced ented</w>
overla p</w>
surpl uses</w>
permis sive</w>
appreci ate</w>
peer-to- peer</w>
quiz- takers</w>
incep tion</w>
politen ess</w>
Indo china</w>
1940 S</w>
Contra sting</w>
Obrad or</w>
offfan cially</w>
datase ts</w>
Paragu ay</w>
Euroscep tic</w>
childr en
upgrad ing</w>
Asia/ Pacific</w>
nuclear- armed</w>
non-dis closers</w>
non-EU- EFTA</w>
coronavirus -related</w>
broadca sters</w>
Bush- era</w>
activit y/because</w>
Barbar a</w>
Recipi ents</w>
1989/ 1991</w>
Tegn a</w>
Neutr a</w>
Securi ties</w>
Marzou ki</w>
standardi zed</w>
anti-Sem i
Orbá n</w>
Blago jevich</w>
Minnes ota</w>
Greek- language</w>
modified .foods</w>
gov't job</w>
kindergar ten</w>
Snowden- NSA</w>
catastro phe</w>
newslett ers</w>
ramific ations</w>
wedding -related</w>
Airbn b</w>
Squee zed</w>
Penteco stal</w>
co-religion ists</w>
old-fashi oned</w>
Copenhag en</w>
Ettakat ol</w>
Oklahom a</w>
Pakhtun khwa</w>
' o</w>
' S</w>
' most</w>
' et
' middle</w>
' sometimes</w>
' warmly</w>
' terrible</w>
' disapproving</w>
' skeptics</w>
+ 30</w>
+ 0.
, 8
, 9
, 100</w>
- S
- tim
- 50</w>
- 10</w>
- percentage</w>
- 2014</w>
- 45</w>
- 40</w>
- 31</w>
- 21</w>
- policy</w>
- 42</w>
- Mexico</w>
- based</w>
- Sa
- minority</w>
- Population</w>
- Jan.</w>
- specific</w>
- Christian</w>
- Nov.</w>
- sector</w>
- week
- Shia</w>
- romantic</w>
- wearing</w>
- loan</w>
- Hezbollah</w>
- mode</w>
- Long</w>
- Minim
- Contr
- Toome
- Year
- lea</w>
- 0.3</w>
- Saharan.
- Assisted</w>
- Incumbency</w>
. 4
. 8
. a
. 7</w>
. 5</w>
. 9</w>
. at</w>
. 44</w>
. friends</w>
. app</w>
. 400</w>
. com</w>
. D.</w>
. 0f
/ most</w>
/ very</w>
/ other</w>
/ less</w>
/ Democratic</w>
/ Republican</w>
/ women</w>
/ favor</w>
/ 41</w>
/ Latinos</w>
/ German</w>
/ Rep</w>
/ Will</w>
/ minor</w>
/ laptop</w>
/ loss</w>
/ hour</w>
/ Kaiser</w>
/ email
0 99</w>
1 N
1 10</w>
1 11</w>
1 24</w>
1 28</w>
1 26</w>
1 52</w>
1 13</w>
1 51</w>
1 54</w>
1 60</w>
1 33</w>
1 56</w>
1 63</w>
1 68</w>
1 74</w>
1 79</w>
1 3,000</w>
1 2.1</w>
1 3.5</w>
1 3.6</w>
1 5.6</w>
1 5.3</w>
1 5.2</w>
1 4.5</w>
2 –
2 P</w>
2 th</w>
2 12</w>
2 25</w>
2 52</w>
2 21</w>
2 51</w>
2 1.2</w>
2 -percentage-point</w>
2 2.8</w>
2 4.2</w>
2 2,000</w>
2 6,000</w>
2 5.5</w>
2 7.5</w>
2 7.4</w>
2 5.8</w>
2 9.2</w>
2 9.5</w>
2 5.0</w>
2 1,9
3 8
3 18</w>
3 29</w>
3 24</w>
3 26</w>
3 47</w>
3 84</w>
3 5,000</w>
3 1,000</w>
3 2,
3 2.2</w>
3 3,000</w>
3 4.2</w>
3 3.5</w>
3 2,000</w>
3 3.9</w>
3 1.6</w>
3 6,
3 9,000</w>
3 1.1</w>
3 5,
3 1.9</w>
3 6.7</w>
3 8.5</w>
3 3,8
3 3.8</w>
3 9.9</w>
3 0.7</w>
3 7.8</w>
4 +</w>
4 43</w>
4 21</w>
4 42</w>
4 58</w>
4 0,000</w>
4 1,
4 8.
4 1.2</w>
4 8,000</w>
4 4.1</w>
4 6.6</w>
4 6,000</w>
4 3.6</w>
4 6,
4 4.7</w>
4 9.6</w>
4 4-year-olds</w>
4 5,
4 5th</w>
4 1.7</w>
4 7.5</w>
4 7,000</w>
4 6.9</w>
4 8.6</w>
4 7.1</w>
4 9.2</w>
4 25,000</w>
4 -in-10</w>
4 7.9</w>
4 23,000</w>
4 64,000</w>
4 9,800</w>
5 7
5 8
5 40</w>
5 62</w>
5 5,000</w>
5 1.2</w>
5 4.2</w>
5 1,0
5 1.8</w>
5 5.4</w>
5 5,
5 6.7</w>
5 4.3</w>
5 5.0</w>
5 13,
6 25</w>
6 78</w>
6 82</w>
6 87</w>
6 1,000</w>
6 4,
6 2.2</w>
6 3,000</w>
6 96</w>
6 -percentage-point</w>
6 6.6</w>
6 3.9</w>
6 5.6</w>
6 1.8</w>
6 3.2</w>
6 9.3</w>
6 5.7</w>
6 0.6</w>
6 6.1</w>
6 28,000</w>
7 .</w>
7 th</w>
7 69</w>
7 73</w>
7 18
7 -point</w>
7 95</w>
7 -percentage-point</w>
7 2.8</w>
7 7,
7 1.6</w>
7 8,
7 3.7</w>
7 5,
7 7.5</w>
7 3.3</w>
7 8.4</w>
7 5.0</w>
7 -April</w>
7 7.9</w>
7 -July</w>
7 38,000</w>
8 3
8 5
8 6
8 M</w>
8 22</w>
8 1,000</w>
8 16
8 -percentage-point</w>
8 6,000</w>
8 5.9</w>
8 —are</w>
9 65</w>
9 87</w>
9 5,000</w>
9 6,
9 20,000</w>
: 1</w>
A B
A V
A .</w>
A M</w>
A C</w>
A b</w>
A th
A ir</w>
A ss</w>
A NE
A MO
A TS</w>
A ST</w>
A TED</w>
B a</w>
B ab
B ad
B ol
B rac
B ak
B lac
B leak</w>
B acking</w>
B ER</w>
B logs</w>
C I
C L
C U
C O</w>
C A</w>
C E</w>
C T</w>
C Q</w>
C ur
C op
C ut</w>
C lu
C la
C all
C rating</w>
C ard</w>
C ele
C ata</w>
C ulture</w>
C rai
C BP</w>
C .-
C ens
D K
D j
D w
D ial</w>
D illing</w>
D ai
D anger</w>
D arren</w>
D ull</w>
D NC</w>
E L
E X
E h
E x</w>
E W</w>
E ro
E ve</w>
E ver
E ur
E ver</w>
E dis
E quality</w>
E NE
E scape</w>
E spa
F L
F ar
F at
F le
F ile</w>
F lin
F rac
F loo
F ai
F ights</w>
F lag</w>
F emal
F alling</w>
F arming</w>
F ading</w>
F DA</w>
F EW</w>
G an
G ri
G em
G rab</w>
G AL</w>
G asoline</w>
G ENE
H E</w>
H or
H ol
H um
H older</w>
H are
H IS</w>
H exag
H olding</w>
H obby</w>
H iron
H ONE</w>
H 1N
I Z
I t
I C</w>
I mu
I BL
I culated</w>
J a
J a</w>
J ay</w>
J ump</w>
J ack</w>
J eb
J ose</w>
J ournali
J UN
J ains</w>
K u
K ar
K re
K no
K ate</w>
K night</w>
K ansas</w>
K han</w>
L P
L a</w>
L A</w>
L ed</w>
L ent</w>
L ag
L am
L ight</w>
L ack
L ord</w>
L DP</w>
L earned</w>
L pipeline</w>
L LE
L IN</w>
L eno</w>
L obby</w>
M b
M t</w>
M .</w>
M s.</w>
M ight</w>
M ID
M any
M BS</w>
M ota</w>
M esh</w>
M anti</w>
M BE
N /
N O</w>
N G</w>
N ash
N atives</w>
N ame</w>
N uns</w>
N HS</w>
N ooks</w>
N aval</w>
N HIS</w>
O d
O s
O x
O T</w>
O ma
O per
O TE
O OO</w>
O uster</w>
P /
P S
P M</w>
P E</w>
P ic
P le
P il
P ap
P oo
P rac
P ad</w>
P ew
P uni
P ho
P anc
P RE
P DA
P ull
P aper</w>
P laying</w>
P SU
P Case-Shiller</w>
P DF</w>
P VV</w>
P receded</w>
P 2P</w>
P AC</w>
P HONE</w>
R V
R M</w>
R ap
R ide
R aul</w>
R AL</w>
R CES</w>
R enters</w>
R ATS</w>
S e</w>
S L</w>
S and</w>
S ac
S ent
S pre
S low
S years</w>
S of
S wi
S top</w>
S cor
S ure</w>
S mi
S ach
S ending</w>
S he</w>
S et</w>
S CO
S PE
S entiment</w>
S peak</w>
S lots</w>
S pretty</w>
S ony</w>
S TPP</w>
S CP
S OE
S peaking</w>
S DF</w>
S pend</w>
S coot
S IDEN
T Y</w>
T ar
T ab
T il
T ul
T ough
T radi
T ah
T IC
T ON</w>
T argu
T ables</w>
U L
U M
U s</w>
U se
U ru
U University</w>
U PDA
V ari
V anc
V az
V ox</w>
W u
W h</w>
W S</w>
W ed</w>
W es</w>
W om
W ol
W eigh
W illing</w>
W IN
W ery</w>
X i
X bo
X IC
X ON</w>
X Lpipeline</w>
Y E
Y i
Y S</w>
Y early</w>
a a
a than</w>
a is
a poli
a first</w>
a kers</w>
a ward</w>
a thing</w>
a problem</w>
a ways</w>
a ined</w>
a percent</w>
a ided</w>
b es</w>
b ation</w>
b un
b low
b acc
b lu
b ili
b ated</w>
b out
b ine</w>
b loc
b race</w>
b loo
b les
b illing</w>
b reaches</w>
b adly</w>
b ill-
c t</w>
c on</w>
c and</w>
c as</w>
c ans</w>
c inc
c king</w>
c lean
c ites</w>
c and
c ure</w>
c ture</w>
c ash
c ession</w>
c racy</w>
c cess</w>
d a
d f</w>
d d</w>
d —</w>
d ations</w>
d ant</w>
d ying</w>
d our</w>
d ently</w>
d au
d ale</w>
d les</w>
d man</w>
d ah
d journalists</w>
d lock</w>
d berg</w>
d entally</w>
d luck</w>
d 'et
e c</w>
e i</w>
e at
e ac
e le</w>
e en</w>
e ver
e sh
e be
e ding</w>
e ted</w>
e ye
e ligi
e tt
e yed</w>
e ania</w>
e pest</w>
e erly</w>
f .</w>
f ro
f most</w>
f ter</w>
f ell
f using</w>
f eration</w>
f legally</w>
f teen</w>
f ills</w>
f angry</w>
f Coast</w>
f aded</w>
g -
g ab
g ates</w>
g ger</w>
g ams</w>
g inning</w>
g inally</w>
g loom</w>
h m
h ed</w>
h ers</w>
h over
h all</w>
h one</w>
h est</w>
h its</w>
h ism</w>
h ool</w>
h stan</w>
h att
h anc
h ire</w>
h idden</w>
i su
i ding</w>
i str
i sion</w>
i Po
i tis
i ff</w>
i shing</w>
i OS</w>
i Mesh</w>
i Pad</w>
i bout
j j
j or</w>
j ew
j ail
j et
k le</w>
k ha
k no
k un
k age</w>
k id</w>
k ow
k up</w>
k ill</w>
k ak
k ened</w>
l f</w>
l by</w>
l ant</w>
l lion</w>
l ens</w>
l ment
l long</w>
l lowed</w>
l lesbians</w>
l le-
l l-
l unch</w>
m y
m u</w>
m it
m are</w>
m ic</w>
m igh
m id</w>
m ili
m its</w>
m ance</w>
m erg
m strong</w>
m end
m lin</w>
m sof</w>
m ation.
n an
n ts</w>
n ce</w>
n adi
n old</w>
n cumbent</w>
n stein</w>
n yn</w>
o y</w>
o o</w>
o v</w>
o th
o fi
o sc
o ked</w>
o comp
o logy</w>
o ath</w>
o logical</w>
o logists</w>
o dus</w>
p it</w>
p per
p ra
p light</w>
p le-
p raised</w>
p oul
p tion-
p .m</w>
p df</w>
r v
r s</w>
r ou
r li
r oun
r ons</w>
r age</w>
r ting</w>
r ned</w>
r itu
r rich</w>
r ental</w>
r ounds</w>
r itual</w>
s 1</w>
s z</w>
s ar
s to</w>
s se
s pu
s who</w>
s tion</w>
s ke
s by</w>
s tic
s lu
s its</w>
s own</w>
s and
s children</w>
s onally</w>
s power</w>
s ensus</w>
s lows</w>
s poli</w>
t .
t to</w>
t at
t and</w>
t our</w>
t acks</w>
t -leaning</w>
t ana</w>
t -to-
t taking</w>
t regulations</w>
t -to-one</w>
t man</w>
t els</w>
t forward</w>
t aper</w>
u ter</w>
u ence</w>
u ently</w>
v v
v in
v ing
v ani
v enti
v ors</w>
v enting</w>
v ulg
v owed</w>
v aping</w>
v enture</w>
w f</w>
w or</w>
w ic
w ama</w>
w ash
w iden</w>
w aged</w>
w aging</w>
w ere
w ali</w>
x ty-
y r</w>
y to</w>
y ance</w>
y ana</w>
y ard</w>
y ards</w>
y rocketed</w>
y oy</w>
z ones</w>
z ie</w>
á s</w>
é s</w>
í li
– expect</w>
— for</w>
— about</w>
— have</w>
— among</w>
— 41</w>
— fully</w>
th /
th al</w>
th as</w>
th ri
th is
th while</w>
th app
th western</w>
th son
th oughts</w>
in j
in o</w>
in -</w>
in the</w>
in ers</w>
in ment</w>
in gh
in spec
in sti
in our</w>
in 2016</w>
in 2015</w>
in 2014</w>
in os</w>
in 2010</w>
in ability</w>
in ating</w>
in take</w>
in significant</w>
in dig
in school
in security</w>
in t-
in ched</w>
in put</w>
in vad
in 1991</w>
in tance</w>
in adequate</w>
in sufficient</w>
in habit
in jur
in famous</w>
in ventions</w>
in conclusive</w>
in /loss</w>
an a
an e
an ten
an ics</w>
an ged</w>
an ai
an emic</w>
er t</w>
er k</w>
er are</w>
er ment</w>
er ates</w>
er als</w>
er ism</w>
er equ
er ies</w>
er son</w>
er bated</w>
er iff</w>
ar t</w>
ar us</w>
ar ged</w>
ti e</w>
ti p</w>
ti ce</w>
ti able</w>
ti ps</w>
ti ll</w>
ti de</w>
ti onal
ti re</w>
ti mely</w>
ti ve-duty</w>
ti sements</w>
on c</w>
on er</w>
on to</w>
on ship</w>
on gest</w>
on ism</w>
on ly
on ization</w>
on ce-
en com
en sion</w>
en during</w>
en large</w>
en rich</w>
en forces</w>
en forcing</w>
en thusiasts</w>
en forc
or t</w>
or who</w>
or not</w>
or ful</w>
or mation.
ou ver</w>
ou sted</w>
re r</w>
re w</w>
re ign</w>
re act</w>
re uni
re marriage</w>
re forms</w>
re ply</w>
re vision</w>
re viewed</w>
re active</w>
re distric
re places</w>
re solve</w>
re sent
re perc
re shape</w>
re posted</w>
re sident
re tty</w>
re treat</w>
re gaining</w>
re jects</w>
re store</w>
re tention</w>
re incar
re han
re drawing</w>
re payment</w>
re shaped</w>
re introduced</w>
re mittance</w>
re dited</w>
re uniting</w>
re transmission</w>
li b</w>
li ce</w>
li tion</w>
li ability</w>
li sting</w>
li tis</w>
li zation</w>
li atory</w>
li kable</w>
sa ti
sa le
sa me
sa tlantic</w>
sa fest</w>
sa w/
sa turation</w>
sa vv
at least</w>
at one
at lea
at taining</w>
at eness</w>
at tire</w>
al s
al .</w>
al an</w>
al up</w>
al ked</w>
al bu
al Reserve</w>
it ec
it about</w>
it ment</w>
it ate</w>
it em
it ud
it acceptable</w>
it y-
it bar
it erative</w>
ro si
ro ke</w>
ro gations</w>
ro ck</w>
ro yals</w>
ro mance</w>
the st</w>
the first</w>
wh i
wh ad</w>
wh ale</w>
wh ole
wh olly</w>
st ab
st -income</w>
st rated</w>
st rely</w>
st atic</w>
st inations</w>
st reak</w>
st ellar</w>
st Syears</w>
st roke</w>
om ous</w>
ati ent</w>
ic ar
ic led</w>
ic hi</w>
ac he
ac ial</w>
ec te
ec tions</w>
ec ision</w>
si der</w>
si re</w>
si bilities</w>
ab ou
ab ases</w>
ab bed</w>
lo .</w>
lo ved</w>
lo oming</w>
lo omed</w>
lo athing</w>
le m
le st
le ted</w>
le ge</w>
le um</w>
le holds</w>
le vers</w>
le aming</w>
le ery</w>
di ly</w>
di ve</w>
di ans</w>
di min
di ences</w>
di sch
di ff</w>
di fy</w>
di aling</w>
di d/
di alup</w>
po l</w>
po tent</w>
su m</w>
su r</w>
su l</w>
su es</w>
su it</w>
su stain</w>
su kun
ne vertheless</w>
ne apoli
ne thas</w>
ri g
ri r</w>
ri a</w>
ri st</w>
ri ot
ri ved</w>
ri ously</w>
ri vers</w>
ri dor</w>
ri llion</w>
mo b</w>
mo des</w>
mo vers</w>
mo tives</w>
mo stat</w>
mo bili
ver ts</w>
ver ses</w>
ver sions</w>
ad i</w>
ad ic
ad ers</w>
ad dic
ad ditions</w>
ad lines</w>
ad ditionally</w>
ad ox</w>
ad mired</w>
ad ei</w>
se —
se c</w>
se ment</w>
se gre
se ach</w>
se ll</w>
se iz
se ena</w>
se dive</w>
pu ty</w>
pu bl
pu shed</w>
pu shes</w>
pu zz
20 ,
20 -
20 -</w>
20 6</w>
20 8</w>
20 28</w>
20 43</w>
20 66</w>
20 -point</w>
20 .1</w>
ag n
ag e/
ag grav
ag e-adjusted</w>
ag onism</w>
am id
am bassa
con form</w>
con fusion</w>
ha m</w>
ha ven</w>
ha ilers</w>
ol ul
vi l</w>
vi ed</w>
vi sions</w>
vi lle-
sh y</w>
sh and
sh ut
sh eriff</w>
de sp
de por
de ten
de tain</w>
de d-
de fici
de z-
de laying</w>
de fault</w>
de posit</w>
de layed</w>
de puty</w>
bli cans</w>
il er</w>
il licit</w>
publi shes</w>
Re ally</w>
Re view</w>
Re spec
Re sources</w>
Re solving</w>
Re turns</w>
Re moving</w>
Re placement</w>
Re aching</w>
Re aches</w>
Re qui
Re transmission</w>
Re storing</w>
sp ent
sp as
sp el</w>
sp ies</w>
sp refer</w>
sp inal</w>
sp ender</w>
sp ree</w>
sp retty</w>
Am man</w>
par ate</w>
par ately</w>
par ame
par adox</w>
ve -</w>
ve in</w>
ve to</w>
ve at</w>
ve ts</w>
be -
be have</w>
be ef</w>
be low-
be ena</w>
com e
com pa
com ings</w>
com positions</w>
com promis
com plying</w>
ur ated</w>
ur acy</w>
ur ban
ur ban-
op er</w>
op tic
op ping</w>
ul ted</w>
ul tra-
el ry</w>
el abor
201 5.1</w>
201 3-
ent ators</w>
ent alists</w>
ent ail</w>
ent -loan</w>
ent een</w>
pro f
pro of</w>
pro to
pro position</w>
pro vo
pro ponents</w>
pro spective</w>
pro tracted</w>
pro gams</w>
ma d</w>
ma j</w>
ma sk
ma ssa
ma ils</w>
ma lized</w>
ma ids</w>
tr ating</w>
tr ash</w>
tr oughs</w>
Americ as
Americ ans
Americ an-
no e</w>
no d</w>
no ver</w>
no body</w>
no stal
no sedive</w>
por ary</w>
ter ing</w>
ter -to-
ter ian</w>
ter msof</w>
pre serv
pre emin
rat e
us k</w>
us a</w>
us er
us sel
fi k</w>
fi wer</w>
[...]
