#version: 0.2 - Trained by `huggingface/tokenizers`
t h
a n
i n
e r
a r
t i
th e</w>
o r
o n
e n
o u
o f</w>
r e
l i
e s</w>
e d</w>
e r</w>
i n</w>
l y</w>
in g</w>
o n</w>
t o</w>
s a
an d</w>
i t
a l
a t
th e
o r</w>
a n</w>
o m
w h
o s
i c
a l</w>
a c
a ti
e s
ar e</w>
i s</w>
r o
v e</w>
l e</w>
sa y</w>
t s</w>
a t</w>
a s</w>
e n</w>
e c
i s
a b
a s
t r
u s
d i
an s</w>
er s</w>
s u
i d
e m
or e</w>
i g
a d
p u
ou t</w>
w it
l e
ou n
o l
en t</w>
v er
n e
wit h</w>
c on
o c
h a
m ore</w>
the y</w>
b li
i r</w>
e l
a g
A m
th an</w>
s h
i l
a m
pu bli
p ar
the ir</w>
c om
i m
th at</w>
e ly</w>
o w
re s
c e</w>
ab out</w>
wh o</w>
w s</w>
f or</w>
o p
s t
2 0
on s</w>
ati on</w>
er ic
Am eric
u r
o t
T h
u l
v i
ha ve</w>
p or
m a
p o
U .
' s</w>
e x
t er
b e
c oun
f f
c h
U. S
i t</w>
p ro
R e
l d</w>
e ar
n o
on g</w>
U.S .</w>
os e</w>
a r</w>
c h</w>
d e
th er</w>
Americ ans</w>
os t</w>
u n
oc r
em ocr
publi c
er e</w>
en t
ti on</w>
coun tr
20 1
D emocr
s i
Re public
li k
at e</w>
p e
b e</w>
i le</w>
v e
r i
s e
u m
ou ld</w>
i es</w>
al l</w>
as t</w>
no t</w>
vi e
ro m</w>
su r
lik ely</w>
i c</w>
w or
f rom</w>
t y</w>
th is</w>
i ti
o ver
ig h
it y</w>
th ose</w>
p an
b y</w>
t en</w>
ag e</w>
- in
en ts</w>
q u
p er
t ed</w>
l o
ad ul
m e
i r
d s</w>
v ot
m ost</w>
g r
-in -
a p
ma j
d ing</w>
adul ts</w>
a y</w>
sur ve
es s</w>
s e</w>
ti c
t w
m e</w>
Th e</w>
on e</w>
h as</w>
f or
al ly</w>
wh ile</w>
c l
t o
at s</w>
op le</w>
l in
an t</w>
Republic ans</w>
g e</w>
s om
f a
es t</w>
-in- ten</w>
p res
m ent</w>
us t</w>
Democr ats</w>
ou g
en ce</w>
an y</w>
v er</w>
po li
u c
g i
o ther</w>
por t
t er</w>
am ong</w>
t h</w>
pe ople</w>
p os
o o
ab le</w>
publi c</w>
ne ws</w>
ati ons</w>
en ti
ac c
I n</w>
d er</w>
l ac
u t</w>
s o</w>
com par
i al</w>
T r
i d</w>
f e
countr y</w>
surve y</w>
on al</w>
l ow
maj or
al f</w>
sh are</w>
in g
ver y</w>
H is
d uc
ou r
Tr um
His pan
su p
Trum p</w>
l ess</w>
me di
p re
d o</w>
ec on
h alf</w>
vie ws</w>
r an
re c
i li
w as</w>
p ec
w ere</w>
t a
di ff
r a
countr ies</w>
e w</w>
fa v
por t</w>
il l</w>
at es</w>
g e
sa id</w>
v id
us e</w>
compar ed</w>
C h
th re
it e</w>
vot ers</w>
k s</w>
al so</w>
m ig
ar y</w>
g en
re as
' '</w>
` `</w>
in ter
w ould</w>
a li
g re
m ar
m any</w>
lin e</w>
I n
ti ons</w>
A b
s er
econ om
w e
sh ould</w>
w ill</w>
W h
ear ch</w>
Ab out</w>
en c
e v
gr ou
som e
e p
p l
u d
over n
a d</w>
diff er
at ed</w>
ati ve</w>
s oc
ent er</w>
f in
ou s</w>
k ing</w>
j ust</w>
R es
the se</w>
C enter</w>
on ly</w>
g overn
iti es</w>
sa me</w>
major ity</w>
im port
el ec
f ol
wh at</w>
li gi
o ver</w>
tic al</w>
ch an
im mig
f i
p h
p r
con f
P ew</w>
b er</w>
y e
20 0
d ec
in c
oug h
th ir
u ch</w>
b ut</w>
c er
m o
Res earch</w>
e ws</w>
p s</w>
j o
v ing</w>
li m
ag es</w>
y ing</w>
Democr ati
h igh
ing s</w>
oun d</w>
f u
m uch</w>
ar ly</w>
govern ment</w>
import ant</w>
oo d</w>
id ent</w>
for m
Am ong</w>
t ly</w>
fav or
vie w</w>
p en
qu ar
g er</w>
er al</w>
re l
tw e
i on</w>
om en</w>
ye ar</w>
th in
o w</w>
oug h</w>
s tr
fol low
ser v
A n
t ing</w>
or ding</w>
s c
ati onal</w>
po pu
s t</w>
l ar
y s</w>
li c
ow n</w>
ac h</w>
le ast</w>
wh en</w>
d ay</w>
h e
id enti
com m
on line</w>
ur e</w>
ti me</w>
is su
C on
re ligi
h ol
y ear
cl os
it s</w>
pos iti
p a
al l
om e</w>
medi a</w>
d is
ic s</w>
Democrati c</w>
sh ar
thin k</w>
b lac
r u
o ff
ti es</w>
som e</w>
Ch in
inc reas
in cl
sup port</w>
ough ly</w>
os s</w>
ic h</w>
di vid
acc ording</w>
ch il
Hispan ic</w>
k ed</w>
st an
r is
t en
e -
popu l
c ol
w omen</w>
it es</w>
th ere</w>
d o
ol der</w>
ran ts</w>
E u
Eu ro
p ri
u p</w>
Republic an</w>
per s
us ers</w>
r ac
soc ial</w>
be li
se e</w>
n i
v es</w>
k e</w>
con cer
ic e</w>
enc es</w>
ha d</w>
con t
r oss</w>
al s</w>
o f
twe en</w>
poli tical</w>
G er
k e
ad e</w>
le an
igh t</w>
year s</w>
t e
d re
d at
An d</w>
clos ely</w>
e ach</w>
el l</w>
be tween</w>
Hispan ics</w>
grou ps</w>
e i
the m</w>
p on
m in
re g
le g
be en</w>
to o</w>
ar d</w>
some what</w>
beli e
b or
1 8</w>
sh i
ti m
ot h</w>
s .</w>
l a
o g
g ood</w>
ou t
positi ve</w>
M us
v s.</w>
Chin a</w>
M ost</w>
ac t</w>
pro b
is t
op in
e duc
il li
immig rants</w>
po in
dre n</w>
gen er
maj or</w>
i ly</w>
sa ying</w>
t t
poli c
im il
or y</w>
ig n</w>
y ed</w>
al th</w>
o -
b oth</w>
ou r</w>
ex pres
we e
par ty</w>
chil dren</w>
an c
an ce</w>
wh ich</w>
m en</w>
3 0</w>
es s
en s</w>
con s
w er</w>
illi on</w>
B ut</w>
a ff
f l
n ational</w>
medi an</w>
res pon
ne g
Americ an</w>
P ar
f ic
ne w</w>
v ely</w>
f ar</w>
in ce</w>
id e</w>
di d
ph one</w>
d ents</w>
ear ly</w>
wor ld</w>
n um
0 0</w>
5 0</w>
favor able</w>
1 9</w>
c or
an did
M ore</w>
ne t</w>
ro w
ol og
e ver</w>
per c
elec tion</w>
y oun
ig h</w>
econom ic</w>
no w</w>
L at
il l
ent ly</w>
d er
th ers</w>
i z
t ers</w>
it ed</w>
U n
e l</w>
1 9
ic al</w>
le ad
B y</w>
ac ross</w>
201 6</w>
ap pro
N ews</w>
es e</w>
Lat in
2 9</w>
u e</w>
ec t</w>
sc i
h el
con duc
com e</w>
differ ences</w>
n o</w>
an d
belie ve</w>
c andid
es t
th ing</w>
jo b</w>
popul ation</w>
2 0</w>
6 5</w>
us si
id ence</w>
res s</w>
f ac
to p</w>
divid ed</w>
A f
shi p</w>
F or</w>
h igh</w>
1 0</w>
4 9</w>
ne arly</w>
su b
follow ed</w>
g a
s p
lo b
quar ter</w>
d es
ur r
per i
concer n
tt le</w>
l ast</w>
w ay</w>
re a
b ec
li ttle</w>
com es</w>
col le
h ou
chan ge</w>
em ent</w>
S t
e a</w>
s ch
econom y</w>
religi ous</w>
i ons</w>
p le</w>
as s
con tr
thir d</w>
M a
s el
li b
sup port
he alth</w>
e b
f am
over age</w>
v ed</w>
thir ds</w>
high er</w>
Th is</w>
o- thirds</w>
h ow</w>
k ers</w>
m illion</w>
s imil
surve yed</w>
w ell</w>
wh ite</w>
issu es</w>
a u
conf idence</w>
Euro pe
s ince</w>
th o
vot e</w>
shar es</w>
wee k</w>
v el
grou p</w>
i th
ag re
neg ative</w>
b le</w>
f our
h ar
ti s
as ked</w>
e th
hol d</w>
y p
inter net</w>
' t</w>
R ussi
g row
conduc ted</w>
ep t
t ter</w>
ge t</w>
dat a</w>
c ri
i a</w>
p ast</w>
t u
t ec
us ed</w>
t on</w>
u ding</w>
wh ites</w>
wh ere</w>
Mus lim
n 't</w>
ow n
de pen
colle ge</w>
major ities</w>
C a
e ff
e ther</w>
num ber</w>
or ities</w>
incl uding</w>
o s</w>
in form
support ers</w>
ili ty</w>
, 0
s m
ow ever</w>
tw o</w>
gre e</w>
Muslim s</w>
g lob
Ma j
I s
wh ether</w>
P ro
v en</w>
be tter</w>
or s</w>
ic es</w>
st ory</w>
Wh ile</w>
1 1</w>
e d
di sa
ur ing</w>
fi ve</w>
n ations</w>
chan g
simil ar</w>
c an</w>
ti ve</w>
to day</w>
opin ion</w>
1 2</w>
p lac
e -in-ten</w>
g u
x -in-ten</w>
in e</w>
ex pec
fav or</w>
O n
r oughly</w>
vi ru
pec i
viru s</w>
A r
su ch</w>
am a</w>
s ti
em p
qu es
O b
V i
ma ke</w>
4 4</w>
4 5</w>
g h
em ber</w>
el l
l oc
v en
P u
a ys</w>
r ic
par ents</w>
lo w</w>
ali ty</w>
hou se
expres s</w>
3 5</w>
p ow
off ic
educ ation</w>
c urr
l l</w>
con serv
ev en</w>
blac ks</w>
perc ent
M ex
b s</w>
th ough</w>
ab ly</w>
lo t</w>
blac k</w>
inform ation</w>
Mex ic
N early</w>
f ir
v is
Ob ama</w>
S u
en g
am e</w>
O ver
t ure</w>
tw o-thirds</w>
immig r
rec ent</w>
g ress</w>
par tic
Ca tho
ti c</w>
st e
for e
h is</w>
i f</w>
re port</w>
over all</w>
In ter
1 5</w>
b ac
3 9</w>
b i
u s</w>
in fl
2 7</w>
h ome</w>
im p
Ger many</w>
fam ily</w>
y s
at ing</w>
em b
pres ident</w>
c as
u al</w>
bor n</w>
depen dents</w>
e qu
w ith
at ten
four -in-ten</w>
,0 00</w>
R oughly</w>
r im
sa n</w>
is m</w>
lac k</w>
b rea
r ight</w>
fi ed</w>
Af ric
ti san</w>
wor k</w>
igh t
rel ati
glob al</w>
3 7</w>
si x-in-ten</w>
emp lo
2 5</w>
2 1</w>
3 2</w>
A si
g o
n on
om in
di d</w>
fe wer</w>
lean ers</w>
5 1</w>
ili t
3 4</w>
5 2</w>
c are</w>
on a
Over all</w>
tr ust</w>
polic y</w>
6 4</w>
b as
li ving</w>
ow ard</w>
ter n</w>
tim es</w>
infl u
4 6</w>
g est</w>
em s</w>
U. S</w>
ex am
iti z
1 7</w>
m on
tic s</w>
jo bs</w>
of ten</w>
Par ty</w>
ac coun
soc i
cor ona
contr ast</w>
fir st</w>
201 7</w>
lim ate</w>
3 1</w>
4 3</w>
4 8</w>
2 6</w>
G O
Th ere</w>
de b
corona virus</w>
s ig
ter ed</w>
In di
4 1</w>
f e</w>
t oward</w>
or ity</w>
3 6</w>
s ts</w>
t yp
ex peri
olog y</w>
do es</w>
eth n
h n
thre e</w>
all er</w>
brea k</w>
m os
in dependents</w>
201 8</w>
2 8</w>
f re
mar ri
rac e</w>
Ger m
C lin
J ust</w>
us tr
en d</w>
am pa
ma in
issu e</w>
4 2</w>
N o
b ro
h ear
com pan
quar ters</w>
GO P</w>
Clin ton</w>
c overage</w>
i l</w>
ar e
li ve</w>
ro le</w>
out break</w>
Europe an</w>
percent age</w>
2 3</w>
2 4</w>
5 7</w>
A c
S ou
t ur
ar ound</w>
ver age</w>
p ol
ne w
par tisan</w>
leg al</w>
des cri
ilit ary</w>
l ed</w>
an ts</w>
st ud
be ing</w>
de gree</w>
fe el</w>
3 8</w>
6 0</w>
a v
c limate</w>
le m</w>
conserv ative</w>
2 2</w>
5 5</w>
5 8</w>
i b
er g
fu ge
comm un
Con gress</w>
ni fic
acc ept
te ens</w>
youn ger</w>
A s</w>
d uring</w>
s ec
an al
par t
differ ent</w>
follow ing</w>
lib eral</w>
4 7</w>
a use</w>
f ore</w>
reg is
pow er</w>
sci enti
1 6</w>
5 3</w>
thre e-
identi f
pers onal</w>
Un ited</w>
sig nific
5 4</w>
o thers</w>
pre f
ei ther</w>
Latin os</w>
op pos
fin anc
prob lem</w>
influ ence</w>
mos tly</w>
f ound</w>
p e</w>
on es</w>
Wh en</w>
imp act</w>
r ate</w>
t re
w ant</w>
en e
poin ts</w>
oo l</w>
rec ei
cons id
d ed</w>
ag o</w>
tec hn
Maj orities</w>
increas ed</w>
incl ud
agre e</w>
1 3</w>
4 0</w>
5 6</w>
I ra
d em
e as
l ing</w>
n ation</w>
Vi ews</w>
exam ple</w>
v al
lik e</w>
accept able</w>
s y
fu l</w>
c ampa
in v
re fuge
wor kers</w>
li gh
pro ve</w>
ight -in-ten</w>
5 9</w>
6 2</w>
ag a
conf ident</w>
hol ds</w>
lean ing</w>
candid ate</w>
g an
m ilitary</w>
o u</w>
w id
or ies</w>
tr a
sch ool</w>
Catho lic
H owever</w>
b ad</w>
Americ a</w>
be fore</w>
wor king</w>
our t</w>
7 2</w>
M ar
c rim
f ri
h and
p p
on g
concern ed</w>
sm aller</w>
ys is</w>
hear d</w>
Sou th</w>
I D
201 5</w>
Russi a</w>
a verage</w>
f ic</w>
re d</w>
gener ally</w>
loc al</w>
C O
lar ge</w>
Euro pe</w>
anal ysis</w>
regis tered</w>
identif y</w>
c o
at ings</w>
ac ti
ha ving</w>
ve l</w>
bec ause</w>
Germ ans</w>
Catholic s</w>
K or
identi al</w>
chang ed</w>
Ira q</w>
6 1</w>
m ade</w>
m emb
St ates</w>
1 4</w>
V ID
in come</w>
tr ac
us ing</w>
le vel
ga p</w>
CO VID
COVID -
N or
a f
h i
h e</w>
m ents</w>
res pec
201 4</w>
mar t
partic ul
Inter est</w>
ac y</w>
ke y</w>
On ly</w>
three- quarters</w>
COVID- 19</w>
- leaning</w>
6 3</w>
S ome</w>
c itiz
u m</w>
thre at</w>
fore ign</w>
d one</w>
y ou</w>
F ran
ar i
ul ly</w>
c es</w>
c ell
s pen
t est
or gan
oo k</w>
gre at
increas e</w>
ques tion</w>
par ties</w>
de al</w>
low er</w>
compan ies</w>
B lack</w>
s econ
w ar
or ig
id e
rac ial</w>
P res
un der</w>
fa ir</w>
Ch ris
cont in
peci ally</w>
Pu bli
curr ent</w>
level s</w>
e ight-in-ten</w>
f our</w>
s ites</w>
sa ys</w>
Chris ti
es pecially</w>
id ents</w>
am oun
ter r
lead ers</w>
expec t</w>
bro ad
P e
d eral</w>
u es</w>
le vel</w>
fe deral</w>
plac e</w>
a k
comm on</w>
3 3</w>
6 8</w>
b an</w>
re pres
the m
le ar</w>
gr ad
ph ones</w>
7 0</w>
k n
o d</w>
or d
se ven
pres idential</w>
pers on</w>
G re
stan ti
part n
campa ign</w>
ab ility</w>
201 0</w>
si on</w>
gen der</w>
amoun t</w>
7 1</w>
n ing</w>
s mart
pro vid
un der
fe w</w>
ser i
Pro test
seven -in-ten</w>
e ty</w>
poin t</w>
aff ili
sel ves</w>
e g
l ems</w>
th r
in d
pre ad</w>
some one</w>
pl at
fin ds</w>
hel p</w>
candid ates</w>
gu n</w>
n ec
ad v
201 2</w>
min is
6 9</w>
re gi
st at
memb ers</w>
them selves</w>
s pe
s our
in to</w>
ab or
Fran ce</w>
organ iz
B id
P er
d own</w>
on ally</w>
it u
is on</w>
fu ture</w>
Mexic o</w>
Bid en</w>
a m</w>
l an
er ship</w>
ne x
st ate</w>
ing ly</w>
af ter</w>
6 6</w>
T o
m i
m is
por ted</w>
201 9</w>
polic ies</w>
immigr ation</w>
M ill
r on
gen eral</w>
elec tions</w>
mo der
sub stanti
techn ology</w>
6 7</w>
J ap
f oc
in st</w>
su s</w>
Is ra
refuge es</w>
Pe ople</w>
Jap an</w>
i tion</w>
u t
di tion</w>
el m
Th at</w>
for m</w>
compar ison</w>
pr im
dec is
high est</w>
concern s</w>
house holds</w>
Kor ea</w>
Pres ident</w>
Mill en
E U</w>
poli ce</w>
concer n</w>
prob lems</w>
k now</w>
r atings</w>
an t
wh elm
ur al</w>
pro gr
religi on</w>
Latin o</w>
F ac
T ur
Y oun
e t</w>
ou s
id d
ot al</w>
201 3</w>
se ver
non -
7 3</w>
li m</w>
gr ap
do ing</w>
la w</w>
e -in-
re s</w>
lar ger</w>
opin ions</w>
youn g</w>
disa p
own ers</w>
sti ll</w>
Publi c</w>
grap h
W es
m s</w>
it al</w>
gi ve</w>
eb ook</w>
Afric a</w>
scienti sts</w>
Fac ebook</w>
A l
A t</w>
li fe</w>
tr ic
ma king</w>
tw ice</w>
ta ke</w>
rel ations</w>
abor tion</w>
- born</w>
th er
en ds</w>
ou se</w>
ig n
ver s
ma in</w>
ali z
19 9
appro ve</w>
nex t</w>
M e
b o
e y</w>
o graph
al e</w>
vot ing</w>
serv ices</w>
grow ing</w>
grad u
itu ation</w>
M any</w>
e e</w>
s ide</w>
s ligh
em ents</w>
st ates</w>
200 8</w>
aga inst</w>
E n
h um
w ays</w>
en ough</w>
ap p
rel ated</w>
ist an</w>
8 0</w>
m or
su m
com p
wor se</w>
gener ation</w>
sci ence</w>
ethn ic</w>
O n</w>
T wit
n ame</w>
an s
en d
ac h
is h</w>
Th ese</w>
vie w
poli tics</w>
thr ough</w>
b ile</w>
r y</w>
x ed</w>
re su
tr ation</w>
enti al</w>
str ong</w>
Mus lim</w>
offic ers</w>
7 6</w>
b ility</w>
o ol
sa tis
at t
lo o
are as</w>
seri ous</w>
D i
d oc
s ol
th s</w>
re main
es ted</w>
reas on</w>
inter est</w>
form s</w>
expres s
S y
a il
w ide</w>
on e-in-
es ts</w>
op p
ur ity</w>
ma y</w>
ent ed</w>
over whelm
ev en
differ ence</w>
ten d</w>
dat ing</w>
ste m</w>
atten tion</w>
ong ly</w>
Nor th</w>
C an
s ituation</w>
th ings</w>
po or</w>
gre at</w>
sch ool
har ass
relati vely</w>
citiz ens</w>
sever al</w>
Twit ter</w>
g o</w>
ti vely</w>
ati ves</w>
tr ade</w>
ad minis
par t</w>
200 7</w>
Mar ch</w>
resu l
I m
c ould</w>
in ed</w>
si ons</w>
me d
str ongly</w>
deb ate</w>
Indi a</w>
7 5</w>
N ew</w>
s ite</w>
t -
t otal</w>
pro f
for ce</w>
lar gest</w>
pri v
of f</w>
sti tu
o li
an other</w>
ti t
ti onal</w>
le an</w>
un favorable</w>
fe el
conf lic
sp li
terr or
sligh tly</w>
7 7</w>
b al
b est</w>
d emocr
on al
li st</w>
ic ally</w>
vot ed</w>
inter national</w>
eff ec
go ing</w>
sy stem</w>
F e
b ene
l ec
o m</w>
y ment</w>
re ad
com pu
si ble</w>
reg ul
soci ety</w>
S en
p ay</w>
an tly</w>
de fin
ta in</w>
thre e-in-ten</w>
Su p
descri be</w>
stud ents</w>
idd le</w>
c i
an n
Th ose</w>
igh ts</w>
marri ed</w>
financ ial</w>
consid er
hand ling</w>
Protest ants</w>
organiz ations</w>
j ect</w>
k es</w>
s k
di g
dec lin
great er</w>
partn er</w>
mi xed</w>
Millen ni
Wes tern</w>
tit ud
onal d</w>
7 9</w>
7 4</w>
H ouse</w>
N A
m at
r an</w>
ad d
de vel
Wh ite</w>
mo bile</w>
ograph ic</w>
H ow</w>
d ro
in d</w>
it ing</w>
ne t
ter m</w>
ch o
acc ess</w>
respon dents</w>
bi g</w>
No t</w>
signific ant</w>
bene f
Millenni als</w>
A d
C om
G en
t om
on e-
en sus</w>
crim in
particul arly</w>
spen ding</w>
orig in</w>
spli t</w>
I ta
W or
ur ban</w>
si x</w>
pref er</w>
A pri
F ully</w>
p at
in s</w>
ar ies</w>
ex c
de v
se en</w>
fa ir
immigr ant</w>
with out</w>
hi m</w>
titud es</w>
Apri l</w>
7 8</w>
D onald</w>
p ite</w>
u p
ac e</w>
U.S .
pro t
201 1</w>
iz ed</w>
bas ed</w>
experi ence</w>
Ac ross</w>
erg y</w>
8 4</w>
D e
S pa
c re
i ans</w>
t ting</w>
in es</w>
ar ac
it h</w>
is t</w>
public s</w>
cl ose</w>
cons ist
relati on
tur n
commun ity</w>
smart phone</w>
Sy ri
Spa in</w>
C ourt</w>
n omin
o le</w>
house hold</w>
disap prove</w>
devel op
B e
us in
un e</w>
si z
si bility</w>
ir s</w>
cont ro
Asi an</w>
moder ate</w>
adminis tration</w>
C overage</w>
L i
j us
s en
at eg
sur e</w>
popul ar</w>
respon se</w>
with in</w>
plat forms</w>
regi on</w>
opp ose</w>
fair ly</w>
I ran</w>
V ot
a ve</w>
l at
v al</w>
an ge
ig ure</w>
vi ron
por ts</w>
la ws</w>
au th
grow th</w>
Christi ans</w>
ange lic
8 5</w>
L ati
O p
f t</w>
u g
ad a</w>
st and</w>
uc lear</w>
pre vi
Ar ound</w>
dem ographic</w>
Lati n</w>
1 .
d u
g in</w>
h om
n am
ar ea</w>
al most</w>
di rec
favor ably</w>
olog ical</w>
respec tively</w>
B ra
O c
f all</w>
h owever</w>
i p
r ural</w>
u res</w>
th y</w>
harass ment</w>
J an
S pan
T V</w>
d r
pre me</w>
dec ade</w>
bec ome</w>
Su preme</w>
No v
Per c
school s</w>
C ol
s peci
an while</w>
di tional</w>
res earch</w>
ex tre
cas es</w>
emplo yment</w>
marri age</w>
val ues</w>
secon d</w>
med ical</w>
E x
l es</w>
n ati
n ot
r ating</w>
es pread</w>
oc c
oo ds</w>
elec ted</w>
fol low</w>
ough t</w>
Chin ese</w>
P ak
c ar
f -
m an
n at
n uclear</w>
r it
w at
en viron
se e
me as
mar ke
enc y</w>
fin d</w>
Europe ans</w>
fre qu
spe a
T w
b and</w>
g es</w>
es tim
us h</w>
Can ada</w>
previ ous</w>
Bra z
8 3</w>
E con
J a
a in</w>
b usin
r ights</w>
ic ul
ter n
our n
chil d</w>
Youn ger</w>
ous ly</w>
doc um
Fe wer</w>
dig ital</w>
Econ om
D ec
J une</w>
S imil
a irs</w>
c al</w>
s ing</w>
w e</w>
w ar</w>
in comes</w>
al low
is ts</w>
de al
ev angelic
av ail
inv ol
Tur key</w>
Sen ate</w>
auth or
d ers</w>
en ergy</w>
par ts</w>
im pro
vi ties</w>
ent al</w>
enc ed</w>
mo thers</w>
fac t
cas e</w>
descri b
sec urity</w>
signific antly</w>
kn ow
vers ity</w>
Ja pan
S ept
b u
d ou
e t
i an</w>
sh ow
de f
se x</w>
ta x</w>
vid e
ligi ble</w>
twe e
educ ated</w>
vis ion</w>
progr am</w>
att ac
priv ate</w>
0 ,000</w>
B o
C u
U K</w>
g ely</w>
j ec
r ates</w>
at titudes</w>
tr y</w>
le d
res idents</w>
Republic an
to -
acc ep
comp le
democr acy</w>
du ce</w>
ourn ali
Japan ese</w>
J ord
N ig
b ig
c ateg
d omin
l s</w>
v ari
as h
ne igh
wor ri
ra ther</w>
peri od</w>
pref er
satis fied</w>
8 1</w>
8 2</w>
T O</w>
e ligible</w>
f is
ad dition</w>
ne ver</w>
op er
-in come</w>
diff icul
dec line</w>
dis c
stan ce</w>
eff ect</w>
ques tions</w>
recei ved</w>
acti vities</w>
To day</w>
Me anwhile</w>
crimin ation</w>
relation ship</w>
i als</w>
n in
n ess</w>
t al
re ported</w>
st ories</w>
ul ti
ter ms</w>
pos sible</w>
ta in
mar gin</w>
lar gely</w>
sel f-
2 .
L e
L eb
S h
S oc
t e</w>
re main</w>
tr al</w>
st ar
gi ven</w>
increas ing</w>
bor der</w>
respon sibility</w>
fri ends</w>
Sup port</w>
fis cal</w>
Leb an
B ush</w>
E ast</w>
L ar
M or
c all
c ourt</w>
x es</w>
con nec
ch ur
un i
rec or
Democrati c
pri ority</w>
num b
eng ag
gradu ates</w>
docum ented</w>
P h
S a
S ti
f ul
f all
ge tting</w>
shar ing</w>
aff airs</w>
equ al</w>
terror ism</w>
author ized</w>
D es
L G
P os
U S
f un
m ember</w>
s ing
om s</w>
ic ity</w>
di tions</w>
em erg
dis crimination</w>
curr ently</w>
consid er</w>
wid espread</w>
contin ue</w>
ind ustr
sour ces</w>
substanti al</w>
view ed</w>
bal ance</w>
NA TO</w>
Democratic -leaning</w>
0 s</w>
c ell</w>
d est</w>
e ight</w>
f em
k ly</w>
s es</w>
t op
u ly</w>
re fl
li er</w>
ac tions</w>
tr us
si ve</w>
off ice</w>
bac k</w>
equ ality</w>
accoun ted</w>
broad band</w>
J ews</w>
U k
d ue</w>
h ist
an a</w>
re ad</w>
adul t</w>
gr ound</w>
ev ents</w>
some times</w>
200 0</w>
cer tain</w>
sm all</w>
offic ials</w>
Isra el</w>
contro l</w>
Republican -leaning</w>
neigh bor
nin e-in-ten</w>
Sti ll</w>
Uk ra
M iddle</w>
c ite</w>
c are
d ri
g res
h en
o ot
al ong</w>
al thy</w>
is e</w>
20 20</w>
pro duc
wor k
pl ur
200 9</w>
chang es</w>
experi enced</w>
adv ant
decis ion</w>
aliz ation</w>
hum an</w>
one-in- five</w>
Syri a</w>
Span ish</w>
Nig er
numb ers</w>
A ustr
P ol
Y or
d -
e p</w>
k en</w>
m ulti
o b
in stance</w>
li c</w>
ati c</w>
ad s</w>
pu r
res tric
vi ol
pa id</w>
eff or
repres ent
En g
conflic t</w>
avail able</w>
Jord an</w>
B T</w>
m id
r e</w>
r en
v ement</w>
Th ey</w>
tic ally</w>
ris is</w>
cont ent</w>
au tom
Indi ans</w>
typ e</w>
includ e</w>
foc us</w>
overwhelm ingly</w>
declin ed</w>
jus ti
Nov ember</w>
led ge</w>
LG BT</w>
8 8</w>
c c
p ot
v ity</w>
li st
su cc
ex pan
Maj ority</w>
mon ths</w>
ib u
oppos ed</w>
wid ely</w>
Gen er
Ita ly</w>
Des pite</w>
F igure</w>
i ally</w>
v ary</w>
ti n</w>
at ely</w>
par ent</w>
op tim
Th re
po sa
ex ual</w>
se ven</w>
ep tions</w>
stan ding</w>
reg ar
fac e</w>
affili ated</w>
prim ary</w>
attac ks</w>
sing le</w>
A s
J uly</w>
c ul
d on
f act</w>
v acc
re qu
is tic</w>
ol d</w>
il legal</w>
com for
un authorized</w>
si onal</w>
pre hen
ta xes</w>
accoun t</w>
ethn icity</w>
fre e</w>
even ly</w>
deal ing</w>
1 0
4 .
8 6</w>
B rit
M ay</w>
R om
S ince</w>
W omen</w>
e very</w>
f r
f el
p er</w>
er y</w>
ex per
ear lier</w>
surve ys</w>
diff er</w>
200 6</w>
fic it</w>
fore ign
kn own</w>
lec tion</w>
sk ep
evangelic al</w>
A ug
J o
N ot
N ational</w>
d a
d en</w>
d ings</w>
s h</w>
sa m
om e
as s</w>
mig rants</w>
pr om
dec reas
year -
tur n</w>
nec ess
substanti ally</w>
Pak istan</w>
frequ ently</w>
US S</w>
E ven</w>
F ren
L ib
O l
c risis</w>
r ul
ha p
ma kes</w>
un documented</w>
se par
mig r
dec ad
high ly</w>
pers onally</w>
lead ing</w>
Af gh
Catho lic</w>
includ ed</w>
stat us</w>
decis ions</w>
express ed</w>
ann ual</w>
Jan u
Yor k</w>
F eb
O ther</w>
W ith</w>
b illion</w>
c ap
c ited</w>
e w
e ver
t or
li es</w>
li ves</w>
ver sa
sh ow</w>
ch all
pos ition</w>
acc ur
rec ently</w>
thre ats</w>
he ad</w>
prob ably</w>
hel d</w>
emplo ye
mon th</w>
pol l</w>
scienti fic</w>
particul ar</w>
Op in
Soc ial</w>
pot ential</w>
Brit ain</w>
Fren ch</w>
Janu ary</w>
3 .
8 7</w>
C urr
H alf</w>
c y
h os
s m</w>
s ro
in divid
at h</w>
tr ue</w>
ver se</w>
con ditions</w>
pec ts</w>
200 4</w>
dis t
stan d
ris k</w>
cont act</w>
Un ion</w>
hel or</w>
rea u</w>
equ ally</w>
Afric an</w>
stud y</w>
ide ological</w>
Perc ent</w>
Simil arly</w>
emerg ing</w>
Ukra ine</w>
decad es</w>
6 .
B u
F or
f ully</w>
f oods</w>
m er</w>
m ight</w>
er ing</w>
ec h</w>
le ad</w>
im prove</w>
pro c
form er</w>
identi ty</w>
divid e</w>
aff ec
grow n</w>
Pu tin</w>
typ es</w>
pat tern</w>
Vot ers</w>
worri ed</w>
Afgh an
M o
S ur
T a
W ash
b er
e ds</w>
t able</w>
in stitu
en th
re f
re duc
it ely</w>
es sion</w>
ro w</w>
ec e</w>
ne y</w>
ha vi
pan dem
low est</w>
pl a
Con serv
off er</w>
fam ili
disa gree</w>
lan gu
extre m
Cu b
difficul t</w>
Austr ali
Afghan istan</w>
I t</w>
R ec
Y et</w>
d ra
d ays</w>
e li
l ong</w>
m es
w all</w>
y -
y l
er ed</w>
per form
ing ton</w>
pre v
we b
do m</w>
te le
la m</w>
Ac c
provid e</w>
foc used</w>
mor al</w>
feel ings</w>
defin itely</w>
know ledge</w>
fem ale</w>
employe es</w>
Sur ve
pandem ic</w>
G e
P oli
S ay</w>
c our
m it
r ich</w>
an g
in a</w>
al though</w>
ac tion</w>
ac tive</w>
sh oot
be havi
coun ter
de ficit</w>
ap p</w>
mar ks</w>
some thing</w>
stan ds</w>
educ ational</w>
ill ing</w>
lib er
tis ans</w>
Is lam</w>
sec ure</w>
cell phone</w>
Gre at</w>
under stand</w>
sour ce</w>
remain s</w>
Eng li
foreign -born</w>
Bu reau</w>
Wash ington</w>
h and</w>
o ve</w>
s pread</w>
w om
an ti
ati vely</w>
as soci
le ar
ul ts</w>
be g
pro posa
inter ested</w>
pl ays</w>
serv ice</w>
gener ations</w>
est in
Russi an</w>
vis ions</w>
crim e</w>
resul ts</w>
compu ter</w>
cho ice</w>
consist ently</w>
busin ess</w>
bu il
dou b
Bo om
exper ts</w>
5 .
A no
H ave</w>
S ec
V ery</w>
b el
g yp
h er</w>
h ind</w>
ar ily</w>
sa fe</w>
al ways</w>
wh y</w>
ad op
ol ds</w>
st ay</w>
ap prehen
to ber</w>
ta king</w>
reas ons</w>
In de
fin dings</w>
import ance</w>
identi fied</w>
ris ing</w>
sp ap
au di
bac helor</w>
atten d</w>
spen d</w>
app lic
arac ter
Oc tober</w>
Dec ember</w>
Leban on</w>
Lar ge</w>
sro om</w>
Surve y</w>
Ano ther</w>
- year-
D o</w>
E gyp
S we
W e
a di
m ental</w>
v aries</w>
sa ge</w>
es bi
le ts</w>
ve ter
wor ry</w>
pos ts</w>
econom ies</w>
positi ons</w>
lead er</w>
tu ally</w>
emplo yed</w>
oppos ition</w>
co oper
Gre ece</w>
affili ation</w>
benef its</w>
dev ices</w>
siz able</w>
Tw o-thirds</w>
restric tions</w>
Rom ney</w>
sam ple</w>
counter parts</w>
wom an</w>
E lection</w>
F l
G od</w>
N o</w>
c lear</w>
n ed</w>
u ally</w>
sa w</w>
us i
con sum
am s</w>
be hind</w>
tw o
pos ed</w>
ph ys
comm it
min ority</w>
ill s</w>
appro val</w>
ed ed</w>
partic ip
new spap
U.S. -born</w>
Sept ember</w>
show s</w>
Pol and</w>
expan ding</w>
da ily</w>
P al
d ly</w>
h ard</w>
th ought</w>
er -income</w>
on -
on ger</w>
on e-in-ten</w>
the n</w>
om es
ati s
oun c
un affiliated</w>
wor ks</w>
gr y</w>
ap ps</w>
lin es</w>
fa thers</w>
ra is
pr ing</w>
200 5</w>
leg ally</w>
Russi ans</w>
expec ted</w>
Ar e</w>
includ es</w>
lan ds</w>
effec ts</w>
marke t</w>
Sa har
ful l</w>
skep tical</w>
langu age</w>
- educated</w>
A n</w>
P ac
c en
d ru
g ay</w>
l am
p tion</w>
s pec
v o
in ing</w>
in equality</w>
sa me
ab ove</w>
por tive</w>
pres idents</w>
gi ving</w>
gre w</w>
In don
pl om
deb t</w>
net working</w>
develop ing</w>
environ ment</w>
Braz il</w>
to- one</w>
Niger ia</w>
Indon es
- Sahar
8 9</w>
A p
F ar</w>
G lob
P o
b r
b an
g ing</w>
i fic</w>
j ud
t ab
t ors</w>
u r</w>
w ell
y our</w>
on ce</w>
en tical</w>
re duce</w>
ch ec
ran ge</w>
pr ices</w>
Con f
shar ed</w>
leg is
lib r
plac es</w>
pol led</w>
eas y</w>
fri end</w>
pp ed</w>
co h
war m
plat form</w>
sum mer</w>
read y</w>
compu ters</w>
speci fic</w>
big gest</w>
viol ence</w>
hap pen
ever y
Curr ently</w>
proc ess</w>
Fl or
Pal estin
Pac ific</w>
same -
1 00</w>
C ensus</w>
F av
O r
O f</w>
S m
f ood</w>
g ation</w>
i j
l esbi
m as
t ari
ar ri
ar ds</w>
al lies</w>
as yl
tr ans
di versity</w>
di plom
id a</w>
ne ed</w>
por tion</w>
ch es</w>
ch aracter
de ath</w>
tw o-
sup portive</w>
ta ken</w>
inter ests</w>
str uc
beli ev
ven ue</w>
conserv atives</w>
bac k
tre at
recei ves</w>
overwhelm ing</w>
Ad ults</w>
Wor ld</w>
plur ality</w>
necess ary</w>
Ge or
Engli sh</w>
usi as
omes tic</w>
-Sahar an</w>
Flor ida</w>
same- sex</w>
1 8
E duc
F ew</w>
T E
W est</w>
a head</w>
g un
l os
n s</w>
u ana</w>
en se</w>
le ft</w>
pro tec
qu ality</w>
me ans</w>
pres id
port ing</w>
pl es</w>
mo dest</w>
pa ying</w>
ris e</w>
te ach
wee kly</w>
hel p
contr ibu
agre ement</w>
Youn g</w>
sol ar</w>
prot ect</w>
recor d</w>
autom ation</w>
separ ate</w>
ij uana</w>
asyl um</w>
' ve</w>
0 .
5 ,000</w>
C ar
M en</w>
N eth
T u
U ni
b ud
d own
e vid
j ournali
w r
an gry</w>
er lands</w>
re ports</w>
al ready</w>
wh ose</w>
us es</w>
ne eds</w>
no thing</w>
de gre
pl ay</w>
religi ously</w>
ke ep</w>
la w
Is lam
Mexic an</w>
mon ey</w>
typ ical</w>
acti vity</w>
ci vi
nomin ee</w>
gres sional</w>
Aug ust</w>
Not e</w>
institu tions</w>
Swe den</w>
two -in-ten</w>
phys ical</w>
Neth erlands</w>
1 ,
E as
H e
L ess</w>
M in
a ir</w>
d less</w>
g as</w>
l ap
s exual</w>
s pring</w>
in st
or der</w>
id entical</w>
ha pp
ma il</w>
Re ligi
un acceptable</w>
to o
ge ts</w>
ali ties</w>
we althy</w>
chan ce</w>
str eng
Con cer
belie f</w>
ess es</w>
ess ential</w>
cor rec
lead ership</w>
appro ved</w>
On e</w>
Mexic ans</w>
resul t</w>
dev ice</w>
nati on
spea k</w>
allow ing</w>
industr y</w>
hist or
effor ts</w>
enth usias
perform ance</w>
9 0</w>
A t
B arac
D is
D ay</w>
G u
T ex
a w
g ent
p ic
s us
s enti
t ested</w>
re le
ab y</w>
com ing</w>
op en</w>
pro jec
se t</w>
ap s</w>
ra di
mar ijuana</w>
popul ations</w>
out side</w>
cor por
sp ace</w>
ass ess
Pro ject</w>
Ar gent
Asi a</w>
oppos ite</w>
recei ve</w>
tra ditional</w>
benef it</w>
U.S. -
Econom ic</w>
twee ts</w>
accep t</w>
categ ories</w>
chur ch</w>
refl ec
Gener ation</w>
vacc ine</w>
Ol der</w>
migr ation</w>
Acc ording</w>
-year- olds</w>
Egyp t</w>
Indones ia</w>
Islam ic</w>
C z
C oun
C ali
O ne
c ame</w>
d ate</w>
g ed</w>
l and</w>
in ary</w>
wh om</w>
tr i
ad ed</w>
le t</w>
sh or
ex cell
for c
sup ported</w>
mo ve</w>
str i
popu list</w>
shar p
ni a</w>
min im
aga in</w>
secon d-
Christi an</w>
adv anc
ther n</w>
Di ff
dr am
advant ages</w>
fr ustr
Feb ru
chall eng
individ ual</w>
bel ow</w>
audi ence</w>
veter ans</w>
degre es</w>
Barac k</w>
7 .
I S
S ome
S TE
b ir
c ast</w>
c ir
g one</w>
l ong
p ass
r un
w ing</w>
an -
es ti
di visions</w>
con versa
con gressional</w>
Democr at</w>
for nia</w>
fi el
pri or
pri or</w>
sub urban</w>
own ership</w>
Inter net</w>
commun ic
financ ially</w>
great est</w>
ind ic
loo king</w>
consider ably</w>
one- third</w>
lat est</w>
justi fied</w>
Cub a</w>
Boom ers</w>
apprehen sions</w>
Geor ge</w>
Eas tern</w>
radi o</w>
Cali fornia</w>
excell ent</w>
STE M</w>
' re</w>
2 9
B i
B ri
K en
M eas
N um
S ci
c a
c ent
d ic
d omestic</w>
f s</w>
i ve</w>
l ab
m p
n ine</w>
t ro
w an
in f
ab ili
as e</w>
res sing</w>
st ations</w>
un is
ili pp
pl an</w>
pr os
sel f</w>
tis h</w>
bro ad</w>
new sroom</w>
commun ities</w>
fri end
broad ly</w>
repres ents</w>
progr ams</w>
direc tion</w>
describ es</w>
engag ed</w>
Ph ilipp
list ed</w>
comfor table</w>
hos p
anti -
gun s</w>
Tex as</w>
Bri tish</w>
G M</w>
I s</w>
O ver</w>
P rim
S ee</w>
T unis
V ene
a il</w>
c ensus</w>
g s</w>
i ther</w>
m an</w>
n ar
o il</w>
s id
u el
y a</w>
z uel
ig ures</w>
ad ditional</w>
ne ither</w>
po ver
pro gress</w>
de voted</w>
positi vely</w>
out lets</w>
appro pri
inv esti
smart phones</w>
feel ing</w>
consist ent</w>
turn ed</w>
estim ates</w>
vide o</w>
disc ussi
tain ment</w>
Pos iti
succ ess
requ i
fel t</w>
cy ber
Australi a</w>
treat ment</w>
He alth</w>
Num ber</w>
Vene zuel
. .</w>
C en
H ar
M ed
R ic
S il
S even
T e
c ou
k ely</w>
l ation</w>
t ations</w>
v ast</w>
z ed</w>
in -
in ten
en ded</w>
re ly</w>
re venue</w>
as ed</w>
compar able</w>
increas es</w>
poin ted</w>
aff ect</w>
fac ts</w>
sub -Saharan</w>
St ate</w>
cri tical</w>
On line</w>
offic ial</w>
deb ates</w>
ib ut
val ue</w>
inv est
refuge e</w>
war m</w>
contin u
ord inary</w>
hum ans</w>
loo k</w>
add ress</w>
Li kely</w>
fact or</w>
describ ed</w>
optim istic</w>
liber als</w>
wr ong</w>
Febru ary</w>
prior itiz
9 4</w>
9 1</w>
B lac
T im
W ide</w>
a -
h ood</w>
l ate</w>
m enti
m ale</w>
m iddle</w>
r ight
u tion</w>
ti tu
ro ad</w>
di t</w>
id ea</w>
ad ing</w>
sh ole</w>
par tisans</w>
ch ar
wor th</w>
ap pe
Ch an
pr is
dis eas
belie fs</w>
og ni
cons titu
perc eptions</w>
ed iting</w>
Asi ans</w>
new shole</w>
contin ues</w>
Isra el
ounc ed</w>
Fav or
forc ement</w>
sharp ly</w>
IS I
Philipp ines</w>
S i
S and
g aps</w>
y on
re li
re form</w>
li ans</w>
il ed</w>
il ing</w>
com b
vi a</w>
ex u
Re public</w>
per man
vot er</w>
port un
compar es</w>
rec ogni
we ap
high -
str ic
dis tric
ru n</w>
conduc t</w>
fac tion</w>
go als</w>
Protest ant</w>
bo ts</w>
mor ally</w>
ans wer</w>
conflic ts</w>
regul ations</w>
add ressing</w>
dro p</w>
turn out</w>
not able</w>
occ ur
def ense</w>
vide os</w>
neighbor s</w>
prev ent</w>
bud get</w>
ISI S</w>
9 2</w>
J ournali
R atings</w>
Y ou
b lo
c ally</w>
c ut</w>
h n</w>
v ers</w>
an ds</w>
in t</w>
en coun
ati cally</w>
is h
con v
el s</w>
op portun
st ag
Th e
Wh at</w>
Wh ich</w>
ep t</w>
fi f
favor ed</w>
stan ces</w>
appro ach</w>
agre ements</w>
bas ic</w>
accoun ts</w>
stat ement</w>
Me di
remain ed</w>
estim ated</w>
Braz ili
tal k</w>
trus ted</w>
mid term</w>
Jo hn</w>
mes sa
hosp it
Israel i</w>
R o
g am
r ap
on ed</w>
en ing</w>
re porting</w>
is tics</w>
st a
ur y</w>
vi r
ex pl
coun ties</w>
me an
ge -educated</w>
Con stitu
min orities</w>
neg atively</w>
fic ation</w>
iz e</w>
plac ed</w>
Germ an</w>
financ es</w>
ide ology</w>
To p</w>
gradu ate</w>
prot ests</w>
siz e</w>
invol vement</w>
rul ings</w>
tele vision</w>
adop tion</w>
newspap er</w>
two- to-one</w>
presid ency</w>
senti ment</w>
challeng es</w>
Some what</w>
pover ty</w>
success ful</w>
Seven -in-ten</w>
Blac ks</w>
Sand ers</w>
yon d</w>
The ir</w>
3 0,000</w>
F rom</w>
G en</w>
G overn
H un
U S</w>
c u
h ur
i er</w>
l and
n ial</w>
t .</w>
v ol
w illing</w>
an y
li ved</w>
ac hi
ec u
di verse</w>
pu t</w>
ver si
ver sus</w>
ne eded</w>
con dition</w>
il es</w>
ex t</w>
ff s</w>
ra m</w>
we alth</w>
enc our
fin ding</w>
govern ments</w>
col lec
te en</w>
Ar ab
trac k</w>
Al most</w>
dro pped</w>
nomin ation</w>
Oc t.</w>
nat ur
Econom y</w>
dri ven</w>
pur ch
stand ard</w>
famili es</w>
Rec ession</w>
Sec urity</w>
well -
Sm aller</w>
tari ffs</w>
corpor ations</w>
abili ties</w>
Si x-in-ten</w>
Hun g
- related</w>
. ..</w>
B ac
H ill
M c
S e
a k</w>
a id</w>
l ost</w>
r is</w>
u tral</w>
an ger</w>
in e
en ter
en ship</w>
al -
wh ole</w>
ac ted</w>
as pects</w>
em ail</w>
im age</w>
st atis
pres s</w>
In stag
pr on
pri orities</w>
leg es</w>
des pite</w>
Afric ans</w>
val ent</w>
organiz ation</w>
prim arily</w>
effec tive</w>
Com m
nam ed</w>
Col le
wat ch
wat ch</w>
environ mental</w>
meas ures</w>
allow ed</w>
accep ting</w>
comple ted</w>
produc ts</w>
regar dless</w>
accur ate</w>
Opin ion</w>
For e
Conserv ative</w>
proposa l</w>
Glob al</w>
struc tion</w>
back ground</w>
contribu ted</w>
Tu be</w>
too k</w>
You Tube</w>
purch as
Hill ary</w>
Instag ram</w>
O ur</w>
P E
P ri
R el
f ar
f igures</w>
g ar
g row</w>
m oms</w>
o ti
t ent</w>
t ory</w>
u di
er v
en forcement</w>
re ach</w>
re ach
li fe
al ty</w>
at tr
us tom
su g
ad mit
ver tis
un changed</w>
pos t
enc ies</w>
ep s</w>
perc ent</w>
ga in</w>
expec tations</w>
Asi a-
bas is</w>
Kor e
terr it
Al though</w>
satis faction</w>
express ing</w>
one- quarter</w>
nat ural</w>
spea king</w>
invol ved</w>
call ed</w>
fall s</w>
fun ding</w>
behavi or</w>
beg an</w>
buil ding</w>
Palestin ian</w>
journali sts</w>
correc tly</w>
Cen tral</w>
Med ic
in- person</w>
prioritiz e</w>
exu ality</w>
Constitu tion</w>
Asia- Pacific</w>
B aby</w>
G r
T o</w>
b ook</w>
c ore</w>
c ost</w>
c over
h our
k ind</w>
l ame</w>
r ated</w>
s o
s ed</w>
s ent
t es</w>
w ants</w>
er to</w>
ar ely</w>
li sh
tr um</w>
im pres
op en
st ems</w>
sur ance</w>
oo king</w>
thre at
gen e</w>
ep ing</w>
pr inc
ris en</w>
shi f
ess im
fac ing</w>
ass ist
trac ted</w>
orig in
under standing</w>
prof ile</w>
mat ter</w>
De part
cre dit</w>
prefer ences</w>
fall en</w>
extrem ism</w>
web sites</w>
associ ated</w>
vo ice</w>
diplom a</w>
evid ence</w>
Diff er
Meas uring</w>
invest ment</w>
Journali sm</w>
hur t</w>
1 1
7 5,000</w>
F am
G row
L ooking</w>
M uch</w>
P ress</w>
S our
U N</w>
W ar</w>
c os
c um
h on
l y
u red</w>
v als</w>
w a
y er</w>
er ful</w>
ti ed</w>
or ed</w>
en sure</w>
re comm
al low</w>
at ors</w>
ec h
tr o</w>
id s</w>
ad vertis
ne utral</w>
oc k</w>
ag n
pro duce</w>
ent ing</w>
ir e</w>
pre -
favor s</w>
dis satisfied</w>
col leges</w>
wee ks</w>
neg oti
olog ies</w>
ga ve</w>
au g
disa gre
Pu erto</w>
pow erful</w>
campa ign
ligh t</w>
respec t</w>
cell ence</w>
Millen nial</w>
ans w
Can adi
prof es
priv acy</w>
Ex cellence</w>
busin esses</w>
impro ved</w>
fact ors</w>
Sept .</w>
categ ory</w>
refl ect</w>
regar ding</w>
decreas ed</w>
Opin ions</w>
cour se</w>
Inde x</w>
applic ations</w>
cooper ation</w>
spec trum</w>
chec k</w>
libr ary</w>
long -
Tunis ia</w>
menti oned</w>
Chan ge</w>
weap ons</w>
occur red</w>
Govern ment</w>
- wing</w>
8 .
9 3</w>
B oth</w>
M id
N et
N ew
T ea</w>
a the
c ustom
e f</w>
f igure</w>
n or</w>
in surance</w>
ti on
or i
on d
sa fe
al tern
os exuality</w>
ac ts</w>
ro bots</w>
ad y</w>
le ave</w>
Th an</w>
un employment</w>
wor ship</w>
lo ts</w>
vot es</w>
low er-income</w>
pre domin
ta kes</w>
ge ther</w>
ep tion</w>
mo ved</w>
ru ption</w>
off en
divid es</w>
rac es</w>
reg ard</w>
shi ps</w>
anc es</w>
simil arly</w>
har der</w>
depen d
bas e</w>
experi ences</w>
main line</w>
trac ing</w>
regi ons</w>
terror ist</w>
democr atic</w>
consider ed</w>
def end</w>
big ger</w>
Sh are</w>
top ics</w>
affec ting</w>
shoot ing</w>
jud ges</w>
tab let</w>
lesbi ans</w>
advanc ed</w>
lab or</w>
Hung ary</w>
Medic are</w>
Depart ment</w>
2 5
B C</w>
X i</w>
a vi
b ia</w>
f al
p essim
s oli
t ar
w ard</w>
in ning</w>
or es</w>
it ems</w>
al u
the tic</w>
ro l
ab sent
ne ar</w>
st ood</w>
ex p
pro portion</w>
ear ch
ear ning</w>
de ter
de ta
de ep
ap pointed</w>
tic es</w>
poli tically</w>
port ers</w>
pre valent</w>
pec t</w>
mar k</w>
Wh o</w>
ev alu
dec id
str onger</w>
dis trust</w>
increas ingly</w>
col d</w>
fic ally</w>
iz ation</w>
ed oms</w>
Vi ew</w>
go t</w>
accoun ting</w>
techn ologies</w>
hand le</w>
citiz enship</w>
partn ers</w>
mi x</w>
ron t</w>
Isra eli
ther ed</w>
aliz ed</w>
regul arly</w>
Com par
Ita lians</w>
dou ble</w>
disc us
star k</w>
engag ement</w>
hist ory</w>
care er</w>
represent ative</w>
Poli tical</w>
Conf idence</w>
character istics</w>
Educ ation</w>
teach ers</w>
lap top</w>
assess ments</w>
Argent ina</w>
Cz ech</w>
dram atically</w>
run ning</w>
conversa tion</w>
friend ly</w>
continu ed</w>
fif th</w>
mean ing</w>
3 ,
5 0
A A
A ff
A ll</w>
L ast</w>
N eg
Q An
W .</w>
e ful</w>
l d
r or</w>
r ose</w>
s pre
w est</w>
an i</w>
an ia</w>
en ed</w>
re ti
at em
as si
ol s</w>
ag encies</w>
il legally</w>
res e
st ock</w>
ex ecu
be yond</w>
pro ject</w>
se tt
se where</w>
to gether</w>
fa ith</w>
pos ted</w>
ev ent</w>
pr ay</w>
pr acti
pr int</w>
pen alty</w>
rel ative</w>
clos er</w>
incl ined</w>
lean ed</w>
la g</w>
Par tisan</w>
colle ge-educated</w>
tu al</w>
Su b
eng age</w>
with dra
trac ked</w>
Publi c
stat ements</w>
one-in- four</w>
prof it</w>
sk ills</w>
cho ose</w>
hom e
Jan .</w>
vari ous</w>
prefer red</w>
Sh ould</w>
advant age</w>
As ked</w>
cul ture</w>
ref er
reduc ing</w>
Conserv atives</w>
We e
warm ing</w>
Min is
happ en</w>
Gu atem
aw are</w>
One -in-
minim um</w>
frustr ated</w>
bir th</w>
pass ed</w>
cent ury</w>
appropri ate</w>
Tim es</w>
right -wing</w>
perman ent</w>
achi ev
admit ted</w>
territ ories</w>
hour s</w>
agn os
campaign s</w>
safe ty</w>
absent ee</w>
QAn on</w>
Guatem al
- year</w>
. m
. 1</w>
4 ,
9 5</w>
A ge</w>
A verage</w>
C ity</w>
F in
F re
G i
M er
Q u
S tr
S lo
U se</w>
a way</w>
b ul
b oo
e over</w>
f as
f ell</w>
g ot
h ere</w>
o es</w>
p ac
s po
s low
t ou
at tainment</w>
ac tually</w>
tr ou
le -
ha ps</w>
im pl
st eps</w>
ma kers</w>
ter -
de port
sur pris
qu e</w>
tic ism</w>
cl ass</w>
lin ks</w>
pres ent</w>
pos t-
gen e
ali g
Wh ites</w>
Res pon
shar p</w>
ke eping</w>
anc es
perc ei
des k
bec ame</w>
hou se</w>
support ing</w>
tis an
Ca in</w>
percent ages</w>
eng ine
stud ent</w>
sy stems</w>
provid ing</w>
read ers</w>
net works</w>
nati onally</w>
tern ers</w>
self- identified</w>
Le ad
Mor eover</w>
call s</w>
optim ism</w>
cap it
doub led</w>
Inde ed</w>
consum ers</w>
dru gs</w>
Po pu
los ing</w>
cir cum
Prim e</w>
Favor able</w>
opportun ities</w>
Comm un
deter min
rese tt
Public s</w>
Minis ter</w>
.m .</w>
tou ch</w>
circum stances</w>
- time</w>
C ampa
F our
H ond
I de
M i
P an
R ace</w>
S erv
W ould</w>
c e
d ary</w>
f f</w>
h er
o x</w>
o bli
t em
v s</w>
w ages</w>
re t
at tracted</w>
the ast</w>
ic i
as k</w>
tr end</w>
ag an</w>
res t</w>
st age</w>
st udi
Th ough</w>
coun ted</w>
wor n</w>
me tro</w>
ir ing</w>
rec over
ali sm</w>
pl ans</w>
elec t</w>
ye t</w>
ough out</w>
lim ited</w>
serv ed</w>
ris ks</w>
ke l</w>
fl u</w>
sub ject</w>
own ed</w>
,0 0
ste ad</w>
ste ady</w>
bac kers</w>
hand led</w>
orig ins</w>
sol ve</w>
express es</w>
Im migrants</w>
develop ments</w>
tern s</w>
connec tion</w>
uni versi
industr ies</w>
multi ple</w>
effor t</w>
Lib eral</w>
dist inc
stand ards</w>
Ta i
extrem ely</w>
behavi ors</w>
rais ed</w>
every one</w>
believ es</w>
law ful</w>
projec ted</w>
Bi ble</w>
discussi ons</w>
cyber attacks</w>
hospit als</w>
vir tually</w>
collec ted</w>
Colle ge</w>
PE J</w>
hon est</w>
offen sive</w>
fal se</w>
Mer kel</w>
Slo v
got ten</w>
tisan ship</w>
Hond ur
1 ,000</w>
9 .
9 6</w>
A C
A ri
B e</w>
C andid
E r
H igh
M ilitary</w>
P T</w>
a ving</w>
b is
c all</w>
d y</w>
d ang
e dom</w>
l onger</w>
o p</w>
p ost</w>
t in
t or</w>
v ic
w i
w on</w>
w age</w>
in iti
ti onally</w>
on a</w>
re views</w>
sa les</w>
om ing</w>
ac compan
tr an
us ually</w>
ex tent</w>
se es</w>
se qu
pres sure</w>
ran k</w>
Ch il
In dependents</w>
pr omin
favor ability</w>
str ug
he althy</w>
identi fication</w>
19 80</w>
tho do
pow ers</w>
atten ders</w>
pol ling</w>
new ly
av o
secon dary</w>
broad er</w>
repres ented</w>
seri ously</w>
Im port
declin ing</w>
pat terns</w>
speci fically</w>
occ up
Pak ist
see kers</w>
Simil ar</w>
twee ters</w>
domin ant</w>
Leban ese</w>
work force</w>
mid -
prom is
shoot ings</w>
proposa ls</w>
cooper ate</w>
commit ted</w>
dru g</w>
Or thodo
18 -</w>
help ed</w>
Uni versity</w>
civi l</w>
Religi ous</w>
histor ically</w>
Positi ve</w>
Brazili ans</w>
Fore ign</w>
purchas ing</w>
Sour ce</w>
Canadi ans</w>
predomin antly</w>
Israeli s</w>
Neg ative</w>
Wee k</w>
Campa ign</w>
universi ties</w>
Ari z
strug g
- point</w>
B r
C are</w>
E ight-in-ten</w>
G ood</w>
I f</w>
M al
N on-
O PT</w>
S n
T A</w>
V ir
W ar
X ers</w>
a i
b ur
d en
f er
g ations</w>
i ed</w>
l ess
m ir
s earch</w>
u sage</w>
w ins</w>
th ous
ar ity</w>
ti li
on going</w>
en h
ab lish
sh e</w>
il s</w>
op s</w>
op e</w>
pro val</w>
me tho
me et</w>
lin ked</w>
ran ging</w>
ta ined</w>
we b</w>
we ds</w>
sc re
hol ding</w>
pa th
pon ents</w>
shi ft</w>
Par ents</w>
cor ruption</w>
est ablish
eth ical</w>
tec h</w>
Vi et
loc k</w>
loc ation</w>
vis it</w>
atten ded</w>
mon it
Indi an</w>
fre edoms</w>
cell phones</w>
thr oughout</w>
spe ed</w>
prim aries</w>
Wes terners</w>
app ear
Di vid
doc tors</w>
read ing</w>
consider ing</w>
mat h</w>
net work</w>
exc e
direc tly</w>
Tw o</w>
impro ving</w>
vari ety</w>
neighbor ing</w>
plur alities</w>
lear ning</w>
legis lation</w>
happen s</w>
enthusias m</w>
Coun try</w>
fiel d</w>
Ken ya</w>
Sil ent</w>
diseas e</w>
comb ined</w>
recogni tion</w>
messa ges</w>
Mc Cain</w>
pron ounced</w>
reach ed</w>
impres sion</w>
advertis ing</w>
altern ative</w>
depend ent</w>
ld wide</w>
ances try</w>
Four -in-ten</w>
newly weds</w>
Ariz ona</w>
- 12</w>
B ur
B road</w>
C E
F TA</w>
J e
K -12</w>
S al
a th
b lame</w>
d ads</w>
g or
g an</w>
k a</w>
k ids</w>
m ilit
o v
p ar</w>
r os
r arely</w>
s on</w>
s ent</w>
s anc
z e</w>
in de
in struction</w>
er ous</w>
ti l</w>
en rol
re -
re n</w>
re ment</w>
it self</w>
as sa
di tionally</w>
su per
em ig
el se</w>
ag ing</w>
am ent</w>
ch i
pro posed</w>
un te
wor d</w>
qu ite</w>
me t</w>
cl assi
poli tic
pre t
mar ry</w>
ud e</w>
govern or</w>
pr ac
inc idents</w>
sc ore</w>
sc ale</w>
he aded</w>
clos est</w>
e- point</w>
Un favorable</w>
fac ial</w>
ga ins</w>
four th</w>
glob alization</w>
chang ing</w>
partic i
non es</w>
typ ically</w>
Ac t</w>
anal y
tra its</w>
Nor theast</w>
spe ech</w>
moder ates</w>
Tur ks</w>
Di sa
Im migration</w>
defin ed</w>
mat ters</w>
add ic
exc eption</w>
turn s</w>
Syri an</w>
sen i
1. 2</w>
hom osexuality</w>
Nov .</w>
extre mis
nat ure</w>
meas ure</w>
Cu ban</w>
worri es</w>
connec tions</w>
chur ches</w>
top ic</w>
work place</w>
tor ate</w>
pla ying</w>
lear n</w>
commit ment</w>
Uni vision</w>
streng th</w>
Concer ns</w>
inf ec
Venezuel a</w>
Te ens</w>
distric ts</w>
Ro e</w>
post graduate</w>
cos ts</w>
practi ce</w>
gor ith
- majority</w>
2 ,
B ud
E v
E ar
F ox</w>
H ind
I ow
I ran
S un
S hi
c ard</w>
d am
e ating</w>
f ast</w>
h y
i el
k er</w>
m ing</w>
m ent
n one</w>
n am</w>
o fu
p ati
p ra
p ass</w>
r id
u li
u als</w>
v ad
w ine</w>
in t
or t</w>
or ing</w>
re ve
li ed</w>
sa s</w>
al one</w>
al gorith
el sewhere</w>
ag ed</w>
ur ther</w>
ex ten
ter ly</w>
ear n
un favorably</w>
ri ed</w>
pan ts</w>
ir ls</w>
gr an
to ols</w>
pos es</w>
pos sibility</w>
Tr ends</w>
pre par
pre dic
ser ve</w>
conf ir
mo di
mo des
do gan</w>
ke t</w>
dre am</w>
min or</w>
min ds</w>
leg alization</w>
ess ors</w>
ill ed</w>
sp ouse</w>
glob ally</w>
Is su
soci et
eas ier</w>
tra dition</w>
citiz en</w>
mis sion</w>
ut down</w>
199 0</w>
remain ing</w>
ail s</w>
bal lots</w>
Sen .</w>
sen se</w>
hom es</w>
Col om
wat er</w>
see ing</w>
marke ts</w>
evangelic als</w>
tal ks</w>
tain ing</w>
justi ce</w>
Thre e-
comfor t</w>
associ ate</w>
rais ing</w>
br ing</w>
libr aries</w>
lesbi an</w>
protec tion</w>
inst all
enthusias tic</w>
At titudes</w>
rele ase</w>
second- generation</w>
an- origin</w>
Sci ence</w>
investi gation</w>
requi red</w>
Har ris</w>
ibut e</w>
stric ter</w>
rap id
cu ts</w>
Arab s</w>
princ i
deep ly</w>
boo ks</w>
desk top</w>
engine ering</w>
studi ed</w>
Er dogan</w>
bis exual</w>
thous ands</w>
Viet nam</w>
Sal vad
sanc tions</w>
partici pants</w>
ofu s</w>
modes tly</w>
societ al</w>
F ir
J us
L S</w>
N BC</w>
R ac
S A</w>
T otal</w>
W id
Y our</w>
a y
b ill</w>
b ills</w>
d h
f rac
m ons</w>
n er</w>
p ages</w>
t ext</w>
w in</w>
th -
an im
in dependent</w>
ti v
en ge</w>
re actions</w>
re turns</w>
it t
es ting</w>
tr ial</w>
us er</w>
di m
oun ds</w>
con gre
ag e-point</w>
com pe
ch at</w>
de a
un married</w>
un popular</w>
lik eli
pe ak</w>
pan els</w>
ap chat</w>
ing dom</w>
ran ks</w>
200 2</w>
quar ant
sc ri
he avi
comm er
pers on
min ut
respon ding</w>
respon ses</w>
Par tisans</w>
lead s</w>
sp ac
hou ses</w>
gu id
percent age-point</w>
emb ar
cas h</w>
hear ing</w>
Sou thern</w>
new ly</w>
ak er</w>
provid es</w>
provid ed</w>
under stood</w>
regi onal</w>
Per s
vers ary</w>
bo thered</w>
harass ed</w>
effec tively</w>
relation ships</w>
Be tween</w>
lat er</w>
meas ured</w>
care gi
multi racial</w>
represent ing</w>
Thre e-in-ten</w>
Feb .</w>
accur ately</w>
web site</w>
cour ts</w>
warm ly</w>
down lo
law makers</w>
pic ture</w>
stri king</w>
29 -year-olds</w>
Sci enti
wan ted</w>
pros pects</w>
vol unte
encour age</w>
sug g
cover ed</w>
Differ ences</w>
Grow ing</w>
profes sional</w>
pessim istic</w>
execu tive</w>
AC A</w>
Orthodo x</w>
Sn apchat</w>
addic tion</w>
Bud dh
Iow a</w>
Iran ian</w>
Three- quarters</w>
rapid ly</w>
Jus ti
/ 11</w>
9 /11</w>
B ill</w>
B ased</w>
C limate</w>
E th
H igh</w>
I D</w>
K n
K ingdom</w>
N e
S iz
S mart
W ade</w>
c le
e ve</w>
f loo
g in
g lo
h ab
h op
l ution</w>
m idd
n ect</w>
p act</w>
t ful</w>
v .</w>
w ent</w>
w ary</w>
w ind</w>
y mp
on gest</w>
en ding</w>
en ari
re mo
at a</w>
os en</w>
tr ying</w>
em is
em ails</w>
con sequ
con nect</w>
el em
par tisanship</w>
ow er</w>
op tions</w>
ex pen
ex ists</w>
un til</w>
public ly</w>
wor ked</w>
wor ldwide</w>
qu a
for ces</w>
lin k</w>
Tr ade</w>
ran g
ta ur
gre en</w>
In c
ud i</w>
pr ide</w>
An g
sc and
comm ents</w>
hol ders</w>
e- ha
rac ially</w>
gener ational</w>
fic i
youn gest</w>
19 60</w>
ga ys</w>
sp ir
bec oming</w>
Pro b
vis ited</w>
oppos ing</w>
wid er</w>
co ali
repres ent</w>
NA FTA</w>
nam es</w>
direc t</w>
car ry</w>
frequ ent</w>
impro vement</w>
comple te</w>
prefer ence</w>
call ing</w>
connec ted</w>
recor ds</w>
Ph one</w>
Sa udi</w>
viol ent</w>
fel low</w>
Aug .</w>
Ol ymp
affec ted</w>
ref er</w>
beg inning</w>
particip ate</w>
newspap ers</w>
spec ial</w>
Po lic
legis lat
coh ab
Palestin ians</w>
trans gender</w>
protec ting</w>
happ y</w>
nar ro
encoun ter</w>
Medi a</w>
Gr ou
recomm end
Respon dents</w>
dang erous</w>
accompan ied</w>
inde x</w>
super power</w>
pati ents</w>
rid e-ha
Rac ial</w>
likeli hood</w>
heavi ly</w>
- percentage-point</w>
8 ,000</w>
9 9</w>
B I</w>
C ru
D uring</w>
E mp
F a
F ed
I I</w>
K av
M it
M os
N on
N ations</w>
O K</w>
O ut</w>
R em
W ill</w>
a im
c al
c le</w>
c able</w>
d ol
f y</w>
f lag</w>
k ish</w>
l ar</w>
m ed</w>
n or
n thetic</w>
s ou
t al</w>
w ise</w>
y ou
an is</w>
an aug
in ds</w>
in ated</w>
ar s</w>
re verse</w>
li ament</w>
it ors</w>
ac ting</w>
le aving</w>
con c
oc cas
sh utdown</w>
ex is
be an</w>
pro por
pro fici
ear n</w>
ent ation</w>
sur ge</w>
per haps</w>
gi ves</w>
rec y
rec ession</w>
pec ted</w>
inter actions</w>
200 3</w>
200 1</w>
thin ks</w>
ris es</w>
respon sible</w>
Af D</w>
rea m</w>
own ing</w>
inform ed</w>
Over whelm
ste adi
compan y</w>
pol ar
pol lution</w>
ib bean</w>
techn ological</w>
eas ily</w>
memb ership</w>
ide as</w>
mis conduct</w>
Tur kish</w>
non- Hispanic</w>
aliz ing</w>
att emp
regul ar</w>
Ad ditionally</w>
crimin al</w>
cre ate</w>
Be li
Li ke</w>
not ably</w>
occ ur</w>
see king</w>
comple t
top s</w>
ome ter</w>
prom ot
decreas e</w>
Lib er
chall enge</w>
reduc ed</w>
ban ks</w>
believ ed</w>
Car ibbean</w>
inst ability</w>
indic ate</w>
ca uc
sid es</w>
cou ples</w>
high- speed</w>
blo od</w>
Kore ans</w>
long- term</w>
Mid west</w>
custom s</w>
earch ers</w>
deport ation</w>
Serv ice</w>
tin y</w>
promin ent</w>
avo id</w>
Pakist anis</w>
War ren</w>
politic ians</w>
pret ty</w>
analy zed</w>
Issu es</w>
dea ths</w>
Siz able</w>
cle arly</w>
emis sions</w>
scand al</w>
ride-ha iling</w>
Cru z</w>
Emp lo
Fed eral</w>
Kav anaug
steadi ly</w>
Kavanaug h</w>
3 0
4 0
5 00</w>
9 7</w>
A gain</w>
B er
B as
B el
C o
E l
E m
G h
J ew
L a
L ith
L eg
P ence</w>
S p
W e</w>
W ant</w>
Z i
a h</w>
b om
b ab
c lo
c over</w>
f and</w>
g ro
h ost</w>
h our</w>
l ose</w>
l oss</w>
p i
p ing</w>
p ose</w>
p .m.</w>
r om
r ene
s -
t ation</w>
t one</w>
t est</w>
t old</w>
z er
ar rang
re action</w>
sa f
it ual</w>
it y-
al th
ic ide</w>
es day</w>
as tr
tr ies</w>
tr ends</w>
ad versary</w>
con su
ag s</w>
il lin
res taur
op tion</w>
ur o</w>
vi sas</w>
coun t</w>
ch osen</w>
Re fuge
Re agan</w>
ear ing</w>
un ch</w>
un ions</w>
un fairly</w>
un friendly</w>
gr ounds</w>
enti re</w>
enti rely</w>
our ces</w>
ev el
fin al</w>
import ant
lim its</w>
str a
ru p
off line</w>
dre w</w>
dat ers</w>
out come</w>
illi ons</w>
der ate</w>
19 65</w>
ga ined</w>
har m</w>
bas es</w>
main ly</w>
main tain</w>
pol ls</w>
sy m
organ ic</w>
provid ers</w>
lan tic</w>
199 7</w>
199 0s</w>
app ly</w>
end a</w>
med ic
Sup porters</w>
ann ounced</w>
Li fe</w>
sen si
Perc eptions</w>
show ing</w>
domin ated</w>
vari ed</w>
pur su
cul ation</w>
prom ise</w>
individ uals</w>
Cub ans</w>
mes sage</w>
tele phone</w>
consum ption</w>
Glob ally</w>
Conf lic
happen ing</w>
arri ved</w>
help ing</w>
Religi on</w>
Concer n</w>
U.S.- Mexico</w>
dram atic</w>
discussi on</w>
Venezuel ans</w>
diseas es</w>
conv enti
natur alization</w>
Se en</w>
enter ing</w>
life time</w>
threat en</w>
shif ted</w>
assist ance</w>
Fam ily</w>
athe ists</w>
soli d</w>
spre ading</w>
home owners</w>
One-in- five</w>
Commun ity</w>
resett led</w>
ret ary</w>
Chil dren</w>
Import ant</w>
occup ations</w>
enh anc
prac tices</w>
seni ors</w>
Ear th</w>
Fir st</w>
quarant ine</w>
minut es</w>
Scienti sts</w>
Buddh ists</w>
Kn ow
Inc reas
Ang el
spir itual</w>
Polic y</w>
cohab iting</w>
Jew ish</w>
Lith u
Zi ka</w>
clo thing</w>
1 ,00
C D
C itiz
D u
D en
D em
D oes</w>
F ol
F ili
F BI</w>
H ou
H om
H as</w>
H ere</w>
I ne
J P</w>
L ab
M on
M ic
M ad
N E
N P
P r
S o</w>
S om
S har
V la
a h
b ing</w>
b on</w>
c ut
d ated</w>
g oods</w>
h ash
k y</w>
m iles</w>
n ers</w>
n ative</w>
p ap
s ha
s ist
t un
v or
y /
y es</w>
y ers</w>
y gam
in et</w>
ti ous</w>
ti ves</w>
en sur
en ess</w>
re ments</w>
re placed</w>
li an</w>
al leg
the less</w>
ab use</w>
tr ibu
di ver
id ing</w>
ne ar
con cen
oc al</w>
el li
il -
res ources</w>
st re
st ability</w>
ex ist</w>
ear th
um bia</w>
iti s</w>
igh ting</w>
qu ic
Tr ust</w>
we ar</w>
enc ing</w>
elec torate</w>
dec ide</w>
form al</w>
thin king</w>
str ongest</w>
An n
sc enari
lic it</w>
comm it</w>
e- book</w>
cons ensus</w>
Par liament</w>
olog ically</w>
des ire</w>
hou sing</w>
four -year</w>
tec h
ed -
ed y</w>
disa st
Vi ew
ven tion</w>
bi as</w>
go v
fre edom</w>
tre ated</w>
ene g
crim es</w>
trac king</w>
ak ia</w>
Gre at
adv ance</w>
To o</w>
Im pact</w>
declin es</w>
develop ment</w>
Be fore</w>
Vot ing</w>
Perc ent
Col umbia</w>
see k</w>
tal king</w>
uni que</w>
fun dam
succ e
Lib ya</w>
migr ant</w>
Mo bile</w>
Poli ce</w>
We b</w>
cen s
br ought</w>
coh ort</w>
1, 50
nation wide</w>
reflec ting</w>
Cz ech
conversa tions</w>
Ric o</w>
char t</w>
encoun ters</w>
Medi an</w>
Bac k</w>
watch ed</w>
Rel ations</w>
life times</w>
Kore an</w>
open ness</w>
answ ers</w>
tar get</w>
evalu ations</w>
Compar ed</w>
discus s</w>
reti rement</w>
Guatemal a</w>
Gi uli
trou b
surpris ingly</w>
Lead ers</w>
capit a</w>
Popu lation</w>
Pan el</w>
recover y</w>
High er</w>
vic tory</w>
Vir gin
tili ty</w>
princi ples</w>
Wid espread</w>
dim ir</w>
Pers onal</w>
Justi ce</w>
midd le
Mit t</w>
recy cl
complet ely</w>
Emplo yment</w>
Gh ana</w>
rene w
consu me</w>
Lithu ania</w>
Mad uro</w>
Vla dimir</w>
Czech s</w>
Giuli ani</w>
Virgin ia</w>
1 5
2 7
3 6.
7 0s</w>
B or
C N
C or
C rim
E d
E s
E l</w>
F ive</w>
G o
I A</w>
O w
O ff
O ut
P ath
R ights</w>
T ri
W ith
Y ou</w>
b aby</w>
c au
c ause</w>
f os
f ront</w>
g irls</w>
i Phone</w>
k down</w>
k inds</w>
l ad
l ement</w>
m y</w>
m en
m us
m other</w>
m ach
o d
o l</w>
p in
p age</w>
s en</w>
t ex
t esting</w>
v as
v ice</w>
w an</w>
w rit
an tic</w>
er -
er e
ti vity</w>
en jo
re al</w>
re ally</w>
re ta
re mit
li n</w>
li sts</w>
al ed</w>
ati on
is ure</w>
ab inet</w>
ad jus
ver less</w>
ag enda</w>
sh r
am id</w>
publi sh
im ports</w>
res earchers</w>
st ream</w>
ma ke
ex cl
ex pla
ch ed</w>
Re gi
un fair</w>
un accompanied</w>
ent ary</w>
si l</w>
pe ers</w>
over turn</w>
lo ans</w>
gr and
tic ip
enti ally</w>
ran ked</w>
diff ers</w>
ra ise</w>
ali a</w>
In stead</w>
pl ed</w>
pl us</w>
mo vi
mo tiv
lim it</w>
favor ing</w>
sc ru
Con sist
e- sharing</w>
ess ing</w>
Af ter</w>
sub ur
ass ign
depen ding</w>
Maj or</w>
ed ge</w>
disa bility</w>
vis itors</w>
bac ked</w>
imp acts</w>
tur al</w>
tre at</w>
recei ving</w>
Ira q
co al</w>
respec tful</w>
Fran c
ide al</w>
ord able</w>
tric t</w>
199 4</w>
view ership</w>
sol o</w>
feel s</w>
dig it
Com mission</w>
Gen der</w>
exc eptions</w>
cre ated</w>
Op position</w>
hom e-sharing</w>
marke dly</w>
show ed</w>
uni versa
fall ing</w>
produc tion</w>
Niger ians</w>
represent atives</w>
Thre at</w>
requ iring</w>
3. 4</w>
affec ts</w>
Australi ans</w>
Boom er</w>
applic ation</w>
vo ic
every thing</w>
mas ter</w>
arri vals</w>
evid ent</w>
streng th
Dis trict</w>
rele ased</w>
shor tly</w>
bir ths</w>
cir culation</w>
ca used</w>
tro ops</w>
Prim ary</w>
sid ed</w>
requi rements</w>
Sil ents</w>
distric t</w>
messa ging</w>
any ah
Arab ia</w>
well- being</w>
Rel atively</w>
origin al</w>
Fam ili
Net anyah
New sroom</w>
25 -</w>
Str ong</w>
impl an
alig n</w>
distinc t</w>
Tai wan</w>
Slov akia</w>
Candid ate</w>
initi al</w>
promis es</w>
mir ror</w>
path way</w>
enrol led</w>
classi fied</w>
Hind us</w>
Salvad or</w>
spac es</w>
glo be</w>
Olymp ics</w>
narro wer</w>
Mos tly</w>
Liber als</w>
bab ies</w>
medic ine</w>
sensi tive</w>
Fol low
Fili pin
sha pe</w>
ensur ing</w>
scenari o</w>
Percent age</w>
CN N</w>
fos sil</w>
remit t
scru tiny</w>
Netanyah u</w>
. 2</w>
1 6
1 2.
3 5
3 ,000</w>
4 ,000</w>
4 -year-olds</w>
9 8</w>
A ga
B ec
D eb
D ata</w>
E cu
F ront</w>
G in
H O</w>
I l
L itt
L ocal</w>
M M
M others</w>
P P</w>
P au
S o
S eneg
T er
U LS</w>
W it
W HO</w>
a ver
a ks</w>
b il
c ar</w>
c ities</w>
c iting</w>
e ing</w>
f ill</w>
f ight</w>
f ighting</w>
g ue</w>
g ness</w>
h ed</w>
h im
h it</w>
i ety</w>
i ards</w>
m ur
m ometer</w>
m illions</w>
s li
s wine</w>
w illin
w earing</w>
y le</w>
th ly</w>
an ticip
or d</w>
as ks</w>
tr aff
em ph
ad e-
le isure</w>
oun ding</w>
ol dest</w>
ag ues</w>
ag gres
sh own</w>
par ental</w>
ex it</w>
ter te</w>
ch ing</w>
ear ned</w>
de leg
de ported</w>
un ite</w>
si b
ve h
vie t</w>
wor ds</w>
iti ve</w>
per -income</w>
gr ade</w>
cl ass
pos ure</w>
fe at
low s</w>
major ity-
ev ol
differ ed</w>
fi re
pr ise</w>
cer tain
fu el</w>
sc ap
he ar</w>
comm only</w>
dis par
off ered</w>
e- related</w>
col lap
pers ons</w>
cont acted</w>
of registered</w>
te e</w>
polic ing</w>
ill ness</w>
hel ps</w>
and a</w>
St ud
har dly</w>
cri ticism</w>
tu res</w>
sm all
plac ing</w>
ven ess</w>
ste p</w>
exam ined</w>
typ ology</w>
pol ygam
ligh tly</w>
war eness</w>
ide ologically</w>
broad cast</w>
Gre e
partn ered</w>
affili ates</w>
adv ice</w>
e-in- four</w>
Al so</w>
ther mometer</w>
bo ys</w>
bo dy</w>
sligh t</w>
view ers</w>
opp ed</w>
regul ation</w>
Ad v
exc ited</w>
cre ates</w>
Be tter</w>
sen ators</w>
nam ing</w>
Span iards</w>
occ o</w>
car ds</w>
car ried</w>
man u
Dec .</w>
deal t</w>
avail ability</w>
twee ted</w>
Le an</w>
Mor occo</w>
Ph il
fem in
trus t
dri ving</w>
dri verless</w>
necess arily</w>
Mo derate</w>
pla yed</w>
famili ar</w>
famili arity</w>
particip ation</w>
Ap ple</w>
chec ks</w>
Or gan
mas ks</w>
diplom atic</w>
Educ ational</w>
Tu esday</w>
histor ic</w>
assess ment</w>
reflec ts</w>
stri kes</w>
communic ations</w>
nar row</w>
ibut es</w>
appe ar</w>
appe als</w>
ish ed</w>
Brazili an</w>
gam es</w>
natur alized</w>
statis tically</w>
negoti ations</w>
disagre ed</w>
athe ist</w>
deta iled</w>
deta ils</w>
withdra w
Qu ar
gene tic</w>
percei ve</w>
Ide ological</w>
tem por
Hondur as</w>
strugg le</w>
Mal ay
bur den</w>
scre en</w>
emig rants</w>
extremis t</w>
Sun n
pra yer</w>
earn ings</w>
gran ting</w>
compe ti
scri p
Eth n
Smart phone</w>
hab its</w>
hop eful</w>
remo val</w>
consequ ences</w>
qua ke</w>
rom antic</w>
Conflic t</w>
Du terte</w>
Den mark</w>
Hou se
Ine quality</w>
NP R</w>
Som alia</w>
cut ting</w>
pap er</w>
earth quake</w>
writ ten</w>
expla ining</w>
Franc is</w>
remitt ances</w>
Aga inst</w>
Ecu ad
Litt le</w>
Pau l</w>
So viet</w>
him self</w>
willin gness</w>
emph as
aggres sive</w>
Malay si
' d</w>
/ Lean</w>
1 2
1 1.
7 ,
A S</w>
B ei
B usin
B JP</w>
D .
D r
D P</w>
F u
F as
L u
M S
M ac
M emb
P l
P ost</w>
P ali
R ight</w>
S am
S lightly</w>
T ed</w>
T elem
U r
W eb
a z
a part</w>
b ar
b it</w>
c ha
c ur
c og
c o-
d hood</w>
e /
e ding</w>
e theless</w>
f urther</w>
g ate</w>
h us
h un
h oods</w>
h ov
i onally</w>
j ing</w>
k -
m a</w>
m ade-
n ight</w>
n esses</w>
n itive</w>
o t</w>
p ace</w>
r are</w>
s lower</w>
s ports</w>
s elected</w>
t ac
u bi
v ements</w>
y an</w>
in king</w>
en tered</w>
re place</w>
re turned</w>
li ance</w>
at -
at or</w>
at all</w>
os ity</w>
ac les</w>
as on</w>
us sel
su ff
su nam
em er
ad el
pu tation</w>
le ly</w>
ol er
ol ina</w>
el and</w>
ag ue</w>
par ti
im pe
im medi
im moral</w>
res ist
op ponents</w>
st able</w>
ul ar</w>
ma il-
po or
Re p</w>
Re gar
de li
un likely</w>
un do</w>
pe ace</w>
ve z</w>
ve -born</w>
um b
wor thy</w>
lo y
lo ve</w>
ap parent</w>
surve ill
pres ence</w>
sup ports</w>
ran ges</w>
reas on
mar ital</w>
In stitu
ser ving</w>
differ ently</w>
govern ing</w>
ph ia</w>
ph one-
mo vement</w>
high er-income</w>
str ateg
he ads</w>
Con vers
clos ed</w>
pa y
dis placed</w>
dis satisfaction</w>
col l
col lection</w>
dat ab
out pac
poin t
anc y</w>
Par is</w>
19 88</w>
sp ent</w>
St at
Inter national</w>
infl ation</w>
go es</w>
mon thly</w>
ethn ically</w>
mos t-
tur ning</w>
sec tor</w>
sy nthetic</w>
tra vel</w>
pp ing</w>
trac e</w>
Nor way</w>
great ly</w>
war ds</w>
terr or</w>
grad s</w>
ord ers</w>
affili ate</w>
prim e</w>
sever e</w>
disap proval</w>
199 5</w>
199 2</w>
hum an
mor ality</w>
Di rec
ann ounc
consider able</w>
NA SA</w>
cho ices</w>
Gen eral</w>
contro l
jus tices</w>
Vot e</w>
nati ve-born</w>
not e</w>
car bon</w>
vari ation</w>
difficul ty</w>
self- described</w>
Le ague</w>
star ted</w>
Lar ger</w>
Mor mons</w>
recor ded</w>
Pos t-
neighbor hoods</w>
Ukra in
ob st
ob serv
succ ess</w>
Thre e</w>
As soci
fr ame</w>
decreas es</w>
rul es</w>
rul ing</w>
Curr ent</w>
cy cle</w>
reduc tion</w>
dra ws</w>
doub t</w>
apprehen ded</w>
particip ated</w>
cen tral</w>
happen ed</w>
teach ings</w>
Car olina</w>
down turn</w>
correc t</w>
At lantic</w>
Gu n</w>
sus pected</w>
Coun tries</w>
communic ation</w>
inf o</w>
inten s
recogni ze</w>
rap id</w>
sta yed</w>
statis tical</w>
Pri orities</w>
so lely</w>
ori entation</w>
decid ed</w>
AA AS</w>
sett ings</w>
Sub stanti
achiev ed</w>
agnos tics</w>
pac k
spo ken</w>
gene tically</w>
percei ved</w>
Mi xed</w>
her it
ici ent</w>
Br ussel
Divid ed</w>
Je hov
Disa p
caregi vers</w>
volunte er</w>
sugg ests</w>
floo ds</w>
recommend ations</w>
occas ionally</w>
profici ency</w>
stra ight</w>
rup t</w>
alleg ations</w>
concen tr
quic kly</w>
Ann ual</w>
tech ni
Bor n</w>
make up</w>
motiv ated</w>
Filipin os</w>
MM R</w>
deleg ates</w>
veh ic
Gree ks</w>
Phil adel
Organ ization</w>
withdraw al</w>
Malaysi a</w>
Bei jing</w>
MS NBC</w>
Pali n</w>
Telem undo</w>
cog nitive</w>
made- up</w>
sunam i</w>
impe ach
surveill ance</w>
Convers ely</w>
Jehov ah</w>
Philadel phia</w>
- 1
- to-
- elect</w>
1 7.
8 ,
9 ,
A u
A be</w>
B re
B os
B est</w>
D ig
D evel
E lec
F ri
F air</w>
H aw
H -1
I d
J in
L ow
M u
O thers</w>
P en
R yan</w>
S wit
S el
S ever
T yp
W all</w>
a ther</w>
b or</w>
c r
c o</w>
c ity</w>
c enter</w>
d el
e es</w>
e ting</w>
f illed</w>
h ac
h oli
k o</w>
k ept</w>
m ood</w>
o ts</w>
p ed</w>
p ir
r ying</w>
s ex
s mar
s of
s imp
s lim</w>
t ough</w>
u ne
w in
x it</w>
an x
an g</w>
in te
in stead</w>
er a</w>
er as</w>
or se</w>
en -
re ject</w>
re putation</w>
it able</w>
at red</w>
the irs</w>
ro g
is ol
as t
as king</w>
us eful</w>
di minis
su icide</w>
id es</w>
ad mis
el ders</w>
ag e
sh ore</w>
com promise</w>
res idential</w>
st ores</w>
ot a</w>
be t
coun ting</w>
Re p
de le
un ited</w>
un lock</w>
ent y</w>
ent ers</w>
ent -elect</w>
si x
si vely</w>
ri es</w>
se y</w>
over turned</w>
qu es</w>
per vas
lo aded</w>
me an</w>
me anwhile</w>
for ward</w>
cl aim
pres ent
gi um</w>
His tor
pre dec
ta g</w>
Ch ur
thre e-in-four</w>
inter act</w>
gre ement</w>
econom ically</w>
Wh ere</w>
some day</w>
pl an
ph ot
inc or
inc ed</w>
inc ident</w>
jo b
quar terly</w>
twe et</w>
sc ores</w>
lar s</w>
Con tro
pa thetic</w>
off ers</w>
stan tive</w>
ris ky</w>
cont est</w>
leg alizing</w>
bor ders</w>
ess ed</w>
cons pir
respon ded</w>
19 81</w>
sub stantive</w>
St atis
agre ed</w>
har d
Pro posa
expec ting</w>
house work</w>
vis a</w>
go al</w>
influ enced</w>
sec tors</w>
regis ter</w>
identif ying</w>
tra vel
tra jec
Nor thern</w>
war s</w>
provid er</w>
progr am
disap pro
Al ong</w>
gradu ated</w>
app lied</w>
view points</w>
loo ked</w>
adminis tered</w>
prof essors</w>
bal lot</w>
pat h</w>
exc ept</w>
up date</w>
dr illing</w>
extre me</w>
not ed</w>
man ag
know ing</w>
attac k</w>
Jord an
star kly</w>
chur ch
uni versity</w>
ful l
fun ded</w>
trus ting</w>
produc t</w>
ob jec
autom ated</w>
Gener ally</w>
As s
10 .
4. 2</w>
skep ticism</w>
Not ably</w>
accur acy</w>
dist ant</w>
institu tion</w>
Rec ent</w>
Sec retary</w>
veter an</w>
contribu ting</w>
nation ali
sus tained</w>
rele v
projec ts</w>
reflec ted</w>
One -
tri ed</w>
shor t</w>
cent ers</w>
wan ese</w>
pros pect</w>
Tunis ians</w>
Positi ons</w>
Ric ans</w>
Tim e</w>
conv inced</w>
opportun ity</w>
land line</w>
enter tainment</w>
watch ing</w>
sug gest</w>
so on</w>
princ ip
Differ ent</w>
soli dly</w>
exp licit</w>
achiev ing</w>
agnos tic</w>
bul l
fas test
determin ed</w>
obli gation</w>
tem per
Tai wanese</w>
Slov aks</w>
tran si
assa ul
Ev angelic
algorith ms</w>
prepar es</w>
Colom bia</w>
frac king</w>
embar go</w>
coali tion</w>
legislat ors</w>
Grou ps</w>
dol lars</w>
Overwhelm ing</w>
Bel gium</w>
Leg al</w>
zer land</w>
enhanc ements</w>
Lab or</w>
tribu tion</w>
fundam ental</w>
recycl ed</w>
36. 6</w>
Path ways</w>
With in</w>
mach ines</w>
Iraq i</w>
universa l</w>
implan ted</w>
Follow ing</w>
Seneg al</w>
scap e</w>
trust worthy</w>
scrip ture</w>
Fu ture</w>
at- home</w>
Institu tions</w>
obst acles</w>
Substanti al</w>
herit age</w>
Brussel s</w>
impeach ment</w>
Dig ital</w>
Devel op
Haw ai
H-1 B</w>
Jin ping</w>
Swit zerland</w>
Sever al</w>
simp ly</w>
inte gr
admis sions</w>
Histor ically</w>
conspir acy</w>
trajec tory</w>
- up</w>
- speaking</w>
. 3</w>
. W</w>
0 8</w>
0 00</w>
2 2
5 0.
6 th</w>
6 00</w>
6 0s</w>
8 0s</w>
A N
B an
B al
B ad</w>
B ang
C ha
C ell</w>
C IA</w>
D a
G ar
G 20</w>
H el
H ome</w>
J er
J ud
L ad
L os</w>
M ig
M ass</w>
N one</w>
N ow</w>
N ext</w>
P re
P el
S pe
S how</w>
S ituation</w>
U p
a .m.</w>
a wareness</w>
b in</w>
b oss</w>
c a</w>
c tion</w>
c lim
c ros
d anger</w>
e at</w>
f ati
f ear
f other</w>
f ting</w>
h atred</w>
i .
i m</w>
j um
k ground</w>
k ina</w>
l u
l on
l unch</w>
o is</w>
p as
p ush</w>
s ight</w>
s ought</w>
s hap
t ability</w>
t ask</w>
t ags</w>
t opped</w>
t sunami</w>
v ali
w o</w>
w as
w el
w inning</w>
y ans</w>
an on
in ts</w>
in ation</w>
in aug
er ror</w>
ar y
ti l
or ms</w>
on str
re et</w>
re moved</w>
sa d</w>
al ing</w>
al king</w>
al coh
wh at
os i</w>
ac qu
ac comp
es ity</w>
ec hn
ab road</w>
as ting</w>
di es</w>
di vor
oun s</w>
ver y
con struction</w>
oc curr
com position</w>
im ages</w>
res s
st ation</w>
st op</w>
st yle</w>
20 50</w>
Americ an
ur ation</w>
ul l</w>
ex ha
ex tend</w>
ex posure</w>
ter ri
ter math</w>
Re duc
Re ad</w>
Re present
de pres
de fe
un known</w>
lik ed</w>
wor sen
tic k</w>
tic ket</w>
lin ois</w>
fa ther</w>
uc t
Tr a
ran dom</w>
ran ged</w>
ta kers</w>
Ch ang
In come</w>
we ak
differ ing</w>
dec ent</w>
lim iting</w>
high ligh
rel uct
he alth
issu ed</w>
clos ing</w>
dis pu
off ended</w>
ten ds</w>
ten ded</w>
e- calling</w>
min us</w>
appro vals</w>
Latin x</w>
est -
fac ed</w>
peri or</w>
St ar</w>
St reet</w>
ass ess</w>
ass ign</w>
contr ibute</w>
Ma in
gu ar
loc ked</w>
offic er</w>
fir st
fir ms</w>
ste ep</w>
bac king</w>
relati ves</w>
emplo yer</w>
Asi an-
non profit</w>
exam ines</w>
accoun table</w>
GO P
commun ist</w>
accept ance</w>
identif ies</w>
val u
af ter-
af termath</w>
respec ts</w>
Christi e</w>
minis ter</w>
mis use</w>
199 3</w>
199 1</w>
En ergy</w>
sol ving</w>
ail ing</w>
one-in- three</w>
resul ted</w>
read er</w>
defin ition</w>
ci p
mat er
Ad minis
Wor kers</w>
up per-income</w>
prot est</w>
De f
nomin ees</w>
1. 3</w>
nam e-calling</w>
Ex tre
see m</w>
spea kers</w>
invol ving</w>
Nig er</w>
domin ate</w>
oper ating</w>
2. 8</w>
star t</w>
Pos tal</w>
Austr ia</w>
multi ethnic</w>
pur pose</w>
represent ation</w>
As sad</w>
don ors</w>
vacc inated</w>
Jo b</w>
6. 4</w>
For t
enth ood</w>
y- at-home</w>
perform ed</w>
buil d</w>
doub ts</w>
5. 5</w>
adop t</w>
Egyp ti
particip ating</w>
tab lets</w>
legis l
journali st</w>
histor ical</w>
tri pled</w>
shor t
fiel ded</w>
Ken yans</w>
cou ple</w>
continu ing</w>
constitu ted</w>
constitu te</w>
reli able</w>
conv ic
sta y-at-home</w>
Bac kground</w>
pron ouns</w>
Fore ign
purchas es</w>
attr ibute</w>
cover ing</w>
Grow th</w>
wa it</w>
wa iting</w>
disagre ements</w>
ori ented</w>
exp and</w>
discus sed</w>
Aff ordable</w>
spre ads</w>
Sub -Saharan</w>
home work</w>
refer red</w>
Gi ven</w>
slow ed</w>
trou ble</w>
surpris ing</w>
Popu lar</w>
ce le
promis ing</w>
metho d</w>
establish ed</w>
monit oring</w>
Divid e</w>
Bur kina</w>
chi p</w>
infec tious</w>
confir med</w>
modi fied</w>
Colom bi
commer c
Prob lems</w>
you th</w>
exis ted</w>
cauc us</w>
Bas is</w>
La w</w>
gro cer
saf er</w>
astr on
restaur ants</w>
Refuge e</w>
CD C</w>
Citiz ens</w>
Pr ices</w>
diver ge</w>
near -
elli g
stre am
View ed</w>
middle -income</w>
Ed wards</w>
Go v</w>
lad es
men tion</w>
mus ic</w>
od ds</w>
adjus ted</w>
subur bs</w>
Bec ause</w>
Il linois</w>
mur der</w>
traff ic</w>
class es</w>
certain ty</w>
collap se</w>
small est</w>
polygam y</w>
Quar terly</w>
tempor ary</w>
Fas o</w>
Web -
tac tics</w>
emer ge</w>
parti al</w>
mail- in</w>
announc ement</w>
Ukrain ians</w>
pack age</w>
Bre xit</w>
sex ually</w>
smar t</w>
pervas ive</w>
Chur ch</w>
Contro l</w>
Statis tics</w>
program ming</w>
relev ant</w>
bull ying</w>
Evangelic al</w>
Bang lades
Da ily</w>
Jer sey</w>
Lad en</w>
Pel osi</w>
fati gue</w>
anon y
terri ble</w>
Represent atives</w>
- growing</w>
- ended</w>
- neutral</w>
4 9
A BC</w>
A greement</w>
B ar
B en
B ro
B ul
C B
C our
E U
E ur
E arly</w>
F igures</w>
F urther</w>
G oo
G DP</w>
H uc
H .W</w>
I C
I N
K as
K agan</w>
L in
M ulti
N at
N ic
O s</w>
O pp
P ope</w>
P ower</w>
Q a
Q ur
R ole</w>
R ubi
S ol
S ch
S ta
S peci
S oli
S atis
T an
T ali
T oward</w>
T echn
U g
V e
W at
b arri
c at
c am
c row
d i</w>
d ation</w>
d ance</w>
e m</w>
e ar</w>
e hn
f at
f ying</w>
f laws</w>
f iles</w>
g er
g le</w>
g ated</w>
i -
i ous</w>
k ab
k ep
m er
m ass</w>
n u
n ership</w>
r on</w>
r ent</w>
r il
r ant</w>
s ic
s low</w>
s lot</w>
v ul
v enti
w are</w>
in stances</w>
in accurate</w>
er ve</w>
ar ing</w>
ar ts</w>
or ts</w>
or ad
or ation</w>
or ial</w>
en acted</w>
ou twe
re di
re porters</w>
sa ve</w>
al liance</w>
ic ial</w>
ati o</w>
es ters</w>
es sive</w>
as ons</w>
di vision</w>
em o
ad ly</w>
ol a</w>
ne l</w>
ne dy</w>
oc ks</w>
par enting</w>
res iding</w>
st orms</w>
st ress
20 0</w>
ex posed</w>
be at</w>
pro -
pro ven</w>
Re g
ear th</w>
ear ns</w>
un sure</w>
un safe</w>
se ats</w>
se tting</w>
um in
wor st</w>
over sight</w>
qu ali
lo an</w>
me ant</w>
me eting</w>
gr ich</w>
port ation</w>
lac king</w>
fe ed</w>
low ering</w>
ing u
ing ual</w>
Hispan ic
medi um</w>
mig rate</w>
gen der
inter marriage</w>
inter viewed</w>
inter nationally</w>
mar ches</w>
In d
In divid
pl ant</w>
fol d</w>
fi res</w>
mo m</w>
jo ining</w>
form at</w>
rel ying</w>
thin k
str ain</w>
religi ons</w>
dis cip
chil dhood</w>
e- to-
pers pec
ke wise</w>
te en
min ing</w>
bor n
anc ed</w>
anc ing</w>
ess entially</w>
Par t
Par ties</w>
ill ustr
Un authorized</w>
sci enc
fac tual</w>
sub groups</w>
sub stitu
ga ther
colle agues</w>
contr ac
au ts</w>
tu ition</w>
ed a</w>
plac ement</w>
emp tive</w>
ell er</w>
ven ues</w>
ste e</w>
ste el</w>
non white</w>
exam ples</w>
sig ns</w>
experi encing</w>
ethn ic
three- to-one</w>
dem onstr
aga z
tra ditions</w>
co ast</w>
co ast
respec tive</w>
smart phone-
Per haps</w>
itu ations</w>
mis si
mis understood</w>
moder n</w>
Tur n
199 6</w>
En ter
end ants</w>
view ing</w>
even ing</w>
Im age</w>
Sup er</w>
ann ually</w>
mat ch</w>
dro pping</w>
Wor se</w>
up coming</w>
prot esters</w>
De ficit</w>
develop ed</w>
Be ing</w>
Be yond</w>
Li kewise</w>
sen ding</w>
1. 5</w>
Col orad
meas les</w>
estim ate</w>
know led
Bo ehn
jec ted</w>
neigh bor</w>
self- identify</w>
2. 4</w>
2. 1</w>
star ting</w>
engag ing</w>
ob esity</w>
mid terms</w>
requ ire</w>
4. 7</w>
4. 6</w>
Jo bs</w>
3. 2</w>
dist ance</w>
6. 5</w>
Mo di</w>
Ta ke</w>
liber ties</w>
Engli sh
bel ong</w>
applic ants</w>
consum er</w>
ban ning</w>
every day</w>
mas k</w>
back grounds</w>
los ses</w>
teach ing</w>
bud gets</w>
civi c</w>
streng then</w>
nation ality</w>
nation alities</w>
pic ked</w>
senti ments</w>
projec tions</w>
Argent ines</w>
U.S.- China</w>
Coun ty</w>
tri p</w>
second- most</w>
advanc es</w>
pass word</w>
communic ate</w>
29 -
Bi g</w>
Ken nedy</w>
ca uses</w>
investi gations</w>
reli ef</w>
stric t</w>
stric tly</w>
statis tics</w>
Colle ge-educated</w>
Pri or</w>
attr ibutes</w>
shif ting</w>
assist ants</w>
origin ally</w>
11 6th</w>
wa ke</w>
pre- election</w>
pre- emptive</w>
answ ered</w>
profes sions</w>
Net work</w>
decid ing</w>
Aff airs</w>
withdra wing</w>
Fre edom</w>
Qu es
spo t</w>
Lead er</w>
capit alism</w>
resett lement</w>
ce iling</w>
her ents</w>
Candid ates</w>
wi fe</w>
Br its</w>
fer tility</w>
less er</w>
metho ds</w>
re- election</w>
extremis ts</w>
Shi fting</w>
algorith m</w>
install ed</w>
th- largest</w>
congre gation</w>
Prob lem</w>
propor tion
polar ized</w>
polar ization</w>
arrang ement</w>
Know ledge</w>
disast er</w>
gov t</w>
Great est</w>
cens or</w>
renew able</w>
Out side</w>
ere as</w>
movi es</w>
Consist ent</w>
Gin grich</w>
Wit nesses</w>
anticip ate</w>
feat ure</w>
fire ar
Sunn i</w>
competi tive</w>
Ethn icity</w>
Busin ess</w>
Mac ron</w>
Ur ban</w>
hus band</w>
oler ant</w>
Regar dless</w>
datab ase</w>
Direc tion</w>
techni ques</w>
Low er-income</w>
diminis hed</w>
incor rec
fastest -growing</w>
Hawai i</w>
Spe aker</w>
pas sage</w>
wel come</w>
alcoh ol</w>
accomp lish
exha us
guar an
GOP -leaning</w>
Egypti ans</w>
legisl ative</w>
commerc ial</w>
astron auts</w>
anony m
EU -
Goo gle</w>
Huc kab
Opp ose</w>
Qur an</w>
Rubi o</w>
Soli d</w>
Ug anda</w>
stress ful</w>
gender -neutral</w>
e-to- face</w>
coast line</w>
Colorad o</w>
Boehn er</w>
Huckab ee</w>
- age</w>
- to-one</w>
. 4</w>
/ or</w>
1 4
1 0,000</w>
3 00</w>
6 ,
7 00</w>
9 0
A R
A tt
A udi
B ig
C D</w>
C ap
C ell
D K</w>
D id</w>
D ru
D ak
D omestic</w>
D avi
D ACA</w>
E T
E li
E ff
E qu
E CD</w>
F erg
F loy
G a
G or
H is</w>
H il
L an
M y
N =
N A</w>
N ancy</w>
O ECD</w>
P or
P interest</w>
P refer</w>
R is
S P
S c
S .</w>
S ing
S te
S ant
S wine</w>
T em
T ak
T ech</w>
T PP</w>
U N
U sed</w>
W ell</w>
b ran
b row
b led</w>
b att
c y</w>
c ing</w>
c ents</w>
c abinet</w>
d ates</w>
d ology</w>
d dit</w>
e y
e .</w>
e th</w>
f are</w>
f over</w>
g ins</w>
h ib
h ands</w>
i e
j un
l eng
m om
m it</w>
m ust</w>
n ic
o ther
r or
r ation</w>
r ound</w>
r out
r ass
r ude</w>
r atio</w>
s /
s ers</w>
s we
s end</w>
s ituations</w>
t own</w>
t ell</w>
t asks</w>
x im
y i
y iel
z ing</w>
z ab
an ity</w>
in k</w>
in ess</w>
er ts</w>
er ence</w>
er ran
ar ying</w>
ar rog
on y</w>
on ing</w>
re pe
re less</w>
re vers
re turn</w>
sa t
al le
al tered</w>
al umin
the ories</w>
wh ereas</w>
os ing</w>
ic ers</w>
es sions</w>
ec os
is sion</w>
as es</w>
as pect</w>
tr uly</w>
us on</w>
su perior</w>
ad equ
ad herents</w>
pu n
le ak</w>
ne ll</w>
Am id</w>
am an
com pl
com pris
com promising</w>
im e</w>
ow ed</w>
st ant</w>
Th us</w>
po the
ex er
ter ing</w>
ter ans</w>
be gin</w>
pro gres
pro visions</w>
Re form</w>
Re asons</w>
de p
de l</w>
de dic
un able</w>
un ion</w>
un comfortable</w>
ent ually</w>
se ts</w>
se ason</w>
um e</w>
um ps</w>
sur passed</w>
wor sen</w>
per form</w>
-in- three</w>
ap t</w>
ap point
tic ked</w>
cl es</w>
cl ergy</w>
fa iled</w>
pres sing</w>
ing ful</w>
ing redi
medi ans</w>
pre tend</w>
rec re
ra b</w>
gen ders</w>
inter views</w>
inter fer
ali sts</w>
gre gation</w>
gre edy</w>
mar gins</w>
In form
ser mons</w>
we d
we ather</w>
Wh y</w>
ev entually</w>
ep ts</w>
pl enty</w>
elec tr
fol der</w>
chan ne
chan ces</w>
pr ice</w>
ough er</w>
thir d-
mo vements</w>
fu els</w>
rel ating</w>
An ti
An dro
sc ar
Con nell</w>
pa ir</w>
all s</w>
dis proportion
off shore</w>
ten sions</w>
popul ated</w>
col dest</w>
pri ests</w>
rac ism</w>
cont ests</w>
of -
ke ts</w>
lean ings</w>
te a</w>
min e</w>
reg ime</w>
leg acy</w>
out sour
out standing</w>
out look</w>
out put</w>
gener ous</w>
wee k
aff ord</w>
neg atives</w>
Par enthood</w>
fic ial</w>
der ed</w>
iz ing</w>
19 72</w>
appro ving</w>
appro ach
and /or</w>
est ate</w>
est ingly</w>
fac e-to-face</w>
sp an</w>
sp ous
St ories</w>
Ma in</w>
sel f
fam il
cri tics</w>
tu red</w>
Muslim -majority</w>
eff icient</w>
sti c</w>
Ob am
loc ations</w>
fir m</w>
eng ines</w>
ste al</w>
Inter estingly</w>
bac ks</w>
emb race</w>
brea kdown</w>
go ers</w>
sig ned</w>
marri ages</w>
main stream</w>
sec ular</w>
part -time</w>
dem and</w>
dem ograph
eas e</w>
wid ened</w>
tra ining</w>
Mar ri
pp er</w>
acti vely</w>
Pres idential</w>
Christi anity</w>
grad es</w>
under represented</w>
stat e
spe aker</w>
ther e
bo ard</w>
En viron
mor ning</w>
end orse</w>
school ing</w>
school work</w>
adminis tr
t- level</w>
prof iles</w>
terror ists</w>
defin e</w>
ann ed</w>
devel op</w>
dro p
benef ited</w>
one- sided</w>
Ita lian</w>
Wor ries</w>
exc use</w>
Syri ans</w>
previ ously</w>
ip i
Span ish
dr one</w>
Ex c
Ex peri
car s</w>
invol ve</w>
bu y</w>
difficul ties</w>
2. 5</w>
2. 6</w>
2. 2</w>
Le ast</w>
Sh oot
Soc iety</w>
Pos sible</w>
care ers</w>
care ful</w>
dri ver</w>
work er</w>
Niger ian</w>
Pol es</w>
multi generational</w>
list en
cul tural</w>
10 0,000</w>
4. 8</w>
exper im
Lib r
separ ately</w>
cap able</w>
tor ture</w>
cy cles</w>
langu ages</w>
prev enting</w>
prev ailing</w>
buil t</w>
5. 7</w>
adop ters</w>
-year- old</w>
rais es</w>
Ap p</w>
br id
Fav or</w>
mas cul
trans it</w>
treat ments</w>
help ful</w>
civi lians</w>
civi lian</w>
Concer ned</w>
corpor ate</w>
tri ple</w>
frustr ating</w>
fiel ds</w>
wan ting</w>
friend ship</w>
cyber bullying</w>
inten se</w>
inten ded</w>
invest ments</w>
char ge</w>
char ged</w>
weap on</w>
occur s</w>
ish es</w>
expl ored</w>
expl oration</w>
mean ingful</w>
any one</w>
achi eve</w>
encour aged</w>
Mc Connell</w>
al- native</w>
Pri v
far m</w>
gar ia</w>
reach ing</w>
impres sions</w>
open -ended</w>
threat ening</w>
recomm ended</w>
negoti ating</w>
tion ing</w>
pessim ism</w>
Compar able</w>
Guatemal an</w>
4, 9
Fre e</w>
deport ations</w>
alig ned</w>
determin e</w>
Mi ke</w>
Pan aman
Serv ices</w>
wi reless</w>
Import ance</w>
Non- Hispanic</w>
ai m</w>
scre ens</w>
appear s</w>
appear ance</w>
exce eded</w>
Bur ma</w>
CE Os</w>
hy pothe
reve al</w>
gran ted</w>
install ing</w>
anim als</w>
guid ance</w>
embar rass
caregi ver</w>
downlo aded</w>
coali tions</w>
Grou p</w>
Non etheless</w>
nor thern</w>
conc epts</w>
Beli eve</w>
cauc uses</w>
Sp li
arrang ements</w>
sym pathetic</w>
Increas e</w>
Angel a</w>
Angel es</w>
Dem ographic</w>
Hom osexuality</w>
Hom eland</w>
hash tag</w>
hash tags</w>
succe ed</w>
27 -
Es tim
tex ts</w>
assign ments</w>
digit al-native</w>
strength ening</w>
Deb t</w>
Ter ror
bil ingual</w>
sib ly</w>
femin ist</w>
House holds</w>
D. C
immedi ate</w>
resist ance</w>
reason able</w>
coll abor
Stat us</w>
concentr ated</w>
vehic les</w>
Au g</w>
hac king</w>
isol ated</w>
dele ted</w>
full -time</w>
Ass ess
nationali st</w>
One- third</w>
transi tion</w>
Ban k</w>
Gar ner</w>
cros sing</w>
i. e.</w>
inaug uration</w>
divor ce</w>
occurr ing</w>
Reduc ing</w>
worsen ed</w>
after- school</w>
Adminis tration</w>
Fort une</w>
stream ing</w>
Web- only</w>
Banglades h</w>
Bul garia</w>
Cour ts</w>
Kas ich</w>
Nat ur
Qa eda</w>
Tali ban</w>
Ve terans</w>
barri ers</w>
venti lat
quali fied</w>
scienc e-related</w>
substitu tes</w>
ethnic ities</w>
English -speaking</w>
anonym ous</w>
Dak ota</w>
Davi d</w>
Eli zab
Ferg uson</w>
Floy d</w>
mom ent</w>
arrog ant</w>
revers ed</w>
alumin um</w>
progres sively</w>
ingredi ents</w>
interfer ence</w>
Andro id</w>
outsour cing</w>
spous es</w>
Elizab eth</w>
- -</w>
- country</w>
- off</w>
- language</w>
- plurality</w>
- again</w>
. 5</w>
0 4</w>
1 3
3 6
3 0s</w>
4 5
4 th</w>
6 5
8 00</w>
8 5,000</w>
A the
A ir
A rab</w>
C y
C an</w>
C am
C ons</w>
C up</w>
C risis</w>
C los
C lose</w>
C abinet</w>
D ow</w>
D omin
D av
D ut
E S
E b
F i</w>
F iel
G o</w>
G ay</w>
G all
G aps</w>
G irls</w>
H u
H us
H am
H and
I ts</w>
K ey</w>
L and
L ower</w>
M E
M an
N R
N in
N ar
N ation</w>
N ev
N omin
N either</w>
N et</w>
N uclear</w>
N iel
O f
P R
P ent
P ay</w>
P lan
R ate</w>
R ural</w>
R onald</w>
S us
S ud
S uch</w>
S pring</w>
T re
T en</w>
U sage</w>
W al
W il
W ell
W i-
Y ear</w>
a ir
a ying</w>
a ins</w>
b en
b ed</w>
b us
b ot
b ri
b illi
b ell
b others</w>
b arely</w>
c ue</w>
d e</w>
d es</w>
d om
d ad</w>
e x</w>
e able</w>
e tration</w>
f it
f it</w>
f est
f low</w>
f ron
f illing</w>
g n
h i</w>
h al
j am
j ur
j ury</w>
k ingly</w>
k illed</w>
m u
m on</w>
m use</w>
m ism</w>
m agaz
m umps</w>
n er
o to</w>
p es
p ope</w>
r um
r ide</w>
s tim
s lots</w>
s earch
s worn</w>
s elect</w>
s essions</w>
t ow
t ougher</w>
w es
w ave</w>
w ishes</w>
x ed-
y our
z en</w>
z ania</w>
á vez</w>
th an
th at
th us</w>
th west</w>
in su
in tro
ar k</w>
ti more</w>
ti me
ti veness</w>
on set</w>
en em
ou tw
ou red</w>
re b
re a</w>
re view</w>
re election</w>
re memb
re move</w>
re placement</w>
li ft</w>
al erts</w>
at eral</w>
at ory</w>
ac k</w>
ac are</w>
ati ble</w>
ati on-
es cap
es cal
ro b
ro om</w>
is land</w>
ab sol
as ts</w>
us h
us ion</w>
us ual</w>
di vis
di al-
em in
em ed</w>
em en</w>
ad ol
le f
ol en</w>
ol ars</w>
con ven
el ed</w>
el ing</w>
el ine</w>
el ements</w>
ag u
ag ric
ag ency</w>
ag ged</w>
res ol
res erv
st ar</w>
st abili
20 60</w>
ot ure</w>
ul l
ul ed</w>
ex tr
ex ports</w>
ch ose</w>
Re port</w>
de ep</w>
un paid</w>
un successful</w>
un happy</w>
un decided</w>
ve -
ri o
ri val
se in</w>
iti ons</w>
qu it
per mit
gr oss</w>
tw are</w>
cl aim</w>
cl oture</w>
pres identi
uc ture</w>
gi a</w>
pos ting</w>
oo her</w>
enti ves</w>
acc essing</w>
acc essed</w>
fe ach</w>
pre sum
pre gn
rec over</w>
rec ipi
ili ties</w>
Ch aracter
Ch ávez</w>
gen cy</w>
inter n
inter married</w>
mar rying</w>
we alth
Wh at
Wh ether</w>
ev ed</w>
pl anned</w>
fin ish</w>
Res erve</w>
govern ment
fi red</w>
pr in
conf used</w>
conf ron
200 0s</w>
dec lar
inc entives</w>
mo del</w>
jo in</w>
high light</w>
pen etration</w>
follow s</w>
sc ored</w>
he ad
he ated</w>
Con sum
Con go</w>
religi osity</w>
all -
dis play</w>
dis rupt</w>
dis tribution</w>
ru bell
ten ure</w>
ten ders</w>
col oured</w>
pri vi
ni e</w>
of the</w>
of U.S</w>
ke d
min ors</w>
min ded</w>
ess or</w>
fl u
respon d</w>
Par tisanship</w>
cor related</w>
row n</w>
Un like</w>
Un employment</w>
19 68</w>
19 70</w>
19 80s</w>
conduc ting</w>
sch ed
sch olars</w>
sel dom</w>
four ths</w>
har m
tis m</w>
own er</w>
sm ission</w>
Pro tec
ed e</w>
gh t</w>
loc ally</w>
ric h
Mexic an-origin</w>
vis iting</w>
bi o
emb r
cas ting</w>
cas ual</w>
atten ding</w>
emplo yers</w>
non voters</w>
non political</w>
influ ences</w>
deb ris</w>
main tained</w>
hear ings</w>
new sro
erg ing</w>
regis tering</w>
three- fourths</w>
tra il</w>
tra iled</w>
Mar co</w>
fri ended</w>
Pres id
them es</w>
grad ers</w>
stat ure</w>
Per u</w>
mis information</w>
moder ately</w>
foc using</w>
ous ness</w>
non- Hispanics</w>
non- STEM</w>
disap pointed</w>
aliz e</w>
ograph ers</w>
En forcement</w>
app lies</w>
comp are</w>
comp atible</w>
att enti
Di visions</w>
sol d</w>
Sy stem</w>
opp ing</w>
Im migrant</w>
med d
t- style</w>
t- ticket</w>
sk in</w>
mat ches</w>
dro ps</w>
pat rio
up on</w>
up ward</w>
De m</w>
contro ls</w>
Li ving</w>
sen ator</w>
Op posed</w>
1. 7</w>
du ty</w>
dr ones</w>
Col d</w>
speci alists</w>
man age</w>
meas uring</w>
frequ ency</w>
Econom ist</w>
fact uring</w>
bu ying</w>
def endants</w>
Republican -
comple x
categ or
self- reported</w>
self- employed</w>
connec tivity</w>
sing le-
emerg ed</w>
care giving</w>
pur poses</w>
list en</w>
list ening</w>
list ened</w>
expan sion</w>
Gener ations</w>
4. 4</w>
4. 5</w>
4. 1</w>
fr astr
prom o
decreas ing</w>
cap ac
cap tured</w>
3. 9</w>
3. 5</w>
3. 1</w>
dist ress</w>
6. 3</w>
ref ers</w>
web -
ang le</w>
anti bio
beg ins</w>
5. 4</w>
5. 0</w>
5. 6</w>
Swe des</w>
We alth</w>
two -in-three</w>
phys ically</w>
Indones ians</w>
Ap prove</w>
Ap prehen
jud ge</w>
jud icial</w>
Or ig
Sm all</w>
Sm ith</w>
tari an</w>
character ized</w>
character ize</w>
two- year</w>
struc k</w>
believ ing</w>
Geor gia</w>
los es</w>
presid ent-elect</w>
1, 9
too /
too l</w>
pic tures</w>
One -in-ten</w>
minim izing</w>
frustr ation</w>
communic ating</w>
indic ating</w>
Meas ured</w>
pros per
sid er</w>
appropri ately</w>
investi gate</w>
Positi vely</w>
cyber security</w>
Te en</w>
cou p</w>
inten si
appe al</w>
Chan ges</w>
constitu tion</w>
constitu tional</w>
constitu tes</w>
reli ance</w>
perman ently</w>
high- profile</w>
blo g</w>
hospit alized</w>
sta ying</w>
vir tual</w>
expl ain</w>
any thing</w>
well- paying</w>
Bac helor</w>
Comm on</w>
far ther</w>
attr ibu
Gr ay</w>
shif ts</w>
assist ant</w>
origin ated</w>
Sour ces</w>
advertis ers</w>
negoti ate</w>
disagre ement</w>
answ ering</w>
Canadi an</w>
8. 5</w>
reti red</w>
sett led</w>
One-in- four</w>
Fin ally</w>
Fin anc
slow ly</w>
post- 9/11</w>
obli gations</w>
recover ing</w>
tran smission</w>
Pakist ani</w>
den omin
monit or</w>
appear ed</w>
exce eds</w>
Je b</w>
ath le
milit ants</w>
milit arily</w>
chi ef</w>
Sun day</w>
int ellig
reve aled</w>
predic t</w>
Salvad or
commer ce</w>
person ality</w>
person nel</w>
guid es</w>
floo ding</w>
elem entary</w>
expen ses</w>
expen sive</w>
recommend ation</w>
Fa thers</w>
sou thern</w>
exis ting</w>
propor tions</w>
Overwhelm ingly</w>
promot ing</w>
Ber nie</w>
El sewhere</w>
Em erging</w>
gro ws</w>
restaur ant</w>
Refuge es</w>
tun ed</w>
disast ers</w>
Great er</w>
Crim e</w>
Crim ea</w>
publish ed</w>
Regi onal</w>
grand parents</w>
voic ed</w>
sli pped</w>
evol ved</w>
dispar ity</w>
manu facturing</w>
Ecuad or
emphas is</w>
Memb ers</w>
Sam ple</w>
hun dre
control ling</w>
Associ ation</w>
intens ity</w>
Id enti
Mu eller</w>
Pen n</w>
holi days</w>
sof tware</w>
bet ter
claim s</w>
predec essors</w>
travel ing</w>
disappro ved</w>
manag er</w>
Jordan ians</w>
temper ed</w>
assaul t-style</w>
Bal timore</w>
Hel p</w>
jum ped</w>
vali dated</w>
til t</w>
American ism</w>
defe at</w>
Chang ing</w>
Def ense</w>
Extre mism</w>
grocer y</w>
49 -year-olds</w>
Ben jam
CB S</w>
Eur os
Lin ked
Tan zania</w>
Techn ology</w>
fat al</w>
ril ole</w>
sic k</w>
Ind ustr
teen ag
contrac ep
Audi ence</w>
Equ al</w>
Hil ton</w>
SP D</w>
Sc ot
Tem er</w>
batt le</w>
other wise</w>
yiel ded</w>
recre ational</w>
Inform ation</w>
channe ls</w>
disproportion ately</w>
famil y-
Obam acare</w>
Marri age</w>
hypothe tical</w>
Estim ated</w>
Terror ism</w>
Assess ments</w>
Athe ists</w>
Dav is</w>
Dut ch</w>
Eb ola</w>
Fiel d</w>
Hus sein</w>
NR A</w>
Nin e-in-ten</w>
Niel sen</w>
Wi- Fi</w>
ben ch
stim ul
divis ive</w>
dial- up</w>
adol es
agric ul
reserv ations</w>
stabili zed</w>
presidenti al
Character istics</w>
rubell a</w>
newsro oms</w>
frastr ucture</w>
Benjam in</w>
' nones</w>
, 5
- 1</w>
- party</w>
- nation</w>
- Oct.</w>
- profit</w>
1 7
1 th</w>
1 ,0
1 23</w>
1 3,
2 ,000</w>
2 ,00
3 7
3 0.
4 0s</w>
5 0,000</w>
6 0
9 ,000</w>
A m</w>
A gree</w>
A ID
B lame</w>
B LS</w>
B rown</w>
C i
C er
C ou
C ab
C ost</w>
C are
C lear</w>
D O
D o
D ou
D el
E st
E ach</w>
E AR
F A
F N</w>
F M</w>
F oun
F ur
F un
F our</w>
G am
G ul
G ov
H O
H ol
H op
H ear
H um
H ous
H aving</w>
I R
I t
I P</w>
K a
K er
K ing</w>
K am
L L</w>
L ow</w>
L ong
L esbi
L ack</w>
M ar</w>
M ir
M ade</w>
M ide
M ale</w>
M oms</w>
N ative</w>
N SA</w>
N ation
O R
O reg
O hi
O sam
P y
P ot
P ast</w>
P refer
Q 4</w>
R -
R a
R am
S er
S ar
S an</w>
S ig
S um
S add
S tri
S light</w>
S kep
T V
T ies</w>
U sing</w>
U sers</w>
V er
V ide
Y emen</w>
a ked</w>
b ra
c op
d ent</w>
d ress</w>
d estin
d funding</w>
e u
e —
e g</w>
e al
e an</w>
e lim
f a</w>
f li
f le
f il
f ate</w>
f its</w>
f oot
f lows</w>
g as
g ers</w>
g um
g age</w>
g ating</w>
g ants</w>
h o
h or
h ot
h iring</w>
i z</w>
i al
i op
i res</w>
k up</w>
k new</w>
m il
m un
m ere</w>
n ered</w>
o x
r am
r enters</w>
s —
s le
s elec
s o-
s ession</w>
s ort</w>
s App</w>
t ot
t ment</w>
t uring</w>
t ably</w>
t on-
t gage</w>
u lic</w>
u tility</w>
u pper</w>
v ac
v ings</w>
v ant
v arying</w>
y —
y stan
y ang</w>
z o</w>
th en-
in ate</w>
in qu
in trus
in frequently</w>
in coming</w>
in frastructure</w>
er t</w>
ar tic
ar gum
ti le</w>
or tion</w>
or dered</w>
on ies</w>
en on</w>
en om
en comp
en try</w>
re ali
re mar
re acting</w>
li ty</w>
li fest
sa l
it ate</w>
al a</w>
al together</w>
at titud
the ory</w>
the ft</w>
om es</w>
os evel
ic an
ac tual</w>
ac knowled
ati vity</w>
es —
es sible</w>
ro c
ro ll</w>
ro ots</w>
ec ting</w>
is a</w>
is es</w>
is ted</w>
ab ama</w>
ab ric
as h</w>
as tically</w>
tr illion</w>
di ers</w>
su p</w>
ad an</w>
ad ded</w>
le ans</w>
oun ded</w>
ol ine</w>
ver i
ver dic
con cl
con stan
con taining</w>
ha el</w>
ag ement</w>
Am az
sh old</w>
com ers</w>
com prehen
com prise</w>
im pover
res id
res idence</w>
res cue</w>
st em
st ore</w>
st alking</w>
st olen</w>
20 ,000</w>
eric ans</w>
ur ban
Th r
Th ir
ul ations</w>
vi l</w>
ex change</w>
ex hib
ter ers</w>
coun ts</w>
Re li
Re ddit</w>
de als</w>
un less</w>
un its</w>
un certainty</w>
ent ally</w>
Democr acy</w>
pe al</w>
pe op
ri val</w>
um -
sur g
sur ged</w>
over y</w>
igh ten
pan el</w>
per sion</w>
lo g
ir y</w>
gr and</w>
for -profit</w>
to ys</w>
fa il
acc essible</w>
fe der
low -
pre ce
ran king</w>
rec all</w>
ta ins</w>
ra ft</w>
Ch ile</w>
Ch anc
Ch ris</w>
thre shold</w>
inter active</w>
inter vention</w>
mar ked</w>
In vol
Ab ortion</w>
ser ies</w>
some where</w>
ud ed</w>
fin to</w>
fin ance</w>
govern ors</w>
fi ve
ph enom
mo ving</w>
form ats</w>
quar ter-
rel ates</w>
follow ers</w>
follow -up</w>
An gry</w>
sc ant</w>
lic en
lic ations</w>
he ading</w>
he ighten
Con tr
Con tent</w>
Con sider</w>
positi ves</w>
pa thy</w>
all -time</w>
dis persion</w>
col dly</w>
do zen</w>
pers ist</w>
cont ested</w>
cont ext</w>
cont acts</w>
te es</w>
te ach</w>
min d</w>
min ers</w>
bor row
la un
out number</w>
out pace</w>
polic y
ess ly</w>
respon sibly</w>
perc eption</w>
19 64</w>
19 75</w>
19 70s</w>
19 60s</w>
appro xim
sci ences</w>
conduc ts</w>
fac t-
sub scri
urr ican
bec omes</w>
contr asting</w>
four -point</w>
eth ics</w>
cri tic
tu iti
own s</w>
ed ly</w>
Ar ri
ell or</w>
offic ially</w>
vis ed</w>
vis its</w>
Su icide</w>
fore front</w>
bi partisan</w>
imp acted</w>
emb rac
atten dance</w>
brea king</w>
ona ires</w>
influ encing</w>
soci alism</w>
fre ely</w>
main taining</w>
bro ken</w>
Ac tion</w>
new comers</w>
nific ant</w>
sec retary</w>
regis tration</w>
tra it</w>
tra iling</w>
Catholic ism</w>
Mar tin</w>
Mar yl
Mar ket</w>
ong yang</w>
acti vis
trac tive</w>
level ed</w>
respec ted</w>
ari an</w>
ari ans</w>
Gre edy</w>
nex t-
non- Tea</w>
Al tern
Al abama</w>
ther more</w>
ther hood</w>
bo t</w>
mor tgage</w>
end ar</w>
resu me</w>
loo ks</w>
sol diers</w>
remain der</w>
Sy m
Sy nthetic</w>
Im pro
effec tiveness</w>
Fe b</w>
Fe el</w>
bene ficial</w>
defin es</w>
cho osing</w>
Gen -
Wor ry</w>
fair ness</w>
up tick</w>
up beat</w>
De ath</w>
cre ating</w>
contro versi
1. 9</w>
1. 4</w>
1. 1</w>
1. 6</w>
direc ted</w>
dr astically</w>
car ing</w>
docum ents</w>
deal ings</w>
impro per</w>
fact ories</w>
know ingly</w>
attac ked</w>
Bo ko</w>
accep ted</w>
2. 9</w>
Soc hi</w>
star ts</w>
Lar gest</w>
Mor mon</w>
ful ness</w>
LG B</w>
Pos t
emerg es</w>
hen ko</w>
produc ed</w>
restric tive</w>
justi fy</w>
pot entially</w>
expan ded</w>
vacc ines</w>
4. 9</w>
Rom a</w>
Jo e</w>
year- round</w>
rul ed</w>
cap ital</w>
tor ic</w>
3. 7</w>
3. 6</w>
hos t
dist ingu
Mo tiv
Ta xes</w>
Australi an</w>
dra w</w>
dra ulic</w>
Ge tting</w>
Poli tics</w>
Poli sh</w>
doub le-
Sec ure</w>
audi ences</w>
commit tee</w>
Ap proval</w>
jud ici
tab les</w>
well -educated</w>
arri ve</w>
diplom acy</w>
character istic</w>
back drop</w>
Educ ated</w>
journali sm</w>
wr iting</w>
At ten
Dis crimination</w>
Dis ease</w>
pic k</w>
Argent ine</w>
U.S.- led</w>
U.S.- based</w>
sharp est</w>
second- highest</w>
second- largest</w>
Diff er</w>
challeng ing</w>
7. 9</w>
indic ators</w>
hosp ital</w>
anti- American</w>
nar row
Har am</w>
Te le
inten tion</w>
right thing</w>
Favor ability</w>
reli ant</w>
comb at</w>
exu als</w>
Journali sts</w>
blo c</w>
ish ment</w>
hospit alization</w>
Ro osevel
land mark</w>
ecu tive</w>
ine t-level</w>
attr act</w>
admit ting</w>
open ly</w>
threat ened</w>
8. 6</w>
New t</w>
custom er</w>
custom ers</w>
altern atives</w>
tar ge
tar gets</w>
practi tion
withdra w</w>
refer end
4, 7
Fin land</w>
Fre edoms</w>
bul lied</w>
fas ter</w>
fas test</w>
impl em
impl ant</w>
obli gated</w>
Hondur an</w>
9. 3</w>
dang ers</w>
accompan ying</w>
avo iding</w>
strugg ling</w>
Mal i</w>
less ness</w>
less -educated</w>
mir r
establish ing</w>
exce ed</w>
CE S</w>
milit ary
seni or</w>
infec tions</w>
dam age</w>
hy draulic</w>
ment ally</w>
pra ying</w>
exten sive</w>
predic ted</w>
confir m</w>
princi ple</w>
frac turing</w>
congre gations</w>
congre gants</w>
downlo ading</w>
volunte ered</w>
sugg ested</w>
Eth iop
remo ving</w>
aim ed</w>
cal endar</w>
dol lar</w>
you ths</w>
attemp t</w>
attemp ted</w>
Beli ef</w>
promot e</w>
30 -</w>
40 6</w>
Em manu
bom bing</w>
pi ece</w>
saf ely</w>
pursu e</w>
pursu ing</w>
conventi ons</w>
conventi onal</w>
conventi onally</w>
Know s</w>
Citiz enship</w>
Dem /Lean</w>
Mic hael</w>
NE T</w>
NE ET
Shar p</w>
succe eded</w>
troub led</w>
troub les</w>
middle -</w>
Off icers</w>
Tri b
Tri angle</w>
cau tious</w>
tex ting</w>
enjo y</w>
reta li
shr inking</w>
publish ing</w>
grand children</w>
movi e</w>
assign ed</w>
digit ally</w>
Famili ar</w>
aver aged</w>
bil ateral</w>
evol ution</w>
Stud ent</w>
femin ism</w>
Pl an</w>
hun ting</w>
poor ly</w>
strateg y</w>
human ities</w>
control led</w>
observ ant</w>
Associ ated</w>
intens ely</w>
Disap proval</w>
Bos ton</w>
Elec tions</w>
Sel f-
une th
win ner</w>
anx iety</w>
age ous</w>
Rep /Lean</w>
phot os</w>
Proposa l</w>
Proposa ls</w>
church going</w>
church goers</w>
princip al</w>
Develop ing</w>
Develop ment</w>
Cha vez</w>
Mig ration</w>
lon ely</w>
was te</w>
very /</w>
depres sion</w>
Tra ditional</w>
highligh ted</w>
reluct ant</w>
dispu te</w>
Asian- Americans</w>
short ages</w>
convic ted</w>
Foreign -born</w>
Bro ad
Satis faction</w>
cam eras</w>
crow dfunding</w>
nu tr
discip line</w>
born -again</w>
gather ing</w>
demonstr ations</w>
Turn out</w>
Ques tion</w>
firear m</w>
accomplish ments</w>
exhaus tion</w>
Lan gu
Sing le</w>
Tak en</w>
ey e</w>
jun ction</w>
leng th</w>
adequ ate</w>
pun ishment</w>
exer c
dep th</w>
appoint ments</w>
electr on
Anti -
approach es</w>
self ish</w>
demograph ics</w>
Environ ment</w>
administr ations</w>
drop -off</w>
Spanish -language</w>
listen ership</w>
Libr ary</w>
mascul ine</w>
Priv ate</w>
embarrass ment</w>
Spli t</w>
D.C .</w>
collabor ation</w>
ventilat ors</w>
Gall up</w>
Nev ada</w>
Of ten</w>
Pent ecos
Plan ned</w>
Sus pected</w>
Sud an</w>
Well -
billi onaires</w>
dom ains</w>
fit ness</w>
mu ch
tow ards</w>
wes tern</w>
intro duc
rememb ered</w>
absol ut
permit ted</w>
pregn ant</w>
recipi ents</w>
wealth ier</w>
What sApp</w>
harm ful</w>
medd ling</w>
complex ity</w>
web- using</w>
Apprehen sions</w>
attribu ted</w>
Financ ial</w>
athle tes</w>
hundre ds</w>
teenag ers</w>
bench mark</w>
adoles cents</w>
AID S</w>
Cab inet-level</w>
Dou b
Foun dation</w>
Fur thermore</w>
Hear d</w>
Hous ing</w>
Ker ry</w>
Kam ala</w>
Mide ast</w>
Oreg on</w>
Ohi o</w>
Osam a</w>
Py ongyang</w>
Pot ential</w>
Ram adan</w>
Sig nificant</w>
Sadd am</w>
Vide o</w>
bra in</w>
gas oline</w>
tot aled</w>
ystan ders</w>
inqu iry</w>
artic les</w>
reali stic</w>
remar k
attitud e</w>
abric ated</w>
constan tly</w>
Amaz on</w>
comprehen sive</w>
impover ished</w>
prece ding</w>
Chanc ellor</w>
phenom enon</w>
heighten ed</w>
approxim ately</w>
Maryl and</w>
Altern ative</w>
double- dig
judici ary</w>
Roosevel t</w>
Emmanu el</w>
NEET s</w>
, 6
, 500</w>
- 43</w>
- Mexico</w>
- Pacific</w>
- 0.
- excuse</w>
- tempered</w>
. 8</w>
. following</w>
/ C
/ Pacific</w>
0 0
0 7</w>
0 2</w>
1 st</w>
1 20</w>
1 4,
2 4
2 50</w>
2 100</w>
3 1
4 00</w>
4 0,000</w>
5 th</w>
5 0s</w>
6 ,000</w>
6 4-year-olds</w>
7 0.
A B
A I</w>
A id</w>
A ges</w>
B om
B es
B il
B lo
B rea
B ene
B ut
B ills</w>
B order</w>
B ystanders</w>
C H</w>
C al
C ore</w>
C ri
C enters</w>
D -
D A
D ems</w>
D ads</w>
D NA</w>
E rit
E LL</w>
F oc
F requ
F ull</w>
G as</w>
G lo
H e</w>
H ill</w>
H ard</w>
H old</w>
H urrican
J uli
K e
K yi
L o
L as</w>
L ond
M at
M is
M em
M idd
N ec
N ex
N TE
O U
O r</w>
O ff</w>
P em
P ur
P ool</w>
P lat
P ros
P PP</w>
P aying</w>
R i
R an
R ou
R on</w>
R ally</w>
R ates</w>
R ud
R ated</w>
R ating</w>
R ous
R ob
R adi
R ES
S D
S w
S U</w>
S R</w>
S incl
S ept</w>
S ize</w>
S core</w>
U p</w>
U /C
V A</w>
V V</w>
V al
V ast</w>
W illi
Y our
Z im
a p</w>
a ism</w>
a like</w>
b ings</w>
b rac
b est
b lam
b locked</w>
c lean</w>
c rit
c tioning</w>
d itu
d well
d ressing</w>
d vant
e ts</w>
e ast</w>
e igh
e ech</w>
e licit</w>
f ts</w>
f registered</w>
f identified</w>
f ounding</w>
g en</w>
g ar</w>
g ame</w>
h an</w>
h ig
h ob
h ani</w>
i ble</w>
i red</w>
l i</w>
l are</w>
l op
l ot
l ements</w>
m ation</w>
m ot
m ul
m and
m atic</w>
n =
n es
n ad
n ings</w>
o ds</w>
o gi
o feach</w>
p ly</w>
p are</w>
p tions</w>
p tive</w>
r a</w>
r ally</w>
r he
r allies</w>
r ase</w>
s l
s s
s or
s of</w>
s par
s it</w>
s inc
s ound</w>
s pon
s often</w>
s porting</w>
s ored</w>
t a</w>
t 0</w>
t at</w>
t el
t for</w>
t our
t ell
t ories</w>
t ude</w>
t olerant</w>
t ume</w>
u sa
u ge</w>
u ine</w>
u bs</w>
v est
w al
x -
y es
y men</w>
y os</w>
y nam
an ma
an sas</w>
in b
in no
in tend</w>
in frequent</w>
in efficient</w>
er ly</w>
ar d
ar ed</w>
ar gu
ar ms</w>
ar ital</w>
ar dly</w>
ar med</w>
ti er</w>
ti gi
ti vities</w>
ti oned</w>
on ate</w>
on ists</w>
on ize</w>
en listed</w>
re al
re turning</w>
re venues</w>
sa tur
sa vings</w>
it ly</w>
it em</w>
it arian</w>
al le</w>
the -
the .following</w>
os henko</w>
ic ides</w>
ac com
ac ks</w>
ac knowledge</w>
ac qua
ati tude</w>
es si
ro ads</w>
ec es</w>
ec raft</w>
is ons</w>
is matic</w>
ab o
as ser
as ide</w>
as tic</w>
as sets</w>
tr u
tr uc
tr ating</w>
tr app
tr ading</w>
di ed</w>
di versi
di agnos
di ox
su e</w>
em ency</w>
ad em
ad line</w>
ad apt</w>
pu ts</w>
pu tting</w>
le agues</w>
ol l</w>
ol ving</w>
ol ogi
ne gi
ne eding</w>
con tain</w>
con vention</w>
con stant</w>
con junction</w>
oc a
ha r</w>
el der
el ines</w>
el iness</w>
ag ge
ag gre
ag ger
sh ad
sh run
sh ops</w>
il ers</w>
am arital</w>
par ity</w>
par ks</w>
par tly</w>
par alle
com ment</w>
com pla
com promises</w>
com Score</w>
im m
im ported</w>
ow -
res sed</w>
st er</w>
st an</w>
st over</w>
st ret
ur alities</w>
Th ought</w>
ul t</w>
ul ation</w>
ul arly</w>
ul tim
vi ve</w>
ex agger
ter day</w>
be a</w>
be gun</w>
be ars</w>
ch ores</w>
Re ports</w>
Re venue</w>
ear s</w>
no -excuse</w>
de a</w>
de par
de port</w>
de ad</w>
de porting</w>
de adly</w>
de adline</w>
un clear</w>
un anim
un loaded</w>
un knowingly</w>
countr ymen</w>
si dies</w>
pe aked</w>
ri ots</w>
se at</w>
se as</w>
se ems</w>
se ff</w>
um p</w>
over seas</w>
igh s</w>
qu ad
qu iz</w>
per mis
me als</w>
gr av
gr atitude</w>
ap pl
ap point</w>
ap ologi
tic le</w>
tic kets</w>
for es
cl in
cl er
cl emency</w>
lin ed</w>
lin ing</w>
fa ke</w>
fa ith
pres cri
pres ented</w>
poli ten
uc us</w>
oo ks</w>
enti ties</w>
acc used</w>
compar isons</w>
Tr ans
fe e</w>
fe ar</w>
ing -age</w>
His tory</w>
duc k</w>
sup er</w>
pre c
pre marital</w>
pre pare</w>
pec tations</w>
ta h</w>
ta ke
ta il</w>
ge t
ge ographic</w>
Ch ar
Ch ance</w>
gen uine</w>
inter ven
inter net
inter pret
gre en
In flu
econom ics</w>
we ak</w>
pl ing</w>
ud es</w>
fin ished</w>
Res tric
Res pect</w>
Res olving</w>
elec tor
elec tability</w>
fi e</w>
fi ers</w>
fi able</w>
ph oto</w>
ph rase</w>
pr ison</w>
conf erence</w>
dec lare</w>
inc umb
ough ts</w>
cer em
jo ined</w>
lim s</w>
high est-
favor ites</w>
pen ding</w>
rel essly</w>
str ang
An al
An ger</w>
sc ope</w>
sc oring</w>
popu lar
lic k</w>
lic itly</w>
he a</w>
identi fiers</w>
Con gres
Con gressional</w>
Con tin
religi onists</w>
pa yment</w>
dis tracted</w>
shar ers</w>
shar ia</w>
off end</w>
off ering</w>
chil dless</w>
e- sex</w>
do or</w>
pers isted</w>
of all</w>
of adults</w>
ke holds</w>
ke warm</w>
te ous</w>
dat ory</w>
pon ent</w>
leg alized</w>
la z
og us</w>
out lier</w>
out stri
ist ent</w>
gener ated</w>
expres sions</w>
cons ecutive</w>
aff ordable</w>
aff lu
fl ags</w>
fl agge
cor rupt</w>
Lat via</w>
iz es</w>
Un der</w>
19 28</w>
19 83</w>
fac ul
sub set</w>
sub sequ
sub sidies</w>
ga ining</w>
des ign</w>
peri ods</w>
St ocks</w>
St ark</w>
contr ibut
Ma king</w>
sel fie</w>
vel ations</w>
agre eing</w>
four -to-one</w>
har d-
har sh</w>
inform ative</w>
disa dvant
expec ts</w>
On ce</w>
Ar ticle</w>
loc ality</w>
bi en
imp lications</w>
equ i
brea kup</w>
Afric an-
non -</w>
non whites</w>
non etheless</w>
influ x</w>
accoun tability</w>
soci alizing</w>
Indi ana</w>
main land</w>
new s
accept ability</w>
pref ers</w>
tre ats</w>
tre ating</w>
eas ed</w>
eas tern</w>
sy l
sy stem
inv ested</w>
tra ditionally</w>
respec ting</w>
war mer</w>
war mes
ide als</w>
broad casting</w>
Pe ace</w>
under graduate</w>
seri ousness</w>
abor tions</w>
mi xed-
foc uses</w>
ant i</w>
non- users</w>
non- parents</w>
non- English</w>
non- Cuban</w>
non- Web</w>
non- veteran</w>
199 9</w>
199 8</w>
Me tho
bo ost</w>
bo xes</w>
ograph ical</w>
comp iled</w>
satis fying</w>
sol ution</w>
one-in- six</w>
even -tempered</w>
school -
school children</w>
resul ting</w>
spli t-ticket</w>
regul ating</w>
regul arity</w>
cho keholds</w>
Com pan
Com mit
Gen e</w>
one- fifth</w>
Wor k</w>
Wor th</w>
Wor ldwide</w>
Wor ried</w>
exc essive</w>
up dating</w>
up dated</w>
De c</w>
De portation</w>
cre ation</w>
consist ency</w>
nomin ated</w>
Vot ed</w>
Vot er</w>
auth ority</w>
Op tim
1. 8</w>
hom eland</w>
Bra in</w>
ip eline</w>
Ex am
Ex pectations</w>
car es</w>
f- century</w>
man aging</w>
man datory</w>
Tw o-
icul t</w>
ourn al</w>
Dec is
Dec reas
Dec ade</w>
allow s</w>
impro ves</w>
describ ing</w>
bu reau</w>
def ending</w>
jec ts</w>
comple tion</w>
oper ation</w>
oper ations</w>
disc over
disc our
tal ked</w>
Le ading</w>
Sh ia</w>
Mor ality</w>
connec ting</w>
uni form
US A</w>
US SR</w>
fun d</w>
fun ds</w>
fun ction</w>
fun ctioning</w>
industr y-
trus ters</w>
produc es</w>
work places</w>
work -related</w>
Pol ar
Yor k-
ob tain</w>
restric t</w>
Eng agement</w>
autom atically</w>
Gener ational</w>
comfor tably</w>
10 th</w>
foreign ers</w>
da y-
tor nad
hos ting</w>
dist ancing</w>
6. 7</w>
6. 9</w>
6. 2</w>
For um</w>
Ta y
Ta x</w>
Ta king</w>
ber t</w>
ref use</w>
reduc tions</w>
dra wing</w>
eli te</w>
Poli tically</w>
cour teous</w>
shoot er</w>
liber ty</w>
anti s</w>
associ ation</w>
lear ned</w>
buil dings</w>
5. 3</w>
5. 2</w>
on- free</w>
on- demand</w>
Ap peal</w>
Po or</w>
ban ites</w>
tab ulations</w>
chec king</w>
coh orts</w>
warm est</w>
tari ff</w>
trans parent</w>
trans portation</w>
struc ture</w>
gun -
protec ts</w>
presid encies</w>
Car ter</w>
Car negi
Min orities</w>
lap tops</w>
Religi ously</w>
aw a
sus pects</w>
sus pect</w>
shor t-
forc ing</w>
minim ize</w>
Diff icult</w>
7. 4</w>
7. 2</w>
Some one</w>
long time</w>
long standing</w>
run s</w>
Bi partisan</w>
lab el</w>
lab eled</w>
friend ships</w>
anti- social</w>
anti- Americanism</w>
appropri ations</w>
investi gating</w>
success fully</w>
requi rement</w>
Cen ter
cou ps</w>
in- depth</w>
prioritiz ed</w>
menti ons</w>
char ismatic</w>
Favor ed</w>
reli eved</w>
perman ent
high- level</w>
blo g
land scape</w>
any where</w>
Hung arians</w>
al- Assad</w>
watch ers</w>
PE W</w>
far es</w>
gar ners</w>
gar nered</w>
post graduates</w>
Gr ad
hour ly</w>
so ared</w>
11 4th</w>
cos tume</w>
ech o</w>
ech an
long- running</w>
8. 7</w>
8. 9</w>
deep ening</w>
decid edly</w>
Compar ing</w>
sett lements</w>
achiev ements</w>
bul k</w>
boo k
spo ke</w>
slow s</w>
le- class</w>
ter- paying</w>
post- election</w>
Respon ses</w>
desk top
engine ers</w>
Ide ology</w>
ici ency</w>
studi es</w>
distinc tions</w>
Hondur ans</w>
9. 9</w>
9. 4</w>
9. 6</w>
wi relessly</w>
promin ently</w>
occup ation</w>
Orthodo x
Vir tually</w>
den s
metho dology</w>
CE NTE
assa ults</w>
classi fy</w>
Disa bled</w>
infec ted</w>
2, 2
int enti
int olerant</w>
reve als</w>
exten ds</w>
exten ded</w>
confir mation</w>
install ment</w>
dim en
spac ecraft</w>
Ne eded</w>
hop ed</w>
consequ ence</w>
expen ditu
Olymp ic</w>
legislat or</w>
narro ws</w>
Fa ir
Fa ith</w>
Non whites</w>
Rem itt
conc ept</w>
profici ent</w>
attemp ts</w>
Ber lin</w>
Bas har</w>
Co ast</w>
Co operation</w>
bom bings</w>
pi eces</w>
s- up</w>
sym path
CD U/C
Lab our</w>
Mon day</w>
Mic hig
tribu ted</w>
stre ams</w>
fundam entally</w>
recycl ing</w>
renew ed</w>
15 0,000</w>
Cor por
Cor ruption</w>
Ow nership</w>
lad der</w>
reta il</w>
adjus ting</w>
shr ines</w>
excl uding</w>
excl uded</w>
Consist ently</w>
subur banites</w>
voic email</w>
strength ens</w>
Famili es</w>
Famili arity</w>
12. 5</w>
dispar ities</w>
Stud y</w>
Adv anced</w>
Sunn is</w>
competi tion</w>
House hold</w>
Ecuad or</w>
emphas ize</w>
7, 8
Memb ership</w>
Pl uralities</w>
co- religionists</w>
suff icient</w>
immedi ately</w>
resist ant</w>
deli ver</w>
pay ments</w>
coll ect</w>
outpac ed</w>
outpac ing</w>
most- used</w>
vehic le</w>
Fri end</w>
Id entical</w>
Sel fidentified</w>
Typ ical</w>
Typ ology</w>
holi day</w>
sof t</w>
anx ie
age 18</w>
bet ter-paying</w>
predec essor</w>
plan ning</w>
hard working</w>
manag ement</w>
Jordan ian</w>
assaul t</w>
integr ated</w>
AN C</w>
Jud aism</w>
Pre vention</w>
fear s</w>
fear ful</w>
lon eliness</w>
shap ed</w>
shap ing</w>
what ever</w>
highligh ts</w>
reluct ance</w>
health ier</w>
dispu tes</w>
Main line</w>
valu ed</w>
mater ial</w>
mater ials</w>
cele bri
Colombi ans</w>
IC E</w>
Multi racial</w>
Speci fic</w>
Speci fically</w>
cat ching</w>
vul ner
vul gar</w>
outwe igh</w>
emo tions</w>
emo tional</w>
Individ uals</w>
perspec tive</w>
perspec tives</w>
Part nership</w>
smartphone- only</w>
missi on
missi le</w>
incorrec t</w>
incorrec tly</w>
Att acks</w>
Big gest</w>
Gor such</w>
My anma
Por oshenko</w>
Ris ing</w>
Sant a</w>
sat lantic</w>
dedic ated</w>
wed ding</w>
week day</w>
Exc ept</w>
Experi ence</w>
Shoot ing</w>
27- Aug.</w>
Natur alization</w>
65 +</w>
Clos ely</w>
Domin ic
Hu ff
Ham as</w>
Hand ling</w>
Land scape</w>
Man ch
Wal ker</w>
hal f-century</w>
magaz ines</w>
rum ors</w>
enem y</w>
outw ardly</w>
lef t-
conven i
resol ution</w>
presum ptive</w>
intern al</w>
prin ted</w>
declar ed</w>
head lines</w>
sched uled</w>
embr yos</w>
Presid ent-elect</w>
attenti veness</w>
patrio tic</w>
capac ity</w>
antibio tics</w>
Orig in</w>
denomin ations</w>
Salvador ans</w>
better -educated</w>
Linked In</w>
Scot t</w>
stimul us</w>
presidential election</w>
Cer tain</w>
Cou ples</w>
Do ing</w>
Est on
EAR CH</w>
Fun ding</w>
Gam es</w>
Gul f</w>
Gov 't</w>
Hum an</w>
IR S</w>
It ems</w>
Prefer ence</w>
Sar ah</w>
Sum mer</w>
TV s</w>
cop y</w>
elim inated</w>
fli pped</w>
fle eing</w>
so- called</w>
encomp ass
sal ary</w>
acknowled ging</w>
verdic t</w>
Reli ef</w>
peop les</w>
licen sees</w>
laun ched</w>
policy making</w>
subscri be</w>
tuiti on-free</w>
Tele vision</w>
referend um</w>
military force</w>
Ethiop ia</w>
Trib une</w>
retali atory</w>
Langu age</w>
exerc ise</w>
Pentecos tal</w>
double-dig it</w>
Bes ides</w>
Bene fits</w>
But tigi
Glo be</w>
Hurrican e</w>
Juli e</w>
Kyi v</w>
Lond on</w>
Mem orial</w>
Pem ex</w>
Pros pects</w>
Rou hani</w>
Rud y</w>
Rous seff</w>
Radi o</w>
RES EARCH</w>
Sincl air</w>
crit er
dwell ers</w>
lop sided</w>
rhe toric</w>
spon sored</w>
tell ing</w>
yes terday</w>
inno v
accom mo
acqua int
trapp ed</w>
diox ide</w>
elder ly</w>
shrun k</w>
exagger ated</w>
appl ying</w>
apologi zed</w>
politen ess</w>
Trans -Pacific</w>
interpret ation</w>
Influ ence</w>
Restric tions</w>
incumb ent</w>
popular ity</w>
afflu ent</w>
hard- working</w>
African- Americans</w>
warmes trating</w>
industry- funded</w>
tornad oes</w>
Carnegi e</w>
CENTE R</w>
expenditu res</w>
CDU/C SU</w>
Michig an</w>
anxie ties</w>
celebri ties</w>
vulner able</w>
Myanma r</w>
Buttigi eg</w>
' somewhat</w>
' mostly</w>
+ 10
- 2</w>
- 23</w>
- made</w>
- ethnic</w>
- March</w>
- Sti
- run</w>
- Sept.</w>
- Nov.</w>
- of-
. 7</w>
. for</w>
/ laptop</w>
/ hour</w>
0 -</w>
0 6</w>
1 12</w>
1 1.2</w>
1 3.4</w>
2 8
2 3,
3 5,000</w>
3 7.
3 8,000</w>
3 4-year-olds</w>
3 9,
4 7
4 14,
5 9
5 ,00
6 82</w>
7 6
8 -</w>
8 th</w>
8 0,000</w>
8 8,000</w>
9 00</w>
9 99</w>
A l</w>
A N</w>
A P</w>
A re
A ur
A pp
A ut
A differ</w>
A head</w>
A wareness</w>
A gency</w>
B C
B en</w>
B is
B oss</w>
B oli
B IA</w>
C H
C e
C R</w>
C ul
C had</w>
C level
C ustom
D .</w>
D A</w>
D on</w>
D one</w>
D ra
D ep
D ue</w>
D ays</w>
E ro
E is
E ch
E ight</w>
E ight
E EU</w>
E ligible</w>
E FTA</w>
F .</w>
F em
F ood</w>
F JP</w>
F -1</w>
G 7</w>
G em
G ive</w>
G az
H on
H en
H as
H app
H allow
H ome
H BC
H CR</w>
I M
J an</w>
J im
J ournal</w>
K an</w>
K ind
K im</w>
L os
L im
M O
M o</w>
M E</w>
M us</w>
M assa
N S
N Y
N ep
N ei
N our</w>
N ie
N ooks</w>
O O
O R</w>
O DA
P i
P A</w>
P S</w>
P lac
P ut</w>
P ath</w>
P essim
P referred</w>
P VV</w>
Q 1</w>
R oss</w>
R ise</w>
R ather</w>
S S</w>
S is
S qu
S uc
S ide</w>
S ea</w>
S even</w>
S af
T T
T or
T ro
T ab
T op
T ough</w>
T ODA
U tah</w>
V is
V acc
V ary</w>
V ice</w>
V ari
V eg
W y
W S</w>
W in
W ol
W ere</w>
W ed
Y es</w>
Y ears</w>
Z ers</w>
Z eal
a c</w>
a kers</w>
b re
b at
b ent</w>
b ar</w>
b other</w>
b iting</w>
b y-
b ols</w>
b lock</w>
b ogus</w>
c li
c ans</w>
c ent</w>
c ess</w>
c ross</w>
c anc
c essing</w>
d a</w>
d in
d ar
d ons</w>
d enti
d den
d fires</w>
d ynam
e e
e -</w>
e er</w>
e en</w>
e ous</w>
e us</w>
e ight
e av
e fully</w>
e fs</w>
f an
f of</w>
f ed</w>
f ing</w>
f ile</w>
f ran
f ics</w>
f ru
f early</w>
f ect</w>
f ought</w>
f iled</w>
f tun
f abricated</w>
g y
g a</w>
g ent</w>
g over
g ir
g ment</w>
g ering</w>
g -related</w>
h o</w>
h ran</w>
i k
i e</w>
i pu
i ors</w>
i pping</w>
j our
j uni
j ail</w>
k i</w>
k in</w>
k illing</w>
k lin</w>
k fulness</w>
k ansas</w>
l -
l s
l ly</w>
l ay</w>
l ment</w>
l ates</w>
l y-
m oun
m ate</w>
m ates</w>
m ber</w>
m erg
n e</w>
n a</w>
n t</w>
n oc
n ur
n atives</w>
n esday</w>
o o</w>
o ding</w>
o vers</w>
o engineering</w>
p il
p sy
p led
p son</w>
p ipeline</w>
r ar
r al</w>
r ay</w>
r enting</w>
r ounding</w>
s an
s er</w>
s im
s ear
s news</w>
s over</w>
s mo
s ign</w>
s week</w>
s ole</w>
s -related</w>
s exuality</w>
t on
t to</w>
t ep
t five</w>
t led</w>
t ests</w>
t ellig
t oll</w>
u b
u tr
u ph
u ps</w>
u tili
v a</w>
v y</w>
v on</w>
v ent
w n</w>
w a</w>
w ed</w>
w ish</w>
w alking</w>
x ing</w>
x emb
y or</w>
y out</w>
y les</w>
y free</w>
y ware</w>
ñ a</w>
ó n</w>
th row</w>
th usias
th umb
an a
an am
an ations</w>
an nex
an tism</w>
an eous</w>
in al</w>
in tr
in ely</w>
in ks</w>
in tly</w>
in ating</w>
in side</w>
in Syria</w>
in verse</w>
in struc
in complete</w>
in sensitive</w>
in jur
in zo</w>
er ity</w>
er oding</w>
ar y-
ar ming</w>
ar gue</w>
ar ray</w>
ti e</w>
ti ble</w>
or -
or a</w>
or ds</w>
or ever</w>
or ship</w>
or um</w>
or ney</w>
or bit</w>
or biting</w>
on ial</w>
en a</w>
en er</w>
en ac
en able</w>
en force</w>
en rich</w>
en rich
en roll</w>
ou l
ou ster</w>
re pa
re ality</w>
re tain</w>
re vision</w>
re tweets</w>
re vol
re al-
re aring</w>
re jected</w>
re built</w>
re transmission</w>
re mot
re velations</w>
li am
li fic</w>
li sh</w>
li zed</w>
li ances</w>
sa ints</w>
sa yfree</w>
it ant</w>
it ol</w>
it erran
al es</w>
al be
al government</w>
al ties</w>
al ked</w>
al e-
al situation</w>
at to</w>
at ure</w>
at e/
the y
the job</w>
om ber
om pson</w>
os ion</w>
ic ians</w>
ic ap</w>
ac ies</w>
ac tors</w>
ati onally</w>
ati cal</w>
es -
es .
es ty</w>
es dropping</w>
es itant</w>
ro les</w>
ro bot</w>
is er</w>
is ing</w>
is tered</w>
is dic
ab out
as a</w>
as ka</w>
us ions</w>
us et
us -related</w>
us hed</w>
su n
su dden
em ent
em ical</w>
em selves</w>
em ingly</w>
ig o</w>
ig are
ad ers</w>
ad ding</w>
ad mit</w>
pu b
wit n
le es</w>
le ge</w>
le ach</w>
le verage</w>
le holds</w>
le um</w>
oun t</w>
oun ce</w>
ol i</w>
ver ed</w>
ver y/
ne ver
con tenders</w>
con tains</w>
oc alls</w>
ha ir</w>
bli cal</w>
el ve</w>
el ement</w>
el y/
Am ount</w>
il leg
il ors</w>
am a
am ings</w>
am bi
am ina</w>
par ent
par dons</w>
com posted</w>
com ponents</w>
im posed</w>
res trial</w>
op ted</w>
op t-
op ening</w>
op ponent</w>
st -</w>
st a</w>
st on</w>
st one</w>
st ep
st ress</w>
st ays</w>
st ere
st opped</w>
st ocks</w>
st opping</w>
st amina</w>
20 45</w>
ot ed</w>
ot yp
Th inking</w>
Th ompson</w>
Th emselves</w>
ul a</w>
ul ar
vi ous</w>
por tions</w>
por trait</w>
po d
ex -
ex tern
ex changing</w>
ter restrial</w>
ff w</w>
ch uset
ch emical</w>
U.S -Mexico</w>
pro per</w>
pro lific</w>
Re fl
Re action</w>
Re ason</w>
Re transmission</w>
no vel</w>
de part
de liber
un fol
un like</w>
un employed</w>
un kind</w>
un rest</w>
un healthy</w>
un wanted</w>
un insu
un friended</w>
public ations</w>
ent from</w>
pe tro
ve ge
ri que</w>
se a</w>
se as
se gment</w>
se emingly</w>
um s</w>
sur pass</w>
sur prise</w>
sur vive</w>
wor ding</w>
iti ous</w>
over use</w>
over shad
pan eli
pan -ethnic</w>
qu alities</w>
per -
per ly</w>
per fect</w>
lo gin</w>
lo oms</w>
me tic</w>
me et
vot e-
gr am</w>
-in- Ten</w>
ap pre
ap poin
for ec
for um</w>
for tun
cl ubs</w>
to m</w>
fa il</w>
fa ils</w>
pres ents</w>
pres sion</w>
uc k</w>
uc ial</w>
gi vers</w>
port er</w>
pos ing</w>
enti ve</w>
enti ons</w>
enti ous</w>
acc um
acc ident</w>
acc ord</w>
compar ing</w>
compar atively</w>
Tr ay
fe es</w>
fe ver</w>
fe derate</w>
major s</w>
ing ing</w>
our g</w>
Trum an</w>
pre t</w>
pre val
rec ru
ili es</w>
ra inb
ge -
ge able</w>
ge ta
ge oengineering</w>
Ch i
Ch ec
Ch all
inter ro
inter personal</w>
inter action</w>
inter esting</w>
inter acting</w>
inter pret</w>
gre en-
mar gin
In iti
In tellig
we ights</w>
we aker</w>
ev ens</w>
ep ly</w>
pl agu
pl astic</w>
differ en
differ entfrom</w>
Res ults</w>
govern mental</w>
import a</w>
import antis</w>
elec tive</w>
fol k</w>
chan cell
conf er
inc ar
mo on</w>
mo bility</w>
mo vers</w>
mo de</w>
mo therhood</w>
jo intly</w>
high er-
fu n</w>
form ed</w>
form ally</w>
form erly</w>
pen ded</w>
pen sion</w>
popu lists</w>
lic ated</w>
he v</w>
identi ties</w>
comm its</w>
comm ut
comm entary</w>
Con n
Con ditions</w>
Con versa
Con tenders</w>
Con federate</w>
year long</w>
clos ed-
pa ys</w>
all ed</w>
dis like</w>
dis crimin
dis plays</w>
dis rup
off am
off ices</w>
chil d
stan d-
ten sion</w>
e- books</w>
e- reader</w>
col um
do g</w>
pers ists</w>
pers istent</w>
rac ial
concer t</w>
cont acting</w>
cont entious</w>
of t</w>
of people</w>
of parents</w>
of officers</w>
ke en</w>
ke eps</w>
ke ener</w>
dat as
leg al
la b</w>
la unch</w>
out numb
prob able</w>
ist ence</w>
gener ates</w>
tt e</w>
o- sharing</w>
expres sion</w>
anc ement</w>
cons enting</w>
aff ording</w>
fl at</w>
respon dent</w>
Par k</w>
Par tic
fic ations</w>
num erous</w>
cor responding</w>
Lat er</w>
der ón</w>
iz ations</w>
Un documented</w>
Un affiliated</w>
Un friendly</w>
Un til</w>
Un certainty</w>
19 10</w>
19 45</w>
19 66</w>
19 76</w>
appro ves</w>
appro vers</w>
and -
candid acy</w>
est one</w>
est -income</w>
fac ilities</w>
sub -
sub jects</w>
ga thered</w>
ga uge</w>
sp ans</w>
sp ite</w>
sp yware</w>
sp oli</w>
des ign
concern ing</w>
St ability</w>
St earns</w>
St evens</w>
ass imil
contr ibutes</w>
contr asts</w>
simil ar
har ms</w>
har ming</w>
cri ti
Ca ucus</w>
eff iciency</w>
Pro gress</w>
Pro te</w>
Pro ponents</w>
Pro jected</w>
Pro cessing</w>
Pro gram</w>
ed ited</w>
ed itors</w>
disa pp
disa bled</w>
expec tation</w>
On set</w>
Ar men
Ar kansas</w>
ques ter</w>
ques tion
ques tioning</w>
Vi ol
curr ency</w>
Mexic an-
vis u
vis ory</w>
vis ible</w>
eng ine</w>
eng then</w>
Inter ests</w>
bac hev</w>
bi ased</w>
bi blical</w>
emb ly</w>
with standing</w>
non supporters</w>
non traditional</w>
bas ically</w>
influ ential</w>
exam ining</w>
soci alize</w>
corona vir
hn son</w>
mos quit
No thing</w>
Ac tions</w>
Ac tivity</w>
Sou thwest</w>
new sc
new s-
descri ptions</w>
stud ying</w>
av y</w>
commun ism</w>
sec tion</w>
sec uring</w>
sec ular
three- way</w>
oppos es</w>
consid ers</w>
dem ands</w>
refuge es.
wid est</w>
tra ils</w>
tra eus</w>
Mar s</w>
Mar ijuana</w>
Mar ried</w>
hand s-
hand icap</w>
co vers</w>
trac es</w>
Fran klin</w>
war nings</w>
contin ent</w>
amoun ts</w>
Pe ña</w>
Pe traeus</w>
Gre ens</w>
under way</w>
under ground</w>
under writing</w>
Protest antism</w>
adv oc
stat e-
sour i</w>
lan ding</w>
nex tfive</w>
mis leading</w>
mis sed</w>
mis takes</w>
ant anam
sever ity</w>
non- college</w>
non- Muslims</w>
non- Mexican</w>
non- book</w>
non- voice</w>
non- EU-
Al lies</w>
Al ban
Al liance</w>
Al ger
aliz ed-
bo y</w>
bo om
bo os
bo ve</w>
bo ards</w>
bo dies</w>
gradu ating</w>
En ough</w>
En danger</w>
En thusias
app ing</w>
comp assi
Twit terers</w>
end or
end ly</w>
end less</w>
att orney</w>
Di vision</w>
Di verse</w>
doc torate</w>
one-in- seven</w>
Im prove</w>
prof its</w>
conflic ting</w>
spli ts</w>
bal anced</w>
Fe ar</w>
Fe els</w>
compu ls
regul ate</w>
Sen iors</w>
Sup porting</w>
ci als</w>
consider ations</w>
sk illed</w>
mat ched</w>
mat ching</w>
add ressed</w>
Ad visory</w>
Com b
Com pu
Com promise</w>
crimin als</w>
exc used</w>
up dates</w>
De al</w>
De gree</w>
De fer
cre d
cre ative</w>
cre ators</w>
nomin ating</w>
Be ar</w>
siz es</w>
siz ed</w>
Li ves</w>
auth orities</w>
auth ors</w>
1. 0</w>
dr ama</w>
dr igo</w>
Col bert</w>
speci alty</w>
speci fics</w>
Ex posure</w>
nati onal
not withstanding</w>
car ed</w>
man ual</w>
man ipu
wat ches</w>
environ ments</w>
Tw o
Tw ice</w>
Dec lining</w>
author ize</w>
author ization</w>
impro vements</w>
bu yout</w>
vide ographers</w>
twee ting</w>
Bo thered</w>
to- day</w>
comple x</w>
ash es</w>
prefer able</w>
disc over</w>
tal ents</w>
self- denti
2. 0</w>
Le ad</w>
Le ft</w>
Sh utdown</w>
Sh inzo</w>
Lar gely</w>
Mor ally</w>
Mor ning</w>
uni verse</w>
uni onize</w>
ful filled</w>
Des cri
trus tful</w>
dri ve</w>
Yor ker</w>
pur pos
restric ted</w>
restric ting</w>
Eng land</w>
ren amings</w>
autom atic</w>
autom akers</w>
expan ds</w>
regar ded</w>
As s</w>
cul ated</w>
vacc inate</w>
4. 3</w>
Brit ons</w>
fr am
fel onies</w>
Jo hnson</w>
Not es</w>
Not atall</w>
sam pling</w>
year- olds</w>
separ ati
separ ating</w>
versa l</w>
3. 3</w>
3. 0</w>
hos tili
hos tile</w>
6. 1</w>
6. 8</w>
For t</w>
For ce</w>
proc essors</w>
Mo dest</w>
ber attacks</w>
ber -Sti
enth used</w>
pla yer</w>
pla yers</w>
Rec ei
Rec overy</w>
dra wn</w>
eli tes</w>
prev ail</w>
tele work</w>
tele vised</w>
Acc ess</w>
Acc ep
Surve ys</w>
cour ageous</w>
lear -
lear ners</w>
5. 1</w>
5. 8</w>
audi o</w>
Fl u</w>
omes tically</w>
cen tr
cen ter-
br inging</w>
ban ds</w>
ban king</w>
well -</w>
Conf erence</w>
coh es
every where</w>
Fav ors</w>
tari ans</w>
trans f
two- party</w>
18 .5</w>
0. 9</w>
0. 8</w>
Car son</w>
down s</w>
down sides</w>
1, 2
1, 5
1, 6
1, 7
Min or</w>
Min ority</w>
inst all</w>
inst ant</w>
enthusias ts</w>
Dis trust</w>
Dis satisfaction</w>
Dis tribution</w>
Gu antanam
Tex ting</w>
sus -
sus pic
corpor ation</w>
assess ing</w>
reflec tion</w>
reflec tive</w>
shor es</w>
stri ke</w>
stri kingly</w>
minim al</w>
advanc ement</w>
frustr ations</w>
Febru ary
7. 5</w>
long er-
pass words</w>
indic ations</w>
indic ates</w>
29 .2</w>
Meas ures</w>
cent enari
inf ants</w>
Philipp ine</w>
anti- Jewish</w>
Venezuel an</w>
Har ry</w>
Med ical</w>
Med iterran
Ric k</w>
Ric an</w>
Ric hard
Seven th-
Te hran</w>
right -leaning</w>
appe aling</w>
Favor ably</w>
comb ining</w>
comb ination</w>
recogni zed</w>
high- quality</w>
blo gs</w>
encoun tered</w>
fif ths</w>
Ro drigo</w>
sta ke</w>
expl ore</w>
expl anations</w>
vol ume</w>
encour ages</w>
encour aging</w>
collec tive</w>
collec tively</w>
natur alized-
well- off</w>
well- known</w>
well- qualified</w>
Se x</w>
Se gregation</w>
al- Nour</w>
watch dog</w>
Pri ority</w>
far -
far ms</w>
post secondary</w>
territ orial</w>
11 5th</w>
cos metic</w>
hon esty</w>
ech es</w>
pre- recorded</w>
pre- emin
long- form</w>
Mid terms</w>
Mid western</w>
Net works</w>
New sweek</w>
tion able</w>
offen ding</w>
depend ence</w>
25 0,000</w>
rol ls</w>
evalu ation</w>
evalu ate</w>
evalu ated</w>
evalu ating</w>
decid es</w>
discus sing</w>
3, 600</w>
reti re</w>
execu tions</w>
execu tives</w>
Wee kly</w>
One-in- seven</w>
Fin ances</w>
Str ongly</w>
Str ateg
Str engthen</w>
bul l</w>
fas t-
slow down</w>
post- communist</w>
alig ns</w>
Respon se</w>
Commun ities</w>
determin ative</w>
recover ed</w>
distinc tive</w>
Er a</w>
High est</w>
High er-income</w>
bis exuals</w>
vic tories</w>
initi ally</w>
tran satlantic</w>
Chil d</w>
Chil dhood</w>
mid- 1990s</w>
strugg led</w>
Non- broadband</w>
Sn ow
den y</w>
enh ance</w>
enh ower</w>
path ways</w>
establish es</w>
establish ment</w>
monit ors</w>
monit ored</w>
exce eding</w>
CE O</w>
ros y</w>
inde ed</w>
assa ss
emig rated</w>
emig rant</w>
politic ian</w>
analy ze</w>
2, 3
2, 7
Ev ents</w>
Ear lier</w>
Shi as</w>
Shi ite</w>
Shi ft</w>
exten sively</w>
prepar ing</w>
prepar ation</w>
modi fication</w>
modi fy</w>
Issu e</w>
Fir st-</w>
Wid er</w>
commer cials</w>
person alities</w>
minut e</w>
guid elines</w>
downlo ad</w>
downlo aders</w>
Ne utral</w>
Smart phones</w>
hab it
midd le-class</w>
Rem ain</w>
nor m</w>
sou l</w>
sou thwest</w>
occas ion</w>
Beli efs</w>
promot es</w>
40 0,000</w>
El ena</w>
Sp ace</w>
bom b</w>
zer o</w>
illin gs</w>
important for</w>
important role</w>
pursu ed</w>
Conflic ts</w>
enhanc ement</w>
Increas ed</w>
Increas ing</w>
1,00 3</w>
1,00 5</w>
Mon th</w>
vor a</w>
alleg ed</w>
concen tration</w>
quic k</w>
tech -
gov ts</w>
cens orship</w>
1,50 3</w>
1,50 2</w>
27 ,000</w>
Ow ners</w>
Off ice</w>
Path way</w>
With out</w>
cau tion</w>
cau ght</w>
mach ine</w>
od e</w>
enjo yed</w>
reta ilers</w>
shr ink</w>
Regi on</w>
Regi ons</w>
Iraq is</w>
universa lly</w>
implan ting</w>
12. 3</w>
12. 2</w>
35 -year-olds</w>
35 -year-old</w>
Deb ate</w>
Gin i</w>
Ter ms</w>
Wit ness</w>
aver aging</w>
traff ic
class room</w>
feat ures</w>
majority- male</w>
certain ly</w>
Stud ents</w>
polygam ous</w>
Adv enti
Adv ancement</w>
tempor arily</w>
Ethn ic</w>
12 ,000</w>
Lu xemb
bar a</w>
cha in</w>
co- workers</w>
hus bands</w>
ubi quit
suff er</w>
suff ici
oler ance</w>
poor er</w>
Regar ding</w>
deli vered</w>
reason ably</w>
strateg ies</w>
strateg ic</w>
pay rolls</w>
datab ases</w>
outpac es</w>
point ment</w>
Stat ement</w>
human itarian</w>
Post- election</w>
Disap prove</w>
techni que</w>
-to- 29</w>
17. 9</w>
Fri ends</w>
Fri endly</w>
cr ucial</w>
del ays</w>
isol ation</w>
six th</w>
phot ographers</w>
job -related</w>
job lessness</w>
travel ed</w>
objec tionable</w>
10. 10</w>
One- quarter</w>
princip als</w>
temper ament</w>
22 -year</w>
50. 8</w>
Mig rant</w>
Up per-income</w>
clim at
lu kewarm</w>
acqu is
Tra its</w>
Chang ed</w>
weak ened</w>
health -related</w>
Main taining</w>
first -
first -</w>
first -time</w>
Extre mis
convic tions</w>
Foreign -
cele br
Colombi an</w>
grocer ies</w>
Bar bara</w>
Sch ool</w>
Sta unch</w>
Sta lin</w>
Wat ch</w>
crow ded</w>
Reg istered</w>
Hispanic or</w>
Individ ual</w>
think the</w>
discip lined</w>
illustr ate</w>
gather ings</w>
Turn bull</w>
Enter tainment</w>
knowled geable</w>
Ques tions</w>
firear ms</w>
guaran te
guaran tee</w>
EU- 28</w>
Big ger</w>
Cap itol</w>
Cell phones</w>
Dru g</w>
Eff ec
Ga p</w>
Gor bachev</w>
Por tu
Sant orum</w>
UN HCR</w>
bran ch</w>
bran ches</w>
brow ser</w>
nic he</w>
rout ine</w>
rout inely</w>
swe eping</w>
yi p</w>
erran ds</w>
sat elli
compl ying</w>
compl ain</w>
compris ing</w>
scar ce</w>
state wide</w>
state house</w>
there fore</w>
Experi ences</w>
Shoot ings</w>
brid ge</w>
brid ges</w>
Panaman ian</w>
Cy berattacks</w>
Nar row</w>
PR I</w>
Tre at
Wil son</w>
bus y</w>
bus ter</w>
bot tom</w>
jur isdic
your self</w>
than kfulness</w>
time frame</w>
reb ounded</w>
escap ed</w>
rob ust</w>
rob ocalls</w>
ush ing</w>
rival ry</w>
confron tations</w>
Consum er</w>
Consum ers</w>
privi leges</w>
privi lege</w>
Protec tion</w>
categor ize</w>
single- race</w>
promo tion</w>
promo tions</w>
too/ Notatall</w>
prosper ity</w>
intellig ent</w>
intellig ence</w>
Ecuador ians</w>
Ecuador ian</w>
Identi ty</w>
Identi fication</w>
Euros kep
Euros tat</w>
Industr y</w>
contracep tive</w>
contracep tives</w>
family- based</w>
agricul ture</w>
agricul tural</w>
Ci vil</w>
Care givers</w>
DO D</w>
Hol oca
Hop es</w>
Ka iser</w>
Long -
Lesbi an</w>
Mir ror</w>
Nation wide</w>
Ser ious</w>
Stri kingly</w>
Ver y/
destin ation</w>
fil ings</w>
ho ly</w>
mil estone</w>
mun ic
selec ting</w>
intrus ive</w>
lifest yles</w>
veri fied</w>
concl usions</w>
urban -
Thr ough</w>
Thir ds</w>
surg ery</w>
fail ure</w>
feder algovernment</w>
Invol vement</w>
Contr asting</w>
critic ized</w>
Arri vals</w>
embrac ed</w>
Gen- Xers</w>
controversi al</w>
host ages</w>
distingu ish</w>
Atten tion</w>
targe ted</w>
practition er</w>
implem entation</w>
mirr ors</w>
Self- described</w>
uneth ical</w>
Broad cast</w>
nutr itious</w>
Anti- Muslim</w>
much /
absolut ely</w>
Doub t</w>
remark ably</w>
Bom bing</w>
Bil ingu
Blo omber
Cal derón</w>
Erit rea</w>
Foc us</w>
Frequ ency</w>
Ke ep</w>
Mis souri</w>
Nex star</w>
Plat forms</w>
Rob ert</w>
Val ues</w>
Your self</w>
brac ket</w>
best describes</w>
blam ed</w>
spar ked</w>
sinc erity</w>
tel -related</w>
ard working</w>
real m</w>
satur ation</w>
essi ties</w>
asser tions</w>
tru th</w>
diagnos is</w>
aggre gate</w>
paralle l</w>
compla int</w>
stret ch</w>
depar ture</w>
unanim ous</w>
permis sive</w>
fores ee</w>
clin ical</w>
cler ks</w>
faith s</w>
prescri ption</w>
take over</w>
get news</w>
internet users</w>
green house</w>
cerem onial</w>
strang leholds</w>
Congres ses</w>
facul ty</w>
subsequ ent</w>
contribut or</w>
disadvant age</w>
bien nial</w>
system atically</w>
mixed- race</w>
Metho dology</w>
Compan ies</w>
Optim ism</w>
Exam ining</w>
Two- Thirds</w>
discover ies</w>
day- to-day</w>
Tay yip</w>
short- form</w>
Center /
permanent residents</w>
blog gers</w>
Grad u
desktop /laptop</w>
dens ely</w>
intenti onally</w>
Remitt ances</w>
sympath ize</w>
Dominic an</w>
Huff Post</w>
Eston ians</w>
criter ia</w>
Are as</w>
Aur ora</w>
Aut om
Boli via</w>
Ce iling</w>
Clevel and</w>
Custom s</w>
Ero ding</w>
Eis enhower</w>
Ech o</w>
Fem ale</w>
Gaz a</w>
Happ y</w>
Hallow een</w>
Home owners</w>
Jim my</w>
Kind les</w>
Massa chuset
NS F</w>
Nep al</w>
Nei l</w>
Nie to</w>
Pi S</w>
Pessim ism</w>
Sis i</w>
Squ ee
Suc cess</w>
Saf er</w>
TT IP</w>
Tab let</w>
TODA Y</w>
Veg as</w>
Wy oming</w>
Wol ff</w>
Wed nesday</w>
Zeal and</w>
bat ter
by- mail</w>
canc er</w>
eav esdropping</w>
fan atical</w>
fru its</w>
ftun g</w>
gover n</w>
juni or</w>
noc ent</w>
pil ot</w>
psy ch
pled ged</w>
rar er</w>
sear ches</w>
tep id</w>
thumb s-up</w>
annex ation</w>
injur ies</w>
enac tment</w>
enrich ment</w>
real- world</w>
liam entary</w>
albe it</w>
sudden ly</w>
illeg al-
ambi valent</w>
opt- in</w>
step ped</w>
stere otyp
extern al</w>
Refl ecting</w>
depart ments</w>
deliber ately</w>
uninsu red</w>
petro leum</w>
vege tables</w>
paneli sts</w>
meet ings</w>
vote- by-mail</w>
fortun es</w>
Tray von</w>
preval ence</w>
green- card</w>
Intellig ence</w>
chancell or</w>
commut ations</w>
Conversa tion</w>
closed- minded</w>
stand- alone</w>
outnumb ered</w>
Armen ia</w>
coronavir us-related</w>
news- oriented</w>
hands- on</w>
non-EU- EFTA</w>
compassi onate</w>
compuls ory</w>
Defer red</w>
self-denti fied</w>
hostili ties</w>
ber-Sti ftung</w>
Guantanam o</w>
longer- term</w>
centenari ans</w>
Mediterran ean</w>
Richard son</w>
naturalized- citizen</w>
assass ination</w>
Luxemb ourg</w>
ubiquit ous</w>
Holoca ust</w>
Bloomber g</w>
Massachuset ts</w>
Squee zed</w>
stereotyp es</w>
' M
' o</w>
' to
' ll</w>
' New</w>
' et
' essential</w>
' cold</w>
- W
- in</w>
- 11</w>
- 35</w>
- 27</w>
- 25</w>
- 32</w>
- 31</w>
- 26</w>
- 36</w>
- 28</w>
- percentage</w>
- led</w>
- power</w>
- 40</w>
- To
- poor</w>
- married</w>
- origin</w>
- based</w>
- area</w>
- Palestinian</w>
- Arizona</w>
- word</w>
- seeking</w>
- Time</w>
- farm</w>
- nationalist</w>
- minute</w>
- Sisi</w>
. 8
. 9</w>
. m</w>
. 6</w>
. O</w>
. I</w>
. 44</w>
. foods</w>
. 25-</w>
. S.</w>
. -area</w>
/ has</w>
/ would</w>
/ Germany</w>
/ heard</w>
/ Some</w>
/ ethnic</w>
/ partner</w>
/ task</w>
0 7
0 9</w>
0 1</w>
1 34</w>
1 38</w>
1 40</w>
1 84</w>
1 85</w>
1 87</w>
1 -percentage-point</w>
1 4.2</w>
1 6.4</w>
1 5.5</w>
1 4.7</w>
1 4.8</w>
1 5.7</w>
1 6.3</w>
1 10th</w>
2 3
2 6
2 -</w>
2 12</w>
2 52</w>
2 5,000</w>
2 8.
2 1.2</w>
2 -percentage-point</w>
2 3.4</w>
2 3,000</w>
2 4,000</w>
2 4-year-olds</w>
2 10,000</w>
2 1.7</w>
2 1st</w>
3 4
3 8
3 20</w>
3 24</w>
3 78</w>
3 4,
3 7,
3 8,
3 1.5</w>
3 9.9</w>
4 4,
4 1.2</w>
4 4-year-olds</w>
4 45
4 4.1</w>
5 5
5 7
5 49</w>
5 81</w>
5 5.0</w>
5 13,
5 6.7</w>
6 9
6 -</w>
6 78</w>
6 9.
6 -point</w>
7 .</w>
7 25</w>
7 3,000</w>
7 4,9
7 7.9</w>
7 7.2</w>
7 38,000</w>
8 5
8 95</w>
8 -percentage-point</w>
8 10,000</w>
8 4,9
9 30</w>
9 2.6</w>
9 40,000</w>
A D
A L</w>
A le
A pr
A way</w>
A side</w>
A ging</w>
A rea</w>
A syl
B h
B A</w>
B P</w>
B an</w>
B ag
B ir
B ay</w>
B la
B har
B ain</w>
B arely</w>
C I
C l
C a</w>
C re
C ro
C ur
C able</w>
C ut</w>
C ome</w>
C ross</w>
C ited</w>
C rating</w>
C hap
C lear
C ounc
C ros
C ases</w>
C lick</w>
D an
D ar
D on
D at
D oc
D ri
D ev
D all
D anger</w>
D ull</w>
E R
E S</w>
E T</w>
E vid
E dis
E quality</w>
E scape</w>
E very
E valu
F i
F en
F id
F rac
F ight</w>
F act</w>
F loo
F ights</w>
F light</w>
F lag</w>
F ull
G R
G ro
G ore</w>
G ran
G ays</w>
G et</w>
G .I</w>
H o
H S</w>
H er
H er</w>
H ur
H oo
H ad</w>
H ood</w>
H of
H olds</w>
H ai
H earing</w>
H im</w>
I L
I f
I Q</w>
I R</w>
I sa
I rel
I deal</w>
I da
I II</w>
I ES</w>
J ac
J ong</w>
J ones</w>
J UN
J ama
K y
K ö
K ent
K now</w>
K az
K ey
K IP</w>
L P
L T
L e</w>
L E</w>
L en
L ong</w>
L oss</w>
L eng
L ines</w>
L aw
L UN</w>
L DP</w>
L ot</w>
L osing</w>
L ula</w>
M es
M as
M oun
M ur
M other</w>
M s.</w>
M agaz
M anti</w>
N C
N O
N a
N .</w>
N S</w>
N O</w>
N C</w>
N or</w>
N el
N ever</w>
N ever
N ativity</w>
N CES</w>
N ationally</w>
N -word</w>
N HS</w>
O '
O S</w>
O N</w>
O pen
O ther
P en</w>
P ra
P ad</w>
P re</w>
P ledge</w>
P AN</w>
R an</w>
R ul
R ich</w>
R ight
R ude</w>
R uled</w>
R CES</w>
S /
S r
S and</w>
S ab
S ha
S econ
S earch</w>
S ites</w>
S ame</w>
S elm
S om</w>
S car
S pretty</w>
S HO
S OU
S oft</w>
S BA</w>
T y
T ig
T one</w>
T reas
T ell</w>
T end</w>
T eg
T US</w>
T sunami</w>
T im</w>
T argu
U ne
U ber</w>
U ru
U pper</w>
U KIP</w>
V s.</w>
V arying</w>
V alle
V OR
V IES</w>
W u
W om
W as</w>
W ay</w>
W ants</w>
W oods</w>
W TO</w>
W ery</w>
W ES
X IC
Y an
Y ard</w>
a us
a yed</w>
a thing</w>
a war
a ined</w>
a /Pacific</w>
b n
b it
b os
b al</w>
b as</w>
b ans</w>
b ers</w>
b out</w>
b ies</w>
b id</w>
b low
b all
b ru
b ine</w>
b right</w>
b ling</w>
b lan
b ath</w>
b illing</w>
b inary</w>
b reach
b illions</w>
b est-
b bed</w>
b itions</w>
c ed</w>
c and</w>
c es
c oo
c ep
c ure</w>
c ites</w>
c rac
c ture</w>
c ems</w>
c lick</w>
c igare
d u</w>
d on</w>
d it
d di
d ow
d -in
d ations</w>
d ing
d ship</w>
d parents</w>
d ency</w>
d ness</w>
d full</w>
d ense</w>
d ened</w>
d ark</w>
d omestically</w>
d 'et
e c</w>
e what</w>
e ligi
e ties</w>
e um</w>
e dition</w>
e zing</w>
e vil</w>
f o
f o</w>
f ly</w>
f oun
f res
f ies</w>
f ili
f ra
f la
f row
f working</w>
f ills</w>
f aded</w>
g al</w>
g em
g ad
g ri
g ic</w>
g enti
h a</w>
h an
h over
h ada</w>
h ina</w>
h ope</w>
h orse</w>
h dad</w>
h stan</w>
h esitant</w>
i an
i or
i more</w>
i ked</w>
i ously</w>
i on-
i an-origin</w>
i veness</w>
i OS</w>
i Pad</w>
j or</w>
j ew
j eal
k y
k ha
k ies</w>
k top</w>
k ling</w>
k place</w>
k tor</w>
k ov
k illings</w>
l a</w>
l en
l er</w>
l es
l em
l ag
l ting</w>
l ens</w>
l ue</w>
l ling</w>
l ady</w>
l agged</w>
l l-
l uck</w>
m al</w>
m ac
m ers</w>
m em
m its</w>
m strong</w>
m echan
n y
n igh
n ds</w>
n uc
n ard</w>
n av
n ug
n ists</w>
n old</w>
n dic
n syl
o /
o a</w>
o .</w>
o v</w>
o economic</w>
p /
p t</w>
p in</w>
p le
p pro
p acts</w>
p licitly</w>
p ushing</w>
r ing</w>
r ig
r ative</w>
r yp
r ys
r using</w>
r ental</w>
r ned</w>
r iles</w>
r gy
r ushed</w>
r ber-Stiftung</w>
s w
s y</w>
s i</w>
s on
s it
s is</w>
s em
s wit
s por
s pan
s port</w>
s ph
s off
s our</w>
s election</w>
s way</w>
s elections</w>
s ends</w>
s exist</w>
s tick</w>
t i</w>
t at
t an</w>
t as
t um
t ty</w>
t ta
t ary</w>
t elec
t ying</w>
t als</w>
t -leaning</w>
t place</w>
t les</w>
t y-
t umb
t owns</w>
t olerance</w>
u u
u d</w>
u l</w>
u u</w>
u ing</w>
u le</w>
u tions</w>
u ently</w>
u nex
u alism</w>
u ght</w>
u -nationalist</w>
u kov
v it
v ard</w>
v ania</w>
v ocal</w>
v itable</w>
w /</w>
w ou
w ore</w>
w il
w will</w>
w ood</w>
w ant
w oes</w>
w inds</w>
w ashes</w>
w /heard</w>
y -</w>
y al</w>
y ch</w>
y able</w>
y als</w>
y ard</w>
y te</w>
y ana</w>
y ards</w>
y stems</w>
y zing</w>
z e
z z
z one</w>
z ens</w>
z eneg
z stan</w>
– of</w>
— 49</w>
— almost</w>
— fully</w>
th is
th um
th ic</w>
th ority</w>
th ata</w>
th ony</w>
th oughts</w>
an .
an der</w>
an ni
in er</w>
in ity</w>
in ations</w>
in ev
in e-
in sp
in 2015</w>
in t-
in eligible</w>
in secure</w>
in land</w>
in tent</w>
in ward</w>
in ched</w>
in nocent</w>
er /
er -</w>
er ar
er ce</w>
er ge
er ves</w>
er als</w>
er s—
ar t</w>
ar m</w>
ar ti
ar di
ar tis
ar us</w>
ar chi
ar my</w>
ar ises</w>
ar mac
ti ate</w>
ti fic
ti gh
ti on-
ti pped</w>
ti rement</w>
or ative</w>
or tly</w>
en s
en e</w>
en g</w>
en tr
en su
en der</w>
en act</w>
en sive</w>
en forcing</w>
en erge
ou l</w>
ou ts</w>
ou ch
ou tran
re -</w>
re gre
re act</w>
re ques
re war
re married</w>
re elected</w>
re jec
re member</w>
re tained</w>
re taining</w>
re placing</w>
re wards</w>
re ddit</w>
re pair</w>
re fund</w>
re versal</w>
re han
li v
li ter
li ve
li qu
li fel
li vest
sa c
sa ti
sa le</w>
sa ic</w>
sa lar
sa ilors</w>
sa w/heard</w>
it y
it ment</w>
it ations</w>
it ud
it ement</w>
it man</w>
it e-sex</w>
al i</w>
al ter</w>
al ese</w>
al ong
al treatment</w>
al ear</w>
at e
at er</w>
at ch
at op</w>
at taining</w>
at eness</w>
at tractive</w>
at riots</w>
the as
the st</w>
the first</w>
the following</w>
the ater</w>
om y</w>
om ey</w>
om munic
wh a</w>
os es</w>
os is</w>
os ities</w>
ic a</w>
ac id</w>
ac efully</w>
ati a</w>
ati ent</w>
ati ya</w>
es a</w>
es z</w>
es ter</w>
es te
ro ff
ro oted</w>
is s</w>
is ting</w>
is ode</w>
ab sent</w>
as y
as p</w>
as so</w>
as sure</w>
as ian</w>
as te</w>
as ive</w>
as Bar
tr e</w>
tr un
tr ials</w>
tr aded</w>
tr amarital</w>
tr imm
us e
us ter</w>
di m</w>
di x</w>
di an</w>
di ets</w>
su es</w>
su res</w>
su icides</w>
id ed</w>
id ate</w>
em oti
em pathy</w>
ad d</w>
ad ds</w>
ad ap
ad ox</w>
ad fast</w>
ad mission</w>
pu rely</w>
wit ness</w>
le y</w>
le as
le gi
le av
le ash</w>
le tfor</w>
oun dly</w>
ol as</w>
ol ul
ol den</w>
ver sion</w>
ver tible</w>
ne t-
ne ars</w>
con dem
con vertible</w>
oc i
oc e</w>
oc can</w>
ha m</w>
ha ul</w>
el y
el d</w>
el a</w>
el er
el ings</w>
el abor
el ry</w>
el y-
Am end
Am anda</w>
sh all</w>
sh opp
sh rank</w>
sh ot</w>
sh opping</w>
sh oul
il y-</w>
am work</w>
am bitions</w>
par ole</w>
par ency</w>
par ately</w>
par liament</w>
par enthood</w>
par liamentary</w>
im pa
im um</w>
im ental</w>
im partial</w>
ow e</w>
ow es</w>
ow ing</w>
res ident</w>
res ide</w>
res ign
res hap
res earch
op t</w>
op ens</w>
st er
st af
st alked</w>
st alled</w>
20 8</w>
20 th</w>
Americ asBar
ur ities</w>
ur bs</w>
ur sion</w>
ur ists</w>
ot ing</w>
ot ers</w>
ot ine</w>
Th ink</w>
ul ated</w>
ul ative</w>
ul tur
vi ans</w>
vi lians</w>
por ate</w>
ma p</w>
ma ker</w>
po l</w>
po ols</w>
ex ac
ex changes</w>
ex tractive</w>
ex istence</w>
be have</w>
be ar</w>
be half</w>
be fore
be ating</w>
be ach
be aring</w>
coun ty-
ff er</w>
ff ers</w>
ch y</w>
ch ased</w>
pro ach</w>
pro hi
pro hib
Re id</w>
Re ps</w>
Re ality</w>
Re duce</w>
Re ading</w>
Re fer
Re tirement</w>
no tion</w>
no body</w>
de -
de ity</w>
de tec
de tain</w>
de d-
de em</w>
de emed</w>
un it</w>
un ity</w>
un line</w>
un certain</w>
un available</w>
un true</w>
un necessary</w>
un aware</w>
un affected</w>
un tries</w>
un sympathetic</w>
un usual</w>
ent /
ent /</w>
201 0
si es</w>
lik ing</w>
lik e-
pe l</w>
pe er</w>
pe tr
pe ar</w>
pe er-
pe acefully</w>
ve t</w>
ri d</w>
ri fic</w>
ri oters</w>
se gregation</w>
se emed</w>
se quester</w>
sur pl
sur ges</w>
sur face</w>
sur pass
sur fing</w>
sur rounding</w>
wor shi
wor ld
iti mate</w>
over la
over reach</w>
over represented</w>
over turning</w>
over reacting</w>
igh ed</w>
-in cum
per su
per mission</w>
per petr
lo ad</w>
lo ded</w>
lo athing</w>
me al</w>
me tr
me tro
me tal</w>
me tals</w>
ir m
ir ut</w>
ir ling</w>
ir relevant</w>
vot ing-age</w>
gr id
gr ad</w>
gr ances</w>
gr ounding</w>
gr asp</w>
ap h</w>
ap ing</w>
ap ore</w>
tic ed</w>
tic ides</w>
tw enti
tw ell</w>
tw enty</w>
tw elve</w>
for d</w>
for der</w>
for go</w>
cl out</w>
to ver</w>
lin g
lin gs</w>
fa c</w>
fa ult</w>
poli tan</w>
uc tu
uc ky</w>
gi fts</w>
pos sib
pos sibly</w>
oo o</w>
oo m</w>
enti ty</w>
enti tled</w>
acc eler
lac ks</w>
Tr an
Tr aff
fe as
fe ty</w>
low ers</w>
low ered</w>
low est-
low est-income</w>
ing ent</w>
ing soff
our s</w>
Trum ps</w>
sup p
sup pl
sup ply</w>
medi um-
pre s</w>
pre ach
pre cau
ran t
ran ted</w>
rec ent
rec ord
rec alls</w>
rec ede</w>
ili ation</w>
pec ting</w>
ta x
ta ught</w>
ra ids</w>
ra ham</w>
Ch rys
mig rating</w>
inter view</w>
inter racial</w>
inter net-
ali tarian</w>
gre y</w>
gre es</w>
mar king</w>
In cl
In doc
In surance</w>
In vest
In dependence</w>
Ab ove</w>
econom ist</w>
we ight</w>
we ighs</w>
Wh itman</w>
some what
some wha</w>
ep isode</w>
pl un
pl ants</w>
fin ed</w>
fin alized</w>
Res ist
Res earch
Res taur
Res earchers</w>
Res pecting</w>
govern ed</w>
govern menti
import an
elec ting</w>
immig rant
fi k</w>
fi x</w>
fi ed
fi xed</w>
fi eds</w>
fi le-
ph armac
pr o</w>
pr ight</w>
pr ints</w>
conf usion</w>
200 8-</w>
dec eased</w>
inc ub
ough t-
cer ation</w>
cer tific
mo ves</w>
mo bi
mo del
lim itations</w>
high s</w>
fu eled</w>
form ations</w>
favor ite</w>
pen dix</w>
rel ation</w>
rel ay</w>
str a</w>
str anger</w>
str ingent</w>
follow ings</w>
serv es</w>
serv ic
serv ants</w>
An ces
An thony</w>
sc ary</w>
sc ams</w>
sc rap
lic al</w>
lic ate</w>
he l</w>
he at</w>
he ight</w>
he ating</w>
he aling</w>
he avy</w>
he gem
comm em
Con ce</w>
Con nec
Con struction</w>
Con tributed</w>
Con cems</w>
hol der</w>
hol dings</w>
year from</w>
clos ure</w>
clos ures</w>
pa ill
pa yer</w>
pa ints</w>
all y
dis trac
dis content</w>
dis ruption</w>
dis honest</w>
dis playing</w>
dis tributed</w>
dis missed</w>
dis trustful</w>
shar per</w>
ru gated</w>
off ull
chil dr
chil d-
ten s</w>
ten ured</w>
ten dency</w>
e- educated</w>
e- mail</w>
popul a</w>
col or</w>
col der</w>
col ors</w>
col ored</w>
col onies</w>
do t</w>
do ors</w>
Euro bar
rac ist</w>
rac e/
concer ts</w>
cont ours</w>
of 0</w>
of social</w>
of New</w>
ke holders</w>
te dly</w>
te dness</w>
te amwork</w>
min or
min es</w>
leg ality</w>
leg itimate</w>
bor row</w>
tim s</w>
tim ely</w>
la h</w>
out migration</w>
out let</w>
out size</w>
out spoken</w>
out performed</w>
prob lem
educ ations</w>
tt on</w>
tt lement</w>
o- R
o- rental</w>
anc e-
ess ary</w>
ess man</w>
cons ole</w>
cons ists</w>
cons isting</w>
aff air</w>
aff irm
fl agged</w>
fl uctu
neg ativity</w>
Par t</w>
Par enting</w>
Par agu
fic tion</w>
did 10</w>
cor ps</w>
cor rid
ill nesses</w>
der s
der n</w>
der ing</w>
iz -
Un sure</w>
Un rest</w>
Un changing</w>
Un surprisingly</w>
19 5</w>
19 00</w>
19 50</w>
19 49</w>
19 52</w>
19 46</w>
19 62</w>
19 78</w>
19 84</w>
19 85</w>
19 30s</w>
19 .8</w>
sci e</w>
hel le</w>
fac es</w>
fac ilit
sub group</w>
ga ther</w>
sp y</w>
sp iked</w>
des erve</w>
des truc
des erves</w>
St ay</w>
St ands</w>
St ock</w>
St art</w>
ass ist</w>
contr act</w>
contr acting</w>
Ma ke</w>
Ma il-
sel fis
support a</w>
support er</w>
eb b</w>
au to</w>
au top
ith son
agre es</w>
har der
har dest</w>
har med</w>
tis sues</w>
tu ber
depen ds</w>
Ca uses</w>
inform ation-
,0 20</w>
Is lands</w>
Pro duc
Pro vid
Pro file</w>
ed ged</w>
gu es</w>
gu ard</w>
gu ine</w>
Ar my</w>
Ar rog
Ar mstrong</w>
Ar nold</w>
sti ll-
ques tioned</w>
Vi ktor</w>
gh ost</w>
ell ar</w>
loc ated</w>
loc kdown</w>
ven ly</w>
Pu tting</w>
house holder</w>
Su per
Su perior</w>
Su ffers</w>
eng ers</w>
ste war
ste eply</w>
bi tion</w>
bi ases</w>
bi ographical</w>
infl ation-
imp ose</w>
imp acting</w>
imp atient</w>
ys ts</w>
cas h
cas ts</w>
brea ks</w>
emplo y</w>
Asi a/Pacific</w>
go tiate</w>
non black</w>
non working</w>
non voting</w>
non residential</w>
non binary</w>
omin ess</w>
mon t</w>
mon oli
soci oeconomic</w>
sig ning</w>
sig nature</w>
Indi c</w>
hn ess</w>
fre eing</w>
fre ezing</w>
Clin ton-
main tains</w>
No v</w>
Ac tive</w>
Ac tivities</w>
Ac adem
Sou ther
tur bine</w>
descri ption</w>
sec tions</w>
sec ret
sec tarian</w>
anal ysts</w>
three- times</w>
three- fold</w>
three- fifths</w>
signific ance</w>
pref abricated</w>
oppos ite-sex</w>
financ ing</w>
financ ial
sy mp
sy ndic
inv est</w>
inv entions</w>
gan g</w>
wid ening</w>
wid ely-
tra q</w>
Mar ine</w>
Mar ital</w>
Mar gin</w>
Mar shall</w>
hand ful</w>
hand gun</w>
pp ers</w>
pp age</w>
CO ME</w>
co m</w>
co ded</w>
co exist</w>
co efficient</w>
acti ve-
trac ker</w>
Nor th
hi erar
respec tfor</w>
Fran ces</w>
cell ular</w>
cell aneous</w>
spen ds</w>
organ ics</w>
secon ds</w>
war rant</w>
war zeneg
war ranted</w>
ide lity</w>
ide alsituation</w>
Pres sure</w>
Pres sed</w>
amoun ted</w>
Pe te</w>
Pe tro</w>
ak es</w>
ak in</w>
ak hstan</w>
ord ained</w>
partn ering</w>
under score</w>
under mine</w>
under pin</w>
affili ations</w>
eg alitarian</w>
ind a</w>
nec essities</w>
spe eches</w>
organiz ed</w>
Per form
Per ry</w>
Per due</w>
Per ot</w>
To ome
To gether</w>
To ky
mis using</w>
mis lead</w>
mis guid
mis cellaneous</w>
Mill er</w>
moder ate/
ut to</w>
decis ion-
idd en</w>
non- whites</w>
non- Latino</w>
non- Muslim</w>
non- students</w>
non- rural</w>
non- evangelical</w>
non- traditional</w>
non- veterans</w>
non- profit</w>
non- daters</w>
grap h</w>
disap pointment</w>
disap pear</w>
graph ic</w>
Al aska</w>
Al legi
ign ore</w>
vers a</w>
vers y</w>
Me tro</w>
En rol
En dow
hum an-
app liances</w>
mor e-educated</w>
sum ed</w>
sum mer
sum mit</w>
comp atriots</w>
end ra</w>
end -of-
ool s</w>
loo m</w>
Di versity</w>
Di plom
Di ff</w>
doc h</w>
doc tor
sol utions</w>
one-in- eight</w>
school -age</w>
harass er</w>
harass ing</w>
Im medi
med als</w>
prof itable</w>
prof oundly</w>
tit e</w>
tit or</w>
conflic t-
bal ancing</w>
effec tover</w>
Fe elings</w>
compu ter-
regul ars</w>
regul atory</w>
defin ing</w>
defin ite</w>
Sup portive</w>
ci o</w>
dig its</w>
mat ch
dro ve</w>
Ad vertis
Ad dress</w>
Ad dressing</w>
Com position</w>
Com score</w>
Com mission
tom s</w>
one- fourth</w>
Wor king</w>
Wor kplace</w>
exc itement</w>
up take</w>
up standing</w>
up sides</w>
U.S. -</w>
U.S. /Germany</w>
De le
De fe
De als</w>
De pression</w>
De grees</w>
cre w</w>
nomin ations</w>
Be ach
Be havi
Be hind</w>
Be irut</w>
siz eable</w>
contro versy</w>
Li b</w>
lat eral</w>
Op en</w>
Op ponents</w>
1. 50</w>
du bbed</w>
hom ilies</w>
nam ent</w>
nam ese</w>
direc tors</w>
direc tor</w>
Oc t</w>
Jan ata</w>
dr ought</w>
dr inking</w>
dr oughts</w>
dr inks</w>
Col o.</w>
speci fied</w>
speci alties</w>
Ex it</w>
Ex per
Ex change</w>
Ex press</w>
Ex plicitly</w>
Ex tramarital</w>
nati vity</w>
not -
not ing</w>
not Hispanicor</w>
car ries</w>
car tel-related</w>
see ker</w>
marke tplace</w>
spea ks</w>
docum ent</w>
docum entation</w>
Econom ics</w>
Dec line</w>
avail ing</w>
invol ves</w>
impro perly</w>
know s</w>
Japan /</w>
bu tton</w>
et ary</w>
def use</w>
vide o-rental</w>
Bo y</w>
Bo ys</w>
Cu ts</w>
jec tions</w>
to- quarter</w>
to- peer</w>
big g</w>
domin ates</w>
vari ations</w>
vari ance</w>
prefer ring</w>
oper ate</w>
oper ates</w>
oper ators</w>
nin e-point</w>
tain ers</w>
self- identification</w>
self- driving</w>
self- identifies</w>
2. 7</w>
Le ave</w>
Le ads</w>
Sh r
Sh ortly</w>
Soc i
star ker</w>
Mor si</w>
Mor occan</w>
call ous</w>
connec ts</w>
Democratic primary</w>
numb ering</w>
Sa fety</w>
ful fill</w>
ful filling</w>
Des ktop</w>
fem ales</w>
trus ts</w>
neighbor hood</w>
care fully</w>
dri ves</w>
produc tivity</w>
work ings</w>
work ing-age</w>
work s-related</w>
advant ageous</w>
Austr ians</w>
Pol ygam
d- active</w>
d- Pressed</w>
multi -
multi party</w>
multi lateral</w>
ob tained</w>
viol ations</w>
Eng age</w>
mid st</w>
justi fiable</w>
succ essive</w>
optim ists</w>
Thre e-in-four</w>
regar ds</w>
As k</w>
cul osis</w>
don or</w>
vacc ination</w>
10 -
10 7</w>
10 9</w>
10 00</w>
10 ,0
10 .1</w>
10 8,000</w>
10 .2</w>
10 ,5
10 9,000</w>
Rom ania</w>
exper t</w>
foreign .
foreign -made</w>
skep tics</w>
Jo ining</w>
da y
sam ples</w>
prom p
necess itate</w>
separ ated</w>
migr ated</w>
Afgh an</w>
cap ture</w>
tor ious</w>
chall eng</w>
employe e</w>
employe dfull</w>
individ ualism</w>
dist aste</w>
stand ardi
6. 6</w>
Bu il
For ward</w>
proc esses</w>
Mo .</w>
Mo on</w>
Mo ve</w>
Mo saic</w>
Mo dern</w>
Ta yl
Ta xing</w>
institu tional</w>
ref used</w>
extrem es</w>
Rec ep</w>
dra in</w>
mes ti
prev ails</w>
Acc ept</w>
ang ed</w>
liber tarians</w>
doub ling</w>
5. 9</w>
5. 01</w>
Sec urities</w>
bel ow-
adop ted</w>
spap ers</w>
applic able</w>
-year- long</w>
We althy</w>
We iner</w>
usi ve</w>
usi vely</w>
consum ed</w>
commit tees</w>
dru g-related</w>
spec ulation</w>
vo t</w>
vo ices</w>
Ap proach</w>
Ap pendix</w>
Po int</w>
ban -
ban k</w>
tab letfor</w>
chec kers</w>
Or ban</w>
Sm ithson
mas sive</w>
mas k-
arri ving</w>
arri val</w>
trans late</w>
trans lates</w>
trans formed</w>
trans parency</w>
18 ,
18 ,500</w>
Educ a</w>
gun -related</w>
protec tor</w>
contribu tion</w>
contribu tions</w>
0. 3
0. 5</w>
Car ry</w>
Car bon</w>
down ing</w>
down ward</w>
down grade</w>
down beat</w>
degre e-
1, 8
1, 800</w>
Eas y</w>
Min nes
Min imum</w>
Religi osity</w>
streng ths</w>
nation alism</w>
At tend</w>
Dis like</w>
Dis placed</w>
Gu yana</w>
sus pended</w>
sus cep
Argent ine-
U.S.- German</w>
minim um-
advanc ing</w>
Diff ering</w>
challeng ers</w>
7. 7</w>
7. 3</w>
7. 1</w>
7. 8</w>
Some times</w>
cir cle</w>
run -up</w>
fiel ding</w>
prior ity
communic ator</w>
indic ation</w>
indic ated</w>
indic ator</w>
Bi as</w>
ca using</w>
lab els</w>
lab eling</w>
mp ion</w>
tro op</w>
wan ing</w>
inf idelity</w>
pros ec
pros ely
friend sof</w>
anti- Muslim</w>
anti- terrorism</w>
anti- terror</w>
nar din
nar rative</w>
appropri ateness</w>
requi res</w>
Cen sus-
Har vard</w>
Har d-Pressed</w>
Ric an-origin</w>
Te 'o</w>
in- Toome
ibut able</w>
prioritiz ing</w>
Blac k
a- half</w>
menti oning</w>
char ges</w>
appe tite</w>
Chan nel</w>
pris ers</w>
Sand y</w>
yon ic</w>
distric t-level</w>
You th</w>
ish ing</w>
stag gering</w>
fif ties</w>
Medi um</w>
Ro d
gam ing</w>
gam ers</w>
gam bling</w>
sta keholders</w>
expl ores</w>
expl oring</w>
expl osion</w>
hur t
land ed</w>
land ings</w>
land lines</w>
land scap
collec ting</w>
Se parately</w>
Se ttlement</w>
enter prise</w>
Rel ation
far ing</w>
far ming</w>
gar ner</w>
attr ibutable</w>
sug ary</w>
post grads</w>
territ ory</w>
Medic aid</w>
cover ings</w>
so aring</w>
sent ences</w>
threat to</w>
origin alism</w>
Depart ment
11 th</w>
11 -point</w>
11 4,000</w>
cum ulative</w>
ly —
ly wood</w>
recomm end</w>
recomm ends</w>
ech oes</w>
pre- 9/11</w>
negoti ated</w>
aug ment</w>
profes si
long- standing</w>
long- awa
8. 1</w>
Mid -
Mid term</w>
Net working</w>
New town</w>
New spapers</w>
ori e</w>
ori an-origin</w>
safe guard</w>
predomin ate</w>
predomin ant</w>
25 ,6
exp licitly</w>
exp loded</w>
deter ior
deta il</w>
deep en</w>
Israeli -</w>
Israeli -Palestinian</w>
3, 7
3, 8
3, 682</w>
50 -</w>
50 0,000</w>
AA M</w>
Aff ect</w>
Aff ecting</w>
Aff iliation</w>
Neg atively</w>
ld /would</w>
assi fication</w>
sett ling</w>
sett lement</w>
Sub urbs</w>
refer enda</w>
Guatemal ans</w>
Guatemal an-origin</w>
Fin al</w>
Fin ance</w>
Fre q</w>
Fre ddi
Str ongest</w>
slow ing</w>
post- outbreak</w>
post- Millennials</w>
post- office</w>
post- World</w>
post- graduate</w>
ances tr
Lead ership</w>
capit als</w>
Commun ism</w>
Commun ist</w>
determin ing</w>
Four th</w>
Ide a</w>
Ide as</w>
Ide ologically</w>
Mi am
Mi xed-
Pan ama</w>
obli ga</w>
distinc tion</w>
Hondur an-origin</w>
AC S</w>
High ly</w>
vic tims</w>
vic torious</w>
initi ative</w>
initi atives</w>
promin ence</w>
occup ied</w>
mid- 2006</w>
mid- October</w>
strugg les</w>
Mal ta</w>
Non- college</w>
Non- STEM</w>
Vir gin</w>
bur dened</w>
den -
less -
thous and</w>
scre ening</w>
Viet namese</w>
Je eling</w>
milit ant</w>
enrol ling</w>
enrol lment</w>
enrol lees</w>
re- elected</w>
re- elect</w>
re- adjusting</w>
re- establishment</w>
super natural</w>
emig ration</w>
unte thered</w>
classi fieds</w>
prac tical</w>
prac ticed</w>
Disa gree</w>
Disa greement</w>
addic ted</w>
infec tion</w>
2, 900</w>
Ev an
Ev ang</w>
Hind i</w>
Hind u</w>
Hind u-nationalist</w>
hy dro
pati ent</w>
exten ded-
earn ers</w>
earn est</w>
earn ingsoff
prepar ations</w>
predic tions</w>
predic tor</w>
modi fied
frac tion</w>
th- graders</w>
anim al</w>
anim osity</w>
anim osities</w>
compe ting</w>
compe titor</w>
quarant ining</w>
Pers onally</w>
Scienti fic</w>
volunte ering</w>
Buddh ist</w>
Justi fied</w>
Justi fiable</w>
Kn own</w>
Ne war
Ne eds</w>
Ne utr
Smart phone-
glo ominess</w>
rang ements</w>
Ang ola</w>
Polic ies</w>
legislat ure</w>
cohab it
Mit ch</w>
Non -</w>
Rem ar
Rem ove</w>
cal culated</w>
nor theast</w>
nor mal</w>
sou th</w>
conc emed</w>
conc ede</w>
occas ions</w>
recy cle</w>
attemp ting</w>
complet ely/
promot ed</w>
Emplo yed</w>
30 -
30 -Oct.</w>
40 ,
Ber nardin
Bel ow</w>
Bel arus</w>
Co .</w>
Co ali
El -Sisi</w>
Em bar
La ws</w>
Leg alization</w>
Leg acies</w>
Sp oce</w>
bom bed</w>
bab we</w>
pi vot</w>
s- based</w>
important a</w>
stra ined</w>
sym pathy</w>
medic altreatment</w>
pursu its</w>
Know ing</w>
Increas es</w>
1,00 7</w>
1,00 4</w>
1,00 1</w>
Hou ston</w>
Ine vitable</w>
Mic hel</w>
Mic helle</w>
NE ET</w>
NP R-
Pr ide</w>
Pr int-
Shar ed</w>
Shar ing</w>
Shar if</w>
Shar ply</w>
cut backs</w>
pap ers</w>
diver gent</w>
near by</w>
near est</w>
Ann a</w>
View ers</w>
View ership</w>
succe eding</w>
1,50 7</w>
1,50 4</w>
1,50 1</w>
troub ling</w>
15 /hour</w>
27 8,000</w>
Cor ny
Ed ward</w>
Es pecially</w>
Es paill
Go t</w>
Go ing</w>
Ow n</w>
Off shore</w>
Off ensive</w>
Tri als</w>
mus icians</w>
vas tly</w>
er- occupied</w>
enjo ys</w>
enjo yable</w>
publish ers</w>
excl usively</w>
motiv ation</w>
voic ing</w>
strength ened</w>
Follow ed</w>
Filipin o</w>
16 -</w>
35 -</w>
35 0,000</w>
Bec oming</w>
Il legal</w>
Seneg alese</w>
Ter m</w>
aver ages</w>
mur ders</w>
sli ppage</w>
anticip ates</w>
sib lings</w>
majority- Muslim</w>
majority- minority</w>
fire works-related</w>
dispar ate</w>
small -farm</w>
Quar ters</w>
Ecuad orian-origin</w>
12 2,000</w>
11. 7</w>
11. 4</w>
11. 1</w>
Busin esses</w>
D. R</w>
D. C</w>
Dr one</w>
Dr ones</w>
Dr ought</w>
Lu ther</w>
Lu ther
Mac a
Sam e-sex</w>
Sam oa</w>
Ur du</w>
cha ir</w>
cha os</w>
cha mber</w>
cha mpion</w>
cur i
cur b</w>
cur bing</w>
cur tail</w>
co- worker</w>
tac kling</w>
emer gency</w>
mail- order</w>
poor est</w>
deli very</w>
deli vers</w>
loy al</w>
pay roll</w>
human jobs</w>
Direc t</w>
announc ements</w>
Post- Hussein</w>
Ukrain ian</w>
observ ance</w>
pack aging</w>
Disap pointed</w>
concentr ate</w>
17. 3</w>
17. 0</w>
17. 6</w>
8, 600</w>
9, 90
9, 999</w>
Au thority</w>
Bos ed</w>
Elec torate</w>
Low est</w>
Mu tual</w>
Pen alty</w>
Pen nsyl
Typ e</w>
cr ude</w>
cr ash</w>
del ay</w>
del ayed</w>
hac kers</w>
une ase</w>
win ter</w>
Rep .</w>
Rep u</w>
dele te</w>
six -party</w>
claim ed</w>
claim ing</w>
plan et</w>
phot o-sharing</w>
incor porate</w>
job -seeking</w>
hard ships</w>
disappro ving</w>
full -power</w>
objec ts</w>
objec tions</w>
objec tive</w>
Ass embly</w>
10. 9</w>
nationali stic</w>
princip ally</w>
fastest -</w>
transi tions</w>
integr ation</w>
integr ate</w>
50. 3</w>
Ban ks</w>
Cha m
Gar land</w>
Hel d</w>
Jud ged</w>
Jud icial</w>
Pre v
Pre vious</w>
Up side</w>
Up tick</w>
clim b</w>
clim bing</w>
clim bed</w>
cros s-
i. e</w>
jum ping</w>
vali d</w>
inaug ural</w>
til ts</w>
acqu itt
acqu ired</w>
divor ced</w>
very or</w>
occurr ence</w>
Reduc tion</w>
depres sive</w>
defe ated</w>
worsen ing</w>
weak est</w>
weak ening</w>
Main land</w>
Asian- American</w>
Asian- Pacific</w>
after- care</w>
Fort as</w>
short -</w>
short age</w>
cele b
Colombi an-origin</w>
near- record</w>
near- minimum</w>
near- saturation</w>
near- minimum-
stream ed</w>
Web- mode</w>
Banglades his</w>
Bro adly</w>
Eur asian</w>
IN S</w>
IN COME</w>
Multi generational</w>
Nic ole</w>
Nic olas</w>
Nic otine</w>
Sol o</w>
Sol ar</w>
Sol ving</w>
Sol ution</w>
Sch warzeneg
Sch ools</w>
Satis fied</w>
Tan k</w>
Wat ched</w>
Wat ching</w>
cam ps</w>
fat alities</w>
mer it</w>
mer man</w>
nu kes</w>
ril le</w>
sic ker</w>
outwe ighs</w>
pro- Russian</w>
Reg ularly</w>
Hispanic s
Hispanic -origin</w>
think of</w>
think it</w>
teen age</w>
born e</w>
illustr ates</w>
illustr ated</w>
demonstr ators</w>
smartphone- using</w>
Enter prise</w>
Enter prisers</w>
29- June</w>
accomplish ed</w>
exhaus ted</w>
guaran tees</w>
14 4,000</w>
14 -country</w>
6, 8
90 7</w>
Att entive</w>
Cap ital</w>
Cap riles</w>
Cell phone</w>
Cell -W
Dru ze</w>
Eff orts</w>
Ga .</w>
Lan ka</w>
My Spoce</w>
N= 4</w>
Sing apore</w>
Ste ady</w>
Ste adfast</w>
Tak es</w>
brow sers</w>
leng thy</w>
nic ism</w>
swe eps</w>
swe pt</w>
repe al</w>
repe at</w>
ecos ystems</w>
adequ ately</w>
compris es</w>
compris ed</w>
exer ting</w>
dedic ate</w>
appoint ment</w>
wed dings</w>
electr ic</w>
third- generation</w>
Anti -incum
of- center</w>
approach ing</w>
there of</w>
there after</w>
Environ mental</w>
administr ative</w>
Exc essive</w>
listen ers</w>
experim ental</w>
experim enting</w>
Libr aries</w>
mascul inity</w>
Priv acy</w>
Panaman ians</w>
Panaman ian-origin</w>
Spli t-ticket</w>
D.C .-area</w>
Natur a</w>
ventilat or</w>
13 -point</w>
36 -point</w>
36 9,90
45 th</w>
Air lines</w>
Air bn
Domin ates</w>
Hu go</w>
Hand le</w>
Land line</w>
ME D
ME XIC
Nar endra</w>
Nomin ation</w>
Nomin ated</w>
PR D</w>
Tre at</w>
air strikes</w>
bot tles</w>
fron ts</w>
fron t-
fron trun
magaz ine</w>
pes o</w>
pes os</w>
pes ticides</w>
rum or-
search ing</w>
search able</w>
your self
than ks</w>
that are</w>
enem ies</w>
reb ound</w>
escap e</w>
escal ated</w>
escal ating</w>
emin ent</w>
lef t-leaning</w>
conven es</w>
extr a</w>
extr act</w>
extr amarital</w>
rival ed</w>
presum ably</w>
government to</w>
government -run</w>
confron ting</w>
declar ation</w>
all- news</w>
sched ule</w>
rich -poor</w>
embr yonic</w>
attenti ve</w>
patrio tism</w>
Republican- led</w>
Republican- controlled</w>
categor ized</w>
capac ities</w>
Orig ins</w>
prosper ous</w>
intensi fied</w>
intensi fying</w>
intensi fies</w>
denomin ation</w>
Salvador an</w>
better job</w>
Linked in</w>
Industr ies</w>
family- leave</w>
presidential nominee</w>
,5 26</w>
13, 600</w>
2,00 2</w>
Ci vilians</w>
Del aware</w>
FA VOR
Hol lywood</w>
Lesbi ans</w>
Skep tical</w>
Ver mont</w>
destin ations</w>
eu tical</w>
foot print</w>
foot prints</w>
ho a
hor rific</w>
hot els</w>
sle ep</w>
vac ation</w>
vac ancy</w>
argum ent</w>
argum ents</w>
lifest yle</w>
roc k</w>
resid ed</w>
resid ency</w>
Thr oughout</w>
exhib it</w>
exhib ited</w>
log y</w>
fail ures</w>
Invol ved</w>
five -in-ten</w>
five -year</w>
quarter- to-quarter</w>
borrow ing</w>
borrow ers</w>
fact- based</w>
fact- checkers</w>
critic ize</w>
embrac ing</w>
activis m</w>
activis ts</w>
Sym pathetic</w>
Sym bols</w>
Impro ved</w>
Gen- X</w>
controversi es</w>
Post -</w>
host age</w>
distingu ished</w>
Motiv ation</w>
Atten dance</w>
narrow ed</w>
narrow ly</w>
targe ting</w>
practition ers</w>
4,7 08</w>
implem enting</w>
mirr ored</w>
uneth ically</w>
Broad band</w>
nutr ition</w>
electron ic</w>
electron ics</w>
Well- Being</w>
introduc ed</w>
introduc tion</w>
absolut e</w>
remark able</w>
-0. 3</w>
31 -Sept.</w>
AB OU
AB LE</w>
Brea kdown</w>
Cri tical</w>
Mat ter</w>
Midd le-
Nec essary</w>
Pur chased</w>
Ri vals</w>
SD F</w>
Sw at</w>
Sw iss</w>
Willi am</w>
Willi ams</w>
Zim babwe</w>
Zim merman</w>
eigh th</w>
hob by</w>
hob bies</w>
lot /Some</w>
mul atto</w>
sl ated</w>
tour nament</w>
usa tions</w>
usa bility</w>
wal ks</w>
argu ed</w>
abo ard</w>
truc ks</w>
diversi fied</w>
ultim ate</w>
quad ru
grav itate</w>
prec eded</w>
interven e</w>
interven ing</w>
elector ates</w>
highest- earning</w>
Anal ysis</w>
Anal yzing</w>
Contin ue</w>
Contin uing</w>
laz y</w>
laz ier</w>
outstri ps</w>
outstri pped</w>
flagge d-in
flagge d-active</w>
equi valent</w>
news maker</w>
school- sponsored</w>
Commit ments</w>
Commit tee</w>
Decis ion</w>
Decis ions</w>
Decreas e</w>
Decreas ed</w>
discour se</w>
discour aged</w>
uniform ly</w>
uniform ity</w>
Polar ized</w>
Polar ization</w>
York- area</w>
York- Newar
gun- control</w>
gun- owning</w>
echan ge</w>
book mobile</w>
Orthodox -majority</w>
2,2 70</w>
dimen sion</w>
dimen sions</w>
Fair ly</w>
Corpor ation</w>
Corpor ations</w>
Manch in-Toome
left- right</w>
left- of-center</w>
conveni ent</w>
conveni ence</w>
encompass ed</w>
innov ation</w>
innov ations</w>
accommo dation</w>
acquaint ance</w>
acquaint ances</w>
47 3,682</w>
414, 185</w>
76 ,020</w>
Bis exuals</w>
Cul tural</w>
Dra w</w>
Eight -in-Ten</w>
Gem any</w>
Hon olul
Hen rique</w>
Has san</w>
HBC U</w>
Lim its</w>
MO VIES</w>
OO O</w>
Plac es</w>
Tor ture</w>
Tro ops</w>
Top ics</w>
Vacc ine</w>
Vari ety</w>
Win ter</w>
dar ker</w>
dynam ic</w>
eight -to-one</w>
jour ney</w>
moun ted</w>
merg ed</w>
nur ses</w>
san guine</w>
sim ple</w>
smo king</w>
ton gues</w>
intr ude</w>
instruc tional</w>
ary- March</w>
repa iring</w>
revol ution</w>
remot ely</w>
they favor</w>
es- Long</w>
pub li</w>
witn essed</w>
very/ somewhat</w>
never -married</w>
parent who</w>
pod casts</w>
ex- romantic</w>
unfol ds</w>
seas onal</w>
overshad ow</w>
per- capita</w>
appre ci
appoin tee</w>
recru itment</w>
rainb ow</w>
geta head</w>
Chi leans</w>
Chec k</w>
Chall enge</w>
interro gation</w>
margin —49</w>
Initi ative</w>
plagu ed</w>
differen traces</w>
confer red</w>
higher- generation</w>
Conn .</w>
discrimin ated</w>
offam ily-</w>
colum ns</w>
racial /ethnic</w>
datas et</w>
legal status</w>
Partic ularly</w>
and- a-half</w>
assimil ate</w>
similar —
criti que</w>
disapp ear
Viol ent</w>
Mexican- American</w>
mosquit oes</w>
newsc asts</w>
secular ism</w>
refugees. rom</w>
advoc acy</w>
Alban ia</w>
Alger ian</w>
boom ed</w>
boos ts</w>
Enthusias m</w>
Comb ined</w>
Compu ters</w>
cred its</w>
manipu late</w>
Two -in-ten</w>
Descri bing</w>
purpos eful</w>
separati sts</w>
Recei ve</w>
Accep ting</w>
lear- armed</w>
center- right</w>
cohes ion</w>
transf er</w>
suspic ion</w>
February :
Seventh- day</w>
far- right</w>
pre-emin ence</w>
Strateg y</w>
fast- food</w>
Snow den</w>
2,3 15</w>
habit ats</w>
Adventi sts</w>
suffici ently</w>
climat echange</w>
acquis itions</w>
Extremis ts</w>
Foreign- Born</w>
guarante eing</w>
Effec tive</w>
Portu gal</w>
satelli te</w>
Treat ment</w>
jurisdic tion</w>
Euroskep tic</w>
urban- rural</w>
Bilingu alism</w>
Autom ated</w>
batter ies</w>
psych ological</w>
illegal- drugs</w>
'to ffer</w>
-To omey</w>
.8 22</w>
26 -March</w>
28. 2</w>
445 ,526</w>
55 -</w>
513, 252</w>
74,9 99</w>
84,9 95</w>
Ale x
Asyl um</w>
Bh utto</w>
Bag hdad</w>
Bhar atiya</w>
Cl assification</w>
Cro atia</w>
Cur iously</w>
Chap ter</w>
Counc il</w>
Dan es</w>
Dar ren</w>
Doc tors</w>
Dev out</w>
Dall as</w>
Edis on</w>
Every thing</w>
Evalu ations</w>
Fen no</w>
Fid esz</w>
Frac king</w>
Floo ds</w>
Full -Time</w>
Gran dparents</w>
Ho ly</w>
Hoo ver</w>
Hof stra</w>
Isa ac</w>
Irel and</w>
Ida ho</w>
JUN E</w>
Jama ica</w>
Ky rgy
Kö rber-Stiftung</w>
Kent ucky</w>
Kaz akhstan</w>
Key stone</w>
LP FM</w>
Leng th</w>
Moun tain</w>
Mur doch</w>
Nel son</w>
Never theless</w>
Pra yer</w>
Rul ing</w>
Right -wing</w>
Sr i</w>
Sab bath</w>
Sha fik</w>
Selm a</w>
SOU RCES</w>
Tig er</w>
Treas ury</w>
Teg na</w>
Targu s</w>
Uru gu
Valle y</w>
Wu han</w>
Wom an</w>
WES T</w>
Yan ukov
awar ded</w>
ball oting</w>
bru ises</w>
breach es</w>
best- known</w>
coo kies</w>
crac kdown</w>
d'et at</w>
fres h</w>
fili buster</w>
frow ned</w>
gri m</w>
genti lity</w>
jew elry</w>
jeal ous</w>
lag ging</w>
mechan ical</w>
nigh tly</w>
nuc lear-armed</w>
nav ig
nug gets</w>
ppro vers</w>
sw irling</w>
tas tes</w>
telec ommunic
wou ld/would</w>
wil dfires</w>
this isa</w>
thum bs</w>
anni versary</w>
inev itable</w>
insp iring</w>
arti ficial</w>
artis ts</w>
archi ves</w>
tigh ter</w>
ensu ing</w>
energe tic</w>
ouch ers</w>
outran ks</w>
regre t</w>
reques ts</w>
rewar ding</w>
rejec tion</w>
rehan ges</w>
lifel ong</w>
livest re
salar ies</w>
itud inal</w>
along side</w>
este em</w>
roff icers</w>
trimm ings</w>
emoti onally</w>
leav ers</w>
elabor ate</w>
Amend ment</w>
resign ed</w>
staf f</w>
AmericasBar ometer</w>
before hand</w>
beach es</w>
prohi bition</w>
prohib its</w>
Refer ral</w>
detec tors</w>
like- minded</w>
peer- to-peer</w>
surpl uses</w>
surpass ing</w>
worshi ppers</w>
world view</w>
overla p</w>
metro politan</w>
twenti es</w>
possib ilities</w>
Traff ic</w>
lowest- rated</w>
medium- sized</w>
precau tions</w>
Chrys ler</w>
Indoc hina</w>
Invest ment</w>
Restaur ant</w>
file- sharing</w>
pharmac eutical</w>
incub ation</w>
certific ate</w>
mobi le-
model ing</w>
scrap yards</w>
hegem ony</w>
offull -</w>
childr en
child- rearing</w>
Eurobar ometer</w>
race/ ethnicity</w>
fluctu ated</w>
Paragu ay</w>
corrid or</w>
Mail- in</w>
selfis hness</w>
autop sy</w>
tuber culosis</w>
still- struggling</w>
stewar dship</w>
inflation- adjusted</w>
monoli thic</w>
Clinton- Trump</w>
Souther ners</w>
secret aries</w>
financial situation</w>
symp toms</w>
syndic ated</w>
widely- used</w>
active- duty</w>
hierar chy</w>
Toky o</w>
misguid ed</w>
decision- making</w>
Allegi ance</w>
Endow ment</w>
human- made</w>
summer time</w>
end-of- life</w>
Diplom acy</w>
Commission er</w>
Behavi ors</w>
Polygam y</w>
standardi zed</w>
Tayl or</w>
Smithson ian</w>
mask- wearing</w>
Minnes ota</w>
Argentine- origin</w>
Census- defined</w>
Relation ships</w>
Department of</w>
long-awa ited</w>
deterior ated</w>
Freddi e</w>
extended- family</w>
earningsoff ull</w>
modified .foods</w>
Neutr a</w>
completely/ mostly</w>
Bernardin o</w>
Embar go</w>
NPR- affiliated</w>
Corny n</w>
Espaill at</w>
Pennsyl vania</w>
near-minimum- wage</w>
Schwarzeneg ger</w>
Cell-W INS</w>
Anti-incum bent</w>
369,90 6</w>
Airbn b</w>
MEXIC A</w>
frontrun ner</w>
rumor- spreading</w>
FAVOR ABLE</w>
ABOU T</w>
flagged-in active</w>
Manchin-Toome v</w>
Honolul u</w>
Kyrgy zstan</w>
Yanukov ych</w>
telecommunic ations</w>
