{"<unk>": 0, "!": 1, "#": 2, "$": 3, "%": 4, "&": 5, "'": 6, "(": 7, ")": 8, "+": 9, ",": 10, "-": 11, ".": 12, "/": 13, "0": 14, "1": 15, "2": 16, "3": 17, "4": 18, "5": 19, "6": 20, "7": 21, "8": 22, "9": 23, ":": 24, ";": 25, "=": 26, ">": 27, "?": 28, "@": 29, "A": 30, "B": 31, "C": 32, "D": 33, "E": 34, "F": 35, "G": 36, "H": 37, "I": 38, "J": 39, "K": 40, "L": 41, "M": 42, "N": 43, "O": 44, "P": 45, "Q": 46, "R": 47, "S": 48, "T": 49, "U": 50, "V": 51, "W": 52, "X": 53, "Y": 54, "Z": 55, "_": 56, "`": 57, "a": 58, "b": 59, "c": 60, "d": 61, "e": 62, "f": 63, "g": 64, "h": 65, "i": 66, "j": 67, "k": 68, "l": 69, "m": 70, "n": 71, "o": 72, "p": 73, "q": 74, "r": 75, "s": 76, "t": 77, "u": 78, "v": 79, "w": 80, "x": 81, "y": 82, "z": 83, "\u00a1": 84, "\u00a3": 85, "\u00a4": 86, "\u00a5": 87, "\u00a7": 88, "\u00a8": 89, "\u00a9": 90, "\u00ab": 91, "\u00ad": 92, "\u00b0": 93, "\u00b1": 94, "\u00b2": 95, "\u00b3": 96, "\u00b4": 97, "\u00b5": 98, "\u00b9": 99, "\u00bc": 100, "\u00c1": 101, "\u00c2": 102, "\u00c3": 103, "\u00c5": 104, "\u00c7": 105, "\u00ce": 106, "\u00d6": 107, "\u00e0": 108, "\u00e1": 109, "\u00e2": 110, "\u00e3": 111, "\u00e4": 112, "\u00e5": 113, "\u00e7": 114, "\u00e8": 115, "\u00e9": 116, "\u00ea": 117, "\u00eb": 118, "\u00ed": 119, "\u00f0": 120, "\u00f1": 121, "\u00f3": 122, "\u00f4": 123, "\u00f5": 124, "\u00f6": 125, "\u00f8": 126, "\u00f9": 127, "\u00fa": 128, "\u00fc": 129, "\u00fd": 130, "\u00fe": 131, "\u0103": 132, "\u0105": 133, "\u0107": 134, "\u0131": 135, "\u0141": 136, "\u0142": 137, "\u0144": 138, "\u014d": 139, "\u0151": 140, "\u0153": 141, "\u015b": 142, "\u015e": 143, "\u0160": 144, "\u016b": 145, "\u017b": 146, "\u017c": 147, "\u017d": 148, "\u017e": 149, "\u02dc": 150, "\u03bc": 151, "\u2010": 152, "\u2013": 153, "\u2014": 154, "\u2018": 155, "\u201a": 156, "\u2022": 157, "\u2082": 158, "\u20ac": 159, "\u2122": 160, "\u2265": 161, "\u2605": 162, "n</w>": 163, "e</w>": 164, "s</w>": 165, "B</w>": 166, "h</w>": 167, "7</w>": 168, "d</w>": 169, "r</w>": 170, "1</w>": 171, "o</w>": 172, "L</w>": 173, "l</w>": 174, "8</w>": 175, "g</w>": 176, "3</w>": 177, "y</w>": 178, "t</w>": 179, "f</w>": 180, "6</w>": 181, "M</w>": 182, "a</w>": 183, "x</w>": 184, "5</w>": 185, "0</w>": 186, "9</w>": 187, "p</w>": 188, "4</w>": 189, "2</w>": 190, "c</w>": 191, "m</w>": 192, "\u20ac</w>": 193, "@</w>": 194, "i</w>": 195, "k</w>": 196, "T</w>": 197, "V</w>": 198, ".</w>": 199, "w</w>": 200, "X</w>": 201, "Z</w>": 202, "I</w>": 203, "C</w>": 204, "S</w>": 205, "E</w>": 206, "F</w>": 207, "\u00a9</w>": 208, "b</w>": 209, "-</w>": 210, "u</w>": 211, "K</w>": 212, "P</w>": 213, "z</w>": 214, "A</w>": 215, "D</w>": 216, "G</w>": 217, "O</w>": 218, "?</w>": 219, "R</w>": 220, "+</w>": 221, "H</w>": 222, "\u00ab</w>": 223, "j</w>": 224, "\u00e1</w>": 225, "W</w>": 226, "J</w>": 227, "=</w>": 228, "N</w>": 229, "\u2605</w>": 230, ";</w>": 231, "U</w>": 232, "v</w>": 233, "q</w>": 234, "\u00f9</w>": 235, "\u00b0</w>": 236, "\u00e0</w>": 237, "\u00e5</w>": 238, "\u00fd</w>": 239, "\u00c2</w>": 240, "`</w>": 241, ")</w>": 242, "/</w>": 243, "\u00e4</w>": 244, "\u2022</w>": 245, "\u0131</w>": 246, ",</w>": 247, "\u00a1</w>": 248, "\u00e9</w>": 249, "\u00b2</w>": 250, "Y</w>": 251, "Q</w>": 252, "\u0142</w>": 253, "\u2013</w>": 254, "\u00f8</w>": 255, "!</w>": 256, "#</w>": 257, "_</w>": 258, "&</w>": 259, ":</w>": 260, "\u0107</w>": 261, "$</w>": 262, "\u00c3</w>": 263, "\u201a</w>": 264, "'</w>": 265, "\u2082</w>": 266, "\u00a4</w>": 267, "\u2018</w>": 268, "></w>": 269, "\u00b3</w>": 270, "\u00f6</w>": 271, "%</w>": 272, "(</w>": 273, "\u00b4</w>": 274, "\u00b9</w>": 275, "\u2014</w>": 276, "th": 277, "the</w>": 278, "20": 279, "ti": 280, "in</w>": 281, "er": 282, "of</w>": 283, "in": 284, "an": 285, "ro": 286, "en": 287, "ed</w>": 288, "201": 289, "ar": 290, "re": 291, "on</w>": 292, "ta": 293, "to</w>": 294, "on": 295, "er</w>": 296, "es</w>": 297, "or": 298, "it": 299, "ll": 300, "ou": 301, "and</w>": 302, "rom</w>": 303, "hi": 304, "from</w>": 305, "at": 306, "al": 307, "ing</w>": 308, "ent</w>": 309, "ea": 310, "ts</w>": 311, "ri": 312, "sti": 313, "as</w>": 314, "om": 315, "sta": 316, "per": 317, "ion</w>": 318, "2019</w>": 319, "ill": 320, "tion</w>": 321, "ur": 322, "st</w>": 323, "al</w>": 324, "stic</w>": 325, "st": 326, "ho": 327, "ec": 328, "by</w>": 329, "ic": 330, "do": 331, "illion</w>": 332, "um": 333, "stati": 334, "ac": 335, "statistic</w>": 336, "or</w>": 337, "el": 338, "his</w>": 339, "This</w>": 340, "202": 341, "perc": 342, "di": 343, "at</w>": 344, "ber</w>": 345, "pro": 346, "ag": 347, "pl": 348, "oun": 349, "ars</w>": 350, "percent</w>": 351, "an</w>": 352, "nit": 353, "U.": 354, "du": 355, "U.S": 356, "as": 357, "U.S.</w>": 358, "In</w>": 359, "em": 360, "am": 361, "sho": 362, "200": 363, "ted</w>": 364, "Unit": 365, "United</w>": 366, "Th": 367, "ws</w>": 368, "en</w>": 369, "vi": 370, "shows</w>": 371, "2020</w>": 372, "ation</w>": 373, "The</w>": 374, "ers</w>": 375, "2018</w>": 376, "ap": 377, "un": 378, "res": 379, "com": 380, "umber</w>": 381, "ul": 382, "li": 383, "doll": 384, "million</w>": 385, "de": 386, "dollars</w>": 387, "ver": 388, "po": 389, "was</w>": 390, "age</w>": 391, "tes</w>": 392, "wit": 393, "si": 394, "ere</w>": 395, "ce</w>": 396, "ue</w>": 397, "tr": 398, "ents</w>": 399, "with</w>": 400, "Sta": 401, "et</w>": 402, "us": 403, "con": 404, "are</w>": 405, "States</w>": 406, "th</w>": 407, "mo": 408, "is</w>": 409, "ons</w>": 410, "por": 411, "to": 412, "ati": 413, "for</w>": 414, "ly</w>": 415, "ear</w>": 416, "id": 417, "ha": 418, "ex": 419, "wor": 420, "et": 421, "duc": 422, "ate</w>": 423, "ding</w>": 424, "year</w>": 425, "fi": 426, "lo": 427, "that</w>": 428, "ld": 429, "im": 430, "tal</w>": 431, "ve": 432, "we": 433, "le</w>": 434, "number</w>": 435, "billion</w>": 436, "co": 437, "were</w>": 438, "es": 439, "ch</w>": 440, "ve</w>": 441, "ad": 442, "ing": 443, "ab": 444, "ru": 445, "coun": 446, "gro": 447, "'s</w>": 448, "produc": 449, "qu": 450, "comp": 451, "gh": 452, "ds</w>": 453, "mar": 454, "ran": 455, "ter": 456, "2017</w>": 457, "ol": 458, "pul": 459, "sur": 460, "per</w>": 461, "ment</w>": 462, "rate</w>": 463, "ity</w>": 464, "est</w>": 465, "se": 466, "oo": 467, "sh": 468, "ven": 469, "pri": 470, "popul": 471, "ch": 472, "ide</w>": 473, "the": 474, "ci": 475, "verage</w>": 476, "19": 477, "ated</w>": 478, "val": 479, "uro": 480, "ver</w>": 481, "ay": 482, "bi": 483, "total</w>": 484, "2015</w>": 485, "00": 486, "wide</w>": 487, "most</w>": 488, "ely</w>": 489, "ye": 490, "ai": 491, "bu": 492, "reas": 493, "ldwide</w>": 494, "sp": 495, "wh": 496, "2016</w>": 497, "worldwide</w>": 498, "out</w>": 499, "cor": 500, "inc": 501, "ales</w>": 502, "tri": 503, "In": 504, "amoun": 505, "ter</w>": 506, "dom</w>": 507, "King": 508, "Kingdom</w>": 509, "ss</w>": 510, "ine</w>": 511, "reg": 512, "ary</w>": 513, "reven": 514, "population</w>": 515, "resp": 516, "up</w>": 517, "ond": 518, "sec": 519, "se</w>": 520, "str": 521, "gen": 522, "any</w>": 523, "plo": 524, "value</w>": 525, "ket</w>": 526, "ng</w>": 527, "average</w>": 528, "ay</w>": 529, "had</w>": 530, "emplo": 531, "all</w>": 532, "ld</w>": 533, "onal</w>": 534, "19</w>": 535, "Number</w>": 536, "UK</w>": 537, "su": 538, "2014</w>": 539, "pres": 540, "appro": 541, "xim": 542, "ately</w>": 543, "ge</w>": 544, "surve": 545, "rec": 546, "sales</w>": 547, "ore</w>": 548, "uring</w>": 549, "ximately</w>": 550, "share</w>": 551, "ron": 552, "over</w>": 553, "pe": 554, "revenue</w>": 555, ",00": 556, "approximately</w>": 557, "tim": 558, "fo": 559, "GD": 560, "GDP</w>": 561, "ani": 562, "ow": 563, "lea": 564, "ar</w>": 565, "ween</w>": 566, "me": 567, "ple</w>": 568, "gr": 569, "be": 570, "mer": 571, "respond": 572, "survey</w>": 573, "about</w>": 574, "sum": 575, "etween</w>": 576, "amounted</w>": 577, "respondents</w>": 578, "exp": 579, "pre": 580, "sc": 581, "try</w>": 582, "ne": 583, "increas": 584, "il": 585, "ember</w>": 586, "thou": 587, "2012</w>": 588, "country</w>": 589, "years</w>": 590, "vic": 591, "ome": 592, "der</w>": 593, "for": 594, "ure</w>": 595, "2010</w>": 596, "2009</w>": 597, "dis": 598, "market</w>": 599, "peri": 600, "elec": 601, "net</w>": 602, "ic</w>": 603, "anu": 604, "play": 605, "quar": 606, "2013</w>": 607, "all": 608, "between</w>": 609, "hou": 610, "whi": 611, "1.": 612, ",000</w>": 613, "it</w>": 614, "rus</w>": 615, "ast</w>": 616, "Can": 617, "par": 618, "res</w>": 619, "stri": 620, "inter": 621, "thous": 622, "ople</w>": 623, "ser": 624, "und</w>": 625, "high": 626, "tions</w>": 627, "virus</w>": 628, "omestic</w>": 629, "il</w>": 630, "people</w>": 631, "one</w>": 632, "product</w>": 633, "od</w>": 634, "consum": 635, "uros</w>": 636, "gi": 637, "thousand</w>": 638, "ma": 639, "nu": 640, "ir</w>": 641, "CO": 642, "euros</w>": 643, "mon": 644, "ff": 645, "rona": 646, "ational</w>": 647, "ous</w>": 648, "ronavirus</w>": 649, "aro": 650, "2008</w>": 651, "ID": 652, "-19</w>": 653, "so": 654, "COV": 655, "COVID": 656, "ths</w>": 657, "employ": 658, "cial</w>": 659, "COVID-19</w>": 660, "domestic</w>": 661, "period</w>": 662, "their</w>": 663, "coronavirus</w>": 664, "around</w>": 665, "pe</w>": 666, "quarter</w>": 667, "king</w>": 668, "compar": 669, "indu": 670, "ub": 671, "cording</w>": 672, "Mar": 673, "end": 674, "tor</w>": 675, "this</w>": 676, "ting</w>": 677, "pic": 678, "line</w>": 679, "lob": 680, "chi": 681, "ates</w>": 682, "2.": 683, "bution</w>": 684, "than</w>": 685, "time</w>": 686, "land</w>": 687, "sh</w>": 688, "no": 689, "stry</w>": 690, "presents</w>": 691, "Euro": 692, "fir": 693, "who</w>": 694, "they</w>": 695, "gross</w>": 696, "le": 697, "gu": 698, "ep": 699, "ra": 700, "199": 701, "ties</w>": 702, "ant</w>": 703, "dec": 704, "ess</w>": 705, "ome</w>": 706, "industry</w>": 707, "lu": 708, "son</w>": 709, "als</w>": 710, "servic": 711, "highest</w>": 712, "ong</w>": 713, "ported</w>": 714, "ked</w>": 715, "Amer": 716, "ance</w>": 717, "Americ": 718, "eb": 719, "ans</w>": 720, "dia</w>": 721, "ther</w>": 722, "lobal</w>": 723, "depic": 724, "depicts</w>": 725, "arg": 726, "Bri": 727, "dic": 728, "previ": 729, "our": 730, "users</w>": 731, "2000</w>": 732, "previous</w>": 733, "ada</w>": 734, "tra": 735, "tries</w>": 736, "te</w>": 737, "dian</w>": 738, "ks</w>": 739, "has</w>": 740, "gener": 741, "nual</w>": 742, "3.": 743, "2011</w>": 744, "stribution</w>": 745, "cap": 746, "tu": 747, "ses</w>": 748, "enta": 749, "Ne": 750, "compared</w>": 751, "more</w>": 752, "Ch": 753, "countries</w>": 754, "Canada</w>": 755, "Janu": 756, "ame</w>": 757, "January</w>": 758, "ports</w>": 759, "port</w>": 760, "As</w>": 761, "bas": 762, "fac": 763, "cas": 764, "March</w>": 765, "Ac": 766, "have</w>": 767, "reta": 768, "ty": 769, "tic": 770, "and": 771, "esti": 772, "ir": 773, "ph": 774, "grow": 775, "sector</w>": 776, "ces</w>": 777, "reac": 778, "ia</w>": 779, "pea": 780, "op": 781, "entage</w>": 782, "be</w>": 783, "global</w>": 784, "ants</w>": 785, "there</w>": 786, "among</w>": 787, "foo": 788, "2025</w>": 789, "ected</w>": 790, "its</w>": 791, "fin": 792, "employment</w>": 793, "company</w>": 794, "online</w>": 795, "4.": 796, "form": 797, "During</w>": 798, "ors</w>": 799, "display": 800, "To": 801, "ions</w>": 802, "come</w>": 803, "vel</w>": 804, "which</w>": 805, "seho": 806, "foll": 807, "ty</w>": 808, "ross</w>": 809, "region</w>": 810, "cl": 811, "displays</w>": 812, "ear": 813, "ally</w>": 814, "Ita": 815, "price</w>": 816, "chan": 817, "sia</w>": 818, "ered</w>": 819, "rea": 820, "rou": 821, "erm": 822, "1,000</w>": 823, "vol": 824, "yo": 825, "over": 826, "follow": 827, "ke": 828, "leading</w>": 829, "grap": 830, "argest</w>": 831, "househo": 832, "income</w>": 833, "dow": 834, "5.": 835, "is": 836, "national</w>": 837, "ale</w>": 838, "According</w>": 839, "bile</w>": 840, "ded</w>": 841, "adu": 842, "met": 843, "ved</w>": 844, "tive</w>": 845, "used</w>": 846, "estim": 847, "dea": 848, "ght</w>": 849, "out": 850, "first</w>": 851, "eng": 852, "eal": 853, "6.": 854, "bir": 855, "largest</w>": 856, "wom": 857, "growth</w>": 858, "Lea": 859, "ps</w>": 860, "internet</w>": 861, "Germ": 862, "10": 863, "annual</w>": 864, "ations</w>": 865, "you</w>": 866, "shi": 867, "during</w>": 868, "inf": 869, "dex</w>": 870, "increased</w>": 871, "ume</w>": 872, "gh</w>": 873, "ies</w>": 874, "acc": 875, "Nor": 876, "reported</w>": 877, "20</w>": 878, "old</w>": 879, "tw": 880, "tish</w>": 881, "increase</w>": 882, "gender</w>": 883, "ond</w>": 884, "proj": 885, "mobile</w>": 886, "Au": 887, "outh</w>": 888, "ubli": 889, "onom": 890, "type</w>": 891, "ans": 892, "British</w>": 893, "ption</w>": 894, "production</w>": 895, "sea": 896, "services</w>": 897, "mill": 898, "our</w>": 899, "sit": 900, "oc": 901, "poun": 902, "7.": 903, "group</w>": 904, "retail</w>": 905, "cy</w>": 906, "ig": 907, "based</w>": 908, "aged</w>": 909, "ince</w>": 910, "Sh": 911, "50</w>": 912, "lity</w>": 913, "el</w>": 914, "eg": 915, "anies</w>": 916, "tur": 917, "econom": 918, "selec": 919, "ving</w>": 920, "state</w>": 921, "ranked</w>": 922, "vel": 923, "deaths</w>": 924, "gam": 925, "companies</w>": 926, "8.": 927, "um</w>": 928, "end</w>": 929, "use</w>": 930, "volume</w>": 931, "endit": 932, "graph</w>": 933, "ass": 934, "rel": 935, "ree</w>": 936, "tons</w>": 937, "employe": 938, "ris": 939, "ade</w>": 940, "cases</w>": 941, "ni": 942, "ending</w>": 943, "ther": 944, "une</w>": 945, "pounds</w>": 946, "millions</w>": 947, "expendit": 948, "fisc": 949, "reach": 950, "ei": 951, "social</w>": 952, "fiscal</w>": 953, "second</w>": 954, "day</w>": 955, "adul": 956, "aid</w>": 957, "fe": 958, "ata</w>": 959, "ess": 960, "Dec": 961, "der": 962, "bo": 963, "Fran": 964, "June</w>": 965, "ating</w>": 966, "ng": 967, "women</w>": 968, "estimated</w>": 969, "Mo": 970, "au": 971, "December</w>": 972, "ory</w>": 973, "Share</w>": 974, "down</w>": 975, "forec": 976, "heal": 977, "ould</w>": 978, "enti": 979, "able</w>": 980, "ov": 981, "Germany</w>": 982, "regi": 983, "employees</w>": 984, "ence</w>": 985, "resul": 986, "Average</w>": 987, "distribution</w>": 988, "de</w>": 989, "Europea": 990, "European</w>": 991, "Italy</w>": 992, "lan": 993, "decreas": 994, "ments</w>": 995, "percentage</w>": 996, "ric</w>": 997, "data</w>": 998, "season</w>": 999, "France</w>": 1000, "hab": 1001, "0.": 1002, "emic</w>": 1003, "wee": 1004, "ublic</w>": 1005, "while</w>": 1006, "tly</w>": 1007, "stated</w>": 1008, "til</w>": 1009, "generated</w>": 1010, "ric": 1011, "2006</w>": 1012, "ound</w>": 1013, "expenditure</w>": 1014, "cu": 1015, "India</w>": 1016, "metric</w>": 1017, "off": 1018, "Total</w>": 1019, "sted</w>": 1020, "ju": 1021, "until</w>": 1022, "divi": 1023, "goo": 1024, "products</w>": 1025, "home</w>": 1026, "Chin": 1027, "trans": 1028, "Di": 1029, "ings</w>": 1030, "cur": 1031, "index</w>": 1032, "ita</w>": 1033, "child": 1034, "capita</w>": 1035, "equ": 1036, "wat": 1037, "br": 1038, "wi": 1039, "selected</w>": 1040, "lds</w>": 1041, "accoun": 1042, "world</w>": 1043, "ud": 1044, "pp": 1045, "ture</w>": 1046, "Nov": 1047, "oper": 1048, "popular</w>": 1049, "mea": 1050, "projec": 1051, "It</w>": 1052, "ice</w>": 1053, "fe</w>": 1054, "sto": 1055, "198": 1056, "Europe</w>": 1057, "economic</w>": 1058, "adults</w>": 1059, "Fac": 1060, "ned</w>": 1061, "Oc": 1062, "habit": 1063, "port": 1064, "tou": 1065, "anufac": 1066, "inhabit": 1067, "2007</w>": 1068, "min": 1069, "curr": 1070, "av": 1071, "been</w>": 1072, "inhabitants</w>": 1073, "Ho": 1074, "manufac": 1075, "sour": 1076, "ain</w>": 1077, "ren</w>": 1078, "/1": 1079, "Sp": 1080, "food</w>": 1081, "when</w>": 1082, "2021</w>": 1083, "car": 1084, "unemployment</w>": 1085, "ten</w>": 1086, "other</w>": 1087, "9.": 1088, "ene": 1089, "consumption</w>": 1090, "November</w>": 1091, "Octo": 1092, "30</w>": 1093, "brea": 1094, "unit": 1095, "October</w>": 1096, "stered</w>": 1097, "Per": 1098, "gy</w>": 1099, "am</w>": 1100, "fer": 1101, "formation</w>": 1102, "hal": 1103, "sub": 1104, "ari": 1105, "fran": 1106, "due</w>": 1107, "e-": 1108, "children</w>": 1109, "Un": 1110, "ball</w>": 1111, "registered</w>": 1112, "goods</w>": 1113, "very</w>": 1114, "finan": 1115, "comm": 1116, "pril</w>": 1117, "ept": 1118, "April</w>": 1119, "information</w>": 1120, "maj": 1121, "stores</w>": 1122, "sing</w>": 1123, "ble</w>": 1124, "pass": 1125, "ves</w>": 1126, "ook</w>": 1127, "Sept": 1128, "ke</w>": 1129, "September</w>": 1130, "ese</w>": 1131, "andemic</w>": 1132, "China</w>": 1133, "half</w>": 1134, "rough": 1135, "Gre": 1136, "Re": 1137, "Cana": 1138, "forecast</w>": 1139, "Jul": 1140, "pandemic</w>": 1141, "franchi": 1142, "health</w>": 1143, "lands</w>": 1144, "Af": 1145, "00</w>": 1146, "spending</w>": 1147, "Feb": 1148, "not</w>": 1149, "att": 1150, "consi": 1151, "July</w>": 1152, "Febru": 1153, "February</w>": 1154, "fu": 1155, "8/": 1156, "almost</w>": 1157, "households</w>": 1158, "GB": 1159, "travel</w>": 1160, "across</w>": 1161, "gures</w>": 1162, "Rus": 1163, "fic": 1164, "franchise</w>": 1165, "South</w>": 1166, "indic": 1167, "arly</w>": 1168, "mi": 1169, "sold</w>": 1170, "brand</w>": 1171, "gue</w>": 1172, "ban": 1173, "found</w>": 1174, "Swe": 1175, "ms</w>": 1176, "12</w>": 1177, "top</w>": 1178, "financial</w>": 1179, "bus": 1180, "American</w>": 1181, "May</w>": 1182, "thly</w>": 1183, "inve": 1184, "seg": 1185, "enter": 1186, "cer": 1187, "ad</w>": 1188, "urch": 1189, "ustr": 1190, "units</w>": 1191, "Gro": 1192, "illustr": 1193, "media</w>": 1194, "Nether": 1195, "Netherlands</w>": 1196, "same</w>": 1197, "urchas": 1198, "bran": 1199, "import": 1200, "illustrates</w>": 1201, "stud": 1202, "overn": 1203, "birth</w>": 1204, "2005</w>": 1205, "games</w>": 1206, "produced</w>": 1207, "amount</w>": 1208, "GBP</w>": 1209, "cat": 1210, "on-": 1211, "15</w>": 1212, "sed</w>": 1213, "els</w>": 1214, "projections</w>": 1215, "ect": 1216, "since</w>": 1217, "Canadian</w>": 1218, "gre": 1219, "according</w>": 1220, "vo": 1221, "results</w>": 1222, "reached</w>": 1223, "change</w>": 1224, "some</w>": 1225, "te": 1226, "ze</w>": 1227, "insur": 1228, "2018/": 1229, "recor": 1230, "busin": 1231, "care</w>": 1232, "ob": 1233, "Con": 1234, "ca": 1235, "real</w>": 1236, "dividu": 1237, "An": 1238, "Distribution</w>": 1239, "Gross</w>": 1240, "eli": 1241, "inclu": 1242, "tors</w>": 1243, "ined</w>": 1244, "cri": 1245, "America</w>": 1246, "followed</w>": 1247, "ali": 1248, "National</w>": 1249, "tea": 1250, "vie": 1251, "fem": 1252, "pers": 1253, "individu": 1254, "so</w>": 1255, "two</w>": 1256, "sts</w>": 1257, "touris": 1258, "tain</w>": 1259, "18</w>": 1260, "ill</w>": 1261, "with": 1262, "bro": 1263, "consumers</w>": 1264, "fic</w>": 1265, "passeng": 1266, "Eng": 1267, "af": 1268, "segment</w>": 1269, "Al": 1270, "men</w>": 1271, "Augu": 1272, "1,": 1273, "service</w>": 1274, "August</w>": 1275, "thir": 1276, "cip": 1277, "important</w>": 1278, "categ": 1279, "Ar": 1280, "den</w>": 1281, "25</w>": 1282, "cars</w>": 1283, "govern": 1284, "Pro": 1285, "scri": 1286, "ship</w>": 1287, "prices</w>": 1288, "new</w>": 1289, "are": 1290, "would</w>": 1291, "only</w>": 1292, "League</w>": 1293, "wer</w>": 1294, "Bra": 1295, "ebook</w>": 1296, "ace</w>": 1297, "bers</w>": 1298, "purchas": 1299, "life</w>": 1300, "exic": 1301, "Mexic": 1302, "air": 1303, "New</w>": 1304, "devel": 1305, "expected</w>": 1306, "les</w>": 1307, "eas</w>": 1308, "sion</w>": 1309, "Leading</w>": 1310, "household</w>": 1311, "source</w>": 1312, "ici": 1313, "active</w>": 1314, "Bel": 1315, "ast": 1316, "sup": 1317, "10</w>": 1318, "ines</w>": 1319, "scor": 1320, "way</w>": 1321, "Facebook</w>": 1322, "city</w>": 1323, "ki": 1324, "Braz": 1325, "contri": 1326, "North</w>": 1327, "do</w>": 1328, "ning</w>": 1329, "ues</w>": 1330, "mu": 1331, "mor": 1332, "ancy</w>": 1333, "stru": 1334, "loc": 1335, "zation</w>": 1336, "break</w>": 1337, "2018/19</w>": 1338, "invest": 1339, "individuals</w>": 1340, "public</w>": 1341, "brands</w>": 1342, "Perc": 1343, "acti": 1344, "employed</w>": 1345, "0s</w>": 1346, "Co": 1347, "will</w>": 1348, "commer": 1349, "tball</w>": 1350, "ite</w>": 1351, "three</w>": 1352, "spent</w>": 1353, "outbreak</w>": 1354, "ders</w>": 1355, "said</w>": 1356, "ven</w>": 1357, "ement</w>": 1358, "deb": 1359, "struc": 1360, "provi": 1361, "enterpri": 1362, "18": 1363, "sor": 1364, "under</w>": 1365, "recei": 1366, "government</w>": 1367, "poin": 1368, "median</w>": 1369, "month</w>": 1370, "ative</w>": 1371, "third</w>": 1372, "ener": 1373, "births</w>": 1374, "Pol": 1375, "ticip": 1376, "part": 1377, "Sweden</w>": 1378, "Wh": 1379, "1999</w>": 1380, "England</w>": 1381, "24</w>": 1382, "ken</w>": 1383, "tho": 1384, "work</w>": 1385, "Most</w>": 1386, "des</w>": 1387, "represents</w>": 1388, "ays</w>": 1389, "monthly</w>": 1390, "area</w>": 1391, "last</w>": 1392, "sig": 1393, "Spain</w>": 1394, "9/": 1395, "clo": 1396, "war": 1397, "phone</w>": 1398, "lian</w>": 1399, "ell</w>": 1400, "smar": 1401, "tec": 1402, "develop": 1403, "spi": 1404, "consumer</w>": 1405, "Percentage</w>": 1406, "urb": 1407, "net": 1408, "plat": 1409, "scho": 1410, "Group</w>": 1411, "pac": 1412, "oil</w>": 1413, "Afric": 1414, "100": 1415, "resid": 1416, "devic": 1417, "vehi": 1418, "mac": 1419, "Belgi": 1420, "particip": 1421, "Li": 1422, "mil": 1423, "tourism</w>": 1424, "fur": 1425, "five</w>": 1426, "Britain</w>": 1427, "cha": 1428, "within</w>": 1429, "tality</w>": 1430, "1,00": 1431, "get</w>": 1432, "tical</w>": 1433, "accounted</w>": 1434, "vate</w>": 1435, "tility</w>": 1436, "insurance</w>": 1437, "ical</w>": 1438, "vide": 1439, "100</w>": 1440, "turn": 1441, "2001</w>": 1442, "posi": 1443, "spec": 1444, "hea": 1445, "ren": 1446, "aily</w>": 1447, "lation</w>": 1448, "ease</w>": 1449, "ins</w>": 1450, "Great</w>": 1451, "60</w>": 1452, "TV</w>": 1453, "exports</w>": 1454, "ranking</w>": 1455, "rough</w>": 1456, "subscri": 1457, "roughly</w>": 1458, "recorded</w>": 1459, "can": 1460, "2019/": 1461, "1,000s</w>": 1462, "don": 1463, "Po": 1464, "category</w>": 1465, "enterprises</w>": 1466, "tal": 1467, "also</w>": 1468, "la": 1469, "ood</w>": 1470, "Bo": 1471, "ami": 1472, "fre": 1473, "international</w>": 1474, "sy": 1475, "us</w>": 1476, "figures</w>": 1477, "business</w>": 1478, "ore": 1479, "revenues</w>": 1480, "female</w>": 1481, "os</w>": 1482, "students</w>": 1483, "hospi": 1484, "conduc": 1485, "hour": 1486, "Russia</w>": 1487, "debt</w>": 1488, "valu": 1489, "ages</w>": 1490, "size</w>": 1491, "ential</w>": 1492, "Wor": 1493, "west</w>": 1494, "dro": 1495, "rin": 1496, "current</w>": 1497, "Mexico</w>": 1498, "den": 1499, "ol</w>": 1500, "electri": 1501, "Com": 1502, "Me": 1503, "conducted</w>": 1504, "expect": 1505, "expectancy</w>": 1506, "16</w>": 1507, "Ap": 1508, "key</w>": 1509, "-time</w>": 1510, "using</w>": 1511, "cost</w>": 1512, "14</w>": 1513, "live</w>": 1514, "ail": 1515, "Poland</w>": 1516, "Union</w>": 1517, "nearly</w>": 1518, "less</w>": 1519, "pay": 1520, "through</w>": 1521, "Brazil</w>": 1522, "cles</w>": 1523, "pping</w>": 1524, "Fin": 1525, "can</w>": 1526, "past</w>": 1527, "ft</w>": 1528, "decrease</w>": 1529, "Mal": 1530, "daily</w>": 1531, "org": 1532, "llion</w>": 1533, "visit": 1534, "40</w>": 1535, "week</w>": 1536, "Belgium</w>": 1537, "months</w>": 1538, "100,000</w>": 1539, "28</w>": 1540, "Par": 1541, "who": 1542, "hot": 1543, "gram</w>": 1544, "expen": 1545, "kers</w>": 1546, "ency</w>": 1547, "measur": 1548, "living</w>": 1549, "1990</w>": 1550, "ular</w>": 1551, "private</w>": 1552, "1st</w>": 1553, "man": 1554, "ga": 1555, "app</w>": 1556, "sian</w>": 1557, "smart": 1558, "sal": 1559, "ural</w>": 1560, "players</w>": 1561, "29</w>": 1562, "Jap": 1563, "eline</w>": 1564, "dem": 1565, "trillion</w>": 1566, "fa": 1567, "ania</w>": 1568, "form</w>": 1569, "decreased</w>": 1570, "''</w>": 1571, "ge": 1572, "vely</w>": 1573, "level</w>": 1574, "17</w>": 1575, "mortality</w>": 1576, "``</w>": 1577, "go": 1578, "ters</w>": 1579, "operating</w>": 1580, "turnover</w>": 1581, "2,": 1582, "each</w>": 1583, "tration</w>": 1584, "following</w>": 1585, "ack</w>": 1586, "video</w>": 1587, "For</w>": 1588, "hel": 1589, "sorted</w>": 1590, "attend": 1591, "made</w>": 1592, "rati": 1593, "ator</w>": 1594, "35</w>": 1595, "non-": 1596, "eth": 1597, "bud": 1598, "lowest</w>": 1599, "Den": 1600, "fami": 1601, "har": 1602, "major</w>": 1603, "hours</w>": 1604, "reach</w>": 1605, "fun": 1606, "gas</w>": 1607, "65</w>": 1608, "cc": 1609, "via</w>": 1610, "imports</w>": 1611, "ced</w>": 1612, "Kore": 1613, "ently</w>": 1614, "resta": 1615, "trade</w>": 1616, "fig": 1617, "Inter": 1618, "2004</w>": 1619, "direc": 1620, "timeline</w>": 1621, "visi": 1622, "Sing": 1623, "Annual</w>": 1624, "figure</w>": 1625, "FY</w>": 1626, "ger</w>": 1627, "related</w>": 1628, "11</w>": 1629, "Lati": 1630, "cy": 1631, "cen": 1632, "four</w>": 1633, "/0": 1634, "old": 1635, "uni": 1636, "development</w>": 1637, "car</w>": 1638, "retail": 1639, "just</w>": 1640, "high</w>": 1641, "sets</w>": 1642, "restaur": 1643, "ffic</w>": 1644, "marke": 1645, "31</w>": 1646, "tac": 1647, "tali": 1648, "passenger</w>": 1649, "cru": 1650, "sli": 1651, "2002</w>": 1652, "lic": 1653, "stom": 1654, "team</w>": 1655, "21</w>": 1656, "fore</w>": 1657, "respon": 1658, "energy</w>": 1659, "attendance</w>": 1660, "ce": 1661, "fertility</w>": 1662, "27</w>": 1663, "Val": 1664, "apps</w>": 1665, "enetration</w>": 1666, "45</w>": 1667, "into</w>": 1668, "ticket</w>": 1669, "34</w>": 1670, "ta</w>": 1671, "poli": 1672, "presid": 1673, "those</w>": 1674, "signi": 1675, "ying</w>": 1676, "equi": 1677, "70</w>": 1678, "ffer": 1679, "sports</w>": 1680, "ams</w>": 1681, "2019/20</w>": 1682, "mark</w>": 1683, "Fi": 1684, "Singap": 1685, "bia</w>": 1686, "ey</w>": 1687, "ison</w>": 1688, "signific": 1689, "ners</w>": 1690, "main</w>": 1691, "traffic</w>": 1692, "med</w>": 1693, "export</w>": 1694, "anization</w>": 1695, "Col": 1696, "capi": 1697, "zed</w>": 1698, "assets</w>": 1699, "such</w>": 1700, "22</w>": 1701, "ten": 1702, "lled</w>": 1703, "speci": 1704, "Latin</w>": 1705, "Cor": 1706, "St": 1707, "les": 1708, "squ": 1709, "road</w>": 1710, "ecti": 1711, "verti": 1712, "kilo": 1713, "bor": 1714, "ll</w>": 1715, "penetration</w>": 1716, "ried</w>": 1717, "access": 1718, "reaching</w>": 1719, "paid</w>": 1720, "rates</w>": 1721, "suppl": 1722, "own</w>": 1723, "medic": 1724, "1985</w>": 1725, "Africa</w>": 1726, "Ma": 1727, "worth</w>": 1728, "How</w>": 1729, "Pri": 1730, "Italian</w>": 1731, "ber": 1732, "stitu": 1733, "higher</w>": 1734, "ton</w>": 1735, "comparison</w>": 1736, "Rep": 1737, "ak": 1738, "lit": 1739, "your</w>": 1740, "75</w>": 1741, "nic": 1742, "profi": 1743, "before</w>": 1744, "power</w>": 1745, "cont": 1746, "points</w>": 1747, "school</w>": 1748, "26</w>": 1749, "ority</w>": 1750, "movi": 1751, "coll": 1752, "cities</w>": 1753, "Chi": 1754, "On": 1755, "ups</w>": 1756, "urban</w>": 1757, "Singapore</w>": 1758, "hom": 1759, "of": 1760, "Reven": 1761, "budget</w>": 1762, "23</w>": 1763, "came</w>": 1764, "ories</w>": 1765, "World</w>": 1766, "ana</w>": 1767, "ath</w>": 1768, "least</w>": 1769, "custom": 1770, "after</w>": 1771, "cul": 1772, "me</w>": 1773, "ys": 1774, "lik": 1775, "being</w>": 1776, "male</w>": 1777, "experi": 1778, "inflation</w>": 1779, "13</w>": 1780, "bl": 1781, "square</w>": 1782, "pati": 1783, "Bas": 1784, "gital</w>": 1785, "football</w>": 1786, "Denmark</w>": 1787, "ain": 1788, "eu": 1789, "shopping</w>": 1790, "sions</w>": 1791, "educ": 1792, "sity</w>": 1793, "sic</w>": 1794, "adverti": 1795, "Ban": 1796, "recent</w>": 1797, "further</w>": 1798, "Whi": 1799, "gg": 1800, "bea": 1801, "sel": 1802, "Vi": 1803, "64</w>": 1804, "dered</w>": 1805, "logy</w>": 1806, "where</w>": 1807, "view": 1808, "amp": 1809, "Indon": 1810, "score</w>": 1811, "Indone": 1812, "Americans</w>": 1813, "measured</w>": 1814, "Mon": 1815, "nat": 1816, "smartphone</w>": 1817, "player</w>": 1818, "Finland</w>": 1819, "omin": 1820, "place</w>": 1821, "working</w>": 1822, "Revenue</w>": 1823, "dru": 1824, "hno": 1825, "mat": 1826, "stin": 1827, "differ": 1828, "impac": 1829, "broken</w>": 1830, "3,": 1831, "tin": 1832, "ass</w>": 1833, "cle</w>": 1834, "anic</w>": 1835, "tom": 1836, "Value</w>": 1837, "air</w>": 1838, "majority</w>": 1839, "ality</w>": 1840, "turing</w>": 1841, "stood</w>": 1842, "acity</w>": 1843, "wever</w>": 1844, "projected</w>": 1845, "44</w>": 1846, "tor": 1847, "indicator</w>": 1848, "ems</w>": 1849, "buted</w>": 1850, "Rom": 1851, "firmed</w>": 1852, "common</w>": 1853, "activi": 1854, "commerce</w>": 1855, "Malay": 1856, "That</w>": 1857, "thing</w>": 1858, "areas</w>": 1859, "Index</w>": 1860, "platform</w>": 1861, "relation</w>": 1862, "cre": 1863, "costs</w>": 1864, "groups</w>": 1865, "vehicles</w>": 1866, "ado": 1867, "opin": 1868, "EU</w>": 1869, "Hi": 1870, "times</w>": 1871, "youn": 1872, "Indian</w>": 1873, "down": 1874, "manufacturing</w>": 1875, "red</w>": 1876, "holi": 1877, "soci": 1878, "Norway</w>": 1879, "visit</w>": 1880, "yed</w>": 1881, "capacity</w>": 1882, "phys": 1883, "demand</w>": 1884, "activities</w>": 1885, "digital</w>": 1886, "confirmed</w>": 1887, "phar": 1888, "older</w>": 1889, "store</w>": 1890, "usage</w>": 1891, "advertising</w>": 1892, "clu": 1893, "est": 1894, "ery</w>": 1895, "but</w>": 1896, "men": 1897, "personal</w>": 1898, "game</w>": 1899, "held</w>": 1900, "55</w>": 1901, "Between</w>": 1902, "sk": 1903, "week": 1904, "frequ": 1905, "At</w>": 1906, "kdown</w>": 1907, "prov": 1908, "poration</w>": 1909, "office</w>": 1910, "investment</w>": 1911, "Korea</w>": 1912, "states</w>": 1913, "owned</w>": 1914, "nel</w>": 1915, "11.": 1916, "sectors</w>": 1917, "grew</w>": 1918, "positive</w>": 1919, "cho": 1920, "table</w>": 1921, "Popul": 1922, "stic": 1923, "Japan</w>": 1924, "2003</w>": 1925, "Produc": 1926, "Yor": 1927, "death</w>": 1928, "pu": 1929, "Indonesia</w>": 1930, "az": 1931, "gar": 1932, "page</w>": 1933, "likely</w>": 1934, "ket": 1935, "ual</w>": 1936, "ship": 1937, "fore": 1938, "techno": 1939, "sing": 1940, "regar": 1941, "music</w>": 1942, "pharmac": 1943, "Fren": 1944, "ner": 1945, "ste": 1946, "There</w>": 1947, "sites</w>": 1948, "crude</w>": 1949, "import</w>": 1950, "Austr": 1951, "proper": 1952, "chem": 1953, "Twit": 1954, "ner</w>": 1955, "rit": 1956, "lling</w>": 1957, "mod": 1958, "ly": 1959, "sive</w>": 1960, "10.": 1961, "vis": 1962, "overall</w>": 1963, "capital</w>": 1964, "patients</w>": 1965, "French</w>": 1966, "2050</w>": 1967, "including</w>": 1968, "32</w>": 1969, "read</w>": 1970, "Population</w>": 1971, "York</w>": 1972, "Ex": 1973, "received</w>": 1974, "ow</w>": 1975, "regular</w>": 1976, "elie": 1977, "tals</w>": 1978, "36</w>": 1979, "mem": 1980, "hist": 1981, "prof": 1982, "trac": 1983, "shar": 1984, "lin": 1985, "Over</w>": 1986, "bec": 1987, "did</w>": 1988, "Inf": 1989, "profit</w>": 1990, "On</w>": 1991, "belie": 1992, "omet": 1993, "appl": 1994, "num": 1995, "ys</w>": 1996, "unic": 1997, "concer": 1998, "sear": 1999, "web": 2000, "network</w>": 2001, "four": 2002, "kil": 2003, "election</w>": 2004, "access</w>": 2005, "contribution</w>": 2006, "struction</w>": 2007, "17": 2008, "cel": 2009, "ev": 2010, "sa": 2011, "tional</w>": 2012, "ereas</w>": 2013, "all-time</w>": 2014, "gradu": 2015, "Republic</w>": 2016, "kilomet": 2017, "fav": 2018, "sm": 2019, "orig": 2020, "qui": 2021, "shed</w>": 2022, "considered</w>": 2023, "device</w>": 2024, "46</w>": 2025, "drin": 2026, "flu": 2027, "visitors</w>": 2028, "opinion</w>": 2029, "days</w>": 2030, "tic</w>": 2031, "Consum": 2032, "nicity</w>": 2033, "Malaysia</w>": 2034, "tre": 2035, "stan</w>": 2036, "having</w>": 2037, "news</w>": 2038, "experien": 2039, "boo": 2040, "ones</w>": 2041, "attac": 2042, "six</w>": 2043, "1950</w>": 2044, "earch</w>": 2045, "49</w>": 2046, "alia</w>": 2047, "what</w>": 2048, "grams</w>": 2049, "dicated</w>": 2050, "followers</w>": 2051, "e-commerce</w>": 2052, "ethnicity</w>": 2053, "education</w>": 2054, "38</w>": 2055, "33</w>": 2056, "Asia</w>": 2057, "rac": 2058, "institu": 2059, "deral</w>": 2060, "natural</w>": 2061, "Goo": 2062, "sex": 2063, "dedicated</w>": 2064, "seen</w>": 2065, "Lond": 2066, "Por": 2067, "pes</w>": 2068, "win": 2069, "pers</w>": 2070, "essi": 2071, "youth</w>": 2072, "these</w>": 2073, "By</w>": 2074, "expenses</w>": 2075, "porting</w>": 2076, "electricity</w>": 2077, "medical</w>": 2078, "London</w>": 2079, "mul": 2080, "alco": 2081, "lived</w>": 2082, "quarter": 2083, "travel": 2084, "ash": 2085, "construction</w>": 2086, "impact</w>": 2087, "4,": 2088, "42</w>": 2089, "Global</w>": 2090, "Tur": 2091, "ctu": 2092, "every</w>": 2093, "led</w>": 2094, "many</w>": 2095, "sis</w>": 2096, "ext</w>": 2097, "compu": 2098, "leaders</w>": 2099, "money</w>": 2100, "wholes": 2101, "39</w>": 2102, "Sales</w>": 2103, "thin": 2104, "ances</w>": 2105, "Inc": 2106, "both</w>": 2107, "Ire": 2108, "ard</w>": 2109, "perform": 2110, "igran": 2111, "Ireland</w>": 2112, "Foo": 2113, "ens</w>": 2114, "health": 2115, "direct</w>": 2116, "bal": 2117, "ches</w>": 2118, "fourth</w>": 2119, "bar": 2120, "ury</w>": 2121, "pos": 2122, "added</w>": 2123, "whereas</w>": 2124, "ricul": 2125, "Pac": 2126, "ry</w>": 2127, "roughout</w>": 2128, "wards</w>": 2129, "retailers</w>": 2130, "2028</w>": 2131, "mari": 2132, "ratio</w>": 2133, "eutical</w>": 2134, "different</w>": 2135, "54</w>": 2136, "80</w>": 2137, "nings</w>": 2138, "star": 2139, "site</w>": 2140, "consider": 2141, "37</w>": 2142, "Of</w>": 2143, "kn": 2144, "dy</w>": 2145, "ptions</w>": 2146, "stea": 2147, "41</w>": 2148, "53</w>": 2149, "annu": 2150, "ong": 2151, "imm": 2152, "transport</w>": 2153, "ee</w>": 2154, "lar": 2155, "run": 2156, "well</w>": 2157, "fied</w>": 2158, "commercial</w>": 2159, "Corporation</w>": 2160, "Twitter</w>": 2161, "tain": 2162, "exported</w>": 2163, "presen": 2164, "ign</w>": 2165, "think</w>": 2166, "uro</w>": 2167, "2024</w>": 2168, "please</w>": 2169, "show": 2170, "woman</w>": 2171, "contributed</w>": 2172, "devices</w>": 2173, "Figures</w>": 2174, "Lu": 2175, "gal</w>": 2176, "sol": 2177, "plan": 2178, "ation": 2179, "investments</w>": 2180, "presidential</w>": 2181, "cot": 2182, "avail": 2183, "structure</w>": 2184, "technology</w>": 2185, "Gu": 2186, "asted</w>": 2187, "ut": 2188, "how</w>": 2189, "portion</w>": 2190, "pped</w>": 2191, "clothing</w>": 2192, "shipments</w>": 2193, "47</w>": 2194, "76</w>": 2195, "Do</w>": 2196, "Fo": 2197, "content</w>": 2198, "fluctu": 2199, "5,": 2200, "surveyed</w>": 2201, "house</w>": 2202, "bel": 2203, "nam": 2204, "agricul": 2205, "unit</w>": 2206, "63</w>": 2207, "Vol": 2208, "stre": 2209, "ics</w>": 2210, "icians</w>": 2211, "Cen": 2212, "De": 2213, "won</w>": 2214, "ref": 2215, "premi": 2216, "ube</w>": 2217, "ength</w>": 2218, "ectively</w>": 2219, "ggest</w>": 2220, "bean</w>": 2221, "Phi": 2222, "rd</w>": 2223, "increasing</w>": 2224, "14.": 2225, "51</w>": 2226, "jo": 2227, "pi": 2228, "zer": 2229, "ums</w>": 2230, "research</w>": 2231, "icide</w>": 2232, "disease</w>": 2233, "gives</w>": 2234, "48</w>": 2235, "imported</w>": 2236, "result</w>": 2237, "head": 2238, "commod": 2239, "spend</w>": 2240, "markets</w>": 2241, "igrants</w>": 2242, "gs</w>": 2243, "elections</w>": 2244, "12.": 2245, "son": 2246, "reve": 2247, "urity</w>": 2248, "ele": 2249, "ama</w>": 2250, "consumed</w>": 2251, "earnings</w>": 2252, "gaming</w>": 2253, "valued</w>": 2254, "hotels</w>": 2255, "manag": 2256, "family</w>": 2257, "members</w>": 2258, "3rd</w>": 2259, "You": 2260, "re</w>": 2261, "eri": 2262, "ern</w>": 2263, "itary</w>": 2264, "trend</w>": 2265, "weekly</w>": 2266, "tan</w>": 2267, "low</w>": 2268, "Insta": 2269, "German</w>": 2270, "much</w>": 2271, "history</w>": 2272, "vision</w>": 2273, "professi": 2274, "Goog": 2275, "gree</w>": 2276, "them</w>": 2277, "types</w>": 2278, "talities</w>": 2279, "66</w>": 2280, "FA</w>": 2281, "next</w>": 2282, "rist</w>": 2283, "destin": 2284, "given</w>": 2285, "arib": 2286, "hospitals</w>": 2287, "Inc.</w>": 2288, "62</w>": 2289, "economy</w>": 2290, "ware</w>": 2291, "2017": 2292, "federal</w>": 2293, "Hisp": 2294, "regarding</w>": 2295, "favor": 2296, "74</w>": 2297, "cer</w>": 2298, "publi": 2299, "list</w>": 2300, "tral</w>": 2301, "grocer": 2302, "biggest</w>": 2303, "channel</w>": 2304, "infant</w>": 2305, "52</w>": 2306, "As": 2307, "arri": 2308, "occu": 2309, "eight</w>": 2310, "fatalities</w>": 2311, "Australia</w>": 2312, "43</w>": 2313, "58</w>": 2314, "eff": 2315, "actions</w>": 2316, "deals</w>": 2317, "degree</w>": 2318, "respectively</w>": 2319, "industri": 2320, "equity</w>": 2321, "Viet": 2322, "pharmaceutical</w>": 2323, "aff": 2324, "wai": 2325, "person</w>": 2326, "sure</w>": 2327, "neg": 2328, "peak</w>": 2329, "single</w>": 2330, "ness</w>": 2331, "rema": 2332, "ility</w>": 2333, "forms</w>": 2334, "multi": 2335, "Ama": 2336, "Bar": 2337, "fres": 2338, "anti": 2339, "read": 2340, "did": 2341, "ubs</w>": 2342, "caused</w>": 2343, "salary</w>": 2344, "significant</w>": 2345, "accessed</w>": 2346, "Football</w>": 2347, "annually</w>": 2348, "YouT": 2349, "obser": 2350, "Which</w>": 2351, "stics</w>": 2352, "Google</w>": 2353, "-based</w>": 2354, "13.": 2355, "15.": 2356, "Carib": 2357, "throughout</w>": 2358, "ect</w>": 2359, "char": 2360, "Caribbean</w>": 2361, "61</w>": 2362, "US</w>": 2363, "anish</w>": 2364, "new": 2365, "though</w>": 2366, "YouTube</w>": 2367, "Em": 2368, "Domestic</w>": 2369, "Net</w>": 2370, "nd</w>": 2371, "antly</w>": 2372, "autom": 2373, "workers</w>": 2374, "IT</w>": 2375, "Since</w>": 2376, "ith</w>": 2377, "lier</w>": 2378, "atis": 2379, "density</w>": 2380, "physicians</w>": 2381, "balance</w>": 2382, "57</w>": 2383, "issions</w>": 2384, "estimates</w>": 2385, "broad": 2386, "restaurants</w>": 2387, "6,": 2388, "Air": 2389, "Ur": 2390, "if</w>": 2391, "lines</w>": 2392, "adju": 2393, "ghts</w>": 2394, "Market</w>": 2395, "generation</w>": 2396, "earlier</w>": 2397, "banks</w>": 2398, "passengers</w>": 2399, "province</w>": 2400, "foreign</w>": 2401, "experienced</w>": 2402, "aim": 2403, "cro": 2404, "rai": 2405, "up": 2406, "vari": 2407, "2022</w>": 2408, "tru": 2409, "user</w>": 2410, "amounting</w>": 2411, "part</w>": 2412, "Facts</w>": 2413, "Ang": 2414, "ences</w>": 2415, "However</w>": 2416, "Bank</w>": 2417, "available</w>": 2418, "Amaz": 2419, "nia</w>": 2420, "ures</w>": 2421, "ides</w>": 2422, "idents</w>": 2423, "born</w>": 2424, "Instagram</w>": 2425, "fresh</w>": 2426, "59</w>": 2427, "68</w>": 2428, "Jo": 2429, "Ro": 2430, "bur": 2431, "ion": 2432, "sw": 2433, "What</w>": 2434, "wholesale</w>": 2435, "From</w>": 2436, "Pre": 2437, "order</w>": 2438, "ads</w>": 2439, "rupe": 2440, "Chri": 2441, "Urb": 2442, "78</w>": 2443, "ashi": 2444, "security</w>": 2445, "residents</w>": 2446, "property</w>": 2447, "sexual</w>": 2448, "67</w>": 2449, "Ran": 2450, "ok</w>": 2451, "compl": 2452, "terms</w>": 2453, "1995</w>": 2454, "Maj": 2455, "frequency</w>": 2456, "56</w>": 2457, "could</w>": 2458, "pment</w>": 2459, "some": 2460, "ago</w>": 2461, "second": 2462, "watch": 2463, "full": 2464, "military</w>": 2465, "85</w>": 2466, "Wales</w>": 2467, "ege</w>": 2468, "ney</w>": 2469, "making</w>": 2470, "general</w>": 2471, "indicates</w>": 2472, "hotel</w>": 2473, "equipment</w>": 2474, "Romania</w>": 2475, "Hou": 2476, "tax</w>": 2477, "acy</w>": 2478, "platforms</w>": 2479, "attacks</w>": 2480, "Major</w>": 2481, "dri": 2482, "ges</w>": 2483, "ats</w>": 2484, "esses</w>": 2485, "Unemployment</w>": 2486, "persons</w>": 2487, "International</w>": 2488, "eal</w>": 2489, "ements</w>": 2490, "carried</w>": 2491, "2nd</w>": 2492, "79</w>": 2493, "mary</w>": 2494, "vehicle</w>": 2495, "Apple</w>": 2496, "known</w>": 2497, "rupees</w>": 2498, "Heal": 2499, "di</w>": 2500, "ori": 2501, "accommod": 2502, "lower</w>": 2503, "ability</w>": 2504, "ols</w>": 2505, "prefer": 2506, "select</w>": 2507, "bank</w>": 2508, "purchased</w>": 2509, "scored</w>": 2510, "72</w>": 2511, "95</w>": 2512, "Ha": 2513, "So": 2514, "nine</w>": 2515, "sex</w>": 2516, "1984</w>": 2517, "ashion</w>": 2518, "69</w>": 2519, "2010": 2520, "purchase</w>": 2521, "downlo": 2522, "Consumer</w>": 2523, "Hispanic</w>": 2524, "73</w>": 2525, "Hun": 2526, "eria</w>": 2527, "abo": 2528, "adjusted</w>": 2529, "17.": 2530, "lat": 2531, "t-": 2532, "yp": 2533, "earned</w>": 2534, "manufacture</w>": 2535, "16.": 2536, "deli": 2537, "euro</w>": 2538, "ific</w>": 2539, "ited</w>": 2540, "adult</w>": 2541, "views</w>": 2542, "Pacific</w>": 2543, "500</w>": 2544, "77</w>": 2545, "90</w>": 2546, "force</w>": 2547, "phones</w>": 2548, "famili": 2549, "71</w>": 2550, "FI": 2551, "pay</w>": 2552, "decline</w>": 2553, "crime</w>": 2554, "participants</w>": 2555, "restaurant</w>": 2556, "drug</w>": 2557, "lym": 2558, "ton": 2559, "report</w>": 2560, "influ": 2561, "Urbanization</w>": 2562, "7,": 2563, "Gam": 2564, "satis": 2565, "reco": 2566, "again": 2567, "seven</w>": 2568, "ketball</w>": 2569, "against</w>": 2570, "87</w>": 2571, "Bl": 2572, "Olym": 2573, "Qu": 2574, "fli": 2575, "fru": 2576, "2023</w>": 2577, "selling</w>": 2578, "Russian</w>": 2579, "Argen": 2580, "valuable</w>": 2581, "Comp": 2582, "healthcare</w>": 2583, "presented</w>": 2584, "negative</w>": 2585, "bac": 2586, "occurr": 2587, "movie</w>": 2588, "often</w>": 2589, "Scot": 2590, "ever</w>": 2591, "mid": 2592, "interest</w>": 2593, "ns</w>": 2594, "val</w>": 2595, "ards</w>": 2596, "sures</w>": 2597, "audi": 2598, "chains</w>": 2599, "visits</w>": 2600, "quisi": 2601, "Portu": 2602, "-related</w>": 2603, "18.": 2604, "Is": 2605, "With</w>": 2606, "cour": 2607, "ering</w>": 2608, "icides</w>": 2609, "pol": 2610, "motor</w>": 2611, "work": 2612, "ests</w>": 2613, "political</w>": 2614, "fans</w>": 2615, "ight</w>": 2616, "nam</w>": 2617, "vity</w>": 2618, "tiz": 2619, "ends</w>": 2620, "ar-": 2621, "alty</w>": 2622, "st-": 2623, "etro": 2624, "sever": 2625, "tics</w>": 2626, "aste</w>": 2627, "stream": 2628, "accommodation</w>": 2629, "fashion</w>": 2630, "no</w>": 2631, "tab": 2632, "acquisi": 2633, "uses</w>": 2634, "terro": 2635, "claim": 2636, "graphi": 2637, "minu": 2638, "Amazon</w>": 2639, "above</w>": 2640, "int": 2641, "enro": 2642, "under": 2643, "search</w>": 2644, "origin</w>": 2645, "Vietnam</w>": 2646, "hy": 2647, "lab": 2648, "tation</w>": 2649, "aled</w>": 2650, "valent</w>": 2651, "teen": 2652, "chemical</w>": 2653, "Min": 2654, "ed": 2655, "insta": 2656, "manufactur": 2657, "Life</w>": 2658, "small</w>": 2659, "institutions</w>": 2660, "Lux": 2661, "nec": 2662, "reli": 2663, "socc": 2664, "college</w>": 2665, "soccer</w>": 2666, "For": 2667, "gin": 2668, "customer</w>": 2669, "numbers</w>": 2670, "consideration</w>": 2671, "automo": 2672, "83</w>": 2673, "Ric": 2674, "2015": 2675, "teams</w>": 2676, "gawat": 2677, "grocery</w>": 2678, "Argentin": 2679, "82</w>": 2680, "Dem": 2681, "Ser": 2682, "Swit": 2683, "cal": 2684, "tron": 2685, "dit</w>": 2686, "subscribers</w>": 2687, "fluctuated</w>": 2688, "Portugal</w>": 2689, "Mic": 2690, "Over": 2691, "nels</w>": 2692, "fil": 2693, "should</w>": 2694, "party</w>": 2695, "immigrants</w>": 2696, "dium</w>": 2697, "verty</w>": 2698, "poverty</w>": 2699, "logi": 2700, "ghtly</w>": 2701, "regions</w>": 2702, "succ": 2703, "2.5</w>": 2704, "peaked</w>": 2705, "point</w>": 2706, "Bu": 2707, "gin</w>": 2708, "ged</w>": 2709, "rer</w>": 2710, "means</w>": 2711, "channels</w>": 2712, "Austri": 2713, "sources</w>": 2714, "Monthly</w>": 2715, "Product</w>": 2716, "Tr": 2717, "band</w>": 2718, "ress</w>": 2719, "year-": 2720, "deal</w>": 2721, "ships</w>": 2722, "box</w>": 2723, "Nig": 2724, "agg": 2725, "che": 2726, "sug": 2727, "subscriptions</w>": 2728, "electric</w>": 2729, "equivalent</w>": 2730, "customers</w>": 2731, "mental</w>": 2732, "saw</w>": 2733, "Forec": 2734, "premiums</w>": 2735, "Switzer": 2736, "Pl": 2737, "cing</w>": 2738, "proportion</w>": 2739, "agno": 2740, "played</w>": 2741, "resident</w>": 2742, "viewers</w>": 2743, "09</w>": 2744, "id</w>": 2745, "mer</w>": 2746, "tele": 2747, "asked</w>": 2748, "conf": 2749, "primary</w>": 2750, "leader</w>": 2751, "businesses</w>": 2752, "Hung": 2753, "Switzerland</w>": 2754, "assi": 2755, "motor": 2756, "night</w>": 2757, "equal</w>": 2758, "votes</w>": 2759, "slightly</w>": 2760, "club</w>": 2761, "IC": 2762, "Res": 2763, "ought</w>": 2764, "coff": 2765, "infec": 2766, "partment</w>": 2767, "responding</w>": 2768, "movies</w>": 2769, "below</w>": 2770, "Central</w>": 2771, "Health</w>": 2772, "far</w>": 2773, "ators</w>": 2774, "electron": 2775, "eball</w>": 2776, "issu": 2777, "forecasted</w>": 2778, "/11</w>": 2779, "ful</w>": 2780, "Colom": 2781, "Price</w>": 2782, "9,": 2783, "El": 2784, "East</w>": 2785, "om</w>": 2786, "ppers</w>": 2787, "wine</w>": 2788, "them": 2789, "itted</w>": 2790, "works</w>": 2791, "grow</w>": 2792, "19.": 2793, "tural</w>": 2794, "include</w>": 2795, "funding</w>": 2796, "tainment</w>": 2797, "occup": 2798, "job": 2799, "ece</w>": 2800, "child</w>": 2801, "ficit</w>": 2802, "payment</w>": 2803, "significantly</w>": 2804, "police</w>": 2805, "Cup</w>": 2806, "Cali": 2807, "wage</w>": 2808, "fuel</w>": 2809, "partners</w>": 2810, "cancer</w>": 2811, "marketing</w>": 2812, "stem</w>": 2813, "revealed</w>": 2814, "2010/11</w>": 2815, "Califor": 2816, "89</w>": 2817, "ka</w>": 2818, "sme": 2819, "xury</w>": 2820, "spread</w>": 2821, "hour</w>": 2822, "1992</w>": 2823, "luxury</w>": 2824, "politan</w>": 2825, "FIFA</w>": 2826, "coffee</w>": 2827, "81</w>": 2828, "EU": 2829, "bought</w>": 2830, "eer</w>": 2831, "umul": 2832, "diagno": 2833, "plac": 2834, "dep": 2835, "deficit</w>": 2836, "beer</w>": 2837, "cyber</w>": 2838, "sociation</w>": 2839, "believed</w>": 2840, "kilometers</w>": 2841, "relea": 2842, "aper</w>": 2843, "dish</w>": 2844, "iss": 2845, "water</w>": 2846, "Democ": 2847, "30": 2848, "84</w>": 2849, "Asian</w>": 2850, "Fl": 2851, "PI</w>": 2852, "f-": 2853, "lim": 2854, "raft</w>": 2855, "ward</w>": 2856, "put</w>": 2857, "nership</w>": 2858, "travelers</w>": 2859, "Austria</w>": 2860, "21.": 2861, "go</w>": 2862, "requ": 2863, "ularly</w>": 2864, "loss</w>": 2865, "accounting</w>": 2866, "measures</w>": 2867, "Swedish</w>": 2868, "funds</w>": 2869, "computer</w>": 2870, "professional</w>": 2871, "Company</w>": 2872, "Overall</w>": 2873, "television</w>": 2874, "23.": 2875, "8,": 2876, "Slo": 2877, "sem": 2878, "ts": 2879, "20.": 2880, "stab": 2881, "ngs</w>": 2882, "Argentina</w>": 2883, "92</w>": 2884, "Coun": 2885, "Su": 2886, "growing</w>": 2887, "migr": 2888, "sugar</w>": 2889, "waste</w>": 2890, "taken</w>": 2891, "condi": 2892, "clubs</w>": 2893, "transactions</w>": 2894, "ario</w>": 2895, "dropped</w>": 2896, "Turkey</w>": 2897, "acquisition</w>": 2898, "City</w>": 2899, "Gener": 2900, "eat</w>": 2901, "emissions</w>": 2902, "/18</w>": 2903, "expensive</w>": 2904, "affected</w>": 2905, "cou": 2906, "cents</w>": 2907, "dle</w>": 2908, "pic</w>": 2909, "zations</w>": 2910, "cir": 2911, "thern</w>": 2912, "partner</w>": 2913, "mach": 2914, "system</w>": 2915, "2017/18</w>": 2916, "99</w>": 2917, "Ba": 2918, "kron": 2919, "aries</w>": 2920, "sting</w>": 2921, "stric": 2922, "sof": 2923, "banking</w>": 2924, "candid": 2925, "gap</w>": 2926, "liters</w>": 2927, "job</w>": 2928, "management</w>": 2929, "jobs</w>": 2930, "verages</w>": 2931, "level": 2932, "/16</w>": 2933, "streaming</w>": 2934, "2015/16</w>": 2935, "stabli": 2936, "88</w>": 2937, "96</w>": 2938, "BA</w>": 2939, "Car": 2940, "ath": 2941, "2005": 2942, "tus</w>": 2943, "manufactu": 2944, "milk</w>": 2945, "California</w>": 2946, "Icel": 2947, "cosme": 2948, "soft</w>": 2949, "Grow": 2950, "provides</w>": 2951, "schools</w>": 2952, "/06</w>": 2953, "young</w>": 2954, "alcoho": 2955, "families</w>": 2956, "2005/06</w>": 2957, "97</w>": 2958, "La": 2959, "pts</w>": 2960, "aging</w>": 2961, "emer": 2962, "identi": 2963, "reasons</w>": 2964, "great": 2965, "Medic": 2966, "Association</w>": 2967, "Growth</w>": 2968, "Im": 2969, "gl": 2970, "ries</w>": 2971, "dily</w>": 2972, "reser": 2973, "ety</w>": 2974, "ended</w>": 2975, "weeks</w>": 2976, "Chinese</w>": 2977, "univer": 2978, "aggreg": 2979, "Dis": 2980, "Le": 2981, "Se": 2982, "establi": 2983, "fer</w>": 2984, "ine": 2985, "agre": 2986, "vals</w>": 2987, "spon": 2988, "clear</w>": 2989, "breakdown</w>": 2990, "support</w>": 2991, "Inflation</w>": 2992, "bene": 2993, "glob": 2994, "tion": 2995, "lls</w>": 2996, "stan": 2997, "comb": 2998, "meat</w>": 2999, "Greece</w>": 3000, "activity</w>": 3001, "provided</w>": 3002, "App</w>": 3003, "Baseball</w>": 3004, "steadily</w>": 3005, "minutes</w>": 3006, "Cz": 3007, "Esti": 3008, "kes</w>": 3009, "com</w>": 3010, "younger</w>": 3011, "holiday</w>": 3012, "remained</w>": 3013, "Joh": 3014, "motorcy": 3015, "Colombia</w>": 3016, "Czec": 3017, "Estim": 3018, "26.": 3019, "4th</w>": 3020, "86</w>": 3021, "Dut": 3022, "FC</w>": 3023, "died</w>": 3024, "side</w>": 3025, "1960</w>": 3026, "27.": 3027, "93</w>": 3028, "estate</w>": 3029, "here</w>": 3030, "nation": 3031, "anese</w>": 3032, "lish</w>": 3033, "faction</w>": 3034, "person": 3035, "networks</w>": 3036, "organi": 3037, "quartered</w>": 3038, "fruit</w>": 3039, "ston</w>": 3040, "stoc": 3041, "citiz": 3042, "beverages</w>": 3043, "tual</w>": 3044, "ream</w>": 3045, "tware</w>": 3046, "Chile</w>": 3047, "manufacturer</w>": 3048, "Dutch</w>": 3049, "At": 3050, "Los</w>": 3051, "SM": 3052, "nomin": 3053, "smo": 3054, "vered</w>": 3055, "merger</w>": 3056, "eption</w>": 3057, "metro": 3058, "currently</w>": 3059, "Hungary</w>": 3060, "Cro": 3061, "En": 3062, "mes</w>": 3063, "man</w>": 3064, "mun": 3065, "sen": 3066, "once</w>": 3067, "items</w>": 3068, "und": 3069, "marri": 3070, "whe": 3071, "prescri": 3072, "twear</w>": 3073, "career</w>": 3074, "hospital</w>": 3075, "organ</w>": 3076, "slight</w>": 3077, "applic": 3078, "Angel": 3079, "full-time</w>": 3080, "Estimated</w>": 3081, "Ad": 3082, "bacc": 3083, "enni": 3084, "merchan": 3085, "ublic": 3086, "decade</w>": 3087, "Top</w>": 3088, "communic": 3089, "African</w>": 3090, "Phili": 3091, "umulative</w>": 3092, "Fer": 3093, "Net": 3094, "fell</w>": 3095, "mag": 3096, "ya</w>": 3097, "stm": 3098, "shoppers</w>": 3099, "appar": 3100, "chained</w>": 3101, "books</w>": 3102, "Angeles</w>": 3103, "cess": 3104, "zu": 3105, "U.S</w>": 3106, "ldings</w>": 3107, "firms</w>": 3108, "Spanish</w>": 3109, "preferred</w>": 3110, "Scotland</w>": 3111, "91</w>": 3112, "98</w>": 3113, "dollar</w>": 3114, "icip": 3115, "self-": 3116, "Christm": 3117, "Games</w>": 3118, "metropolitan</w>": 3119, "Christmas</w>": 3120, "Ken": 3121, "Per</w>": 3122, "hand</w>": 3123, "pho": 3124, "ects</w>": 3125, "emb": 3126, "conven": 3127, "Indi": 3128, "novel</w>": 3129, "accidents</w>": 3130, "mining</w>": 3131, "tonn": 3132, "software</w>": 3133, "Pa": 3134, "co</w>": 3135, "set</w>": 3136, "tail</w>": 3137, "ach": 3138, "agers</w>": 3139, "contrac": 3140, "ail</w>": 3141, "victim": 3142, "1.2</w>": 3143, "websites</w>": 3144, "headquartered</w>": 3145, "Ranking</w>": 3146, "Br": 3147, "craft</w>": 3148, "sta</w>": 3149, "low": 3150, "risk</w>": 3151, "position</w>": 3152, "goals</w>": 3153, "secondary</w>": 3154, "Sy": 3155, "bill": 3156, "best</w>": 3157, "take</w>": 3158, "show</w>": 3159, "sible</w>": 3160, "atively</w>": 3161, "lei": 3162, "base</w>": 3163, "footwear</w>": 3164, "account</w>": 3165, "crimes</w>": 3166, "females</w>": 3167, "tourists</w>": 3168, "participation</w>": 3169, "large</w>": 3170, "aggregate</w>": 3171, "Man": 3172, "bab": 3173, "hand": 3174, "ling</w>": 3175, "ster</w>": 3176, "ick</w>": 3177, "niture</w>": 3178, "Thai": 3179, "lities</w>": 3180, "havi": 3181, "buy</w>": 3182, "predic": 3183, "basis</w>": 3184, "Brazi": 3185, "Japanese</w>": 3186, "Chic": 3187, "credit</w>": 3188, "favorite</w>": 3189, "Thailand</w>": 3190, "Cap": 3191, "Wal": 3192, "bed</w>": 3193, "ck</w>": 3194, "date</w>": 3195, "ways</w>": 3196, "tinu": 3197, "see</w>": 3198, "valence</w>": 3199, "ownership</w>": 3200, "ourg</w>": 3201, "observed</w>": 3202, "enrolled</w>": 3203, "Iceland</w>": 3204, "municip": 3205, "Real</w>": 3206, "West</w>": 3207, "ographi": 3208, "writ": 3209, "tax": 3210, "behavi": 3211, "1.5</w>": 3212, "supply</w>": 3213, "Basketball</w>": 3214, "Hoc": 3215, "ished</w>": 3216, "ssi": 3217, "vac": 3218, "vation</w>": 3219, "200</w>": 3220, "2030</w>": 3221, "aring</w>": 3222, "continu": 3223, "towards</w>": 3224, "coal</w>": 3225, "term</w>": 3226, "corpor": 3227, "now</w>": 3228, "located</w>": 3229, "receipts</w>": 3230, "ador</w>": 3231, "website</w>": 3232, "agriculture</w>": 3233, "depend": 3234, "bacco</w>": 3235, "Hockey</w>": 3236, "28.": 3237, "BC</w>": 3238, "Mad": 3239, "fl": 3240, "land": 3241, "in-": 3242, "exclu": 3243, "attle</w>": 3244, "record</w>": 3245, "treat": 3246, "Luxemb": 3247, "leisure</w>": 3248, "50": 3249, "Mill": 3250, "status</w>": 3251, "stance</w>": 3252, "strength</w>": 3253, "includes</w>": 3254, "whole</w>": 3255, "alcohol</w>": 3256, "Philipp": 3257, "victims</w>": 3258, "Luxembourg</w>": 3259, ".com</w>": 3260, "NBA</w>": 3261, "dou": 3262, "fel": 3263, "pet</w>": 3264, "yards</w>": 3265, "then</w>": 3266, "action</w>": 3267, "space</w>": 3268, "make</w>": 3269, "good</w>": 3270, "transpl": 3271, "categories</w>": 3272, "payments</w>": 3273, "Internet</w>": 3274, "homicides</w>": 3275, "Olympic</w>": 3276, "teenagers</w>": 3277, "Brazilian</w>": 3278, "25.": 3279, "Ob": 3280, "mess": 3281, "thers</w>": 3282, "ditional</w>": 3283, "defin": 3284, "took</w>": 3285, "loans</w>": 3286, "col": 3287, "spe": 3288, "local</w>": 3289, "going</w>": 3290, "culation</w>": 3291, "various</w>": 3292, "delivery</w>": 3293, "Amon": 3294, "Fe": 3295, "FL</w>": 3296, "Tex": 3297, "din": 3298, "eding</w>": 3299, "mal": 3300, "prin": 3301, "still</w>": 3302, "play</w>": 3303, "total": 3304, "shing</w>": 3305, "Peru</w>": 3306, "Retail</w>": 3307, "concerned</w>": 3308, "apparel</w>": 3309, "East": 3310, "Ge": 3311, "Vene": 3312, "adm": 3313, "Volume</w>": 3314, "24.": 3315, "30.": 3316, "Mid": 3317, "NFL</w>": 3318, "Or": 3319, "ause</w>": 3320, "lined</w>": 3321, "od": 3322, "telec": 3323, "rose</w>": 3324, "like</w>": 3325, "posed</w>": 3326, "cop": 3327, "purchases</w>": 3328, "Mexican</w>": 3329, "kilogram</w>": 3330, "sharing</w>": 3331, "events</w>": 3332, "gawatts</w>": 3333, "Among</w>": 3334, "book</w>": 3335, "eti": 3336, "ets</w>": 3337, "nes": 3338, "vers</w>": 3339, "however</w>": 3340, "ically</w>": 3341, "desh</w>": 3342, "tobacco</w>": 3343, "producer</w>": 3344, "1.4</w>": 3345, "Chan": 3346, "class</w>": 3347, "meters</w>": 3348, "rels</w>": 3349, "registr": 3350, "crisis</w>": 3351, "furniture</w>": 3352, "visited</w>": 3353, "because</w>": 3354, "barrels</w>": 3355, "showed</w>": 3356, "Black</w>": 3357, "22.": 3358, "bound</w>": 3359, "ump</w>": 3360, "to-": 3361, "1.3</w>": 3362, "1998</w>": 3363, "Median</w>": 3364, "appli": 3365, "Philippines</w>": 3366, "camp": 3367, "far": 3368, "rural</w>": 3369, "sale</w>": 3370, "ero": 3371, "doc": 3372, "acad": 3373, "dio</w>": 3374, "exchange</w>": 3375, "ruption</w>": 3376, "buil": 3377, "parents</w>": 3378, "main": 3379, "3.5</w>": 3380, "case</w>": 3381, "output</w>": 3382, "situ": 3383, "chain</w>": 3384, "destination</w>": 3385, "sponsor": 3386, "felt</w>": 3387, "Ab": 3388, "nal</w>": 3389, "onal": 3390, "dise</w>": 3391, "asts</w>": 3392, "bic</w>": 3393, "declined</w>": 3394, "alized</w>": 3395, "kilograms</w>": 3396, "occurred</w>": 3397, "tonnes</w>": 3398, "Bul": 3399, "eted</w>": 3400, "member</w>": 3401, "phi": 3402, "yen</w>": 3403, "onia</w>": 3404, "rub": 3405, "series</w>": 3406, "lockdown</w>": 3407, "When</w>": 3408, "specialty</w>": 3409, "satisfaction</w>": 3410, "course</w>": 3411, "establish": 3412, "Chicago</w>": 3413, "Jam": 3414, "hear": 3415, "thre": 3416, "er-": 3417, "eld</w>": 3418, "plus</w>": 3419, "ington</w>": 3420, "white</w>": 3421, "regularly</w>": 3422, "vote</w>": 3423, "Infant</w>": 3424, "94</w>": 3425, "Sau": 3426, "Ti": 3427, "ox": 3428, "expenditures</w>": 3429, "syst": 3430, "materi": 3431, "several</w>": 3432, "Venezu": 3433, "29.": 3434, "Am": 3435, "Mil": 3436, "West": 3437, "males</w>": 3438, "ut</w>": 3439, "super": 3440, "owners</w>": 3441, "retailer</w>": 3442, "licen": 3443, "influen": 3444, "audience</w>": 3445, "merchandise</w>": 3446, "Venezuel": 3447, "16": 3448, "35.": 3449, "dating</w>": 3450, "fy</w>": 3451, "fast": 3452, "gyp": 3453, "ker</w>": 3454, "tex": 3455, "za</w>": 3456, "thi": 3457, "eracy</w>": 3458, "invol": 3459, "ands</w>": 3460, "lli": 3461, "stant</w>": 3462, "nuclear</w>": 3463, "operated</w>": 3464, "Proj": 3465, "2019/2020</w>": 3466, "holic</w>": 3467, "agricultural</w>": 3468, "Nigeria</w>": 3469, "organizations</w>": 3470, "academic</w>": 3471, "-year</w>": 3472, "ep</w>": 3473, "fits</w>": 3474, "free</w>": 3475, "gan</w>": 3476, "kin": 3477, "ota</w>": 3478, "department</w>": 3479, "urbanization</w>": 3480, "alcoholic</w>": 3481, "quarterly</w>": 3482, "written</w>": 3483, "Saudi</w>": 3484, "15": 3485, "Youth</w>": 3486, "hect": 3487, "munic": 3488, "represented</w>": 3489, "Arab": 3490, "selves</w>": 3491, "drinks</w>": 3492, "manufacturers</w>": 3493, "themselves</w>": 3494, "whether</w>": 3495, "Bay</w>": 3496, "Ir": 3497, "Si": 3498, "fall</w>": 3499, "ne</w>": 3500, "tit": 3501, "aning</w>": 3502, "another</w>": 3503, "tar</w>": 3504, "ous": 3505, "life": 3506, "exce": 3507, "trips</w>": 3508, "recently</w>": 3509, "face</w>": 3510, "early</w>": 3511, "infected</w>": 3512, "tourist</w>": 3513, "newsp": 3514, "claimed</w>": 3515, "success": 3516, "Democrati": 3517, "reserves</w>": 3518, "Ca": 3519, "Egyp": 3520, "Hond": 3521, "Sec": 3522, "fit": 3523, "foun": 3524, "pen": 3525, "uti": 3526, "orders</w>": 3527, "eap": 3528, "stat": 3529, "contr": 3530, "mart</w>": 3531, "bio": 3532, "egal</w>": 3533, "few</w>": 3534, "projects</w>": 3535, "waiting</w>": 3536, "36.": 3537, "Cam": 3538, "CPI</w>": 3539, "dam": 3540, "sco": 3541, "tests</w>": 3542, "tario</w>": 3543, "stand": 3544, "cubic</w>": 3545, "causes</w>": 3546, "participated</w>": 3547, "Ontario</w>": 3548, "destinations</w>": 3549, "flix</w>": 3550, "terrorist</w>": 3551, "Forecast</w>": 3552, "37.": 3553, "Ara": 3554, "Vir": 3555, "cli": 3556, "ew": 3557, "i-": 3558, "targ": 3559, "agree</w>": 3560, "thought</w>": 3561, "2.6</w>": 3562, "voted</w>": 3563, "kistan</w>": 3564, "organic</w>": 3565, "kilowat": 3566, "watched</w>": 3567, "agreed</w>": 3568, "globally</w>": 3569, "stock</w>": 3570, "citizens</w>": 3571, "Croati": 3572, "Netflix</w>": 3573, "magaz": 3574, "Arab</w>": 3575, "07</w>": 3576, "Win": 3577, "eds</w>": 3578, "o-": 3579, "illed</w>": 3580, "distin": 3581, "light</w>": 3582, "etting</w>": 3583, "quality</w>": 3584, "housing</w>": 3585, "generally</w>": 3586, "faci": 3587, "unities</w>": 3588, "homicide</w>": 3589, "kilometer</w>": 3590, "circulation</w>": 3591, "Bulgar": 3592, "Be": 3593, "mic": 3594, "room</w>": 3595, "proce": 3596, "unemployed</w>": 3597, "ranks</w>": 3598, "surg": 3599, "summer</w>": 3600, "lets</w>": 3601, "factor</w>": 3602, "outside</w>": 3603, "1980</w>": 3604, "Premi": 3605, "Millenni": 3606, "Egypt</w>": 3607, "CA": 3608, "War</w>": 3609, "Wash": 3610, "blo": 3611, "cks</w>": 3612, "nap": 3613, "otes</w>": 3614, "ution</w>": 3615, "oms</w>": 3616, "bility</w>": 3617, "beds</w>": 3618, "drugs</w>": 3619, "industrial</w>": 3620, "Texas</w>": 3621, "establishments</w>": 3622, "oxide</w>": 3623, "Venezuela</w>": 3624, "texti": 3625, "Age</w>": 3626, "Main</w>": 3627, "Uni": 3628, "fts</w>": 3629, "ging</w>": 3630, "ls</w>": 3631, "olds</w>": 3632, "ares</w>": 3633, "contac": 3634, "fif": 3635, "margin</w>": 3636, "territ": 3637, "Afgh": 3638, "After</w>": 3639, "drop</w>": 3640, "Production</w>": 3641, "industries</w>": 3642, "issue</w>": 3643, "Fertility</w>": 3644, "Middle</w>": 3645, "Arabia</w>": 3646, "34.": 3647, "EB": 3648, "IL": 3649, "Ni": 3650, "back</w>": 3651, "gate</w>": 3652, "kings</w>": 3653, "que</w>": 3654, "s-": 3655, "uty</w>": 3656, "refer": 3657, "stor": 3658, "ective</w>": 3659, "descri": 3660, "shor": 3661, "irates</w>": 3662, "ists</w>": 3663, "without</w>": 3664, "denotes</w>": 3665, "installed</w>": 3666, "migration</w>": 3667, "benefits</w>": 3668, "Geor": 3669, "Croatia</w>": 3670, "Sports</w>": 3671, "Tra": 3672, "ba": 3673, "dings</w>": 3674, "fall": 3675, "gers</w>": 3676, "pla": 3677, "connec": 3678, "cies</w>": 3679, "partic": 3680, "overnight</w>": 3681, "voters</w>": 3682, "ampion": 3683, "arrivals</w>": 3684, "treatment</w>": 3685, "registrations</w>": 3686, "Iran</w>": 3687, "Democratic</w>": 3688, "ILO</w>": 3689, "Lim": 3690, "Pr": 3691, "Uk": 3692, "ef</w>": 3693, "prac": 3694, "viol": 3695, "idence</w>": 3696, "chat</w>": 3697, "Atlan": 3698, "systems</w>": 3699, "Donal": 3700, "io</w>": 3701, "paper</w>": 3702, "count</w>": 3703, "1970</w>": 3704, "beverage</w>": 3705, "meter</w>": 3706, "feet</w>": 3707, "offici": 3708, "juana</w>": 3709, "unity</w>": 3710, "diagnosed</w>": 3711, "situation</w>": 3712, "hectares</w>": 3713, "ously</w>": 3714, "Ukra": 3715, "Bud": 3716, "Mc": 3717, "fri": 3718, "prec": 3719, "rating</w>": 3720, "2014": 3721, "2006": 3722, "medium</w>": 3723, "1.6</w>": 3724, "kets</w>": 3725, "Mobile</w>": 3726, "on-year</w>": 3727, "Coronavirus</w>": 3728, "close</w>": 3729, "Compar": 3730, "smartphones</w>": 3731, "drink</w>": 3732, "somewhat</w>": 3733, "workforce</w>": 3734, "distingu": 3735, "Washington</w>": 3736, "Public</w>": 3737, "San</w>": 3738, "wood</w>": 3739, "anal": 3740, "ats": 3741, "stro": 3742, "agu": 3743, "exc": 3744, "ext": 3745, "questi": 3746, "anistan</w>": 3747, "2.3</w>": 3748, "findings</w>": 3749, "Northern</w>": 3750, "either</w>": 3751, "entertainment</w>": 3752, "Korean</w>": 3753, "General</w>": 3754, "Western</w>": 3755, "Afghanistan</w>": 3756, "06</w>": 3757, "40.": 3758, "ommunic": 3759, "vege": 3760, "allo": 3761, "changes</w>": 3762, "residential</w>": 3763, "head</w>": 3764, "While</w>": 3765, "distinguished</w>": 3766, "OS</w>": 3767, "mur": 3768, "remo": 3769, "coming</w>": 3770, "simil": 3771, "fix": 3772, "weal": 3773, "buying</w>": 3774, "recre": 3775, "1.1</w>": 3776, "gamers</w>": 3777, "purchasing</w>": 3778, "tech</w>": 3779, "viewed</w>": 3780, "published</w>": 3781, "conveni": 3782, "Bulgaria</w>": 3783, "practic": 3784, "Ra": 3785, "he": 3786, "kid": 3787, "race</w>": 3788, "sport</w>": 3789, "thu": 3790, "ership</w>": 3791, "inj": 3792, "icals</w>": 3793, "door</w>": 3794, "ples</w>": 3795, "plan</w>": 3796, "amm": 3797, "viron": 3798, "cigar": 3799, "final</w>": 3800, "feat": 3801, "wind</w>": 3802, "downloads</w>": 3803, "back": 3804, "combined</w>": 3805, "Czech</w>": 3806, "Pakistan</w>": 3807, "excluding</w>": 3808, "05</w>": 3809, "President</w>": 3810, "ona</w>": 3811, "rid</w>": 3812, "rise</w>": 3813, "ica</w>": 3814, "union</w>": 3815, "portation</w>": 3816, "los": 3817, "married</w>": 3818, "market": 3819, "begin": 3820, "bearing</w>": 3821, "2.8</w>": 3822, "3.6</w>": 3823, "accep": 3824, "alities</w>": 3825, "Whats": 3826, "Party</w>": 3827, "believe</w>": 3828, "performed</w>": 3829, "defined</w>": 3830, "sponsorship</w>": 3831, "micro": 3832, "03</w>": 3833, "Domin": 3834, "PC</w>": 3835, "fen": 3836, "ga</w>": 3837, "rene": 3838, "arti": 3839, "shoo": 3840, "olf</w>": 3841, "ola</w>": 3842, "auth": 3843, "response</w>": 3844, "St.</w>": 3845, "marijuana</w>": 3846, "solar</w>": 3847, "broadband</w>": 3848, "Donald</w>": 3849, "Ukraine</w>": 3850, "beginning</w>": 3851, "Fur": 3852, "y-": 3853, "ower</w>": 3854, "metho": 3855, "lear": 3856, "peaking</w>": 3857, "finance</w>": 3858, "reading</w>": 3859, "forecasts</w>": 3860, "/10</w>": 3861, "study</w>": 3862, "beauty</w>": 3863, "watching</w>": 3864, "automotive</w>": 3865, "corporate</w>": 3866, "Obama</w>": 3867, "appliances</w>": 3868, "cigaret": 3869, "300</w>": 3870, "9/10</w>": 3871, "Du": 3872, "Lin": 3873, "Mi": 3874, "More</w>": 3875, "PA": 3876, "ef": 3877, "ise</w>": 3878, "length</w>": 3879, "protec": 3880, "2009/10</w>": 3881, "esp": 3882, "prison": 3883, "2.1</w>": 3884, "1994</w>": 3885, "grown</w>": 3886, "providers</w>": 3887, "/07</w>": 3888, "Colum": 3889, "issues</w>": 3890, "Projected</w>": 3891, "contrast</w>": 3892, "2006/07</w>": 3893, "38.": 3894, "46.": 3895, "Hong</w>": 3896, "ck": 3897, "cal</w>": 3898, "iti": 3899, "ron</w>": 3900, "abor": 3901, "surplus</w>": 3902, "prior</w>": 3903, "reason</w>": 3904, "gious</w>": 3905, "indicated</w>": 3906, "English</w>": 3907, "freight</w>": 3908, "talization</w>": 3909, "supplies</w>": 3910, "One</w>": 3911, "electronics</w>": 3912, "predicted</w>": 3913, "Premier</w>": 3914, "convenience</w>": 3915, "-bearing</w>": 3916, "04</w>": 3917, "Est": 3918, "pur": 3919, "ri</w>": 3920, "wa": 3921, "environ": 3922, "dor</w>": 3923, "programs</w>": 3924, "common": 3925, "ult</w>": 3926, "imum</w>": 3927, "ado</w>": 3928, "prevalence</w>": 3929, "5.5</w>": 3930, "turn</w>": 3931, "feel</w>": 3932, "child-bearing</w>": 3933, "watch</w>": 3934, "view</w>": 3935, "aircraft</w>": 3936, "origin": 3937, "athle": 3938, "behavior</w>": 3939, "commonly</w>": 3940, "AG</w>": 3941, "Bur": 3942, "IP": 3943, "Kong</w>": 3944, "Sal": 3945, "Swi": 3946, "long": 3947, "anim": 3948, "ent": 3949, "onery</w>": 3950, "ech": 3951, "list": 3952, "del</w>": 3953, "contin": 3954, "lost</w>": 3955, "offered</w>": 3956, "accounts</w>": 3957, "/15</w>": 3958, "carb": 3959, "Although</w>": 3960, "receiving</w>": 3961, "ethn": 3962, "off</w>": 3963, "successful</w>": 3964, "2014/15</w>": 3965, "methods</w>": 3966, "Mer": 3967, "Sen": 3968, "Some</w>": 3969, "eded</w>": 3970, "gold</w>": 3971, "killed</w>": 3972, "mas": 3973, "nation</w>": 3974, "went</w>": 3975, "inem": 3976, "hit</w>": 3977, "plans</w>": 3978, "degre": 3979, "wegi": 3980, "aig": 3981, "gency</w>": 3982, "suicide</w>": 3983, "1.8</w>": 3984, "2.4</w>": 3985, "le-": 3986, "rastructure</w>": 3987, "Norwegi": 3988, "bot": 3989, "community</w>": 3990, "est-": 3991, "shares</w>": 3992, "numer": 3993, "calcul": 3994, "released</w>": 3995, "Flor": 3996, "greatest</w>": 3997, "standing</w>": 3998, "taxes</w>": 3999, "fitness</w>": 4000, "Limited</w>": 4001, "01</w>": 4002, "AT</w>": 4003, "Pan": 4004, "Tim": 4005, "avi": 4006, "mus": 4007, "mis": 4008, "non": 4009, "rap": 4010, "zes</w>": 4011, "ining</w>": 4012, "reality</w>": 4013, "tabl": 4014, "hold": 4015, "abroad</w>": 4016, "ground</w>": 4017, "civi": 4018, "2.2</w>": 4019, "anda</w>": 4020, "ansas</w>": 4021, "offic": 4022, "divides</w>": 4023, "consist": 4024, "student</w>": 4025, "measure</w>": 4026, "accessories</w>": 4027, "latest</w>": 4028, "Elec": 4029, "motorcycles</w>": 4030, "transplant</w>": 4031, "analy": 4032, "WhatsApp</w>": 4033, "tablet</w>": 4034, "B2": 4035, "SA</w>": 4036, "cast</w>": 4037, "ot": 4038, "sun": 4039, "tem": 4040, "rement</w>": 4041, "although</w>": 4042, "ria</w>": 4043, "ican</w>": 4044, "listed</w>": 4045, "worked</w>": 4046, "loo": 4047, "1900</w>": 4048, "league</w>": 4049, "1.7</w>": 4050, "2.7</w>": 4051, "casu": 4052, "open": 4053, "boys</w>": 4054, "Lithu": 4055, "literacy</w>": 4056, "properties</w>": 4057, "Emirates</w>": 4058, "labor</w>": 4059, "Trump</w>": 4060, "campaig": 4061, "08</w>": 4062, "bat": 4063, "cr": 4064, "dr": 4065, "sons</w>": 4066, "wable</w>": 4067, "round</w>": 4068, "repres": 4069, "attri": 4070, "ades</w>": 4071, "range</w>": 4072, "epid": 4073, "pound</w>": 4074, "transportation</w>": 4075, "bank": 4076, "airline</w>": 4077, "networking</w>": 4078, "Boston</w>": 4079, "cell": 4080, "planned</w>": 4081, "film</w>": 4082, "infection</w>": 4083, "kroner</w>": 4084, "levels</w>": 4085, "Budget</w>": 4086, "preceding</w>": 4087, "losses</w>": 4088, "Lithuania</w>": 4089, "Cub": 4090, "ES": 4091, "Gold": 4092, "Lou": 4093, "Lat": 4094, "Largest</w>": 4095, "ckey</w>": 4096, "gran": 4097, "hockey</w>": 4098, "desk": 4099, "etary</w>": 4100, "suff": 4101, "dispos": 4102, "4.5</w>": 4103, "minimum</w>": 4104, "Hot": 4105, "Costa</w>": 4106, "clos": 4107, "president</w>": 4108, "suppli": 4109, "performance</w>": 4110, "Change</w>": 4111, "Florid": 4112, "02</w>": 4113, "DA</w>": 4114, "Vo": 4115, "alties</w>": 4116, "achi": 4117, "again</w>": 4118, "vir": 4119, "deal": 4120, "aded</w>": 4121, "leather</w>": 4122, "radio</w>": 4123, "1997</w>": 4124, "factors</w>": 4125, "Holdings</w>": 4126, "2018/2019</w>": 4127, "pack": 4128, "law</w>": 4129, "payro": 4130, "capitalization</w>": 4131, "experience</w>": 4132, "chemicals</w>": 4133, "gradually</w>": 4134, "candidate</w>": 4135, "Columbia</w>": 4136, "Bi": 4137, "IT": 4138, "NH": 4139, "Purchas": 4140, "ell": 4141, "fast</w>": 4142, "fle": 4143, "sam": 4144, "wan</w>": 4145, "wear</w>": 4146, "yal</w>": 4147, "arity</w>": 4148, "reporting</w>": 4149, "stable</w>": 4150, "agen</w>": 4151, "appe": 4152, "desig": 4153, "State</w>": 4154, "2.9</w>": 4155, "3.3</w>": 4156, "casin": 4157, "employee</w>": 4158, "division</w>": 4159, "Canadi": 4160, "Appro": 4161, "Republic": 4162, "cosmetic</w>": 4163, "building</w>": 4164, "contact</w>": 4165, "fense</w>": 4166, "purpo": 4167, "desktop</w>": 4168, "Sk": 4169, "Sam": 4170, "2020": 4171, "titu": 4172, "inten": 4173, "arter": 4174, "tained</w>": 4175, "statistics</w>": 4176, "asses</w>": 4177, "associ": 4178, "scre": 4179, "ired</w>": 4180, "consider</w>": 4181, "cause</w>": 4182, "crow": 4183, "raised</w>": 4184, "tables</w>": 4185, "infections</w>": 4186, "Kenya</w>": 4187, "telecommunic": 4188, "0,": 4189, "Danish</w>": 4190, "My": 4191, "NA": 4192, "Power</w>": 4193, "Snap": 4194, "hum": 4195, "inju": 4196, "stand</w>": 4197, "dures</w>": 4198, "pot": 4199, "well": 4200, "disea": 4201, "thousands</w>": 4202, "3.7</w>": 4203, "3.8</w>": 4204, "3.4</w>": 4205, "3.2</w>": 4206, "tury</w>": 4207, "included</w>": 4208, "centers</w>": 4209, "Bang": 4210, "Emplo": 4211, "Slov": 4212, "Walmart</w>": 4213, "municipalities</w>": 4214, "vacation</w>": 4215, "Eastern</w>": 4216, "ewel": 4217, "procedures</w>": 4218, "Millennials</w>": 4219, "ampionship</w>": 4220, "prisoners</w>": 4221, "Snapchat</w>": 4222, "Lab": 4223, "bre": 4224, "hu": 4225, "her": 4226, "tro": 4227, "vor": 4228, "vacc": 4229, "tings</w>": 4230, "reduc": 4231, "onds</w>": 4232, "oming</w>": 4233, "sty": 4234, "stream</w>": 4235, "shop</w>": 4236, "tro</w>": 4237, "trends</w>": 4238, "weight</w>": 4239, "infrastructure</w>": 4240, "relatively</w>": 4241, "Boli": 4242, "cruise</w>": 4243, "akia</w>": 4244, "Only</w>": 4245, "downs</w>": 4246, "ester</w>": 4247, "event</w>": 4248, "small": 4249, "planning</w>": 4250, "places</w>": 4251, "question</w>": 4252, "Swiss</w>": 4253, "ethnic</w>": 4254, "Florida</w>": 4255, "injuries</w>": 4256, "Slovakia</w>": 4257, "Bro": 4258, "PM": 4259, "cinem": 4260, "gall": 4261, "ma</w>": 4262, "name</w>": 4263, "pin": 4264, "rated</w>": 4265, "program</w>": 4266, "liam": 4267, "fili": 4268, "competi": 4269, "sequ": 4270, "changed</w>": 4271, "regional</w>": 4272, "decreasing</w>": 4273, "affili": 4274, "contro": 4275, "ready</w>": 4276, "Minnes": 4277, "Sloven": 4278, "Countries</w>": 4279, "similar</w>": 4280, "Purchasing</w>": 4281, "AR": 4282, "Bun": 4283, "CD</w>": 4284, "Har": 4285, "Pu": 4286, "Spo": 4287, "dra": 4288, "tg": 4289, "tify</w>": 4290, "stron": 4291, "divor": 4292, "process": 4293, "polic": 4294, "sities</w>": 4295, "eter": 4296, "coa</w>": 4297, "abe": 4298, "see": 4299, "ked": 4300, "touch": 4301, "card</w>": 4302, "future</w>": 4303, "subscription</w>": 4304, "geographi": 4305, "frequently</w>": 4306, "confecti": 4307, "semi-": 4308, "strict</w>": 4309, "facilities</w>": 4310, "renewable</w>": 4311, "degrees</w>": 4312, "Norwegian</w>": 4313, "numerically</w>": 4314, "Latvia</w>": 4315, "diseases</w>": 4316, "Minnesota</w>": 4317, "Slovenia</w>": 4318, "400</w>": 4319, "Cel": 4320, "Del": 4321, "Wi": 4322, "ested</w>": 4323, "ens": 4324, "hol": 4325, "cocoa</w>": 4326, "wheat</w>": 4327, "corruption</w>": 4328, "summari": 4329, "scen": 4330, "deci": 4331, "insured</w>": 4332, "Andro": 4333, "provider</w>": 4334, "educational</w>": 4335, "celeb": 4336, "shown</w>": 4337, "communication</w>": 4338, "Jama": 4339, "textile</w>": 4340, "recreational</w>": 4341, "Dominican</w>": 4342, "Spotify</w>": 4343, "summarizes</w>": 4344, "Android</w>": 4345, "Brun": 4346, "Fri": 4347, "Her": 4348, "Sto": 4349, "Sain": 4350, "aw": 4351, "ful": 4352, "pr": 4353, "ean</w>": 4354, "stay</w>": 4355, "ack": 4356, "diam": 4357, "prob": 4358, "duce</w>": 4359, "web</w>": 4360, "3.1</w>": 4361, "eived</w>": 4362, "Paris</w>": 4363, "directly</w>": 4364, "Store</w>": 4365, "searches</w>": 4366, "graduates</w>": 4367, "multinational</w>": 4368, "Quarter": 4369, "Servic": 4370, "conditions</w>": 4371, "colate</w>": 4372, "titles</w>": 4373, "wealth</w>": 4374, "2020/": 4375, "Quarterly</w>": 4376, "14": 4377, "Bir": 4378, "Ecu": 4379, "Sub": 4380, "War": 4381, "a-": 4382, "erse": 4383, "inte": 4384, "initi": 4385, "al-": 4386, "pow": 4387, "sil": 4388, "producers</w>": 4389, "compon": 4390, "charg": 4391, "bian</w>": 4392, "expect</w>": 4393, "thermore</w>": 4394, "langu": 4395, "invested</w>": 4396, "charac": 4397, "orities</w>": 4398, "universities</w>": 4399, "epidemic</w>": 4400, "strong": 4401, "12": 4402, "CE": 4403, "Sur": 4404, "ai</w>": 4405, "even</w>": 4406, "south</w>": 4407, "will": 4408, "ental</w>": 4409, "2011": 4410, "2008/": 4411, "cons": 4412, "model</w>": 4413, "ham</w>": 4414, "gros": 4415, "ched</w>": 4416, "alls</w>": 4417, "declar": 4418, "Toyo": 4419, "enger</w>": 4420, "Co.</w>": 4421, "participating</w>": 4422, "salaries</w>": 4423, "century</w>": 4424, "Star": 4425, "physical</w>": 4426, "chocolate</w>": 4427, "rail</w>": 4428, "Play": 4429, "Bah": 4430, "photo": 4431, "Furthermore</w>": 4432, "Cuba</w>": 4433, "achie": 4434, "payroll</w>": 4435, "Canadians</w>": 4436, "Approximately</w>": 4437, "Do": 4438, "PP": 4439, "SE": 4440, "Sa": 4441, "atar</w>": 4442, "edi": 4443, "ksw": 4444, "mass</w>": 4445, "tour": 4446, "ony</w>": 4447, "does</w>": 4448, "incidents</w>": 4449, "med": 4450, "meth": 4451, "gues</w>": 4452, "season": 4453, "mortg": 4454, "Worldwide</w>": 4455, "Australi": 4456, "runs</w>": 4457, "Volksw": 4458, "Barack</w>": 4459, "completed</w>": 4460, "etrole": 4461, "year-on-year</w>": 4462, "Nike</w>": 4463, "fleet</w>": 4464, "Bangla": 4465, "Toyota</w>": 4466, "Volkswagen</w>": 4467, "Bran": 4468, "Day</w>": 4469, "Frequ": 4470, "Gr": 4471, "Rate</w>": 4472, "Tai": 4473, "cumulative</w>": 4474, "dit": 4475, "gas": 4476, "mail</w>": 4477, "utions</w>": 4478, "taking</w>": 4479, "orado</w>": 4480, "perman": 4481, "perception</w>": 4482, "fish</w>": 4483, "abuse</w>": 4484, "lead</w>": 4485, "never</w>": 4486, "quarters</w>": 4487, "gia</w>": 4488, "rather</w>": 4489, "cash</w>": 4490, "find</w>": 4491, "certain</w>": 4492, "teen</w>": 4493, "steady</w>": 4494, "Phil": 4495, "publish": 4496, "chart</w>": 4497, "broadca": 4498, "electronic</w>": 4499, "speed</w>": 4500, "materials</w>": 4501, "Bolivia</w>": 4502, "Bunde": 4503, "Jamaica</w>": 4504, "Ecuador</w>": 4505, "etroleum</w>": 4506, "50.": 4507, "Gi": 4508, "Ira": 4509, "Mac": 4510, "Mis": 4511, "To</w>": 4512, "Ver": 4513, "mine</w>": 4514, "mar</w>": 4515, "rus": 4516, "erto</w>": 4517, "2013": 4518, "refin": 4519, "ured</w>": 4520, "stress</w>": 4521, "dic</w>": 4522, "distri": 4523, "coverage</w>": 4524, "advis": 4525, "corn</w>": 4526, "medi": 4527, "prefer</w>": 4528, "playing</w>": 4529, "gir": 4530, "pics</w>": 4531, "notes</w>": 4532, "argo</w>": 4533, "5.6</w>": 4534, "ession</w>": 4535, "body</w>": 4536, "transfer</w>": 4537, "Alg": 4538, "1,7": 4539, "contribu": 4540, "enterprise</w>": 4541, "sliga</w>": 4542, "steel</w>": 4543, "profession": 4544, "religious</w>": 4545, "totaled</w>": 4546, "fifth</w>": 4547, "carbon</w>": 4548, "disposable</w>": 4549, "confectionery</w>": 4550, "Frequency</w>": 4551, "Bundesliga</w>": 4552, "Lan": 4553, "Nep": 4554, "Tw": 4555, "We": 4556, "hap": 4557, "nab": 4558, "pes": 4559, "we</w>": 4560, "yment</w>": 4561, "elphi": 4562, "diabe": 4563, "post": 4564, "Stati": 4565, "conn": 4566, "producing</w>": 4567, "megawatts</w>": 4568, "CO2</w>": 4569, "legal</w>": 4570, "miner": 4571, "subsi": 4572, "hospitali": 4573, "Colorado</w>": 4574, "become</w>": 4575, "antity</w>": 4576, "observation</w>": 4577, "trust</w>": 4578, "second-": 4579, "satisfied</w>": 4580, "Rica</w>": 4581, "candidates</w>": 4582, "cigarettes</w>": 4583, "Estonia</w>": 4584, "Salv": 4585, "cellular</w>": 4586, "ersey</w>": 4587, "Cumulative</w>": 4588, "Ener": 4589, "VA</w>": 4590, "ction</w>": 4591, "cle": 4592, "cement</w>": 4593, "rail": 4594, "tle</w>": 4595, "2012": 4596, "arms</w>": 4597, "alone</w>": 4598, "rice</w>": 4599, "dog</w>": 4600, "ase</w>": 4601, "exam": 4602, "field</w>": 4603, "adelphi": 4604, "shore</w>": 4605, "venture</w>": 4606, "chest</w>": 4607, "theat": 4608, "spea": 4609, "houses</w>": 4610, "ley</w>": 4611, "ources</w>": 4612, "foot</w>": 4613, "4.2</w>": 4614, "5.1</w>": 4615, "fees</w>": 4616, "mini": 4617, "fake</w>": 4618, "Mont": 4619, "reveals</w>": 4620, "manufactured</w>": 4621, "machines</w>": 4622, "kronor</w>": 4623, "John</w>": 4624, "About</w>": 4625, "magazine</w>": 4626, "Univer": 4627, "Georgia</w>": 4628, "calculated</w>": 4629, "Puerto</w>": 4630, "Australian</w>": 4631, "Philadelphi": 4632, "Iraq</w>": 4633, "Algeria</w>": 4634, "/2018</w>": 4635, "Air</w>": 4636, "Bal": 4637, "Dall": 4638, "FD": 4639, "Os</w>": 4640, "Qatar</w>": 4641, "S.": 4642, "Zeal": 4643, "apers</w>": 4644, "dur": 4645, "ff</w>": 4646, "fro": 4647, "fans": 4648, "hin": 4649, "nor": 4650, "wages</w>": 4651, "rights</w>": 4652, "ills</w>": 4653, "doing</w>": 4654, "proved</w>": 4655, "emy</w>": 4656, "words</w>": 4657, "rup": 4658, "buy": 4659, "ronto</w>": 4660, "meaning</w>": 4661, "beef</w>": 4662, "4.7</w>": 4663, "Toronto</w>": 4664, "outbound</w>": 4665, "8.4</w>": 4666, "rism</w>": 4667, "rising</w>": 4668, "transaction</w>": 4669, "communities</w>": 4670, "Are</w>": 4671, "1800</w>": 4672, "laun": 4673, "Online</w>": 4674, "started</w>": 4675, "refer</w>": 4676, "2017/2018</w>": 4677, "Have</w>": 4678, "cheese</w>": 4679, "cosmetics</w>": 4680, "university</w>": 4681, "Disney</w>": 4682, "marriages</w>": 4683, "Syria</w>": 4684, "dependent</w>": 4685, "damage</w>": 4686, "Virgin": 4687, "storage</w>": 4688, "Electri": 4689, "ewelry</w>": 4690, "declared</w>": 4691, "Bangladesh</w>": 4692, "professionals</w>": 4693, "subsidi": 4694, "fans/": 4695, "25": 4696, "Ari": 4697, "El</w>": 4698, "Gh": 4699, "Govern": 4700, "Ju": 4701, "Sou": 4702, "aware</w>": 4703, "bes</w>": 4704, "golf</w>": 4705, "ial</w>": 4706, "nis</w>": 4707, "perceived</w>": 4708, "dioxide</w>": 4709, "che</w>": 4710, "1.9</w>": 4711, "1991</w>": 4712, "4.3</w>": 4713, "kel</w>": 4714, "6.5</w>": 4715, "green": 4716, "teach": 4717, "bling</w>": 4718, "didas</w>": 4719, "EU-": 4720, "glass</w>": 4721, "personnel</w>": 4722, "lifetime</w>": 4723, "Hondur": 4724, "extent</w>": 4725, "fixed</w>": 4726, "pesos</w>": 4727, "Zealand</w>": 4728, "600</w>": 4729, "OT": 4730, "bri": 4731, "domin": 4732, "eSports</w>": 4733, "ist</w>": 4734, "native</w>": 4735, "sonal</w>": 4736, "zen</w>": 4737, "attitu": 4738, "dies": 4739, "veries</w>": 4740, "expres": 4741, "wear": 4742, "seats</w>": 4743, "board</w>": 4744, "1,0": 4745, "location</w>": 4746, "developed</w>": 4747, "toral</w>": 4748, "Rico</w>": 4749, "films</w>": 4750, "John": 4751, "marriage</w>": 4752, "application</w>": 4753, "ssil</w>": 4754, "involved</w>": 4755, "Winter</w>": 4756, "casualties</w>": 4757, "permanent</w>": 4758, "Philadelphia</w>": 4759, "39.": 4760, "Ber": 4761, "Clevel": 4762, "Pinterest</w>": 4763, "Red</w>": 4764, "igh": 4765, "jewelry</w>": 4766, "larg": 4767, "ann": 4768, "reti": 4769, "eating</w>": 4770, "richest</w>": 4771, "diver": 4772, "ident</w>": 4773, "counter": 4774, "10,000</w>": 4775, "twen": 4776, "Direc": 4777, "mean</w>": 4778, "cards</w>": 4779, "committed</w>": 4780, "insurances</w>": 4781, "individual</w>": 4782, "locations</w>": 4783, "smart</w>": 4784, "chall": 4785, "hourly</w>": 4786, "responsible</w>": 4787, "Private</w>": 4788, "refl": 4789, "Househo": 4790, "Serbia</w>": 4791, "logies</w>": 4792, "tionally</w>": 4793, "double</w>": 4794, "statement</w>": 4795, "EBIT": 4796, "learning</w>": 4797, "entary</w>": 4798, "2008/09</w>": 4799, "grossing</w>": 4800, "Nepal</w>": 4801, "Virginia</w>": 4802, "Honduras</w>": 4803, "Bre": 4804, "Ci": 4805, "Caro": 4806, "Fir": 4807, "UE": 4808, "ah": 4809, "lst</w>": 4810, "let": 4811, "ring</w>": 4812, "anmar</w>": 4813, "ala</w>": 4814, "already</w>": 4815, "icy": 4816, "elve</w>": 4817, "poll": 4818, "soli": 4819, "1993</w>": 4820, "generate</w>": 4821, "entation</w>": 4822, "operations</w>": 4823, "segments</w>": 4824, "voting</w>": 4825, "airy</w>": 4826, "cannab": 4827, "harve": 4828, "harass": 4829, "wait</w>": 4830, "Enter": 4831, "Linked": 4832, "holders</w>": 4833, "campaign</w>": 4834, "Myanmar</w>": 4835, "Dallas</w>": 4836, "29": 4837, "60.": 4838, "BBC</w>": 4839, "Food</w>": 4840, "Nic": 4841, "Off": 4842, "fair": 4843, "hund": 4844, "rent</w>": 4845, "test</w>": 4846, "tage</w>": 4847, "attrac": 4848, "stays</w>": 4849, "agement</w>": 4850, "six": 4851, "concen": 4852, "constant</w>": 4853, "coo": 4854, "adv": 4855, "additional</w>": 4856, "run</w>": 4857, "compound</w>": 4858, "leagues</w>": 4859, "Nev": 4860, "typic": 4861, "5.4</w>": 4862, "5.2</w>": 4863, "6.7</w>": 4864, "All</w>": 4865, "airlines</w>": 4866, "Bos": 4867, "sym": 4868, "Parity</w>": 4869, "patient</w>": 4870, "self</w>": 4871, "matches</w>": 4872, "running</w>": 4873, "Olympics</w>": 4874, "intro": 4875, "friends</w>": 4876, "vegetables</w>": 4877, "Republican</w>": 4878, "practi": 4879, "Taiwan</w>": 4880, "Ghana</w>": 4881, "Cleveland</w>": 4882, "EBITDA</w>": 4883, "Carolin": 4884, "49.": 4885, "GVA</w>": 4886, "Ill": 4887, "SD</w>": 4888, "edom</w>": 4889, "rooms</w>": 4890, "oud</w>": 4891, "2026</w>": 4892, "posts</w>": 4893, "exec": 4894, "values</w>": 4895, "interested</w>": 4896, "traditional</w>": 4897, "5.7</w>": 4898, "twelve</w>": 4899, "therap": 4900, "fuge": 4901, "Alb": 4902, "debts</w>": 4903, "choo": 4904, "Christi": 4905, "drivers</w>": 4906, "emergency</w>": 4907, "plastic</w>": 4908, "Atlanta</w>": 4909, "Energy</w>": 4910, "Government</w>": 4911, "LinkedIn</w>": 4912, ".The</w>": 4913, "47.": 4914, "68.": 4915, "Oper": 4916, "Pen": 4917, "Pra": 4918, "Rati": 4919, "Reg": 4920, "Sri</w>": 4921, "cs</w>": 4922, "dfunding</w>": 4923, "dairy</w>": 4924, "her</w>": 4925, "lending</w>": 4926, "tory</w>": 4927, "ene</w>": 4928, "ender</w>": 4929, "llment</w>": 4930, "plants</w>": 4931, "duty</w>": 4932, "too</w>": 4933, "county</w>": 4934, "bui": 4935, "corresponding</w>": 4936, "ils</w>": 4937, "3.9</w>": 4938, "earning</w>": 4939, "estimate</w>": 4940, "habits</w>": 4941, "carri": 4942, "Proportion</w>": 4943, "miles</w>": 4944, "accessing</w>": 4945, "possible</w>": 4946, "premium</w>": 4947, "multiple</w>": 4948, "newly</w>": 4949, "Royal</w>": 4950, "logists</w>": 4951, "admitted</w>": 4952, "Travel</w>": 4953, "ESP": 4954, "strongly</w>": 4955, "method</w>": 4956, "girls</w>": 4957, "Nevada</w>": 4958, "introduc": 4959, "Awards</w>": 4960, "Cyp": 4961, "Ets": 4962, "Ethi": 4963, "OE": 4964, "Rea": 4965, "Ten": 4966, "ex</w>": 4967, "jour": 4968, "n'": 4969, "spo": 4970, "sporting</w>": 4971, "zz": 4972, "restric": 4973, "pota": 4974, "biles</w>": 4975, "owing</w>": 4976, "New": 4977, "basketball</w>": 4978, "opia</w>": 4979, "outdoor</w>": 4980, "airports</w>": 4981, "Belgian</w>": 4982, "videos</w>": 4983, "visitor</w>": 4984, "hard</w>": 4985, "akh": 4986, "performing</w>": 4987, "House</w>": 4988, "rubles</w>": 4989, "exceeded</w>": 4990, "CAG": 4991, "shootings</w>": 4992, "wave</w>": 4993, "closely</w>": 4994, "Employment</w>": 4995, "Lanka</w>": 4996, "diabetes</w>": 4997, "Ariz": 4998, "diesel</w>": 4999, "UEFA</w>": 5000, "Cyprus</w>": 5001, "Ethiopia</w>": 5002, "A.</w>": 5003, "Kaz": 5004, "ML": 5005, "Pover": 5006, "Uru": 5007, "bicy": 5008, "d-": 5009, "long</w>": 5010, "ra</w>": 5011, "ually</w>": 5012, "wing</w>": 5013, "ino": 5014, "an-": 5015, "ang": 5016, "2029</w>": 5017, "emi": 5018, "usual</w>": 5019, "fire": 5020, "aires</w>": 5021, "bull": 5022, "corporation</w>": 5023, "disast": 5024, "engine": 5025, "projection</w>": 5026, "/13</w>": 5027, "1,3": 5028, "Belar": 5029, "traveling</w>": 5030, "smoking</w>": 5031, "copper</w>": 5032, "Tik": 5033, "falling</w>": 5034, "injury</w>": 5035, "human</w>": 5036, "affiliation</w>": 5037, "tournam": 5038, "connected</w>": 5039, "2012/13</w>": 5040, "greenhouse</w>": 5041, "Johnson</w>": 5042, "Carolina</w>": 5043, "Ratio</w>": 5044, "akhstan</w>": 5045, "Kazakhstan</w>": 5046, "Poverty</w>": 5047, "Urugu": 5048, "0,000</w>": 5049, "150</w>": 5050, "800</w>": 5051, "Cur": 5052, "PE": 5053, "Pi": 5054, "Roc": 5055, "San": 5056, "hone</w>": 5057, "lun": 5058, "sav": 5059, "ina</w>": 5060, "refuge": 5061, "tains</w>": 5062, "stu": 5063, "stly</w>": 5064, "asking</w>": 5065, "lives</w>": 5066, "fires</w>": 5067, "incin": 5068, "owning</w>": 5069, "prepar": 5070, "maple</w>": 5071, "generating</w>": 5072, "4.6</w>": 5073, "4.4</w>": 5074, "passing</w>": 5075, "center</w>": 5076, "tennis</w>": 5077, "match</w>": 5078, "winning</w>": 5079, "identified</w>": 5080, "Medicare</w>": 5081, "applications</w>": 5082, "billions</w>": 5083, "violence</w>": 5084, "long-": 5085, "temper": 5086, "ensation</w>": 5087, "full</w>": 5088, "PPP</w>": 5089, "seasonally</w>": 5090, "Brands</w>": 5091, "mineral</w>": 5092, "Salvador</w>": 5093, "n't</w>": 5094, "CAGR</w>": 5095, "Arizona</w>": 5096, "Belarus</w>": 5097, "48.": 5098, "57.": 5099, "58.": 5100, "AT": 5101, "BM": 5102, "Best</w>": 5103, "Detro": 5104, "Es</w>": 5105, "No": 5106, "Sud": 5107, "awar": 5108, "bet": 5109, "e/": 5110, "fr": 5111, "hits</w>": 5112, "ian</w>": 5113, "mon</w>": 5114, "tel": 5115, "tled</w>": 5116, "zing</w>": 5117, "tives</w>": 5118, "instr": 5119, "atem": 5120, "alter": 5121, "ick": 5122, "stations</w>": 5123, "shops</w>": 5124, "ademy</w>": 5125, "ables</w>": 5126, "popularity</w>": 5127, "lem</w>": 5128, "Americas</w>": 5129, "fact</w>": 5130, "Academy</w>": 5131, "and/": 5132, "Tok</w>": 5133, "graph": 5134, "avo": 5135, "tested</w>": 5136, "1,5": 5137, "Arm": 5138, "fatal</w>": 5139, "unique</w>": 5140, "specialized</w>": 5141, "homes</w>": 5142, "blems</w>": 5143, "lining</w>": 5144, "computers</w>": 5145, "presenting</w>": 5146, "Guatem": 5147, "occurring</w>": 5148, "success</w>": 5149, "consistently</w>": 5150, "crowdfunding</w>": 5151, "Friday</w>": 5152, "frozen</w>": 5153, "Etsy</w>": 5154, "Sudan</w>": 5155, "instrum": 5156, "1/0": 5157, "69.": 5158, "Clin": 5159, "Data</w>": 5160, "IV</w>": 5161, "Ku": 5162, "Lt": 5163, "Nu": 5164, "eting</w>": 5165, "festi": 5166, "veter": 5167, "atory</w>": 5168, "icon": 5169, "acqu": 5170, "promo": 5171, "2000": 5172, "2001/0": 5173, "comes</w>": 5174, "lia</w>": 5175, "depres": 5176, "extre": 5177, "worst</w>": 5178, "loy": 5179, "impl": 5180, "counted</w>": 5181, "chester</w>": 5182, "spite</w>": 5183, "secu": 5184, "parent</w>": 5185, "giving</w>": 5186, "Char": 5187, "tica</w>": 5188, "4.8</w>": 5189, "5.9</w>": 5190, "outstanding</w>": 5191, "fication</w>": 5192, "1,9": 5193, "rental</w>": 5194, "concerns</w>": 5195, "refers</w>": 5196, "later</w>": 5197, "Ford</w>": 5198, "Micha": 5199, "SMEs</w>": 5200, "prescription</w>": 5201, "messaging</w>": 5202, "newspapers</w>": 5203, "baby</w>": 5204, "Birth</w>": 5205, "silver</w>": 5206, "TikTok</w>": 5207, "49": 5208, "Euro</w>": 5209, "Lo": 5210, "Mu": 5211, "Nat": 5212, "Pay": 5213, "Som": 5214, "Tec": 5215, "Will": 5216, "adidas</w>": 5217, "cargo</w>": 5218, "ital</w>": 5219, "lor": 5220, "ologists</w>": 5221, "yi": 5222, "return</w>": 5223, "iti</w>": 5224, "These</w>": 5225, "version</w>": 5226, "mother</w>": 5227, "compensation</w>": 5228, "genres</w>": 5229, "parts</w>": 5230, "high-": 5231, "4.1</w>": 5232, "cloud</w>": 5233, "6.4</w>": 5234, "resulting</w>": 5235, "offences</w>": 5236, "juice</w>": 5237, "operation</w>": 5238, "/14</w>": 5239, "9.3</w>": 5240, "developing</w>": 5241, "syru": 5242, "organization</w>": 5243, "supplements</w>": 5244, "High": 5245, "attack</w>": 5246, "Department</w>": 5247, "readers</w>": 5248, "Play</w>": 5249, "Super</w>": 5250, "Medicaid</w>": 5251, "cession</w>": 5252, "licensed</w>": 5253, "scores</w>": 5254, "clients</w>": 5255, "territory</w>": 5256, "kidney</w>": 5257, "Panama</w>": 5258, "Hotels</w>": 5259, "appear": 5260, "problem</w>": 5261, "2013/14</w>": 5262, "Uruguay</w>": 5263, "temperat": 5264, "and/or</w>": 5265, "2001/02</w>": 5266, "An</w>": 5267, "Around</w>": 5268, "BS</w>": 5269, "Cu": 5270, "Hy": 5271, "Other</w>": 5272, "Pe": 5273, "ault</w>": 5274, "cream</w>": 5275, "ition</w>": 5276, "pted</w>": 5277, "pir": 5278, "tter</w>": 5279, "uan</w>": 5280, "encies</w>": 5281, "representing</w>": 5282, "ont</w>": 5283, "oned</w>": 5284, "rities</w>": 5285, "ditionally</w>": 5286, "problems</w>": 5287, "lians</w>": 5288, "despite</w>": 5289, "covered</w>": 5290, "sell": 5291, "chec": 5292, "Indu": 5293, "regn": 5294, "ronic</w>": 5295, "pets</w>": 5296, "behin": 5297, "electoral</w>": 5298, "firm</w>": 5299, "tures</w>": 5300, "gambling</w>": 5301, "More": 5302, "Alber": 5303, "Malta</w>": 5304, "ados</w>": 5305, "belong": 5306, "managers</w>": 5307, "Island</w>": 5308, "Manchester</w>": 5309, "heart</w>": 5310, "Compared</w>": 5311, "background</w>": 5312, "officers</w>": 5313, "virtual</w>": 5314, "potential</w>": 5315, "touchdowns</w>": 5316, "willing</w>": 5317, "mortgage</w>": 5318, "Pradesh</w>": 5319, "engineering</w>": 5320, "Detroit</w>": 5321, "Guatemala</w>": 5322, "5,000</w>": 5323, "67.": 5324, "EA</w>": 5325, "Kansas</w>": 5326, "Phar": 5327, "Ste": 5328, "Tes": 5329, "ei</w>": 5330, "lam": 5331, "tan": 5332, "wks</w>": 5333, "art</w>": 5334, "star</w>": 5335, "ster": 5336, "umes</w>": 5337, "eling</w>": 5338, "plc</w>": 5339, "mostly</w>": 5340, "priv": 5341, "owed</w>": 5342, "scale</w>": 5343, "gigawatts</w>": 5344, "declining</w>": 5345, "ty-": 5346, "entire</w>": 5347, "operators</w>": 5348, "arian</w>": 5349, "visiting</w>": 5350, "central</w>": 5351, "difference</w>": 5352, "histor": 5353, "healthy</w>": 5354, "favorable</w>": 5355, "publishing</w>": 5356, "effici": 5357, "Airport</w>": 5358, "influence</w>": 5359, "recovered</w>": 5360, "Que": 5361, "tablets</w>": 5362, "assists</w>": 5363, "personally</w>": 5364, "prescriptions</w>": 5365, "in-store</w>": 5366, "kilowatt</w>": 5367, "official</w>": 5368, "acceptable</w>": 5369, "attribu": 5370, "language</w>": 5371, "First</w>": 5372, "cannabis</w>": 5373, "hundred</w>": 5374, "13": 5375, "250</w>": 5376, "Bus": 5377, "Cru": 5378, "Daily</w>": 5379, "Mit": 5380, "ao</w>": 5381, "ped</w>": 5382, "public": 5383, "pregn": 5384, "wash": 5385, "erry</w>": 5386, "rest</w>": 5387, "tat": 5388, "agents</w>": 5389, "among": 5390, "exhi": 5391, "look</w>": 5392, "theft</w>": 5393, "trip</w>": 5394, "sus</w>": 5395, "parties</w>": 5396, "ffic": 5397, "ept</w>": 5398, "1996</w>": 5399, "tickets</w>": 5400, "nights</w>": 5401, "Moro": 5402, "offering</w>": 5403, "/12</w>": 5404, "lesbian</w>": 5405, "wholesal": 5406, "ionaires</w>": 5407, "Houston</w>": 5408, "mid-": 5409, "label</w>": 5410, "Micro": 5411, "issued</w>": 5412, "release</w>": 5413, "motorcycle</w>": 5414, "describes</w>": 5415, "suffered</w>": 5416, "semi-annually</w>": 5417, "2011/12</w>": 5418, "EU-28</w>": 5419, "OECD</w>": 5420, "behind</w>": 5421, "Moreover</w>": 5422, "amongst</w>": 5423, "Ali": 5424, "Cincin": 5425, "Lau": 5426, "MR": 5427, "Sum": 5428, "bloc": 5429, "gay</w>": 5430, "preven": 5431, "ss": 5432, "ute</w>": 5433, "vo</w>": 5434, "tim</w>": 5435, "eni": 5436, "rea</w>": 5437, "hia</w>": 5438, "pli": 5439, "tra</w>": 5440, "today</w>": 5441, "hair</w>": 5442, "worried</w>": 5443, "merch": 5444, "sco</w>": 5445, "victim</w>": 5446, "employers</w>": 5447, "trading</w>": 5448, "Championship</w>": 5449, "5.8</w>": 5450, "engagement</w>": 5451, "relation": 5452, "stop</w>": 5453, "airport</w>": 5454, "turnout</w>": 5455, "Media</w>": 5456, "presidents</w>": 5457, "holidays</w>": 5458, "became</w>": 5459, "concern</w>": 5460, "drinking</w>": 5461, "Consumption</w>": 5462, "someone</w>": 5463, "Social</w>": 5464, "terrorism</w>": 5465, "occupancy</w>": 5466, "couples</w>": 5467, "SME</w>": 5468, "Feder": 5469, "threat</w>": 5470, "found": 5471, "publishers</w>": 5472, "Albania</w>": 5473, "syrup</w>": 5474, "FT": 5475, "Wh</w>": 5476, "ap</w>": 5477, "del": 5478, "hing</w>": 5479, "lon": 5480, "ping</w>": 5481, "sl": 5482, "swe": 5483, "veal</w>": 5484, "ycl": 5485, "yuan</w>": 5486, "zza</w>": 5487, "eries</w>": 5488, "orts</w>": 5489, "ille</w>": 5490, "ecting</w>": 5491, "ount</w>": 5492, "nity</w>": 5493, "tran": 5494, "most-": 5495, "toil": 5496, "abama</w>": 5497, "oline</w>": 5498, "1975</w>": 5499, "bit</w>": 5500, "former": 5501, "highly</w>": 5502, "leg": 5503, "classi": 5504, "outl": 5505, "occas": 5506, "ricket</w>": 5507, "tea</w>": 5508, "Alabama</w>": 5509, "1,8": 5510, "paying</w>": 5511, "managed</w>": 5512, "speciali": 5513, "graduate</w>": 5514, "showing</w>": 5515, "cotton</w>": 5516, "names</w>": 5517, "Isra": 5518, "hyper": 5519, "confidence</w>": 5520, "limited</w>": 5521, "Czechia</w>": 5522, "Indiana</w>": 5523, "Madrid</w>": 5524, "fastest</w>": 5525, "Second</w>": 5526, "kilowatt-": 5527, "batter": 5528, "telecommunications</w>": 5529, "gallons</w>": 5530, "ministr": 5531, "Direct</w>": 5532, "harassment</w>": 5533, "Illino": 5534, "iconduc": 5535, "27": 5536, "28": 5537, "Ben": 5538, "Eb": 5539, "Hu": 5540, "Ok": 5541, "ahead</w>": 5542, "fund</w>": 5543, "flow</w>": 5544, "gy": 5545, "getting</w>": 5546, "petroleum</w>": 5547, "win</w>": 5548, "iness</w>": 5549, "ening</w>": 5550, "oning</w>": 5551, "agencies</w>": 5552, "dest</w>": 5553, "defense</w>": 5554, "pod": 5555, "moder": 5556, "ids</w>": 5557, "lot</w>": 5558, "cise</w>": 5559, "big</w>": 5560, "ximum</w>": 5561, "disorders</w>": 5562, "alled</w>": 5563, "bodia</w>": 5564, "e-mail</w>": 5565, "alization</w>": 5566, "hard": 5567, "liter</w>": 5568, "nati</w>": 5569, "models</w>": 5570, "Turn": 5571, "readership</w>": 5572, "claims</w>": 5573, "graphic</w>": 5574, "Laos</w>": 5575, "photo</w>": 5576, "Brand</w>": 5577, "newspaper</w>": 5578, "Cambodia</w>": 5579, "surgery</w>": 5580, "connections</w>": 5581, "B2B</w>": 5582, "associated</w>": 5583, "2020/21</w>": 5584, "rushing</w>": 5585, "distributed</w>": 5586, "duration</w>": 5587, "buyers</w>": 5588, "harvested</w>": 5589, "Region</w>": 5590, "bullying</w>": 5591, "Michael</w>": 5592, "Cincinnati</w>": 5593, "Summer</w>": 5594, "700</w>": 5595, "AS": 5596, "Clu": 5597, "Due</w>": 5598, "Desp": 5599, "Ed": 5600, "Jor": 5601, "USD</w>": 5602, "clim": 5603, "dan</w>": 5604, "ized</w>": 5605, "pa": 5606, "pan": 5607, "sn": 5608, "say</w>": 5609, "wn</w>": 5610, "ini</w>": 5611, "independent</w>": 5612, "enses</w>": 5613, "remain</w>": 5614, "tall": 5615, "alists</w>": 5616, "stain": 5617, "illegal</w>": 5618, "sters</w>": 5619, "hood</w>": 5620, "disc": 5621, "ounce</w>": 5622, "de-": 5623, "essions</w>": 5624, "marking</w>": 5625, "survi": 5626, "vendor</w>": 5627, "correc": 5628, "basic</w>": 5629, "outlets</w>": 5630, "watches</w>": 5631, "cardi": 5632, "financing</w>": 5633, "passed</w>": 5634, "Liber": 5635, "Polish</w>": 5636, "border</w>": 5637, "Exp": 5638, "groceries</w>": 5639, "effective</w>": 5640, "Airlines</w>": 5641, "flights</w>": 5642, "hydro": 5643, "automobiles</w>": 5644, "gawatt</w>": 5645, "Forecasted</w>": 5646, "farm</w>": 5647, "connection</w>": 5648, "athletes</w>": 5649, "bottled</w>": 5650, "Louis</w>": 5651, "same-": 5652, "liament</w>": 5653, "achieved</w>": 5654, "Sahar": 5655, "tournament</w>": 5656, "better</w>": 5657, "Somalia</w>": 5658, "Illinois</w>": 5659, "Despite</w>": 5660, "Brea": 5661, "Pap": 5662, "Sol": 5663, "VR</w>": 5664, "Wom": 5665, "Zim": 5666, "edon": 5667, "gion</w>": 5668, "iP": 5669, "iOS</w>": 5670, "sul": 5671, "war</w>": 5672, "zer</w>": 5673, "anwhile</w>": 5674, "reals</w>": 5675, "right</w>": 5676, "stment</w>": 5677, "quantity</w>": 5678, "bus</w>": 5679, "suicides</w>": 5680, "metal</w>": 5681, "metro</w>": 5682, "open</w>": 5683, "foods</w>": 5684, "ism</w>": 5685, "answ": 5686, "Franci": 5687, "Almost</w>": 5688, "Lib": 5689, "impacted</w>": 5690, "Malaysian</w>": 5691, "religion</w>": 5692, "nationwide</w>": 5693, "Indians</w>": 5694, "handled</w>": 5695, "continuously</w>": 5696, "malware</w>": 5697, "copies</w>": 5698, "target</w>": 5699, "authorities</w>": 5700, "casino</w>": 5701, "geographical</w>": 5702, "holding</w>": 5703, "example</w>": 5704, "symp": 5705, "buildings</w>": 5706, "savings</w>": 5707, "alternative</w>": 5708, "Natural</w>": 5709, "Willi": 5710, "Microsoft</w>": 5711, "formerly</w>": 5712, "kilowatt-hour</w>": 5713, "Turnover</w>": 5714, "Jordan</w>": 5715, "Beli": 5716, "Hallo": 5717, "IC</w>": 5718, "Leb": 5719, "Out": 5720, "Rw": 5721, "Sea": 5722, "Sun": 5723, "away</w>": 5724, "betting</w>": 5725, "da</w>": 5726, "sy</w>": 5727, "twee": 5728, "zeg": 5729, "anon</w>": 5730, "atri": 5731, "prospec": 5732, "ami</w>": 5733, "conc": 5734, "mothers</w>": 5735, "rans": 5736, "strat": 5737, "leave</w>": 5738, "prev": 5739, "4.9</w>": 5740, "follow</w>": 5741, "5.3</w>": 5742, "ision</w>": 5743, "6.1</w>": 5744, "ovina</w>": 5745, "equality</w>": 5746, "atten": 5747, "1,4": 5748, "dental</w>": 5749, "whose</w>": 5750, "gether</w>": 5751, "cco</w>": 5752, "/01</w>": 5753, "aints</w>": 5754, "Romney</w>": 5755, "opinions</w>": 5756, "Hawai": 5757, "middle</w>": 5758, "condition</w>": 5759, "Capital</w>": 5760, "Milan</w>": 5761, "features</w>": 5762, "protection</w>": 5763, "style</w>": 5764, "Brunei</w>": 5765, "Herzeg": 5766, "broadcasting</w>": 5767, "MLB</w>": 5768, "2000/01</w>": 5769, "Pharmac": 5770, "Morocco</w>": 5771, "Breakdown</w>": 5772, "edonia</w>": 5773, "Halloween</w>": 5774, "Lebanon</w>": 5775, "Herzegovina</w>": 5776, "12,": 5777, "2,000</w>": 5778, "70.": 5779, "Steam</w>": 5780, "VM": 5781, "VAT</w>": 5782, "Yan": 5783, "bai": 5784, "bad</w>": 5785, "late</w>": 5786, "ph</w>": 5787, "sent</w>": 5788, "sen</w>": 5789, "sus": 5790, "tonom": 5791, "weap": 5792, "inery</w>": 5793, "tations</w>": 5794, "staff</w>": 5795, "stating</w>": 5796, "dietary</w>": 5797, "deter": 5798, "sit</w>": 5799, "sians</w>": 5800, "contain": 5801, "ably</w>": 5802, "fossil</w>": 5803, "bec</w>": 5804, "best-": 5805, "ford</w>": 5806, "earth": 5807, "shipping</w>": 5808, "1,2": 5809, "cipi": 5810, "Bot": 5811, "Meanwhile</w>": 5812, "of-": 5813, "booking</w>": 5814, "occupi": 5815, "Haiti</w>": 5816, "downloaded</w>": 5817, "occupation</w>": 5818, "Level</w>": 5819, "Seattle</w>": 5820, "Federal</w>": 5821, "mainly</w>": 5822, "Amount</w>": 5823, "represent</w>": 5824, "policy</w>": 5825, "diamond</w>": 5826, "gasoline</w>": 5827, "railway</w>": 5828, "refugees</w>": 5829, "graphy</w>": 5830, "Clinton</w>": 5831, "Alberta</w>": 5832, "wholesalers</w>": 5833, "merchant</w>": 5834, "Israel</w>": 5835, "Club</w>": 5836, "Women</w>": 5837, "Libya</w>": 5838, "Belize</w>": 5839, "Hawaii</w>": 5840, "tonomous</w>": 5841, "-of-": 5842, "/average</w>": 5843, "3,000</w>": 5844, "77.": 5845, "Cy": 5846, "Gender</w>": 5847, "LGB": 5848, "Pit": 5849, "RIT</w>": 5850, "Rio</w>": 5851, "Ta": 5852, "Tuni": 5853, "Wy": 5854, "We</w>": 5855, "awat": 5856, "bn": 5857, "bon": 5858, "bing</w>": 5859, "denti": 5860, "nin": 5861, "nur": 5862, "osc": 5863, "sou": 5864, "saf": 5865, "va</w>": 5866, "vement</w>": 5867, "int</w>": 5868, "inder</w>": 5869, "enh": 5870, "rep": 5871, "itch": 5872, "atch</w>": 5873, "eless</w>": 5874, "amas</w>": 5875, "vid": 5876, "very": 5877, "posite</w>": 5878, "contains</w>": 5879, "porter</w>": 5880, "addi": 5881, "administr": 5882, "terawat": 5883, "aying</w>": 5884, "maximum</w>": 5885, "decision</w>": 5886, "Nearly</w>": 5887, "volta": 5888, "6.3</w>": 5889, "6.6</w>": 5890, "10,": 5891, "eges</w>": 5892, "risen</w>": 5893, "there": 5894, "Alp": 5895, "heat</w>": 5896, "gets</w>": 5897, "little</w>": 5898, "collected</w>": 5899, "viewing</w>": 5900, "shipment</w>": 5901, "favor</w>": 5902, "Airbn": 5903, "burgh</w>": 5904, "recoveries</w>": 5905, "semiconduc": 5906, "machinery</w>": 5907, "baba</w>": 5908, "influenza</w>": 5909, "founded</w>": 5910, "eapest</w>": 5911, "targeted</w>": 5912, "environmental</w>": 5913, "Senegal</w>": 5914, "masks</w>": 5915, "purposes</w>": 5916, "scenario</w>": 5917, "photovolta": 5918, "South": 5919, "Household</w>": 5920, "pollution</w>": 5921, "Operating</w>": 5922, "ESPRIT</w>": 5923, "Kuwait</w>": 5924, "acquired</w>": 5925, "Ebola</w>": 5926, "Francisco</w>": 5927, "oscill": 5928, "-Sahar": 5929, "900</w>": 5930, "Home</w>": 5931, "If</w>": 5932, "LVM": 5933, "PV</w>": 5934, "Pand": 5935, "Ug": 5936, "aver": 5937, "ek": 5938, "flo": 5939, "spl": 5940, "vy</w>": 5941, "tier</w>": 5942, "ora</w>": 5943, "urch</w>": 5944, "ices</w>": 5945, "ounds</w>": 5946, "aska</w>": 5947, "emen</w>": 5948, "depos": 5949, "atic</w>": 5950, "ve-": 5951, "esity</w>": 5952, "thefts</w>": 5953, "spir": 5954, "press</w>": 5955, "owl</w>": 5956, "pre-": 5957, "increases</w>": 5958, "parks</w>": 5959, "intercourse</w>": 5960, "consuming</w>": 5961, "twice</w>": 5962, "opers</w>": 5963, "1988</w>": 5964, "fuels</w>": 5965, "teens</w>": 5966, "developers</w>": 5967, "hospitality</w>": 5968, "Park</w>": 5969, "nickel</w>": 5970, "created</w>": 5971, "technologies</w>": 5972, "concerning</w>": 5973, "institutional</w>": 5974, "effects</w>": 5975, "crop</w>": 5976, "Sox</w>": 5977, "Mini": 5978, "Luxot": 5979, "logistics</w>": 5980, "Democr": 5981, "Baby</w>": 5982, "Impac": 5983, "ographic</w>": 5984, "material</w>": 5985, "Honda</w>": 5986, "blood</w>": 5987, "marketers</w>": 5988, "Miami</w>": 5989, "animal</w>": 5990, "Golden</w>": 5991, "control</w>": 5992, "Bahamas</w>": 5993, "Macedonia</w>": 5994, "FDI</w>": 5995, "norm": 5996, "Bosnia</w>": 5997, "sellers</w>": 5998, "Alibaba</w>": 5999, "Rwanda</w>": 6000, "-Saharan</w>": 6001, "LVMH</w>": 6002, "deposits</w>": 6003, "Luxottica</w>": 6004, "4,000</w>": 6005, "59.": 6006, "Azer": 6007, "Econ": 6008, "Jersey</w>": 6009, "Rec": 6010, "Tan": 6011, "bados</w>": 6012, "cket</w>": 6013, "gress</w>": 6014, "iron</w>": 6015, "jan</w>": 6016, "may</w>": 6017, "migrants</w>": 6018, "others</w>": 6019, "sle": 6020, "wal": 6021, "anced</w>": 6022, "ented</w>": 6023, "2016": 6024, "ordered</w>": 6025, "uma</w>": 6026, "ounced</w>": 6027, "liqu": 6028, "poll</w>": 6029, "sized</w>": 6030, "modi": 6031, "portable</w>": 6032, "toys</w>": 6033, "ete</w>": 6034, "lot": 6035, "quali": 6036, "vens</w>": 6037, "bucks</w>": 6038, "why</w>": 6039, "trition</w>": 6040, "genre</w>": 6041, "anian</w>": 6042, "preci": 6043, "need</w>": 6044, "internal</w>": 6045, "gifts</w>": 6046, "rain</w>": 6047, "tuition</w>": 6048, "facing</w>": 6049, "rought</w>": 6050, "6.2</w>": 6051, "seas</w>": 6052, "asset</w>": 6053, "transported</w>": 6054, "operator</w>": 6055, "indicating</w>": 6056, "responses</w>": 6057, "profile</w>": 6058, "drug": 6059, "bookings</w>": 6060, "start</w>": 6061, "Barbados</w>": 6062, "anti-": 6063, "placed</w>": 6064, "nominal</w>": 6065, "admissions</w>": 6066, "kind</w>": 6067, "standard</w>": 6068, "strong</w>": 6069, "cinemas</w>": 6070, "decisions</w>": 6071, "Starbucks</w>": 6072, "attitudes</w>": 6073, "baijan</w>": 6074, "occupied</w>": 6075, "Pitts": 6076, "Airbnb</w>": 6077, "split</w>": 6078, "Impact</w>": 6079, "Azerbaijan</w>": 6080, "Cl": 6081, "Fre": 6082, "Io": 6083, "Nation": 6084, "RB": 6085, "Sw": 6086, "SBC</w>": 6087, "Uta": 6088, "Veg": 6089, "cular</w>": 6090, "he</w>": 6091, "hon": 6092, "know</w>": 6093, "tel</w>": 6094, "therm": 6095, "ark</w>": 6096, "hot</w>": 6097, "eci": 6098, "ach</w>": 6099, "ementary</w>": 6100, "ambi": 6101, "pois": 6102, "pool</w>": 6103, "usually</w>": 6104, "quite</w>": 6105, "allowed</w>": 6106, "overseas</w>": 6107, "6.8</w>": 6108, "7.5</w>": 6109, "7.4</w>": 6110, "cap</w>": 6111, "closed</w>": 6112, "Boom": 6113, "goal</w>": 6114, "Denver</w>": 6115, "colleges</w>": 6116, "Based</w>": 6117, "toms</w>": 6118, "Twitch</w>": 6119, "Guine": 6120, "erie</w>": 6121, "effect</w>": 6122, "Angola</w>": 6123, "Prevalence</w>": 6124, "recovery</w>": 6125, "intenti": 6126, "Michi": 6127, "Resorts</w>": 6128, "Elect": 6129, "machine</w>": 6130, "Additionally</w>": 6131, "babwe</w>": 6132, "print</w>": 6133, "particular</w>": 6134, "supplier</w>": 6135, "smallest</w>": 6136, "power": 6137, "components</w>": 6138, "hospitalized</w>": 6139, "wearable</w>": 6140, "Industri": 6141, "relationship</w>": 6142, "Zimbabwe</w>": 6143, "symptoms</w>": 6144, "Tunisia</w>": 6145, "photovoltaic</w>": 6146, "Uganda</w>": 6147, "Econom": 6148, "Pittsburgh</w>": 6149, "Utah</w>": 6150, "Guinea</w>": 6151, "Asi": 6152, "Bon": 6153, "CS": 6154, "FY": 6155, "Hor": 6156, "Las</w>": 6157, "Mass": 6158, "Matt": 6159, "Niss": 6160, "Ohi": 6161, "Oman</w>": 6162, "Trin": 6163, "Tamp": 6164, "cers</w>": 6165, "done</w>": 6166, "iso": 6167, "kWh</w>": 6168, "pat": 6169, "twit": 6170, "yana</w>": 6171, "aragu": 6172, "ombar": 6173, "elementary</w>": 6174, "disp": 6175, "U.S.": 6176, "ash</w>": 6177, "Thus</w>": 6178, "lic</w>": 6179, "uset": 6180, "portu": 6181, "together</w>": 6182, "exi": 6183, "improv": 6184, "rank</w>": 6185, "populated</w>": 6186, "chronic</w>": 6187, "core</w>": 6188, "respective</w>": 6189, "grade</w>": 6190, "whilst</w>": 6191, "eptions</w>": 6192, "decades</w>": 6193, "Chem": 6194, "former</w>": 6195, "outlines</w>": 6196, "7.2</w>": 6197, "8.6</w>": 6198, "relative</w>": 6199, "importance</w>": 6200, "morally</w>": 6201, "2,3": 6202, "black</w>": 6203, "midyear</w>": 6204, "Generation</w>": 6205, "achuset": 6206, "continued</w>": 6207, "heard</w>": 6208, "supermarkets</w>": 6209, "surgical</w>": 6210, "practicing</w>": 6211, "PAY": 6212, "abortion</w>": 6213, "continue</w>": 6214, "civil</w>": 6215, "bankrup": 6216, "processing</w>": 6217, "Sub-Saharan</w>": 6218, "postsecondary</w>": 6219, "cleaning</w>": 6220, "Nicaragu": 6221, "sixth</w>": 6222, "long-term</w>": 6223, "Techno": 6224, "Tesco</w>": 6225, "same-sex</w>": 6226, "prospects</w>": 6227, "terawatt</w>": 6228, "Alphab": 6229, "thermal</w>": 6230, "Massachuset": 6231, "Nissan</w>": 6232, "Ohio</w>": 6233, "-year-": 6234, "BR": 6235, "Cre": 6236, "Cri": 6237, "EM": 6238, "HSBC</w>": 6239, "IN": 6240, "Mag": 6241, "Mem": 6242, "Ri": 6243, "Yemen</w>": 6244, "called</w>": 6245, "dom": 6246, "eing</w>": 6247, "every": 6248, "k-": 6249, "ots</w>": 6250, "p-": 6251, "slow": 6252, "inal</w>": 6253, "row</w>": 6254, "eness</w>": 6255, "recipi": 6256, "oral</w>": 6257, "oul": 6258, "east</w>": 6259, "illary</w>": 6260, "distance</w>": 6261, "proc": 6262, "Throughout</w>": 6263, "post</w>": 6264, "polls</w>": 6265, "Star</w>": 6266, "immigration</w>": 6267, "Inve": 6268, "began</w>": 6269, "ford": 6270, "serv": 6271, "notic": 6272, "opi": 6273, "opport": 6274, "out-of-": 6275, "Nordic</w>": 6276, "7.7</w>": 6277, "velop": 6278, "fewer</w>": 6279, "operates</w>": 6280, "Spending</w>": 6281, "fically</w>": 6282, "aire</w>": 6283, "Cost</w>": 6284, "White</w>": 6285, "gave</w>": 6286, "2,0": 6287, "helor</w>": 6288, "ratings</w>": 6289, "non-life</w>": 6290, "Prime</w>": 6291, "ski</w>": 6292, "skin</w>": 6293, "starting</w>": 6294, "solutions</w>": 6295, "Foll": 6296, "fully</w>": 6297, "nationality</w>": 6298, "low-": 6299, "billionaires</w>": 6300, "transplants</w>": 6301, "doctors</w>": 6302, "supermarket</w>": 6303, "pension</w>": 6304, "statements</w>": 6305, "magazines</w>": 6306, "particularly</w>": 6307, "banknotes</w>": 6308, "charged</w>": 6309, "Electricity</w>": 6310, "announced</w>": 6311, "practice</w>": 6312, "yield</w>": 6313, "Quebec</w>": 6314, "semiconductor</w>": 6315, "poisoning</w>": 6316, "Michigan</w>": 6317, "PAYE</w>": 6318, "Nicaragua</w>": 6319, "Alphabet</w>": 6320, "Massachusetts</w>": 6321, "opportunities</w>": 6322, "-to-": 6323, "42.": 6324, "Award</w>": 6325, "Bit": 6326, "DA": 6327, "Glob": 6328, "II</w>": 6329, "IP</w>": 6330, "Lit": 6331, "Mor": 6332, "Mess": 6333, "Puma</w>": 6334, "Ren": 6335, "Sony</w>": 6336, "cattle</w>": 6337, "hec": 6338, "ky": 6339, "malls</w>": 6340, "s/": 6341, "sci": 6342, "xi": 6343, "tivation</w>": 6344, "ination</w>": 6345, "inbound</w>": 6346, "enjo": 6347, "onwards</w>": 6348, "always</w>": 6349, "2027</w>": 6350, "pork</w>": 6351, "ided</w>": 6352, "load</w>": 6353, "vey</w>": 6354, "cheapest</w>": 6355, "recycl": 6356, "timore</w>": 6357, "elected</w>": 6358, "seri": 6359, "consume</w>": 6360, "Act</w>": 6361, "opportu": 6362, "format</w>": 6363, "displayed</w>": 6364, "engine</w>": 6365, "6.9</w>": 6366, "7.3</w>": 6367, "Motors</w>": 6368, "9.5</w>": 6369, "fici": 6370, "passenger-": 6371, "1,1": 6372, "scorers</w>": 6373, "Coast</w>": 6374, "receive</w>": 6375, "furni": 6376, "non-alcoholic</w>": 6377, "bled</w>": 6378, "Exchange</w>": 6379, "institution</w>": 6380, "Volvo</w>": 6381, "enrollment</w>": 6382, "ed-": 6383, "Fort": 6384, "emerging</w>": 6385, "identity</w>": 6386, "Org": 6387, "utili": 6388, "territories</w>": 6389, "NHL</w>": 6390, "Baltimore</w>": 6391, "S.A.</w>": 6392, "teachers</w>": 6393, "retirement</w>": 6394, "challeng": 6395, "fairly</w>": 6396, "disasters</w>": 6397, "instruments</w>": 6398, "Music</w>": 6399, "Mitt</w>": 6400, "earthqu": 6401, "Pandora</w>": 6402, "hecto": 6403, "opportunity</w>": 6404, "31.": 6405, "Ag": 6406, "Coo": 6407, "Fore": 6408, "IS": 6409, "Pont</w>": 6410, "Shi": 6411, "Sco": 6412, "Year": 6413, "bit": 6414, "bul": 6415, "ees</w>": 6416, "eBay</w>": 6417, "hor": 6418, "rul": 6419, "ring": 6420, "saying</w>": 6421, "tes": 6422, "\u00e2\u20ac": 6423, "anes": 6424, "oran": 6425, "actual</w>": 6426, "elder": 6427, "produce</w>": 6428, "plant</w>": 6429, "asy": 6430, "ascular</w>": 6431, "resources</w>": 6432, "consequ": 6433, "exporting</w>": 6434, "add": 6435, "ghting</w>": 6436, "surpri": 6437, "prize</w>": 6438, "butter</w>": 6439, "sum</w>": 6440, "suffer": 6441, "sustain": 6442, "grades</w>": 6443, "interviewed</w>": 6444, "episo": 6445, "rador</w>": 6446, "earth</w>": 6447, "over-": 6448, "ission</w>": 6449, "essed</w>": 6450, "essential</w>": 6451, "aug": 6452, "souri</w>": 6453, "supported</w>": 6454, "heads</w>": 6455, "heavy</w>": 6456, "specifically</w>": 6457, "medicine</w>": 6458, "choice</w>": 6459, "poss": 6460, "remaining</w>": 6461, "broadcast</w>": 6462, "worker</w>": 6463, "automobile</w>": 6464, "Niger</w>": 6465, "violent</w>": 6466, "Atlantic</w>": 6467, "murder</w>": 6468, "listen</w>": 6469, "Merce": 6470, "sung</w>": 6471, "crash": 6472, "intensive</w>": 6473, "Service</w>": 6474, "Services</w>": 6475, "Doll": 6476, "Missouri</w>": 6477, "University</w>": 6478, "reflects</w>": 6479, "telep": 6480, "Custom": 6481, "exhibi": 6482, "itchen</w>": 6483, "IoT</w>": 6484, "Tampa</w>": 6485, "twitter</w>": 6486, "oultry</w>": 6487, "elderly</w>": 6488, "14,": 6489, "80.": 6490, "Bhu": 6491, "Cho": 6492, "Gri": 6493, "Gold</w>": 6494, "Gren": 6495, "Hom": 6496, "Je": 6497, "PL": 6498, "Reli": 6499, "Soc": 6500, "Ty": 6501, "Vod": 6502, "Who": 6503, "bago</w>": 6504, "cable</w>": 6505, "cell</w>": 6506, "dge</w>": 6507, "dors</w>": 6508, "eta": 6509, "flow": 6510, "pen</w>": 6511, "wid": 6512, "ywood</w>": 6513, "thus</w>": 6514, "any": 6515, "reviews</w>": 6516, "one-": 6517, "ato": 6518, "stage</w>": 6519, "stadium</w>": 6520, "stop": 6521, "agas": 6522, "unds</w>": 6523, "liver</w>": 6524, "des": 6525, "const": 6526, "topped</w>": 6527, "idad</w>": 6528, "expl": 6529, "log": 6530, "coin</w>": 6531, "coca": 6532, "vendors</w>": 6533, "incidence</w>": 6534, "presence</w>": 6535, "approval</w>": 6536, "disorder</w>": 6537, "served</w>": 6538, "compares</w>": 6539, "eping</w>": 6540, "Tobago</w>": 6541, "Italians</w>": 6542, "key": 6543, "keep</w>": 6544, "engines</w>": 6545, "accident</w>": 6546, "feeling</w>": 6547, "deri": 6548, "offshore</w>": 6549, "1982</w>": 6550, "9.9</w>": 6551, "subst": 6552, "Regi": 6553, "obese</w>": 6554, "crimin": 6555, "1,6": 6556, "provide</w>": 6557, "species</w>": 6558, "lahom": 6559, "non-Hispanic</w>": 6560, "specific</w>": 6561, "bership</w>": 6562, "Indonesian</w>": 6563, "tine</w>": 6564, "Export</w>": 6565, "becoming</w>": 6566, "computing</w>": 6567, "availability</w>": 6568, "Develop": 6569, "multi-": 6570, "cros": 6571, "trucks</w>": 6572, "burg</w>": 6573, "minute</w>": 6574, "requests</w>": 6575, "Imports</w>": 6576, "glasses</w>": 6577, "senten": 6578, "Madagas": 6579, "built</w>": 6580, "fallen</w>": 6581, "Prince</w>": 6582, "abortions</w>": 6583, "Big</w>": 6584, "purpose</w>": 6585, "characters</w>": 6586, "SEK</w>": 6587, "Entertainment</w>": 6588, "concentration</w>": 6589, "outlays</w>": 6590, "Oklahom": 6591, "Vegas</w>": 6592, "Mattel</w>": 6593, "Trinidad</w>": 6594, "improvement</w>": 6595, "Investment</w>": 6596, "fordable</w>": 6597, "Year-": 6598, "crashes</w>": 6599, "Bhutan</w>": 6600, "Soccer</w>": 6601, "cocaine</w>": 6602, "Madagascar</w>": 6603, "Oklahoma</w>": 6604, "39": 6605, "Beng": 6606, "Dar": 6607, "Ear": 6608, "Mus": 6609, "Out</w>": 6610, "Patri": 6611, "Rome</w>": 6612, "Wis": 6613, "Year</w>": 6614, "aqu": 6615, "brought</w>": 6616, "eir": 6617, "fra": 6618, "oth": 6619, "ski": 6620, "uk": 6621, "ville</w>": 6622, "yland</w>": 6623, "ynam": 6624, "zania</w>": 6625, "zambi": 6626, "things</w>": 6627, "2060</w>": 6628, "ers": 6629, "rob": 6630, "roads</w>": 6631, "ars": 6632, "ough</w>": 6633, "stol": 6634, "act</w>": 6635, "agency</w>": 6636, "undi</w>": 6637, "lis</w>": 6638, "separ": 6639, "prison</w>": 6640, "primari": 6641, "spring</w>": 6642, "Institu": 6643, "present</w>": 6644, "approved</w>": 6645, "lean</w>": 6646, "gro</w>": 6647, "employer</w>": 6648, "News</w>": 6649, "options</w>": 6650, "8.1</w>": 6651, "8.5</w>": 6652, "Mozambi": 6653, "autonomous</w>": 6654, "Digital</w>": 6655, "equals</w>": 6656, "Holl": 6657, "Green</w>": 6658, "Russians</w>": 6659, "branches</w>": 6660, "obtained</w>": 6661, "elihood</w>": 6662, "kish</w>": 6663, "18,": 6664, "2,7": 6665, "akes</w>": 6666, "3,6": 6667, "pup": 6668, "foreig": 6669, "Goods</w>": 6670, "Turkish</w>": 6671, "named</w>": 6672, "truck</w>": 6673, "swana</w>": 6674, "Soci": 6675, "undergraduate</w>": 6676, "ICP</w>": 6677, "occupations</w>": 6678, "municipal</w>": 6679, "rubber</w>": 6680, "Burundi</w>": 6681, "continent</w>": 6682, "B2C</w>": 6683, "opening</w>": 6684, "Samsung</w>": 6685, "Labrador</w>": 6686, "Civi": 6687, "Office</w>": 6688, "bicycles</w>": 6689, "implem": 6690, "temperature</w>": 6691, "People</w>": 6692, "efficient</w>": 6693, "Crude</w>": 6694, "Botswana</w>": 6695, "LGBT</w>": 6696, "Tanzania</w>": 6697, "intentional</w>": 6698, "Economic</w>": 6699, "Following</w>": 6700, "constantly</w>": 6701, "primarily</w>": 6702, "Mozambique</w>": 6703, "24": 6704, "Bowl</w>": 6705, "Cal": 6706, "Cow": 6707, "E-": 6708, "Euros</w>": 6709, "Fit": 6710, "GB</w>": 6711, "Hillary</w>": 6712, "HICP</w>": 6713, "Ip": 6714, "King</w>": 6715, "S-": 6716, "Sporting</w>": 6717, "Sach": 6718, "Tri": 6719, "Tinder</w>": 6720, "VF</w>": 6721, "bying</w>": 6722, "cent</w>": 6723, "ey": 6724, "em</w>": 6725, "fair</w>": 6726, "ger": 6727, "hem": 6728, "ior</w>": 6729, "jou": 6730, "ming</w>": 6731, "n-": 6732, "poultry</w>": 6733, "rare</w>": 6734, "sage</w>": 6735, "ua</w>": 6736, "vations</w>": 6737, "th-": 6738, "enough</w>": 6739, "aria</w>": 6740, "recording</w>": 6741, "reduce</w>": 6742, "shot</w>": 6743, "libr": 6744, "pocket</w>": 6745, "sius</w>": 6746, "trail": 6747, "ussal": 6748, "veg": 6749, "cold</w>": 6750, "sea</w>": 6751, "cil</w>": 6752, "Inde": 6753, "ondents</w>": 6754, "approve</w>": 6755, "grain</w>": 6756, "fire</w>": 6757, "overdo": 6758, "8.9</w>": 6759, "auction</w>": 6760, "mines</w>": 6761, "currency</w>": 6762, "aves</w>": 6763, "Personal</w>": 6764, "attem": 6765, "voice</w>": 6766, "Anti": 6767, "tech": 6768, "gained</w>": 6769, "demographic</w>": 6770, "non-performing</w>": 6771, "Vide": 6772, "menus</w>": 6773, "10.6</w>": 6774, "profits</w>": 6775, "experiencing</w>": 6776, "Vietnam": 6777, "Airways</w>": 6778, "complaints</w>": 6779, "orial</w>": 6780, "Islands</w>": 6781, "Resp": 6782, "Cardin": 6783, "emerged</w>": 6784, "dependency</w>": 6785, "doubled</w>": 6786, "Size</w>": 6787, "George</w>": 6788, "vegetable</w>": 6789, "est-paid</w>": 6790, "civilian</w>": 6791, "looking</w>": 6792, "casinos</w>": 6793, "reduction</w>": 6794, "cinema</w>": 6795, "Saint</w>": 6796, "consin</w>": 6797, "expressed</w>": 6798, "choose</w>": 6799, "introduced</w>": 6800, "journ": 6801, "restrictions</w>": 6802, "Newfound": 6803, "veterans</w>": 6804, "privacy</w>": 6805, "attributable</w>": 6806, "tatto": 6807, "Federation</w>": 6808, "hardware</w>": 6809, "susp": 6810, "safety</w>": 6811, "challenges</w>": 6812, "hectoliters</w>": 6813, "suffering</w>": 6814, "Development</w>": 6815, "Darussal": 6816, "Patriots</w>": 6817, "Wisconsin</w>": 6818, "Cowboys</w>": 6819, "Darussalam</w>": 6820, "-L": 6821, "Chad</w>": 6822, "Go": 6823, "Herm": 6824, "Na": 6825, "Nun": 6826, "Nami": 6827, "Rap": 6828, "Ve": 6829, "Vic": 6830, "Wars</w>": 6831, "Zam": 6832, "bag": 6833, "bar</w>": 6834, "dated</w>": 6835, "eye": 6836, "fted</w>": 6837, "gest</w>": 6838, "ki</w>": 6839, "kansas</w>": 6840, "lap": 6841, "lying</w>": 6842, "pon</w>": 6843, "pum": 6844, "ud</w>": 6845, "wan": 6846, "inm": 6847, "arts</w>": 6848, "reb": 6849, "river</w>": 6850, "dogs</w>": 6851, "acres</w>": 6852, "progr": 6853, "The": 6854, "They</w>": 6855, "ulture</w>": 6856, "liked</w>": 6857, "sid": 6858, "constitu": 6859, "concession</w>": 6860, "porary</w>": 6861, "hawks</w>": 6862, "impres": 6863, "gence</w>": 6864, "interactions</w>": 6865, "gift</w>": 6866, "monit": 6867, "volution</w>": 6868, "8.8</w>": 6869, "dership</w>": 6870, "ovascular</w>": 6871, "0.5</w>": 6872, "divided</w>": 6873, "minus</w>": 6874, "avut</w>": 6875, "subj": 6876, "obesity</w>": 6877, "Arkansas</w>": 6878, "develo": 6879, "Cost": 6880, "provision</w>": 6881, "Box</w>": 6882, "dropping</w>": 6883, "cultural</w>": 6884, "advertis": 6885, "society</w>": 6886, "stically</w>": 6887, "regards</w>": 6888, "shared</w>": 6889, "safe</w>": 6890, "preference</w>": 6891, "download</w>": 6892, "Black": 6893, "audiences</w>": 6894, "necess": 6895, "greater</w>": 6896, "James</w>": 6897, "Virgin</w>": 6898, "reference</w>": 6899, "remote</w>": 6900, "ammy</w>": 6901, "especi": 6902, "granted</w>": 6903, "Statista</w>": 6904, "fans/Twitter</w>": 6905, "fans/twitter</w>": 6906, "larger</w>": 6907, "typical</w>": 6908, "BMW</w>": 6909, "Highest</w>": 6910, "Pharmaceutical</w>": 6911, "Yanke": 6912, "averaged</w>": 6913, "normal</w>": 6914, "recipients</w>": 6915, "Renault</w>": 6916, "passenger-kilometers</w>": 6917, "Vietnamese</w>": 6918, "Newfoundland</w>": 6919, "Nunavut</w>": 6920, "Namibia</w>": 6921, "Zambia</w>": 6922, "especially</w>": 6923, "130</w>": 6924, "16,": 6925, "26": 6926, "76": 6927, "8,000</w>": 6928, "CP": 6929, "Gul": 6930, "IK": 6931, "Iv": 6932, "Kors</w>": 6933, "MC": 6934, "Oil</w>": 6935, "Sha": 6936, "Tel": 6937, "ba</w>": 6938, "beach</w>": 6939, "fs</w>": 6940, "ji": 6941, "ks": 6942, "lin</w>": 6943, "tub": 6944, "2040</w>": 6945, "anta": 6946, "anxi": 6947, "ark": 6948, "arm": 6949, "oring</w>": 6950, "ection</w>": 6951, "dish": 6952, "district</w>": 6953, "def": 6954, "vering</w>": 6955, "porno": 6956, "tools</w>": 6957, "atives</w>": 6958, "exer": 6959, "fit</w>": 6960, "improved</w>": 6961, "wees</w>": 6962, "weigh": 6963, "bum</w>": 6964, "peer</w>": 6965, "foc": 6966, "intervie": 6967, "interval</w>": 6968, "picture</w>": 6969, "formed</w>": 6970, "shire</w>": 6971, "turned</w>": 6972, "8.3</w>": 6973, "fee</w>": 6974, "Mobi": 6975, "porters</w>": 6976, "enegro</w>": 6977, "bush": 6978, "great</w>": 6979, "records</w>": 6980, "heating</w>": 6981, "Paragu": 6982, "stead</w>": 6983, "Center</w>": 6984, "Defense</w>": 6985, "courses</w>": 6986, "install": 6987, "Trade</w>": 6988, "Council</w>": 6989, "Lakers</w>": 6990, "smokers</w>": 6991, "contract</w>": 6992, "50,000</w>": 6993, "Prada</w>": 6994, "McDonald</w>": 6995, "DuPont</w>": 6996, "VoD</w>": 6997, "packaged</w>": 6998, "Celsius</w>": 6999, "component</w>": 7000, "Week": 7001, "speaking</w>": 7002, "Montenegro</w>": 7003, "twenty-": 7004, "cooking</w>": 7005, "therapy</w>": 7006, "Christians</w>": 7007, "carriers</w>": 7008, "longer</w>": 7009, "Edward</w>": 7010, "Papua</w>": 7011, "bankrupt": 7012, "Scoti": 7013, "exhibition</w>": 7014, "tattoos</w>": 7015, "bags</w>": 7016, "Yankees</w>": 7017, "Gulf</w>": 7018, "interviewees</w>": 7019, "/2011</w>": 7020, "36": 7021, "32.": 7022, "AM": 7023, "Bay": 7024, "Cs</w>": 7025, "ER": 7026, "HD": 7027, "PU</w>": 7028, "Pay</w>": 7029, "Smar": 7030, "SAR": 7031, "Tea": 7032, "V/": 7033, "ek</w>": 7034, "een": 7035, "eth</w>": 7036, "fam": 7037, "fers</w>": 7038, "gen</w>": 7039, "lack</w>": 7040, "mail": 7041, "ok": 7042, "ods</w>": 7043, "tected</w>": 7044, "zers</w>": 7045, "zlo": 7046, "zhe": 7047, "tili": 7048, "ardi": 7049, "ater</w>": 7050, "station</w>": 7051, "perf": 7052, "perpe": 7053, "umin": 7054, "acks</w>": 7055, "Thom": 7056, "vis</w>": 7057, "vised</w>": 7058, "post-": 7059, "sibility</w>": 7060, "mode</w>": 7061, "toy</w>": 7062, "loan</w>": 7063, "es/": 7064, "ingly</w>": 7065, "quick</w>": 7066, "tered</w>": 7067, "surance</w>": 7068, "seven": 7069, "share": 7070, "prime</w>": 7071, "prisons</w>": 7072, "inces</w>": 7073, "metals</w>": 7074, "iled</w>": 7075, "gigawatt</w>": 7076, "makes</w>": 7077, "leans</w>": 7078, "gun</w>": 7079, "basket</w>": 7080, "casts</w>": 7081, "dead": 7082, "7.6</w>": 7083, "Motor</w>": 7084, "Nova</w>": 7085, "9.7</w>": 7086, "indicators</w>": 7087, "branch</w>": 7088, "after": 7089, "electrical</w>": 7090, "salons</w>": 7091, "geo": 7092, "2,5": 7093, "2,8": 7094, "Fiat</w>": 7095, "tension</w>": 7096, "3,0": 7097, "3,9": 7098, "Romanian</w>": 7099, "adoption</w>": 7100, "adopted</w>": 7101, "weekend</w>": 7102, "Pack": 7103, "considerably</w>": 7104, "Guyana</w>": 7105, "2010/2011</w>": 7106, "delivered</w>": 7107, "teenage</w>": 7108, "totaling</w>": 7109, "lifestyle</w>": 7110, "except</w>": 7111, "effor": 7112, "cky</w>": 7113, "ARPU</w>": 7114, "seeing</w>": 7115, "Stock</w>": 7116, "refinery</w>": 7117, "diversi": 7118, "lung</w>": 7119, "awareness</w>": 7120, "Hyund": 7121, "cardiovascular</w>": 7122, "prevent</w>": 7123, "repair</w>": 7124, "Democrats</w>": 7125, "RBI</w>": 7126, "U.S.-based</w>": 7127, "joules</w>": 7128, "zloty</w>": 7129, "zheim": 7130, "ardized</w>": 7131, "120</w>": 7132, "110</w>": 7133, "15,": 7134, "AB</w>": 7135, "Deb": 7136, "Dow</w>": 7137, "Fi</w>": 7138, "Gab": 7139, "Hea": 7140, "HIV</w>": 7141, "Loc": 7142, "Lombar": 7143, "Men</w>": 7144, "Opin": 7145, "PS": 7146, "Ral": 7147, "Sm": 7148, "cat</w>": 7149, "d.</w>": 7150, "gby</w>": 7151, "hi</w>": 7152, "home": 7153, "isi": 7154, "psy": 7155, "xit</w>": 7156, "thin</w>": 7157, "enfor": 7158, "itob": 7159, "stion</w>": 7160, "urs</w>": 7161, "actors</w>": 7162, "dies</w>": 7163, "diffic": 7164, "ply</w>": 7165, "dum</w>": 7166, "commodi": 7167, "extrac": 7168, "ternal</w>": 7169, "surpassed</w>": 7170, "cia</w>": 7171, "incur": 7172, "bedro": 7173, "scan": 7174, "needs</w>": 7175, "forces</w>": 7176, "strikes</w>": 7177, "ffal": 7178, "sos</w>": 7179, "rap</w>": 7180, "ticals</w>": 7181, "ire</w>": 7182, "Toky": 7183, "volumes</w>": 7184, "8.7</w>": 7185, "9.8</w>": 7186, "Resid": 7187, "mix": 7188, "voter</w>": 7189, "Congo</w>": 7190, "And": 7191, "Alaska</w>": 7192, "Alzheim": 7193, "thirds</w>": 7194, "smartw": 7195, "Boss</w>": 7196, "freedom</w>": 7197, "Malaw": 7198, "Parliament</w>": 7199, "2,2": 7200, "2,4": 7201, "help</w>": 7202, "attended</w>": 7203, "funded</w>": 7204, "lesale</w>": 7205, "ggage</w>": 7206, "matter</w>": 7207, "skills</w>": 7208, "weekday</w>": 7209, "single-": 7210, "membership</w>": 7211, "celona</w>": 7212, "commodity</w>": 7213, "Barcelona</w>": 7214, "7,4": 7215, "flight</w>": 7216, "underlying</w>": 7217, "Disne": 7218, "communications</w>": 7219, "Manitob": 7220, "messages</w>": 7221, "messenger</w>": 7222, "malaria</w>": 7223, "nessee</w>": 7224, "llied</w>": 7225, "Catal": 7226, "standardized</w>": 7227, "artists</w>": 7228, "NHS</w>": 7229, "telecommunication</w>": 7230, "divorces</w>": 7231, "decile</w>": 7232, "initial</w>": 7233, "Giants</w>": 7234, "contributions</w>": 7235, "Brexit</w>": 7236, "solid</w>": 7237, "Reasons</w>": 7238, "Tennessee</w>": 7239, "Ltd.</w>": 7240, "appearances</w>": 7241, "washing</w>": 7242, "Hugo</w>": 7243, "climate</w>": 7244, "Expendit": 7245, "answered</w>": 7246, "container</w>": 7247, "ninet": 7248, "vid-19</w>": 7249, "addition</w>": 7250, "spirits</w>": 7251, "Freedom</w>": 7252, "Boomers</w>": 7253, "Wholesale</w>": 7254, "keywords</w>": 7255, "overdose</w>": 7256, "Costco</w>": 7257, "anxiety</w>": 7258, "Paraguay</w>": 7259, "Scotia</w>": 7260, "Hyundai</w>": 7261, "Lombardy</w>": 7262, "commodities</w>": 7263, "Tokyo</w>": 7264, "Malawi</w>": 7265, "3/": 7266, "AC</w>": 7267, "AR</w>": 7268, "All": 7269, "Bor": 7270, "Bol": 7271, "Burb": 7272, "Dak": 7273, "GM": 7274, "Gini</w>": 7275, "Hen": 7276, "Id": 7277, "Iri": 7278, "Ori": 7279, "Ps</w>": 7280, "Rak": 7281, "Serie</w>": 7282, "Ter": 7283, "a-based</w>": 7284, "cam": 7285, "cab": 7286, "cricket</w>": 7287, "dried</w>": 7288, "egi": 7289, "mech": 7290, "nations</w>": 7291, "py</w>": 7292, "rying</w>": 7293, "sell</w>": 7294, "xon": 7295, "anes</w>": 7296, "recomm": 7297, "eable</w>": 7298, "dows</w>": 7299, "emon</w>": 7300, "lio</w>": 7301, "track</w>": 7302, "motion</w>": 7303, "counties</w>": 7304, "ranged</w>": 7305, "rankings</w>": 7306, "she": 7307, "veness</w>": 7308, "grated</w>": 7309, "ne-": 7310, "disagree</w>": 7311, "mont</w>": 7312, "Marri": 7313, "enders</w>": 7314, "lobbying</w>": 7315, "chilled</w>": 7316, "noted</w>": 7317, "raw</w>": 7318, "decor": 7319, "luggage</w>": 7320, "entatives</w>": 7321, "volun": 7322, "over-year</w>": 7323, "isol": 7324, "7.1</w>": 7325, "eigh": 7326, "District</w>": 7327, "waters</w>": 7328, "brac": 7329, "wild": 7330, "1989</w>": 7331, "9.4</w>": 7332, "fertili": 7333, "Under</w>": 7334, "Contri": 7335, "withdra": 7336, "afone</w>": 7337, "moral</w>": 7338, "subscribed</w>": 7339, "denomin": 7340, "Corruption</w>": 7341, "borne</w>": 7342, "medication</w>": 7343, "3,7": 7344, "toria</w>": 7345, "chosen</w>": 7346, "marital</w>": 7347, "Hispan": 7348, "arriving</w>": 7349, "recog": 7350, "Blue</w>": 7351, "Scottish</w>": 7352, "diagnosis</w>": 7353, "Orleans</w>": 7354, "farms</w>": 7355, "referen": 7356, "short</w>": 7357, "officially</w>": 7358, "originated</w>": 7359, "Louisi": 7360, "dealers</w>": 7361, "breast</w>": 7362, "geographic</w>": 7363, "character": 7364, "Survey</w>": 7365, "medals</w>": 7366, "theaters</w>": 7367, "OTC</w>": 7368, "aho</w>": 7369, "extrem": 7370, "Business</w>": 7371, "publicly</w>": 7372, "sweet</w>": 7373, "battery</w>": 7374, "\u00e2\u20ac\u2122": 7375, "Mercedes</w>": 7376, "Vodafone</w>": 7377, "fraud</w>": 7378, "Ipsos</w>": 7379, "veget": 7380, "Respondents</w>": 7381, "wanted</w>": 7382, "programm": 7383, "IKEA</w>": 7384, "perpetr": 7385, "Manitoba</w>": 7386, "Burberry</w>": 7387, "Dakota</w>": 7388, "mechan": 7389, "Louisiana</w>": 7390, "Blo": 7391, "CV": 7392, "IB": 7393, "Ice</w>": 7394, "Jan": 7395, "Ko": 7396, "Ly": 7397, "Mol": 7398, "Mast": 7399, "OPE": 7400, "Open</w>": 7401, "Rob": 7402, "V-": 7403, "Ven": 7404, "Vinc": 7405, "Ya": 7406, "bars</w>": 7407, "bak": 7408, "gur": 7409, "lv": 7410, "pass</w>": 7411, "sable</w>": 7412, "wea": 7413, "wns</w>": 7414, "zone</w>": 7415, "erran": 7416, "antine</w>": 7417, "role</w>": 7418, "re-": 7419, "item</w>": 7420, "omware</w>": 7421, "stories</w>": 7422, "stern</w>": 7423, "ounces</w>": 7424, "2004": 7425, "Things</w>": 7426, "ults</w>": 7427, "liest</w>": 7428, "dollars": 7429, "movement</w>": 7430, "haz": 7431, "championship</w>": 7432, "thesi": 7433, "190</w>": 7434, "00,000</w>": 7435, "yearly</w>": 7436, "amounts</w>": 7437, "leadership</w>": 7438, "disability</w>": 7439, "gible</w>": 7440, "nuts</w>": 7441, "trave": 7442, "engaged</w>": 7443, "two-": 7444, "7.8</w>": 7445, "augh": 7446, "resulted</w>": 7447, "0.3</w>": 7448, "offline</w>": 7449, "9.1</w>": 7450, "francs</w>": 7451, "mile</w>": 7452, "studying</w>": 7453, "Congress</w>": 7454, "airs</w>": 7455, "Coll": 7456, "Polo</w>": 7457, "tholic</w>": 7458, "positions</w>": 7459, "Both</w>": 7460, "sylv": 7461, "Commer": 7462, "Medit": 7463, "budgets</w>": 7464, "directors</w>": 7465, "Primary</w>": 7466, "berg</w>": 7467, "culture</w>": 7468, "likes</w>": 7469, "provinces</w>": 7470, "garden</w>": 7471, "Exxon": 7472, "Consumers</w>": 7473, "experiences</w>": 7474, "Port": 7475, "soldi": 7476, "5,0": 7477, "pizza</w>": 7478, "arrived</w>": 7479, "upper</w>": 7480, "severe</w>": 7481, "Research</w>": 7482, "textiles</w>": 7483, "described</w>": 7484, "plastics</w>": 7485, "murders</w>": 7486, "est-growing</w>": 7487, "attributed</w>": 7488, "Goldman</w>": 7489, "NAFT": 7490, "wellness</w>": 7491, "vaccine</w>": 7492, "divorce</w>": 7493, "Bahrain</w>": 7494, "medal</w>": 7495, "Grand</w>": 7496, "typically</w>": 7497, "Penn": 7498, "firearms</w>": 7499, "Army</w>": 7500, "iPhone</w>": 7501, "tweets</w>": 7502, "drug-related</w>": 7503, "Chemical</w>": 7504, "Bitcoin</w>": 7505, "earthquakes</w>": 7506, "Foreign</w>": 7507, "anesthesi": 7508, "criminal</w>": 7509, "eiro</w>": 7510, "robber": 7511, "stolen</w>": 7512, "Sachs</w>": 7513, "Victoria</w>": 7514, "exercise</w>": 7515, "Mobil</w>": 7516, "Thomas</w>": 7517, "efforts</w>": 7518, "incurred</w>": 7519, "ffalo</w>": 7520, "Expenditure</w>": 7521, "Idaho</w>": 7522, "Raku": 7523, "recogni": 7524, "mechanical</w>": 7525, "erranean</w>": 7526, "Mediterranean</w>": 7527, "ExxonMobil</w>": 7528, "NAFTA</w>": 7529, "64.": 7530, "A/": 7531, "Bei": 7532, "Cubs</w>": 7533, "CBS</w>": 7534, "Eag": 7535, "Grou": 7536, "Ot": 7537, "Oreg": 7538, "Pal</w>": 7539, "Pho": 7540, "RI</w>": 7541, "Sci": 7542, "Tele": 7543, "Ul": 7544, "Uber</w>": 7545, "Usage</w>": 7546, "Van": 7547, "cand": 7548, "nical</w>": 7549, "olive</w>": 7550, "osis</w>": 7551, "p.</w>": 7552, "pence</w>": 7553, "ware": 7554, "yl": 7555, "\u00c3\u00a9": 7556, "tivity</w>": 7557, "ert</w>": 7558, "ena</w>": 7559, "ened</w>": 7560, "art": 7561, "reports</w>": 7562, "album</w>": 7563, "illness</w>": 7564, "um-": 7565, "elers</w>": 7566, "2023/": 7567, "dul": 7568, "asp": 7569, "apo": 7570, "poor</w>": 7571, "conversion</w>": 7572, "toes</w>": 7573, "importing</w>": 7574, "cos</w>": 7575, "seeds</w>": 7576, "chlor": 7577, "1979</w>": 7578, "bullied</w>": 7579, "tried</w>": 7580, "Indit": 7581, "regul": 7582, "neigh": 7583, "monized</w>": 7584, "soy": 7585, "tucky</w>": 7586, "esting</w>": 7587, "yogur": 7588, "107</w>": 7589, "millenni": 7590, "iga</w>": 7591, "8.2</w>": 7592, "rists</w>": 7593, "aux": 7594, "cus</w>": 7595, "offs</w>": 7596, "9.2</w>": 7597, "Covid-19</w>": 7598, "Police</w>": 7599, "launder": 7600, "Finan": 7601, "retailing</w>": 7602, "Valenti": 7603, "special</w>": 7604, "Corp.</w>": 7605, "mented</w>": 7606, "forest</w>": 7607, "Exports</w>": 7608, "Express</w>": 7609, "linked</w>": 7610, "winners</w>": 7611, "winner</w>": 7612, "starter</w>": 7613, "soles</w>": 7614, "raising</w>": 7615, "upward</w>": 7616, "upcoming</w>": 7617, "Health": 7618, "greatly</w>": 7619, "Import</w>": 7620, "spons": 7621, "Kentucky</w>": 7622, "Indian": 7623, "flav": 7624, "Easter</w>": 7625, "eroon</w>": 7626, "involving</w>": 7627, "utilities</w>": 7628, "Cameroon</w>": 7629, "EBIT</w>": 7630, "exception</w>": 7631, "practices</w>": 7632, "longest</w>": 7633, "nonprofit</w>": 7634, "rape</w>": 7635, "consistent</w>": 7636, "analysis</w>": 7637, "diamonds</w>": 7638, "Surin": 7639, "advisors</w>": 7640, "hospitalizations</w>": 7641, "solidated</w>": 7642, "carrier</w>": 7643, "spot</w>": 7644, "an-American</w>": 7645, "securities</w>": 7646, "pregnancy</w>": 7647, "Lauren</w>": 7648, "Liberia</w>": 7649, "ransomware</w>": 7650, "strateg": 7651, "weapons</w>": 7652, "enhams</w>": 7653, "Ministry</w>": 7654, "process</w>": 7655, "sustainable</w>": 7656, "aquac": 7657, "ynamics</w>": 7658, "Cardinals</w>": 7659, "journalists</w>": 7660, "Smart": 7661, "SARS-": 7662, "Debenhams</w>": 7663, "Ralph</w>": 7664, "nineteen": 7665, "Hispanics</w>": 7666, "referendum</w>": 7667, "bakery</w>": 7668, "sylvania</w>": 7669, "anesthesiologists</w>": 7670, "Rakuten</w>": 7671, "Oregon</w>": 7672, "2023/24</w>": 7673, "Inditex</w>": 7674, "laundering</w>": 7675, "-day</w>": 7676, "26,": 7677, "54.": 7678, "60": 7679, "61.": 7680, "Aven": 7681, "Dow": 7682, "Gen</w>": 7683, "Golf</w>": 7684, "Jack": 7685, "Mb": 7686, "See</w>": 7687, "ajoules</w>": 7688, "cited</w>": 7689, "git</w>": 7690, "hate</w>": 7691, "jersey</w>": 7692, "s.</w>": 7693, "set": 7694, "slow</w>": 7695, "vast</w>": 7696, "wers</w>": 7697, "erate</w>": 7698, "inno": 7699, "instead</w>": 7700, "artic": 7701, "attainment</w>": 7702, "along</w>": 7703, "urric": 7704, "stone</w>": 7705, "ecture</w>": 7706, "diet</w>": 7707, "ask": 7708, "resses</w>": 7709, "combu": 7710, "deta": 7711, "States": 7712, "consecu": 7713, "exajoules</w>": 7714, "wearing</w>": 7715, "shings</w>": 7716, "ching</w>": 7717, "1930</w>": 7718, "1976</w>": 7719, "section</w>": 7720, "owa</w>": 7721, "owns</w>": 7722, "house": 7723, "highli": 7724, "mast": 7725, "sole</w>": 7726, "lum</w>": 7727, "3.20</w>": 7728, "Church</w>": 7729, "clin": 7730, "economies</w>": 7731, "nish</w>": 7732, "dering</w>": 7733, "0.7</w>": 7734, "offenses</w>": 7735, "water": 7736, "Novarti": 7737, "9.6</w>": 7738, "arily</w>": 7739, "brow": 7740, "governments</w>": 7741, "providing</w>": 7742, "180</w>": 7743, "part-time</w>": 7744, "Finnish</w>": 7745, "2,9": 7746, "cycl": 7747, "/05</w>": 7748, "vertising</w>": 7749, "Mongo": 7750, "tomato": 7751, "frequent</w>": 7752, "11.8</w>": 7753, "saving</w>": 7754, "graduation</w>": 7755, "graduated</w>": 7756, "igrant</w>": 7757, "trusted</w>": 7758, "Joe</w>": 7759, "swick</w>": 7760, "bachelor</w>": 7761, "workplace</w>": 7762, "acquisitions</w>": 7763, "ICT</w>": 7764, "EUR</w>": 7765, "30,": 7766, "stands</w>": 7767, "prescribed</w>": 7768, "Advertising</w>": 7769, "Brus": 7770, "babies</w>": 7771, "handling</w>": 7772, "docum": 7773, "Military</w>": 7774, "influenced</w>": 7775, "standards</w>": 7776, "Bears</w>": 7777, "marketplace</w>": 7778, "environment</w>": 7779, "suppliers</w>": 7780, "Delaware</w>": 7781, "Brunswick</w>": 7782, "Grammy</w>": 7783, "launched</w>": 7784, "twenty</w>": 7785, "choosing</w>": 7786, "Christian</w>": 7787, "PayPal</w>": 7788, "belonging</w>": 7789, "Southeast</w>": 7790, "oscillated</w>": 7791, "honey</w>": 7792, "servative</w>": 7793, "Messenger</w>": 7794, "furnishings</w>": 7795, "asylum</w>": 7796, "Dollar</w>": 7797, "Customer</w>": 7798, "widely</w>": 7799, "substanti": 7800, "cross-": 7801, "Year-on-year</w>": 7802, "Video</w>": 7803, "diversified</w>": 7804, "Alzheimer</w>": 7805, "Irish</w>": 7806, "Contribution</w>": 7807, "Bloom": 7808, "OPEC</w>": 7809, "2004/05</w>": 7810, "Pennsylvania</w>": 7811, "yogurt</w>": 7812, "Financial</w>": 7813, "Valentine</w>": 7814, "Indianapo": 7815, "Suriname</w>": 7816, "nineteenth</w>": 7817, "Avengers</w>": 7818, "combustion</w>": 7819, "consecutive</w>": 7820, "Novartis</w>": 7821, "tomatoes</w>": 7822, "41.": 7823, "43.": 7824, "63.": 7825, "Bron": 7826, "CE</w>": 7827, "DI": 7828, "Flin": 7829, "FMC": 7830, "GER": 7831, "Iowa</w>": 7832, "Ki": 7833, "Kit": 7834, "Knic": 7835, "MS": 7836, "Pic": 7837, "Q1</w>": 7838, "Rou": 7839, "SE</w>": 7840, "Sim": 7841, "Tran": 7842, "TEU": 7843, "Up</w>": 7844, "dor": 7845, "dron": 7846, "dam</w>": 7847, "eum</w>": 7848, "gent</w>": 7849, "mit": 7850, "mand": 7851, "nd": 7852, "p.": 7853, "sm</w>": 7854, "schem": 7855, "tree</w>": 7856, "tended</w>": 7857, "want</w>": 7858, "tiv": 7859, "till</w>": 7860, "ind": 7861, "anas</w>": 7862, "anticip": 7863, "ard": 7864, "requi": 7865, "onco": 7866, "lla</w>": 7867, "stal</w>": 7868, "icit</w>": 7869, "aga</w>": 7870, "shoes</w>": 7871, "composition</w>": 7872, "composite</w>": 7873, "liqui": 7874, "lithi": 7875, "sight</w>": 7876, "toll</w>": 7877, "ation-": 7878, "iders</w>": 7879, "exporter</w>": 7880, "fight</w>": 7881, "quad": 7882, "populations</w>": 7883, "cians</w>": 7884, "spreading</w>": 7885, "folio</w>": 7886, "leasable</w>": 7887, "meant</w>": 7888, "meals</w>": 7889, "disab": 7890, "periods</w>": 7891, "quarantine</w>": 7892, "parliam": 7893, "nutrition</w>": 7894, "soap</w>": 7895, "left</w>": 7896, "ourself</w>": 7897, "Nevis</w>": 7898, "opposed</w>": 7899, "classes</w>": 7900, "boats</w>": 7901, "Mosco": 7902, "0.6</w>": 7903, "1986</w>": 7904, "Fact</w>": 7905, "certi": 7906, "branded</w>": 7907, "cloth": 7908, "syn": 7909, "Prices</w>": 7910, "3,3": 7911, "11.4</w>": 7912, "11.2</w>": 7913, "headquarters</w>": 7914, "eleven</w>": 7915, "Prefer": 7916, "Rangers</w>": 7917, "orientation</w>": 7918, "contracts</w>": 7919, "Capri</w>": 7920, "Walt</w>": 7921, "behaviors</w>": 7922, "dining</w>": 7923, "princip": 7924, "oda</w>": 7925, "lligence</w>": 7926, "client</w>": 7927, "Comparatively</w>": 7928, "mission</w>": 7929, "dram": 7930, "Within</w>": 7931, "2020/2021</w>": 7932, "Enterpri": 7933, "potatoes</w>": 7934, "depression</w>": 7935, "loyalty</w>": 7936, "Charlot": 7937, "hypertension</w>": 7938, "tally</w>": 7939, "Nationwide</w>": 7940, "serious</w>": 7941, "Organization</w>": 7942, "derived</w>": 7943, "Hollywood</w>": 7944, "Ivory</w>": 7945, "twenty-foot</w>": 7946, "Phoeni": 7947, "Vancou": 7948, "Healthcare</w>": 7949, "SARS-Co": 7950, "Flint</w>": 7951, "FMCG</w>": 7952, "GERD</w>": 7953, "Kitts</w>": 7954, "Knicks</w>": 7955, "TEUs</w>": 7956, "111</w>": 7957, "45.": 7958, "51.": 7959, "Alli": 7960, "C.</w>": 7961, "Fu": 7962, "Gar": 7963, "Jagu": 7964, "Lions</w>": 7965, "Munic": 7966, "Pea": 7967, "Son": 7968, "Str": 7969, "Sab": 7970, "ah</w>": 7971, "cum": 7972, "dwell": 7973, "gation</w>": 7974, "glu": 7975, "ilities</w>": 7976, "ler</w>": 7977, "lens</w>": 7978, "menti": 7979, "na</w>": 7980, "nail</w>": 7981, "ology</w>": 7982, "oils</w>": 7983, "ovens</w>": 7984, "prom</w>": 7985, "pain": 7986, "rho": 7987, "sport": 7988, "tour</w>": 7989, "wt</w>": 7990, "wall": 7991, "ytes</w>": 7992, "yet</w>": 7993, "\u00e3o</w>": 7994, "ercul": 7995, "instant</w>": 7996, "anol</w>": 7997, "eners</w>": 7998, "rel</w>": 7999, "redi": 8000, "eased</w>": 8001, "hob": 8002, "hoo</w>": 8003, "ical-": 8004, "elons</w>": 8005, "2002": 8006, "Than": 8007, "visu": 8008, "rests</w>": 8009, "detected</w>": 8010, "top-": 8011, "eters</w>": 8012, "cover</w>": 8013, "counts</w>": 8014, "oldest</w>": 8015, "chari": 8016, "1920</w>": 8017, "bie</w>": 8018, "respir": 8019, "seconds</w>": 8020, "pressure</w>": 8021, "gration</w>": 8022, "expec": 8023, "iland</w>": 8024, "Maryland</w>": 8025, "diction</w>": 8026, "generic</w>": 8027, "phase</w>": 8028, "optim": 8029, "food": 8030, "island</w>": 8031, "eggs</w>": 8032, "0.8</w>": 8033, "curement</w>": 8034, "meal</w>": 8035, "project</w>": 8036, "portfolio</w>": 8037, "Armen": 8038, "scoring</w>": 8039, "subscriber</w>": 8040, "donations</w>": 8041, "freel": 8042, "Metro</w>": 8043, "2,6": 8044, "cycle</w>": 8045, "Singapore": 8046, "Stre": 8047, "berries</w>": 8048, "euticals</w>": 8049, "viewership</w>": 8050, "3,2": 8051, "3,8": 8052, "tomo": 8053, "youngest</w>": 8054, "11.7</w>": 8055, "chose</w>": 8056, "aziland</w>": 8057, "17,": 8058, "treated</w>": 8059, "winter</w>": 8060, "traveled</w>": 8061, "4,7": 8062, "barri": 8063, "Packers</w>": 8064, "Amazon": 8065, "swear</w>": 8066, "driving</w>": 8067, "familiar</w>": 8068, "hygi": 8069, "Buffalo</w>": 8070, "Trend</w>": 8071, "30,000</w>": 8072, "tioners</w>": 8073, "flu</w>": 8074, "printing</w>": 8075, "title</w>": 8076, "utives</w>": 8077, "Millennial</w>": 8078, "kids</w>": 8079, "original</w>": 8080, "Samson": 8081, "processed</w>": 8082, "a-Pacific</w>": 8083, "edible</w>": 8084, "Statistics</w>": 8085, "speakers</w>": 8086, "subsidies</w>": 8087, "dominated</w>": 8088, "concentr": 8089, "prepared</w>": 8090, "Ltd</w>": 8091, "historical-": 8092, "best-selling</w>": 8093, "Cyber</w>": 8094, "Swaziland</w>": 8095, "Asia-Pacific</w>": 8096, "everyday</w>": 8097, "Literacy</w>": 8098, "augmented</w>": 8099, "telephone</w>": 8100, "Homicide</w>": 8101, "sentenced</w>": 8102, "Indeed</w>": 8103, "inmates</w>": 8104, "tubercul": 8105, "weighted</w>": 8106, "Weekly</w>": 8107, "enforcement</w>": 8108, "scanners</w>": 8109, "smartwatch</w>": 8110, "V-2</w>": 8111, "Yahoo</w>": 8112, "soldiers</w>": 8113, "ylene</w>": 8114, "aquaculture</w>": 8115, "States-based</w>": 8116, "Mongolia</w>": 8117, "cross-border</w>": 8118, "dorf</w>": 8119, "Moscow</w>": 8120, "Munich</w>": 8121, "Armenia</w>": 8122, "historical-cost</w>": 8123, "tuberculosis</w>": 8124, "170</w>": 8125, "33.": 8126, "46": 8127, "71.": 8128, "Ano": 8129, "Gl": 8130, "Game</w>": 8131, "Hel": 8132, "Les": 8133, "MA": 8134, "Mond": 8135, "Many</w>": 8136, "PI": 8137, "Rho": 8138, "Sint</w>": 8139, "SVoD</w>": 8140, "Saga</w>": 8141, "UA": 8142, "Wi-": 8143, "ading</w>": 8144, "ake</w>": 8145, "bonds</w>": 8146, "cid": 8147, "dry</w>": 8148, "e.": 8149, "g-": 8150, "hac": 8151, "kitchen</w>": 8152, "na": 8153, "pain</w>": 8154, "vin": 8155, "wau": 8156, "wins</w>": 8157, "waves</w>": 8158, "yourself</w>": 8159, "tiary</w>": 8160, "instance</w>": 8161, "enge</w>": 8162, "arrests</w>": 8163, "repu": 8164, "itself</w>": 8165, "ller</w>": 8166, "alb": 8167, "rich</w>": 8168, "per-": 8169, "urn</w>": 8170, "icks</w>": 8171, "dova</w>": 8172, "acre</w>": 8173, "aps</w>": 8174, "posted</w>": 8175, "sissi": 8176, "worse</w>": 8177, "fishing</w>": 8178, "imposed</w>": 8179, "coefficient</w>": 8180, "ingredi": 8181, "tertiary</w>": 8182, "thetic</w>": 8183, "1946</w>": 8184, "Insurance</w>": 8185, "genders</w>": 8186, "surveys</w>": 8187, "foster</w>": 8188, "highest-paid</w>": 8189, "Charg": 8190, "faced</w>": 8191, "Acti": 8192, "option</w>": 8193, "outlook</w>": 8194, "birth": 8195, "shipped</w>": 8196, "seasonal</w>": 8197, "7.9</w>": 8198, "risks</w>": 8199, "feit</w>": 8200, "0.4</w>": 8201, "ppi</w>": 8202, "cats</w>": 8203, "renov": 8204, "cane</w>": 8205, "expense</w>": 8206, "3,4": 8207, "3,5": 8208, "sky</w>": 8209, "11.5</w>": 8210, "10.4</w>": 8211, "barrel</w>": 8212, "start-": 8213, "know": 8214, "Lucia</w>": 8215, "Guard</w>": 8216, "5,5": 8217, "streams</w>": 8218, "Death</w>": 8219, "pip": 8220, "varied</w>": 8221, "variety</w>": 8222, "drive</w>": 8223, "Gambia</w>": 8224, "fruits</w>": 8225, "backs</w>": 8226, "severity</w>": 8227, "intended</w>": 8228, "calend": 8229, "Bulls</w>": 8230, "Resources</w>": 8231, "theme</w>": 8232, "occupational</w>": 8233, "placement</w>": 8234, "smoke</w>": 8235, "merchandis": 8236, "Milwau": 8237, "fastest-growing</w>": 8238, "biotech</w>": 8239, "facial</w>": 8240, "accepted</w>": 8241, "IPOs</w>": 8242, "mask</w>": 8243, "vaccines</w>": 8244, "reduced</w>": 8245, "smaller</w>": 8246, "policies</w>": 8247, "consul": 8248, "edition</w>": 8249, "Mississi": 8250, "Two</w>": 8251, "launch</w>": 8252, "Electric</w>": 8253, "wearables</w>": 8254, "executives</w>": 8255, "introduction</w>": 8256, "Cura": 8257, "Armour</w>": 8258, "transit</w>": 8259, "modern</w>": 8260, "bonuses</w>": 8261, "Bonaire</w>": 8262, "-year-olds</w>": 8263, "opio": 8264, "Bengals</w>": 8265, "foreigners</w>": 8266, "libraries</w>": 8267, "bushels</w>": 8268, "Bayern</w>": 8269, "Disney": 8270, "vegetarian</w>": 8271, "programming</w>": 8272, "Janeiro</w>": 8273, "Moldova</w>": 8274, "dollars.The</w>": 8275, "Portland</w>": 8276, "Mbps</w>": 8277, "masturb": 8278, "clinical</w>": 8279, "Indianapolis</w>": 8280, "liquid</w>": 8281, "SARS-CoV-2</w>": 8282, "dwellings</w>": 8283, "Samsonite</w>": 8284, "Another</w>": 8285, "Wi-Fi</w>": 8286, "Milwauke": 8287, "Mississippi</w>": 8288, "-insured</w>": 8289, ".C.</w>": 8290, "145</w>": 8291, "76.": 8292, "Deu": 8293, "Dynamics</w>": 8294, "GO</w>": 8295, "Gaz": 8296, "Heat</w>": 8297, "Jets</w>": 8298, "JPM": 8299, "Ky": 8300, "Kick": 8301, "Liga</w>": 8302, "Mat": 8303, "NCA": 8304, "Pw": 8305, "PD</w>": 8306, "Smart</w>": 8307, "Tre": 8308, "Tum": 8309, "Targ": 8310, "Tig": 8311, "battle</w>": 8312, "cwt</w>": 8313, "fail": 8314, "floo": 8315, "ja": 8316, "jump</w>": 8317, "la</w>": 8318, "lor</w>": 8319, "nated</w>": 8320, "rame</w>": 8321, "sal</w>": 8322, "swit": 8323, "sani": 8324, "sick</w>": 8325, "session</w>": 8326, "yan</w>": 8327, "zin": 8328, "theless</w>": 8329, "20,000</w>": 8330, "tin</w>": 8331, "era</w>": 8332, "inking</w>": 8333, "ang</w>": 8334, "anno": 8335, "roun": 8336, "arding</w>": 8337, "ites</w>": 8338, "riti": 8339, "omass</w>": 8340, "perm": 8341, "stl": 8342, "distan": 8343, "dees</w>": 8344, "devi": 8345, "debit</w>": 8346, "vertheless</w>": 8347, "external</w>": 8348, "word</w>": 8349, "love</w>": 8350, "counter</w>": 8351, "surface</w>": 8352, "venues</w>": 8353, "19,": 8354, "recession</w>": 8355, "meeti": 8356, "expon": 8357, "needed</w>": 8358, "increasingly</w>": 8359, "alloc": 8360, "parti": 8361, "giant</w>": 8362, "makers</w>": 8363, "end-": 8364, "Nestl": 8365, "Chase</w>": 8366, "facility</w>": 8367, "ando</w>": 8368, "anders</w>": 8369, "finished</w>": 8370, "twenti": 8371, "Shell</w>": 8372, "rics</w>": 8373, "juris": 8374, "transl": 8375, "subsequ": 8376, "majors</w>": 8377, "bananas</w>": 8378, "mutual</w>": 8379, "1896</w>": 8380, "signed</w>": 8381, "laws</w>": 8382, "measuring</w>": 8383, "father</w>": 8384, "ethanol</w>": 8385, "/03</w>": 8386, "Colts</w>": 8387, "ectiveness</w>": 8388, "Maine</w>": 8389, "Whilst</w>": 8390, "este</w>": 8391, "11.3</w>": 8392, "racist</w>": 8393, "mula</w>": 8394, "4,6": 8395, "headphones</w>": 8396, "effectiveness</w>": 8397, "remains</w>": 8398, "13.5</w>": 8399, "ionally</w>": 8400, "something</w>": 8401, "tonne-": 8402, "midterm</w>": 8403, "Formula</w>": 8404, "conflic": 8405, "IC-insured</w>": 8406, "established</w>": 8407, "benefici": 8408, "vacancy</w>": 8409, "corporations</w>": 8410, "telecom</w>": 8411, "camping</w>": 8412, "phishing</w>": 8413, "kinson</w>": 8414, "practiced</w>": 8415, "Raiders</w>": 8416, "cigarette</w>": 8417, "Times</w>": 8418, "avid</w>": 8419, "designed</w>": 8420, "screen</w>": 8421, "hub</w>": 8422, "gallon</w>": 8423, "celebr": 8424, "celebrities</w>": 8425, "intelligence</w>": 8426, "advisory</w>": 8427, "happy</w>": 8428, "FDIC-insured</w>": 8429, "attitude</w>": 8430, "counterfeit</w>": 8431, "awarded</w>": 8432, "high-end</w>": 8433, "classified</w>": 8434, "occasionally</w>": 8435, "podcasts</w>": 8436, "attention</w>": 8437, "administration</w>": 8438, "BRIC</w>": 8439, "slowly</w>": 8440, "noticeable</w>": 8441, "episode</w>": 8442, "Grill</w>": 8443, "Institute</w>": 8444, "Vehi": 8445, "rebounds</w>": 8446, "Gabon</w>": 8447, "Resident</w>": 8448, "GMV</w>": 8449, "isolation</w>": 8450, "extremely</w>": 8451, "\u00e2\u20ac\u2122s</w>": 8452, "chloride</w>": 8453, "DIY</w>": 8454, "drone</w>": 8455, "oncology</w>": 8456, "clothes</w>": 8457, "principal</w>": 8458, "Charlotte</w>": 8459, "Phoenix</w>": 8460, "mentioned</w>": 8461, "2002/03</w>": 8462, "visual</w>": 8463, "hygiene</w>": 8464, "UAE</w>": 8465, "Chargers</w>": 8466, "Disney+</w>": 8467, "Milwaukee</w>": 8468, "JPMorgan</w>": 8469, "Kickstarter</w>": 8470, "NCAA</w>": 8471, "PwC</w>": 8472, "distancing</w>": 8473, "meetings</w>": 8474, "twentieth</w>": 8475, "-up</w>": 8476, "140</w>": 8477, "123</w>": 8478, "38": 8479, "3D</w>": 8480, "48": 8481, "52.": 8482, "56.": 8483, "72.": 8484, "Area</w>": 8485, "CI": 8486, "CA</w>": 8487, "CO</w>": 8488, "Dick</w>": 8489, "Er": 8490, "Equi": 8491, "GM</w>": 8492, "Key</w>": 8493, "Kering</w>": 8494, "NO": 8495, "Petroleum</w>": 8496, "Q2</w>": 8497, "Squ": 8498, "Satis": 8499, "USA</w>": 8500, "Warri": 8501, "aero": 8502, "bal</w>": 8503, "cally</w>": 8504, "eers</w>": 8505, "less": 8506, "pt</w>": 8507, "san": 8508, "tun": 8509, "tories</w>": 8510, "ux</w>": 8511, "wel": 8512, "yl</w>": 8513, "yer</w>": 8514, "thy</w>": 8515, "thered</w>": 8516, "thma</w>": 8517, "2035</w>": 8518, "erra</w>": 8519, "ano</w>": 8520, "encounter": 8521, "aro</w>": 8522, "ongoing</w>": 8523, "oration</w>": 8524, "riger": 8525, "stake</w>": 8526, "elds</w>": 8527, "discre": 8528, "ulul": 8529, "vertical</w>": 8530, "versus</w>": 8531, "silic": 8532, "true</w>": 8533, "Station</w>": 8534, "consoles</w>": 8535, "console</w>": 8536, "portr": 8537, "iding</w>": 8538, "immigr": 8539, "rugby</w>": 8540, "marked</w>": 8541, "the-": 8542, "1964</w>": 8543, "secured</w>": 8544, "appropri": 8545, "ronics</w>": 8546, "meeting</w>": 8547, "iler</w>": 8548, "ilding</w>": 8549, "forced</w>": 8550, "discount</w>": 8551, "park</w>": 8552, "comparing</w>": 8553, "not": 8554, "previously</w>": 8555, "tutory</w>": 8556, "oppo": 8557, "Total": 8558, "North": 8559, "reless</w>": 8560, "0.9</w>": 8561, "0.2</w>": 8562, "custo": 8563, "offers</w>": 8564, "Diam": 8565, "break": 8566, "bread</w>": 8567, "arians</w>": 8568, "e-book</w>": 8569, "commit": 8570, "attend</w>": 8571, "investi": 8572, "importers</w>": 8573, "Connec": 8574, "Whereas</w>": 8575, "posit</w>": 8576, "specta": 8577, "rently</w>": 8578, "func": 8579, "Stan": 8580, "Stories</w>": 8581, "collea": 8582, "Chief": 8583, "likelihood</w>": 8584, "Banco</w>": 8585, "ampions</w>": 8586, "match": 8587, "impacts</w>": 8588, "adoles": 8589, "pharmaceuticals</w>": 8590, "10.3</w>": 8591, "1789</w>": 8592, "considering</w>": 8593, "considerable</w>": 8594, "fluctuations</w>": 8595, "refriger": 8596, "erian</w>": 8597, "Barcl": 8598, "preferences</w>": 8599, "Quantity</w>": 8600, "Companies</w>": 8601, "Islam": 8602, "2015/": 8603, "Building</w>": 8604, "required</w>": 8605, "identify</w>": 8606, "citizen": 8607, "nominee</w>": 8608, "senior</w>": 8609, "Ferr": 8610, "conventional</w>": 8611, "lando</w>": 8612, "total/average</w>": 8613, "Orlando</w>": 8614, "Sierra</w>": 8615, "Union-": 8616, "ampionships</w>": 8617, "animals</w>": 8618, "Merck</w>": 8619, "Time</w>": 8620, "drama</w>": 8621, "Voter</w>": 8622, "packaging</w>": 8623, "Skoda</w>": 8624, "Labor</w>": 8625, "Celtics</w>": 8626, "Twen": 8627, "Southern</w>": 8628, "teacher</w>": 8629, "largely</w>": 8630, "challenge</w>": 8631, "bicycle</w>": 8632, "Currently</w>": 8633, "festival</w>": 8634, "loyd</w>": 8635, "MRI</w>": 8636, "specializing</w>": 8637, "Seahawks</w>": 8638, "attendees</w>": 8639, "Wynd": 8640, "southern</w>": 8641, "therefore</w>": 8642, "walking</w>": 8643, "Electronics</w>": 8644, "out-of-pocket</w>": 8645, "pupils</w>": 8646, "Society</w>": 8647, "Civil</w>": 8648, "technical</w>": 8649, "eyewear</w>": 8650, "laptop</w>": 8651, "subject</w>": 8652, "difficult</w>": 8653, "Catalonia</w>": 8654, "characteri": 8655, "CVS</w>": 8656, "aspects</w>": 8657, "neighbor": 8658, "strategy</w>": 8659, "Broncos</w>": 8660, "Vancouver</w>": 8661, "albums</w>": 8662, "birthday</w>": 8663, "calendar</w>": 8664, "Gazprom</w>": 8665, "Tumbl": 8666, "Target</w>": 8667, "Satisfaction</w>": 8668, "ululemon</w>": 8669, "Total/average</w>": 8670, "Connectic": 8671, "Chiefs</w>": 8672, "Islamic</w>": 8673, "Wyndham</w>": 8674, "175</w>": 8675, "40,": 8676, "53.": 8677, "55.": 8678, "AD": 8679, "Av": 8680, "AI</w>": 8681, "Astr": 8682, "ACS": 8683, "BAS": 8684, "CH": 8685, "Care</w>": 8686, "Cine": 8687, "DC</w>": 8688, "Dor": 8689, "Dol": 8690, "Essi": 8691, "Foun": 8692, "Fav": 8693, "Gate</w>": 8694, "Gran": 8695, "Here</w>": 8696, "La</w>": 8697, "Ms</w>": 8698, "NI</w>": 8699, "Ph": 8700, "Ru": 8701, "Stu": 8702, "Thi": 8703, "Telec": 8704, "Ut": 8705, "Wil": 8706, "Yuk": 8707, "Zal": 8708, "award</w>": 8709, "ben": 8710, "dst": 8711, "dure</w>": 8712, "dates</w>": 8713, "euro": 8714, "eals</w>": 8715, "fying</w>": 8716, "gun": 8717, "lenses</w>": 8718, "lululemon</w>": 8719, "mund</w>": 8720, "ni</w>": 8721, "past": 8722, "ro</w>": 8723, "rab": 8724, "sha": 8725, "tting</w>": 8726, "upli": 8727, "wis</w>": 8728, "inations</w>": 8729, "ari</w>": 8730, "aru</w>": 8731, "real": 8732, "review</w>": 8733, "take": 8734, "alumin": 8735, "illicit</w>": 8736, "hold</w>": 8737, "acr": 8738, "act": 8739, "percenti": 8740, "procurement</w>": 8741, "aso</w>": 8742, "emo": 8743, "emission</w>": 8744, "depart": 8745, "vers": 8746, "sim": 8747, "ussia</w>": 8748, "exper": 8749, "lder</w>": 8750, "imaging</w>": 8751, "adines</w>": 8752, "ghly</w>": 8753, "marks</w>": 8754, "oles</w>": 8755, "populous</w>": 8756, "1972</w>": 8757, "bike</w>": 8758, "biomass</w>": 8759, "spark": 8760, "Intel</w>": 8761, "timef": 8762, "owner</w>": 8763, "leaving</w>": 8764, "beans</w>": 8765, "whisky</w>": 8766, "monetary</w>": 8767, "trains</w>": 8768, "training</w>": 8769, "Nevertheless</w>": 8770, "Acc": 8771, "overweight</w>": 8772, "seat</w>": 8773, "ego</w>": 8774, "transplan": 8775, "/17</w>": 8776, "substance</w>": 8777, "Under": 8778, "Greater</w>": 8779, "indicate</w>": 8780, "green</w>": 8781, "insurers</w>": 8782, "Concession</w>": 8783, "eligible</w>": 8784, "afford</w>": 8785, "affordable</w>": 8786, "pack</w>": 8787, "turns</w>": 8788, "donors</w>": 8789, "Mali</w>": 8790, "dementi": 8791, "fatality</w>": 8792, "Child</w>": 8793, "azz</w>": 8794, "searched</w>": 8795, "Porn": 8796, "4,2": 8797, "larcen": 8798, "14.5</w>": 8799, "Installed</w>": 8800, "15.6</w>": 8801, "6,0": 8802, "burger</w>": 8803, "17.4</w>": 8804, "backed</w>": 8805, "Flemi": 8806, "8,7": 8807, "semester</w>": 8808, "alcohol": 8809, "nomination</w>": 8810, "nominees</w>": 8811, "Paul": 8812, "Cape</w>": 8813, "treatments</w>": 8814, "license</w>": 8815, "Catholic</w>": 8816, "clists</w>": 8817, "blogg": 8818, "murdered</w>": 8819, "removed</w>": 8820, "featured</w>": 8821, "protect</w>": 8822, "listening</w>": 8823, "Senate</w>": 8824, "opened</w>": 8825, "batted</w>": 8826, "well-": 8827, "competition</w>": 8828, "Delhi</w>": 8829, "Saints</w>": 8830, "Subaru</w>": 8831, "Warcraft</w>": 8832, "charges</w>": 8833, "CEOs</w>": 8834, "distribu": 8835, "subsidiary</w>": 8836, "Rockets</w>": 8837, "lunch</w>": 8838, "festivals</w>": 8839, "belonged</w>": 8840, "block": 8841, "specialist</w>": 8842, "correctional</w>": 8843, "2016/17</w>": 8844, "preciation</w>": 8845, "Industries</w>": 8846, "Memorial</w>": 8847, "recycling</w>": 8848, "ringgit</w>": 8849, "Grenadines</w>": 8850, "flowers</w>": 8851, "desser": 8852, "exploration</w>": 8853, "otho</w>": 8854, "ersdorf</w>": 8855, "Raptors</w>": 8856, "monitoring</w>": 8857, "necessary</w>": 8858, "ksgiving</w>": 8859, "pornographic</w>": 8860, "Opinion</w>": 8861, "Vincent</w>": 8862, "robberies</w>": 8863, "Beiersdorf</w>": 8864, "Thanksgiving</w>": 8865, "respiratory</w>": 8866, "Lesotho</w>": 8867, "floods</w>": 8868, "zinc</w>": 8869, "beneficiaries</w>": 8870, "EquiTrend</w>": 8871, "Warriors</w>": 8872, "2015/2016</w>": 8873, "Connecticut</w>": 8874, "BASF</w>": 8875, "Yukon</w>": 8876, "Zalando</w>": 8877, "uplifted</w>": 8878, "departments</w>": 8879, "sparkling</w>": 8880, "timeframe</w>": 8881, "Flemish</w>": 8882, "..</w>": 8883, "/2017</w>": 8884, "/2012</w>": 8885, "27,": 8886, "66.": 8887, "81.": 8888, "BT</w>": 8889, "BP</w>": 8890, "Bid": 8891, "Boo": 8892, "Co</w>": 8893, "Cricket</w>": 8894, "Da": 8895, "Driver</w>": 8896, "E.</w>": 8897, "He": 8898, "He</w>": 8899, "Hol": 8900, "III</w>": 8901, "Kon": 8902, "LG</w>": 8903, "Land</w>": 8904, "LIN": 8905, "Mau": 8906, "Metro": 8907, "NG</w>": 8908, "Nint": 8909, "Oak": 8910, "Pal": 8911, "Plan": 8912, "Ris": 8913, "Sil": 8914, "Selected</w>": 8915, "Sask": 8916, "S\u00e3o</w>": 8917, "Tap": 8918, "WH": 8919, "ains</w>": 8920, "brid</w>": 8921, "day": 8922, "dgame</w>": 8923, "estry</w>": 8924, "gone</w>": 8925, "kit</w>": 8926, "kno": 8927, "pure</w>": 8928, "rite</w>": 8929, "tend": 8930, "tend</w>": 8931, "testing</w>": 8932, "tmund</w>": 8933, "vs.</w>": 8934, "ym": 8935, "than": 8936, "ticians</w>": 8937, "iners</w>": 8938, "ane</w>": 8939, "roles</w>": 8940, "tability</w>": 8941, "ortho": 8942, "stayed</w>": 8943, "ections</w>": 8944, "aces</w>": 8945, "acute</w>": 8946, "disti": 8947, "promin": 8948, "emed</w>": 8949, "emark</w>": 8950, "2009/": 8951, "Thinking</w>": 8952, "vita": 8953, "resol": 8954, "limin": 8955, "liability</w>": 8956, "siest</w>": 8957, "sively</w>": 8958, "traded</w>": 8959, "modu": 8960, "atically</w>": 8961, "expo": 8962, "exposed</w>": 8963, "fill</w>": 8964, "losing</w>": 8965, "covering</w>": 8966, "ingness</w>": 8967, "rupi": 8968, "grounds</w>": 8969, "produces</w>": 8970, "productivity</w>": 8971, "ranging</w>": 8972, "1955</w>": 8973, "1971</w>": 8974, "bikes</w>": 8975, "ximate</w>": 8976, "nets</w>": 8977, "plays</w>": 8978, "1.75</w>": 8979, "endo</w>": 8980, "deceased</w>": 8981, "lus</w>": 8982, "tra-": 8983, "traffic": 8984, "tually</w>": 8985, "baseball</w>": 8986, "and-": 8987, "reactors</w>": 8988, "route</w>": 8989, "105</w>": 8990, "shir": 8991, "infecti": 8992, "accur": 8993, "Audi</w>": 8994, "assess": 8995, "nival</w>": 8996, "feder": 8997, "entially</w>": 8998, "cut</w>": 8999, "juices</w>": 9000, "transgender</w>": 9001, "1987</w>": 9002, "subsector</w>": 9003, "arios</w>": 9004, "e-books</w>": 9005, "e-to-": 9006, "Red": 9007, "Reds</w>": 9008, "consists</w>": 9009, "mith": 9010, "cereals</w>": 9011, "Prote": 9012, "investors</w>": 9013, "Why</w>": 9014, "donation</w>": 9015, "democ": 9016, "tenance</w>": 9017, "homo": 9018, "Revenues</w>": 9019, "crete</w>": 9020, "pharmacy</w>": 9021, "10.8</w>": 9022, "racial</w>": 9023, "4,4": 9024, "4,9": 9025, "Increas": 9026, "Fossil</w>": 9027, "zero</w>": 9028, "12.3</w>": 9029, "12.9</w>": 9030, "sonaro</w>": 9031, "favored</w>": 9032, "affect</w>": 9033, "Roche</w>": 9034, "burned</w>": 9035, "complete</w>": 9036, "Housing</w>": 9037, "17.5</w>": 9038, "deliveries</w>": 9039, "ICS</w>": 9040, "9,0": 9041, "releases</w>": 9042, "Carnival</w>": 9043, "Lewis</w>": 9044, "nationals</w>": 9045, "Endgame</w>": 9046, "self-employed</w>": 9047, "contracep": 9048, "predicts</w>": 9049, "doctor</w>": 9050, "maintained</w>": 9051, "maintenance</w>": 9052, "hearing</w>": 9053, "Amster": 9054, "scorer</w>": 9055, "Windows</w>": 9056, "procedure</w>": 9057, "blogs</w>": 9058, "referred</w>": 9059, "injured</w>": 9060, "Panthers</w>": 9061, "campaigns</w>": 9062, "package</w>": 9063, "designated</w>": 9064, "competitors</w>": 9065, "scenarios</w>": 9066, "Stock": 9067, "integrated</w>": 9068, "languages</w>": 9069, "2011/2012</w>": 9070, "Player</w>": 9071, "refined</w>": 9072, "Montana</w>": 9073, "Universal</w>": 9074, "S.p.": 9075, "Households</w>": 9076, "Brewers</w>": 9077, "Santan": 9078, "49ers</w>": 9079, "pire</w>": 9080, "check</w>": 9081, "Steve</w>": 9082, "panel</w>": 9083, "de-France</w>": 9084, "dentists</w>": 9085, "2016/2017</w>": 9086, "Hornets</w>": 9087, "Technology</w>": 9088, "EMEA</w>": 9089, "DAU</w>": 9090, "Reliance</w>": 9091, "skiing</w>": 9092, "bankruptcies</w>": 9093, "Team</w>": 9094, "deadliest</w>": 9095, "Borussia</w>": 9096, "Bolsonaro</w>": 9097, "Orioles</w>": 9098, "bracket</w>": 9099, "fertilizer</w>": 9100, "hazard": 9101, "millennials</w>": 9102, "Roughly</w>": 9103, "anticipated</w>": 9104, "foodservice</w>": 9105, "Singaporean</w>": 9106, "barriers</w>": 9107, "Rhode</w>": 9108, "reputation</w>": 9109, "sanitiz": 9110, "jurisdiction</w>": 9111, "Vehicle</w>": 9112, "NOK</w>": 9113, "Tumblr</w>": 9114, "Dortmund</w>": 9115, "LINE</w>": 9116, "Metropolitan</w>": 9117, "Nintendo</w>": 9118, "Tapestry</w>": 9119, "liminary</w>": 9120, "infectious</w>": 9121, "Amsterdam</w>": 9122, "S.p.A.</w>": 9123, "Santander</w>": 9124, "hazardous</w>": 9125, "125</w>": 9126, "135</w>": 9127, "127</w>": 9128, "33": 9129, "40": 9130, "45": 9131, "7,000</w>": 9132, "74.": 9133, "9,000</w>": 9134, "AP</w>": 9135, "Aber": 9136, "Battle</w>": 9137, "CT</w>": 9138, "CI</w>": 9139, "Call": 9140, "Dji": 9141, "Erit": 9142, "Faso</w>": 9143, "HI": 9144, "Jazz</w>": 9145, "Lex": 9146, "Macy</w>": 9147, "PV": 9148, "PE</w>": 9149, "Peu": 9150, "Plus</w>": 9151, "RO": 9152, "Sho": 9153, "Sch": 9154, "Sig": 9155, "Scho": 9156, "Smith": 9157, "Way": 9158, "Zen": 9159, "bout": 9160, "bined</w>": 9161, "call</w>": 9162, "cel</w>": 9163, "cken</w>": 9164, "calls</w>": 9165, "clean</w>": 9166, "da": 9167, "dding</w>": 9168, "eties</w>": 9169, "evolution</w>": 9170, "gres": 9171, "kins</w>": 9172, "lay": 9173, "panic</w>": 9174, "sat": 9175, "sau": 9176, "ul</w>": 9177, "throw</w>": 9178, "incial</w>": 9179, "andic</w>": 9180, "rom": 9181, "armed</w>": 9182, "reproduc": 9183, "reveal</w>": 9184, "takes</w>": 9185, "onshore</w>": 9186, "or-L": 9187, "ater": 9188, "stadi": 9189, "peration</w>": 9190, "holds</w>": 9191, "protests</w>": 9192, "asthma</w>": 9193, "emporary</w>": 9194, "uninsured</w>": 9195, "ulu</w>": 9196, "lists</w>": 9197, "destri": 9198, "deposit</w>": 9199, "polled</w>": 9200, "trad": 9201, "cons</w>": 9202, "consolidated</w>": 9203, "idly</w>": 9204, "exporters</w>": 9205, "lose</w>": 9206, "cobal": 9207, "sells</w>": 9208, "shel": 9209, "1910</w>": 9210, "1977</w>": 9211, "aim</w>": 9212, "pedestri": 9213, "iling</w>": 9214, "for-": 9215, "disagreed</w>": 9216, "1.15</w>": 9217, "make": 9218, "Marvel</w>": 9219, "chips</w>": 9220, "chicken</w>": 9221, "generations</w>": 9222, "tuce</w>": 9223, "tups</w>": 9224, "facts</w>": 9225, "casual</w>": 9226, "Active</w>": 9227, "fini": 9228, "finding</w>": 9229, "outcome</w>": 9230, "Nordst": 9231, "turb": 9232, "selection</w>": 9233, "assa": 9234, "wireless</w>": 9235, "mination</w>": 9236, "avoc": 9237, "ficial</w>": 9238, "investing</w>": 9239, "Conservative</w>": 9240, "third-": 9241, "ician</w>": 9242, "Who</w>": 9243, "residence</w>": 9244, "Work": 9245, "Combined</w>": 9246, "Final</w>": 9247, "demon": 9248, "got</w>": 9249, "cci</w>": 9250, "Basel</w>": 9251, "provincial</w>": 9252, "11.1</w>": 9253, "11.6</w>": 9254, "10.5</w>": 9255, "sharp</w>": 9256, "booked</w>": 9257, "startups</w>": 9258, "solute</w>": 9259, "Gucci</w>": 9260, "fluctuation</w>": 9261, "5,2": 9262, "5,8": 9263, "street</w>": 9264, "14.9</w>": 9265, "12.5</w>": 9266, "affecting</w>": 9267, "multiplayer</w>": 9268, "13.4</w>": 9269, "chartered</w>": 9270, "Hawks</w>": 9271, "claiming</w>": 9272, "Nigerian</w>": 9273, "21.9</w>": 9274, "migra": 9275, "couple</w>": 9276, "Icelandic</w>": 9277, "globe</w>": 9278, "registration</w>": 9279, "licenses</w>": 9280, "influencers</w>": 9281, "faster</w>": 9282, "kina</w>": 9283, "successfully</w>": 9284, "damages</w>": 9285, "Traffic</w>": 9286, "extended</w>": 9287, "recreation</w>": 9288, "Burkina</w>": 9289, "listeners</w>": 9290, "le-de-France</w>": 9291, "Timor-L": 9292, "missing</w>": 9293, "rapidly</w>": 9294, "grand": 9295, "Republicans</w>": 9296, "Browns</w>": 9297, "drastically</w>": 9298, "Stores</w>": 9299, "Starwood</w>": 9300, "mediate</w>": 9301, "happen": 9302, "postp": 9303, "Juven": 9304, "Cities</w>": 9305, "lettuce</w>": 9306, "practitioners</w>": 9307, "BMI</w>": 9308, "temperatures</w>": 9309, "prevention</w>": 9310, "toilet": 9311, "legalization</w>": 9312, "batteries</w>": 9313, "podcast</w>": 9314, "Wyoming</w>": 9315, "Industrial</w>": 9316, "FY2020</w>": 9317, "Technologies</w>": 9318, "Cooperation</w>": 9319, "orange</w>": 9320, "Choice</w>": 9321, "implemented</w>": 9322, "installations</w>": 9323, "geot</w>": 9324, "extraction</w>": 9325, "bedrooms</w>": 9326, "Commercial</w>": 9327, "A/S</w>": 9328, "Smartphone</w>": 9329, "Amazon.com</w>": 9330, "Monday</w>": 9331, "ritius</w>": 9332, "Square</w>": 9333, "aerospace</w>": 9334, "encountered</w>": 9335, "custody</w>": 9336, "Barclays</w>": 9337, "ACSI</w>": 9338, "Uttar</w>": 9339, "aluminum</w>": 9340, "Biden</w>": 9341, "Mauritius</w>": 9342, "2009/2010</w>": 9343, "Djibout": 9344, "Peugeot</w>": 9345, "Nordstrom</w>": 9346, "Timor-Leste</w>": 9347, "Djibouti</w>": 9348, "'The</w>": 9349, "114</w>": 9350, "113</w>": 9351, "136</w>": 9352, "210</w>": 9353, "35": 9354, "47": 9355, "450</w>": 9356, "58": 9357, "AU": 9358, "AS</w>": 9359, "Ath": 9360, "Bla": 9361, "Dell</w>": 9362, "Dod": 9363, "Emer": 9364, "Fal": 9365, "Fil": 9366, "Hew": 9367, "Hurric": 9368, "Jays</w>": 9369, "MFI": 9370, "Non-": 9371, "Sup": 9372, "TV": 9373, "TEU</w>": 9374, "Trans": 9375, "Youn": 9376, "ca</w>": 9377, "even": 9378, "evalu": 9379, "fare</w>": 9380, "flower</w>": 9381, "fanta": 9382, "grid</w>": 9383, "hub": 9384, "hash": 9385, "i.": 9386, "ie</w>": 9387, "ji</w>": 9388, "kies</w>": 9389, "my</w>": 9390, "met</w>": 9391, "mbie</w>": 9392, "pa</w>": 9393, "paste</w>": 9394, "sche</w>": 9395, "text</w>": 9396, "20,": 9397, "into": 9398, "inven": 9399, "inary</w>": 9400, "inequality</w>": 9401, "roasted</w>": 9402, "2019": 9403, "ret</w>": 9404, "rested</w>": 9405, "llies</w>": 9406, "ouri": 9407, "him</w>": 9408, "atche": 9409, "stages</w>": 9410, "probab": 9411, "nite</w>": 9412, "empower": 9413, "vian</w>": 9414, "resi": 9415, "comments</w>": 9416, "deplo": 9417, "poly": 9418, "concrete</w>": 9419, "moving</w>": 9420, "explo": 9421, "filed</w>": 9422, "cow</w>": 9423, "abs": 9424, "quin": 9425, "ool</w>": 9426, "1974</w>": 9427, "busiest</w>": 9428, "spou": 9429, "secure</w>": 9430, "recru": 9431, "responded</w>": 9432, "scrap</w>": 9433, "disk</w>": 9434, "1.65</w>": 9435, "intern": 9436, "monary</w>": 9437, "legi": 9438, "leep</w>": 9439, "train</w>": 9440, "Champions</w>": 9441, "keeping</w>": 9442, "101</w>": 9443, "104</w>": 9444, "seafood</w>": 9445, "ega</w>": 9446, "assed</w>": 9447, "relations</w>": 9448, "feed</w>": 9449, "fewest</w>": 9450, "cuis": 9451, "offer</w>": 9452, "Peru": 9453, "attending</w>": 9454, "catering</w>": 9455, "tee</w>": 9456, "cata": 9457, "brokers</w>": 9458, "1,500</w>": 9459, "Braves</w>": 9460, "supporting</w>": 9461, "actively</w>": 9462, "1870</w>": 9463, "closures</w>": 9464, "residing</w>": 9465, "macro": 9466, "Pok": 9467, "Post</w>": 9468, "free": 9469, "valuing</w>": 9470, "ethical</w>": 9471, "Internal</w>": 9472, "responsibility</w>": 9473, "Five</w>": 9474, "stitution</w>": 9475, "mentions</w>": 9476, "Products</w>": 9477, "pharmacies</w>": 9478, "stein</w>": 9479, "10.9</w>": 9480, "treat</w>": 9481, "4,8": 9482, "Phillies</w>": 9483, "14.6</w>": 9484, "14.4</w>": 9485, "12.2</w>": 9486, "13.6</w>": 9487, "15.2</w>": 9488, "crombie</w>": 9489, "sometimes</w>": 9490, "full-": 9491, "driver</w>": 9492, "7,6": 9493, "tably</w>": 9494, "year-end</w>": 9495, "chefs</w>": 9496, "Colombian</w>": 9497, "9,7": 9498, "limit</w>": 9499, "coup": 9500, "27.5</w>": 9501, "nominations</w>": 9502, "Adv": 9503, "aches</w>": 9504, "Syn": 9505, "bills</w>": 9506, "dependence</w>": 9507, "501</w>": 9508, "threat": 9509, "particul": 9510, "similarly</w>": 9511, "Raj": 9512, "feature</w>": 9513, "aviation</w>": 9514, "musical</w>": 9515, "nonfarm</w>": 9516, "offices</w>": 9517, "Labour</w>": 9518, "touchdown</w>": 9519, "holm</w>": 9520, "intell": 9521, "gases</w>": 9522, "advisor</w>": 9523, "second-largest</w>": 9524, "lett</w>": 9525, "disaster</w>": 9526, "Pizza</w>": 9527, "avoid</w>": 9528, "avoiding</w>": 9529, "extreme</w>": 9530, "occasions</w>": 9531, "strategi": 9532, "nurses</w>": 9533, "dispen": 9534, "Fortune</w>": 9535, "over-the-": 9536, "Fitch</w>": 9537, "76ers</w>": 9538, "mails</w>": 9539, "Packard</w>": 9540, "withdraw": 9541, "weather</w>": 9542, "merchandising</w>": 9543, "appropriate</w>": 9544, "spectators</w>": 9545, "citizenship</w>": 9546, "Saskatche": 9547, "Reddit</w>": 9548, "Abercrombie</w>": 9549, "Eritrea</w>": 9550, "reproductive</w>": 9551, "Juventus</w>": 9552, "Dodgers</w>": 9553, "MFIs</w>": 9554, "hashta": 9555, "probably</w>": 9556, "empowerment</w>": 9557, "strategies</w>": 9558, "Saskatchewan</w>": 9559, "-food</w>": 9560, "118</w>": 9561, "126</w>": 9562, "2P</w>": 9563, "22.5</w>": 9564, "44": 9565, "56,": 9566, "73.": 9567, "82.": 9568, "AM</w>": 9569, "Ald": 9570, "Bac": 9571, "Bru": 9572, "Bill</w>": 9573, "Festi": 9574, "Fast": 9575, "HR": 9576, "Ham": 9577, "Hamp": 9578, "Jones</w>": 9579, "Lev": 9580, "PG": 9581, "Penetration</w>": 9582, "Pirates</w>": 9583, "P2P</w>": 9584, "Q3</w>": 9585, "Rams</w>": 9586, "SI</w>": 9587, "Sel": 9588, "Ten</w>": 9589, "TIV</w>": 9590, "UFC</w>": 9591, "WG</w>": 9592, "Wall": 9593, "Yam": 9594, "aZen": 9595, "bs</w>": 9596, "bun": 9597, "ccan": 9598, "eS": 9599, "height</w>": 9600, "hands</w>": 9601, "kes": 9602, "mom": 9603, "mHealth</w>": 9604, "mitted</w>": 9605, "pun": 9606, "pper</w>": 9607, "pubs</w>": 9608, "petro": 9609, "sk</w>": 9610, "wro": 9611, "wic": 9612, "write</w>": 9613, "\u00e8s</w>": 9614, "201</w>": 9615, "intake</w>": 9616, "indoor</w>": 9617, "rol</w>": 9618, "ensive</w>": 9619, "ara</w>": 9620, "arm</w>": 9621, "arrested</w>": 9622, "rely</w>": 9623, "returned</w>": 9624, "returns</w>": 9625, "tages</w>": 9626, "ited-": 9627, "lles</w>": 9628, "rillion</w>": 9629, "omerate</w>": 9630, "stants</w>": 9631, "eca</w>": 9632, "stationery</w>": 9633, "eled</w>": 9634, "assum": 9635, "asthan</w>": 9636, "emens</w>": 9637, "Thron": 9638, "appoin": 9639, "apart": 9640, "witn": 9641, "ush</w>": 9642, "congl": 9643, "mobi": 9644, "moved</w>": 9645, "motivation</w>": 9646, "tom</w>": 9647, "etely</w>": 9648, "vegan</w>": 9649, "compan": 9650, "ght": 9651, "surge": 9652, "se-": 9653, "sh-": 9654, "she</w>": 9655, "venue</w>": 9656, "chea": 9657, "1940</w>": 9658, "1945</w>": 9659, "Information</w>": 9660, "preliminary</w>": 9661, "neys</w>": 9662, "discovered</w>": 9663, "parliament</w>": 9664, "nut</w>": 9665, "gua</w>": 9666, "guests</w>": 9667, "eps</w>": 9668, "decided</w>": 9669, "Nets</w>": 9670, "cler</w>": 9671, "Germans</w>": 9672, "103</w>": 9673, "accumul": 9674, "turning</w>": 9675, "fever</w>": 9676, "boating</w>": 9677, "auto</w>": 9678, "entific</w>": 9679, "rick</w>": 9680, "wide": 9681, "operational</w>": 9682, "Hospi": 9683, "Until</w>": 9684, "Green": 9685, "Reported</w>": 9686, "Program</w>": 9687, "law": 9688, "laund": 9689, "Common</w>": 9690, "Med": 9691, "Mets</w>": 9692, "ailing</w>": 9693, "buda</w>": 9694, "function</w>": 9695, "cyber": 9696, "squad</w>": 9697, "borders</w>": 9698, "contemporary</w>": 9699, "Moncler</w>": 9700, "adoptions</w>": 9701, "High</w>": 9702, "downward</w>": 9703, "pharma</w>": 9704, "10.2</w>": 9705, "visa</w>": 9706, "sexually</w>": 9707, "Porsche</w>": 9708, "Foot</w>": 9709, "barley</w>": 9710, "annum</w>": 9711, "imming</w>": 9712, "5,3": 9713, "5,9": 9714, "14.3</w>": 9715, "12.4</w>": 9716, "arrival</w>": 9717, "Barbuda</w>": 9718, "13.9</w>": 9719, "Empire</w>": 9720, "upon</w>": 9721, "Ranked</w>": 9722, "completely</w>": 9723, "latter</w>": 9724, "16.5</w>": 9725, "18.9</w>": 9726, "18.4</w>": 9727, "streamed</w>": 9728, "hybrid</w>": 9729, "Buccan": 9730, "year-over-year</w>": 9731, "chewing</w>": 9732, "assisted</w>": 9733, "ICU</w>": 9734, "9,4": 9735, "EU28</w>": 9736, "limited-": 9737, "ts/": 9738, "reserve</w>": 9739, "Leone</w>": 9740, "agreeing</w>": 9741, "26.7</w>": 9742, "smoked</w>": 9743, "self-reported</w>": 9744, "Madden</w>": 9745, "flat</w>": 9746, "to-peer</w>": 9747, "er-to-peer</w>": 9748, "exceeding</w>": 9749, "Caes": 9750, "Secret</w>": 9751, "contrary</w>": 9752, "biotechnology</w>": 9753, "friend</w>": 9754, "Radio</w>": 9755, "looked</w>": 9756, "casualty</w>": 9757, "appears</w>": 9758, "intentions</w>": 9759, "Brook": 9760, "CEO</w>": 9761, "willingness</w>": 9762, "Players</w>": 9763, "PlayStation</w>": 9764, "Just</w>": 9765, "execu": 9766, "studio</w>": 9767, "preparations</w>": 9768, "frame</w>": 9769, "instrument</w>": 9770, "promotion</w>": 9771, "appeared</w>": 9772, "piracy</w>": 9773, "historical</w>": 9774, "efficiency</w>": 9775, "tattoo</w>": 9776, "moderate</w>": 9777, "hydropower</w>": 9778, "tweeted</w>": 9779, "nursing</w>": 9780, "qualified</w>": 9781, "existing</w>": 9782, "Crime</w>": 9783, "science</w>": 9784, "consequences</w>": 9785, "attempted</w>": 9786, "Antigua</w>": 9787, "pump": 9788, "develop</w>": 9789, "dishwash": 9790, "famous</w>": 9791, "seventh</w>": 9792, "volunte": 9793, "denominations</w>": 9794, "travelling</w>": 9795, "College</w>": 9796, "warehouse</w>": 9797, "soybean</w>": 9798, "highlights</w>": 9799, "quadrillion</w>": 9800, "Enterprise</w>": 9801, "Sonic</w>": 9802, "expectations</w>": 9803, "optimi": 9804, "Activision</w>": 9805, "pipeline</w>": 9806, "masturbated</w>": 9807, "Treat": 9808, "exponential</w>": 9809, "Nestl\u00e9</w>": 9810, "subsequent</w>": 9811, "tonne-kilometers</w>": 9812, "oppose</w>": 9813, "AstraZen": 9814, "Favor": 9815, "dementia</w>": 9816, "Pornhub</w>": 9817, "Paulo</w>": 9818, "accurate</w>": 9819, "Stockholm</w>": 9820, "Wayfair</w>": 9821, "stadiums</w>": 9822, "demonstr": 9823, "Rajasthan</w>": 9824, "Festival</w>": 9825, "Hampshire</w>": 9826, "punctu": 9827, "Thrones</w>": 9828, "conglomerate</w>": 9829, "laundry</w>": 9830, "Buccaneers</w>": 9831, "limited-service</w>": 9832, "AstraZeneca</w>": 9833, "/2014</w>": 9834, "128</w>": 9835, "141</w>": 9836, "220</w>": 9837, "270</w>": 9838, "320</w>": 9839, "6,000</w>": 9840, "AID": 9841, "Agency</w>": 9842, "Adul": 9843, "Blu": 9844, "Bills</w>": 9845, "Camp": 9846, "Dub": 9847, "Deg": 9848, "ED</w>": 9849, "EV/": 9850, "Four</w>": 9851, "GD</w>": 9852, "Kia</w>": 9853, "LA</w>": 9854, "Length</w>": 9855, "MS</w>": 9856, "Ope": 9857, "Rover</w>": 9858, "Rail": 9859, "Sn": 9860, "Stri": 9861, "SRI</w>": 9862, "Tom": 9863, "Tour</w>": 9864, "Vanu": 9865, "Vall": 9866, "Wa": 9867, "Would</w>": 9868, "Z-": 9869, "Zu": 9870, "bent</w>": 9871, "bly</w>": 9872, "bra": 9873, "bered</w>": 9874, "bath": 9875, "clear": 9876, "dong</w>": 9877, "fat</w>": 9878, "fan</w>": 9879, "gol": 9880, "hero": 9881, "ities</w>": 9882, "moun": 9883, "ny</w>": 9884, "near</w>": 9885, "navi": 9886, "nouri": 9887, "ru</w>": 9888, "sic": 9889, "sles</w>": 9890, "sessions</w>": 9891, "tence</w>": 9892, "ton-": 9893, "uplo": 9894, "y/": 9895, "\u00e7ao</w>": 9896, "tization</w>": 9897, "incom": 9898, "inated</w>": 9899, "insul": 9900, "roy": 9901, "enab": 9902, "onary</w>": 9903, "oul</w>": 9904, "atu</w>": 9905, "alk": 9906, "rit</w>": 9907, "staying</w>": 9908, "illes</w>": 9909, "illeg": 9910, "stling</w>": 9911, "umbent</w>": 9912, "actor</w>": 9913, "elings</w>": 9914, "elux</w>": 9915, "prote": 9916, "emigrants</w>": 9917, "amus": 9918, "shopped</w>": 9919, "unmarried</w>": 9920, "compro": 9921, "comfor": 9922, "lizz": 9923, "tre</w>": 9924, "uss</w>": 9925, "user-": 9926, "concurrent</w>": 9927, "modes</w>": 9928, "mobility</w>": 9929, "topic</w>": 9930, "excise</w>": 9931, "impro": 9932, "western</w>": 9933, "covers</w>": 9934, "seed</w>": 9935, "primar": 9936, "chi</w>": 9937, "church</w>": 9938, "199</w>": 9939, "00s</w>": 9940, "spends</w>": 9941, "cord</w>": 9942, "incare</w>": 9943, "trials</w>": 9944, "Income</w>": 9945, "ond-": 9946, "preser": 9947, "megawatt</w>": 9948, "predomin": 9949, "1.27</w>": 9950, "1.53</w>": 9951, "interests</w>": 9952, "serving</w>": 9953, "gio</w>": 9954, "ffany</w>": 9955, "Mariners</w>": 9956, "note</w>": 9957, "first-": 9958, "ebr": 9959, "phen": 9960, "earn</w>": 9961, "rous</w>": 9962, "keting</w>": 9963, "grape": 9964, "102</w>": 9965, "egg</w>": 9966, "assault</w>": 9967, "bring</w>": 9968, "measles</w>": 9969, "e-mails</w>": 9970, "Unit</w>": 9971, "franchises</w>": 9972, "mid</w>": 9973, "obj": 9974, "Anton": 9975, "signs</w>": 9976, "school": 9977, "1000</w>": 9978, "Liqu": 9979, "video-": 9980, "Pota": 9981, "Boy</w>": 9982, "dends</w>": 9983, "Compound</w>": 9984, "Part": 9985, "salmon</w>": 9986, "non-financial</w>": 9987, "harmonized</w>": 9988, "directed</w>": 9989, "visible</w>": 9990, "tenth</w>": 9991, "Corp</w>": 9992, "medications</w>": 9993, "cultivation</w>": 9994, "mater": 9995, "creators</w>": 9996, "skincare</w>": 9997, "11.9</w>": 9998, "stical</w>": 9999, "puts</w>": 10000, "lyn</w>": 10001, "10.7</w>": 10002, "sailles</w>": 10003, "4,3": 10004, "maritime</w>": 10005, "pig</w>": 10006, "12.6</w>": 10007, "Ass": 10008, "15.8</w>": 10009, "Urban</w>": 10010, "orie</w>": 10011, "downloading</w>": 10012, "17.6</w>": 10013, "16.7</w>": 10014, "16.2</w>": 10015, "familiarity</w>": 10016, "7,9": 10017, "installment</w>": 10018, "reliable</w>": 10019, "Argentine</w>": 10020, "Series</w>": 10021, "Hungarian</w>": 10022, "assistance</w>": 10023, "19.2</w>": 10024, "Flam": 10025, "21.8</w>": 10026, "21.6</w>": 10027, "23.6</w>": 10028, "County</w>": 10029, "Super": 10030, "Medical</w>": 10031, "Sey": 10032, "Seoul</w>": 10033, "globalization</w>": 10034, "tioning</w>": 10035, "nationally</w>": 10036, "sentence</w>": 10037, "magne": 10038, "contraception</w>": 10039, "color</w>": 10040, "speeding</w>": 10041, "appliance</w>": 10042, "sponsorships</w>": 10043, "three-": 10044, "Tiffany</w>": 10045, "licensing</w>": 10046, "Siemens</w>": 10047, "Security</w>": 10048, "Second-": 10049, "fifteen</w>": 10050, "shortage</w>": 10051, "microfinance</w>": 10052, "shooting</w>": 10053, "Duke</w>": 10054, "protective</w>": 10055, "athletic</w>": 10056, "athletics</w>": 10057, "IPO</w>": 10058, "holder</w>": 10059, "ott</w>": 10060, "representatives</w>": 10061, "screening</w>": 10062, "pineap": 10063, "divorced</w>": 10064, "seeking</w>": 10065, "powder</w>": 10066, "Vermont</w>": 10067, "Versailles</w>": 10068, "Berlin</w>": 10069, "retired</w>": 10070, "fairtrade</w>": 10071, "attractions</w>": 10072, "advanced</w>": 10073, "ATMs</w>": 10074, "Nutrition</w>": 10075, "privately</w>": 10076, "toilets</w>": 10077, "Benelux</w>": 10078, "gym</w>": 10079, "disclo": 10080, "hydrochloride</w>": 10081, "Solutions</w>": 10082, "Williams</w>": 10083, "Credit</w>": 10084, "domain</w>": 10085, "recycled</w>": 10086, "utilization</w>": 10087, "Agricul": 10088, "stopped</w>": 10089, "logical</w>": 10090, "Registered</w>": 10091, "E-commerce</w>": 10092, "trailers</w>": 10093, "developer</w>": 10094, "Locker</w>": 10095, "Marriott</w>": 10096, "Eagles</w>": 10097, "Groupon</w>": 10098, "articles</w>": 10099, "Picture</w>": 10100, "certified</w>": 10101, "freelance</w>": 10102, "hacking</w>": 10103, "vinyl</w>": 10104, "knowle": 10105, "Cura\u00e7ao</w>": 10106, "Deuts": 10107, "Tigers</w>": 10108, "annoying</w>": 10109, "allocated</w>": 10110, "silicon</w>": 10111, "neighboring</w>": 10112, "Telecommunic": 10113, "percentile</w>": 10114, "experts</w>": 10115, "WHO</w>": 10116, "prominent</w>": 10117, "Callaway</w>": 10118, "Lexus</w>": 10119, "satell": 10120, "cobalt</w>": 10121, "migraine</w>": 10122, "Falcons</w>": 10123, "absence</w>": 10124, "particulate</w>": 10125, "Aldi</w>": 10126, "Levi</w>": 10127, "witnessed</w>": 10128, "Brooklyn</w>": 10129, "Opel</w>": 10130, "Vanuatu</w>": 10131, "illegally</w>": 10132, "amusement</w>": 10133, "lizzard</w>": 10134, "-home</w>": 10135, "-Z-": 10136, "115</w>": 10137, "129</w>": 10138, "165</w>": 10139, "144</w>": 10140, "146</w>": 10141, "149</w>": 10142, "23": 10143, "249</w>": 10144, "370</w>": 10145, "44.": 10146, "79.": 10147, "70,": 10148, "83.": 10149, "C-": 10150, "Cr": 10151, "Cer": 10152, "Cli": 10153, "Coff": 10154, "DV": 10155, "End</w>": 10156, "Fem": 10157, "Fres": 10158, "Floyd</w>": 10159, "Gen": 10160, "Gla": 10161, "GNI</w>": 10162, "HP</w>": 10163, "Hum": 10164, "Iron</w>": 10165, "IWG</w>": 10166, "Jimm": 10167, "Jio</w>": 10168, "Kar": 10169, "Lid": 10170, "LCD</w>": 10171, "Mel": 10172, "Met": 10173, "NG": 10174, "No</w>": 10175, "NC</w>": 10176, "OD</w>": 10177, "PM</w>": 10178, "Pounds</w>": 10179, "RW": 10180, "Rates</w>": 10181, "Spe": 10182, "Trail</w>": 10183, "UB": 10184, "Wu": 10185, "ax": 10186, "derm": 10187, "frac": 10188, "hat": 10189, "han</w>": 10190, "hun": 10191, "hus": 10192, "jet</w>": 10193, "ky</w>": 10194, "ler": 10195, "let</w>": 10196, "laid</w>": 10197, "lam</w>": 10198, "lement</w>": 10199, "mir</w>": 10200, "migrant</w>": 10201, "nout</w>": 10202, "oa</w>": 10203, "rgy": 10204, "sa</w>": 10205, "sound</w>": 10206, "sels</w>": 10207, "sburg</w>": 10208, "tter": 10209, "ur</w>": 10210, "van</w>": 10211, "vul": 10212, "xes</w>": 10213, "yers</w>": 10214, "zon</w>": 10215, "ant": 10216, "arten</w>": 10217, "rements</w>": 10218, "tak": 10219, "ate": 10220, "attr": 10221, "atric</w>": 10222, "atologists</w>": 10223, "alo": 10224, "statutory</w>": 10225, "stances</w>": 10226, "discri": 10227, "ague</w>": 10228, "embe": 10229, "embar": 10230, "amed</w>": 10231, "amph": 10232, "shold</w>": 10233, "app": 10234, "ape</w>": 10235, "destro": 10236, "depreciation</w>": 10237, "vericks</w>": 10238, "ush": 10239, "move</w>": 10240, "toast": 10241, "har</w>": 10242, "exit</w>": 10243, "co-": 10244, "abilities</w>": 10245, "group": 10246, "grooming</w>": 10247, "surpassing</w>": 10248, "ooks</w>": 10249, "champ": 10250, "1948</w>": 10251, "vali": 10252, "bill</w>": 10253, "spaces</w>": 10254, "incident</w>": 10255, "incumbent</w>": 10256, "Insight</w>": 10257, "respect</w>": 10258, "straw": 10259, "super</w>": 10260, "peer-to-peer</w>": 10261, "grav": 10262, "respondent</w>": 10263, "disapprove</w>": 10264, "1.25</w>": 10265, "1.35</w>": 10266, "1.45</w>": 10267, "1.57</w>": 10268, "partly</w>": 10269, "give</w>": 10270, "num</w>": 10271, "employing</w>": 10272, "Marl": 10273, "notably</w>": 10274, "foot": 10275, "nian</w>": 10276, "feelings</w>": 10277, "dergar": 10278, "Most-": 10279, "0.1</w>": 10280, "cuts</w>": 10281, "offer": 10282, "transfers</w>": 10283, "Diego</w>": 10284, "bro</w>": 10285, "wish</w>": 10286, "1981</w>": 10287, "Occu": 10288, "Spani": 10289, "Spurs</w>": 10290, "breaks</w>": 10291, "ference</w>": 10292, "sub-": 10293, "Greek</w>": 10294, "Affordable</w>": 10295, "Swedes</w>": 10296, "on-demand</w>": 10297, "Consi": 10298, "Construction</w>": 10299, "caf": 10300, "alist</w>": 10301, "Perception</w>": 10302, "181</w>": 10303, "closing</w>": 10304, "Lik": 10305, "Liech": 10306, "cance": 10307, "donated</w>": 10308, "payer</w>": 10309, "mann</w>": 10310, "non-profit</w>": 10311, "Latino</w>": 10312, "tenstein</w>": 10313, "borro": 10314, "Maarten</w>": 10315, "Mavericks</w>": 10316, "ofi</w>": 10317, "Roma</w>": 10318, "Roman</w>": 10319, "singly</w>": 10320, "regard</w>": 10321, "eva</w>": 10322, "racy</w>": 10323, "4,0": 10324, "taining</w>": 10325, "fluctuating</w>": 10326, "Census</w>": 10327, "14.8</w>": 10328, "14.2</w>": 10329, "12.7</w>": 10330, "manager</w>": 10331, "Assi": 10332, "negatively</w>": 10333, "13.2</w>": 10334, "15.1</w>": 10335, "newly": 10336, "Roy": 10337, "orized</w>": 10338, "17.7</w>": 10339, "17.8</w>": 10340, "18.8</w>": 10341, "calorie</w>": 10342, "9,9": 10343, "coupon</w>": 10344, "La-Z-": 10345, "aggregated</w>": 10346, "agreement</w>": 10347, "Eni</w>": 10348, "convention</w>": 10349, "in-app</w>": 10350, "doub": 10351, "speeds</w>": 10352, "thiest</w>": 10353, "kindergar": 10354, "surgeries</w>": 10355, "s-S": 10356, "describe</w>": 10357, "Travel": 10358, "Pro</w>": 10359, "officials</w>": 10360, "McK": 10361, "allows</w>": 10362, "Timber": 10363, "supplied</w>": 10364, "samples</w>": 10365, "design</w>": 10366, "Sky</w>": 10367, "intention</w>": 10368, "reducing</w>": 10369, "12-": 10370, "CEE</w>": 10371, "broadcasters</w>": 10372, "2013/2014</w>": 10373, "refining</w>": 10374, "Twins</w>": 10375, "theater</w>": 10376, "attracted</w>": 10377, "restricting</w>": 10378, "potato</w>": 10379, "studies</w>": 10380, "attributes</w>": 10381, "survive</w>": 10382, "survival</w>": 10383, "sulfu": 10384, "William</w>": 10385, "Sunday</w>": 10386, "Tax</w>": 10387, "thereof</w>": 10388, "floor</w>": 10389, "sleep</w>": 10390, "sleeping</w>": 10391, "lotter": 10392, "enjoy</w>": 10393, "enjoyed</w>": 10394, "oranges</w>": 10395, "possessions</w>": 10396, "Religious</w>": 10397, "mixed</w>": 10398, "perpetrators</w>": 10399, "Robert</w>": 10400, "sponsor</w>": 10401, "brows": 10402, "Brussels</w>": 10403, "tivated</w>": 10404, "parliamentary</w>": 10405, "Street</w>": 10406, "cider</w>": 10407, "Kyrgy": 10408, "portrays</w>": 10409, "breakfast</w>": 10410, "Stanley</w>": 10411, "refrigerator</w>": 10412, "pasta</w>": 10413, "Holding</w>": 10414, "exposure</w>": 10415, "trafficking</w>": 10416, "assaults</w>": 10417, "Blazers</w>": 10418, "i.e</w>": 10419, "coupons</w>": 10420, "dispensed</w>": 10421, "widespread</w>": 10422, "AIDS</w>": 10423, "bathroom</w>": 10424, "navigation</w>": 10425, "income/": 10426, "predominantly</w>": 10427, "Antonio</w>": 10428, "Coffee</w>": 10429, "Jimmy</w>": 10430, "vulner": 10431, "ampheta": 10432, "Liechtenstein</w>": 10433, "La-Z-Boy</w>": 10434, "-H": 10435, "134</w>": 10436, "122</w>": 10437, "139</w>": 10438, "163</w>": 10439, "166</w>": 10440, "2100</w>": 10441, "214</w>": 10442, "50s</w>": 10443, "58,": 10444, "62.": 10445, "ANG</w>": 10446, "BL": 10447, "Blizzard</w>": 10448, "CB": 10449, "CS</w>": 10450, "Cas": 10451, "Car</w>": 10452, "Cop": 10453, "Coc": 10454, "DK": 10455, "DI</w>": 10456, "Dep": 10457, "EO": 10458, "Fami": 10459, "Fashion</w>": 10460, "GP</w>": 10461, "Has": 10462, "Harri": 10463, "Hulu</w>": 10464, "Is</w>": 10465, "IA</w>": 10466, "Its</w>": 10467, "LT": 10468, "Laz": 10469, "Lee</w>": 10470, "MM": 10471, "Mean</w>": 10472, "Nap": 10473, "Osc": 10474, "Petro": 10475, "Rays</w>": 10476, "SC</w>": 10477, "Stra": 10478, "SOS</w>": 10479, "Sleep</w>": 10480, "Vla": 10481, "Vaux": 10482, "ato</w>": 10483, "ban</w>": 10484, "bali": 10485, "bury</w>": 10486, "dwe": 10487, "dend</w>": 10488, "dless</w>": 10489, "eo</w>": 10490, "ez</w>": 10491, "fab": 10492, "fine</w>": 10493, "hall</w>": 10494, "ied</w>": 10495, "ide": 10496, "king": 10497, "knew</w>": 10498, "lac": 10499, "ling": 10500, "pal": 10501, "pairs</w>": 10502, "sace</w>": 10503, "utility</w>": 10504, "var": 10505, "wines</w>": 10506, "xo": 10507, "yes</w>": 10508, "tile</w>": 10509, "ored</w>": 10510, "itrose</w>": 10511, "lly</w>": 10512, "urban": 10513, "stres": 10514, "host</w>": 10515, "doors</w>": 10516, "die</w>": 10517, "prostate</w>": 10518, "age-": 10519, "Thunder</w>": 10520, "unintentional</w>": 10521, "resear": 10522, "comic</w>": 10523, "pox</w>": 10524, "sie</w>": 10525, "sition</w>": 10526, "idu</w>": 10527, "extra</w>": 10528, "etc</w>": 10529, "fia</w>": 10530, "image</w>": 10531, "importer</w>": 10532, "ve-year</w>": 10533, "vess": 10534, "cows</w>": 10535, "espres": 10536, "advised</w>": 10537, "ing/": 10538, "abs</w>": 10539, "rug</w>": 10540, "ght-": 10541, "marine</w>": 10542, "ranges</w>": 10543, "termin": 10544, "pulmonary</w>": 10545, "shers</w>": 10546, "priorities</w>": 10547, "chance</w>": 10548, "1918</w>": 10549, "1965</w>": 10550, "1968</w>": 10551, "ayed</w>": 10552, "bies</w>": 10553, "bisexual</w>": 10554, "aize</w>": 10555, "spinal</w>": 10556, "Infin": 10557, "sun</w>": 10558, "suggest</w>": 10559, "pedia</w>": 10560, ",001</w>": 10561, "focus</w>": 10562, "pref": 10563, "victories</w>": 10564, "display</w>": 10565, "periph": 10566, "1.76</w>": 10567, "1.62</w>": 10568, "parity</w>": 10569, "nutri": 10570, "COPD</w>": 10571, "COVID-": 10572, "pical</w>": 10573, "chick": 10574, "Europa</w>": 10575, "gum</w>": 10576, "turies</w>": 10577, "anded</w>": 10578, "formal</w>": 10579, "claim</w>": 10580, "metrics</w>": 10581, "109</w>": 10582, "infants</w>": 10583, "sitting</w>": 10584, "boarding</w>": 10585, "entiment</w>": 10586, "cutting</w>": 10587, "off-": 10588, "dividend</w>": 10589, "cured</w>": 10590, "waterm": 10591, "mined</w>": 10592, "e-related</w>": 10593, "Rev": 10594, "Repres": 10595, "consisted</w>": 10596, "fiction</w>": 10597, "might</w>": 10598, "obtain</w>": 10599, "Contin": 10600, "critical</w>": 10601, "Arc": 10602, "Armed</w>": 10603, "Perceptions</w>": 10604, "active-": 10605, "186</w>": 10606, "1860</w>": 10607, "African-American</w>": 10608, "participate</w>": 10609, "Poli": 10610, "Boeing</w>": 10611, "amid</w>": 10612, "Communic": 10613, "salari": 10614, "cyclists</w>": 10615, "centuries</w>": 10616, "Cola</w>": 10617, "Stand": 10618, "Mac</w>": 10619, "profiles</w>": 10620, "Chilean</w>": 10621, "differenti": 10622, "singer</w>": 10623, "pharmacists</w>": 10624, "nerMedia</w>": 10625, "gradual</w>": 10626, "race/": 10627, "sexu": 10628, "performances</w>": 10629, "kness</w>": 10630, "joint</w>": 10631, "piece</w>": 10632, "12.1</w>": 10633, "sonville</w>": 10634, "antidepres": 10635, "15.7</w>": 10636, "15.5</w>": 10637, "15.9</w>": 10638, "Ross</w>": 10639, "comple": 10640, "drives</w>": 10641, "17.2</w>": 10642, "16.3</w>": 10643, "16.9</w>": 10644, "7,7": 10645, "18.7</w>": 10646, "18.5</w>": 10647, "table": 10648, "edly</w>": 10649, "edge</w>": 10650, "Forces</w>": 10651, "Richem": 10652, "calculation</w>": 10653, "Forecasts</w>": 10654, "19.5</w>": 10655, "Suzu": 10656, "circum": 10657, "cirrho": 10658, "Baidu</w>": 10659, "Laur": 10660, "reservations</w>": 10661, "combat</w>": 10662, "combination</w>": 10663, "Attitu": 10664, "SMS</w>": 10665, "nominated</w>": 10666, "Network</w>": 10667, "achal</w>": 10668, "municipality</w>": 10669, "continuous</w>": 10670, "landfill</w>": 10671, "50,": 10672, "25.4</w>": 10673, "dinner</w>": 10674, "30.5</w>": 10675, "fifty</w>": 10676, "friend": 10677, "back-to-": 10678, "artificial</w>": 10679, "shooter</w>": 10680, "PAC</w>": 10681, "echers</w>": 10682, "museum</w>": 10683, "analyzed</w>": 10684, "temporary</w>": 10685, "Hotel</w>": 10686, "dealing</w>": 10687, "sample</w>": 10688, "Skechers</w>": 10689, "associations</w>": 10690, "Broad": 10691, "competitions</w>": 10692, "affiliated</w>": 10693, "Harry</w>": 10694, "celebrate</w>": 10695, "Herbali": 10696, "WarnerMedia</w>": 10697, "publisher</w>": 10698, "rush</w>": 10699, "medium-": 10700, "second-hand</w>": 10701, "Montreal</w>": 10702, "launches</w>": 10703, "subsidiaries</w>": 10704, "diversity</w>": 10705, "Bosch</w>": 10706, "Sanofi</w>": 10707, "frag": 10708, "veterinary</w>": 10709, "Steelers</w>": 10710, "pancies</w>": 10711, "discus": 10712, "Suns</w>": 10713, "dentist</w>": 10714, "administrative</w>": 10715, "Minister</w>": 10716, "Clubs</w>": 10717, "Nationals</w>": 10718, "Globally</w>": 10719, "sciences</w>": 10720, "Fortnite</w>": 10721, "address</w>": 10722, "episodes</w>": 10723, "over-speeding</w>": 10724, "Grenada</w>": 10725, "suspected</w>": 10726, "Herm\u00e8s</w>": 10727, "Theat": 10728, "constituted</w>": 10729, "V/AIDS</w>": 10730, "shareholders</w>": 10731, "psychi": 10732, "cabb": 10733, "sheep</w>": 10734, "IBM</w>": 10735, "aughter</w>": 10736, "Scientific</w>": 10737, "Jacksonville</w>": 10738, "substantially</w>": 10739, "Bloomin</w>": 10740, "scheme</w>": 10741, "Preferred</w>": 10742, "dramatically</w>": 10743, "sportswear</w>": 10744, "hobbies</w>": 10745, "opioid</w>": 10746, "discrepancies</w>": 10747, "colleague</w>": 10748, "characteristics</w>": 10749, "eurozone</w>": 10750, "versely</w>": 10751, "transplantation</w>": 10752, "alcohol-related</w>": 10753, "blockchain</w>": 10754, "Risk</w>": 10755, "thanks</w>": 10756, "Increase</w>": 10757, "HIV/AIDS</w>": 10758, "School</w>": 10759, "Athle": 10760, "Hewlett</w>": 10761, "Young</w>": 10762, "macro-": 10763, "Self-": 10764, "surgeons</w>": 10765, "accumulated</w>": 10766, "dishwasher</w>": 10767, "punctual</w>": 10768, "Degree</w>": 10769, "Strike</w>": 10770, "Waitrose</w>": 10771, "grapefruit</w>": 10772, "Second-ranked</w>": 10773, "Agricultural</w>": 10774, "Telecommunications</w>": 10775, "Clippers</w>": 10776, "Glaxo": 10777, "Lidl</w>": 10778, "destroyed</w>": 10779, "strawberries</w>": 10780, "offerings</w>": 10781, "DKK</w>": 10782, "Strauss</w>": 10783, "Vauxhall</w>": 10784, "dwelling</w>": 10785, "palm</w>": 10786, "vessels</w>": 10787, "espresso</w>": 10788, "peripher": 10789, "Continental</w>": 10790, "active-duty</w>": 10791, "antidepress": 10792, "Richemont</w>": 10793, "Suzuki</w>": 10794, "cirrhosis</w>": 10795, "Herbalife</w>": 10796, "medium-sized</w>": 10797, "112</w>": 10798, "160</w>": 10799, "116</w>": 10800, "164</w>": 10801, "153</w>": 10802, "127.": 10803, "278</w>": 10804, "29,": 10805, "28,": 10806, "364</w>": 10807, "380</w>": 10808, "31.5</w>": 10809, "56": 10810, "65": 10811, "75.": 10812, "85.": 10813, "Astro": 10814, "BE": 10815, "Bond</w>": 10816, "Dea": 10817, "Danes</w>": 10818, "David</w>": 10819, "Ev": 10820, "Ere": 10821, "Emi": 10822, "Fargo</w>": 10823, "Ger": 10824, "HD</w>": 10825, "Kline</w>": 10826, "Kitchen</w>": 10827, "Mul": 10828, "MBA</w>": 10829, "Nash": 10830, "Orange</w>": 10831, "PS</w>": 10832, "Pass": 10833, "PUB": 10834, "Q4</w>": 10835, "Rel": 10836, "SGD</w>": 10837, "Tam": 10838, "Tong": 10839, "Use</w>": 10840, "Yo": 10841, "bon</w>": 10842, "bing": 10843, "cau": 10844, "dang": 10845, "draising</w>": 10846, "eed</w>": 10847, "fth": 10848, "fal": 10849, "fear</w>": 10850, "filled</w>": 10851, "gri": 10852, "gents</w>": 10853, "het": 10854, "iz": 10855, "ker": 10856, "kill": 10857, "kle</w>": 10858, "lem": 10859, "lero": 10860, "oil": 10861, "pill": 10862, "pra": 10863, "pts/": 10864, "rys": 10865, "sse</w>": 10866, "sche": 10867, "tary</w>": 10868, "\u00e9mon</w>": 10869, "20th</w>": 10870, "tis</w>": 10871, "erous</w>": 10872, "inland</w>": 10873, "inputs</w>": 10874, "round": 10875, "entry</w>": 10876, "enplan": 10877, "arson</w>": 10878, "rew</w>": 10879, "report": 10880, "realized</w>": 10881, "replacement</w>": 10882, "onance</w>": 10883, "onions</w>": 10884, "ordering</w>": 10885, "llow</w>": 10886, "al/": 10887, "ris</w>": 10888, "rivers</w>": 10889, "stings</w>": 10890, "stag": 10891, "host": 10892, "doping</w>": 10893, "acts</w>": 10894, "propor": 10895, "proposed</w>": 10896, "profici": 10897, "agri": 10898, "aggrav": 10899, "plu": 10900, "plas": 10901, "nitro": 10902, "emitted</w>": 10903, "email</w>": 10904, "ams-S": 10905, "2007": 10906, "Through</w>": 10907, "unions</w>": 10908, "composed</w>": 10909, "uli": 10910, "limi": 10911, "desc": 10912, "poker</w>": 10913, "trying</w>": 10914, "contain</w>": 10915, "construc": 10916, "contained</w>": 10917, "contested</w>": 10918, "mov": 10919, "porarily</w>": 10920, "tops</w>": 10921, "atini</w>": 10922, "idity</w>": 10923, "haul</w>": 10924, "figh": 10925, "fighting</w>": 10926, "wedding</w>": 10927, "covery</w>": 10928, "esa</w>": 10929, "adher": 10930, "queries</w>": 10931, "compris": 10932, "pulp</w>": 10933, "seiz": 10934, "shment</w>": 10935, "shine</w>": 10936, "chers</w>": 10937, "194</w>": 10938, "192</w>": 10939, "yeong": 10940, "triple</w>": 10941, "Inc</w>": 10942, "approximate</w>": 10943, "peare</w>": 10944, "peanu": 10945, "foresta": 10946, "lease</w>": 10947, "bel</w>": 10948, "vice</w>": 10949, "1.12</w>": 10950, "1.14</w>": 10951, "1.17</w>": 10952, "1.49</w>": 10953, "1.42</w>": 10954, "1.98</w>": 10955, "decide</w>": 10956, "tically</w>": 10957, "phy": 10958, "ops</w>": 10959, "4.85</w>": 10960, "Today</w>": 10961, "Togo</w>": 10962, "changing</w>": 10963, "ised</w>": 10964, "islands</w>": 10965, "estimation</w>": 10966, "108</w>": 10967, "103.": 10968, "onoma</w>": 10969, "ansa</w>": 10970, "seasons</w>": 10971, "assessed</w>": 10972, "offenders</w>": 10973, "justi": 10974, "dividends</w>": 10975, "divisie</w>": 10976, "Division</w>": 10977, "equaled</w>": 10978, "bras</w>": 10979, "measu": 10980, "mins</w>": 10981, "minor</w>": 10982, "mix</w>": 10983, "bands</w>": 10984, "buses</w>": 10985, "Confeder": 10986, "causing</w>": 10987, "governmental</w>": 10988, "182</w>": 10989, "1875</w>": 10990, "receipts/": 10991, "partnership</w>": 10992, "wares</w>": 10993, "subscribe</w>": 10994, "rint</w>": 10995, "Comm": 10996, "FinTec": 10997, "non-food</w>": 10998, "harash": 10999, "hardest</w>": 11000, "fundraising</w>": 11001, "centim": 11002, "Fili": 11003, "tention</w>": 11004, "specified</w>": 11005, "kilotons</w>": 11006, "supplement</w>": 11007, "Maharash": 11008, "Prize</w>": 11009, "bery</w>": 11010, "Child": 11011, "Vikings</w>": 11012, "socio-": 11013, "physically</w>": 11014, "physician</w>": 11015, "pub</w>": 11016, "regardless</w>": 11017, "riteria</w>": 11018, "10.1</w>": 11019, "sharply</w>": 11020, "numbered</w>": 11021, "171</w>": 11022, "racism</w>": 11023, "Lufth": 11024, "5,4": 11025, "14.7</w>": 11026, "favorability</w>": 11027, "occur</w>": 11028, "13.8</w>": 11029, "varieties</w>": 11030, "Anglo": 11031, "burnout</w>": 11032, "ionaire</w>": 11033, "17.1</w>": 11034, "Scotch</w>": 11035, "18.6</w>": 11036, "court</w>": 11037, "severely</w>": 11038, "terrorists</w>": 11039, "labor": 11040, "teenth</w>": 11041, "Forbes</w>": 11042, "Bull": 11043, "ICC</w>": 11044, "Reser": 11045, "EUR": 11046, "depending</w>": 11047, "Flanders</w>": 11048, "requested</w>": 11049, "23.2</w>": 11050, "Carter</w>": 11051, "athon</w>": 11052, "Lake</w>": 11053, "Medicine</w>": 11054, "Sever": 11055, "benefit</w>": 11056, "26.3</w>": 11057, "26.5</w>": 11058, "stock": 11059, "Crocs</w>": 11060, "wheelers</w>": 11061, "communicate</w>": 11062, "contracting</w>": 11063, "Bras": 11064, "Brad": 11065, "22.8</w>": 11066, "farm": 11067, "doctor": 11068, "threats</w>": 11069, "threshold</w>": 11070, "system": 11071, "29.3</w>": 11072, "influencing</w>": 11073, "Cavali": 11074, "36.6</w>": 11075, "Being</w>": 11076, "bag</w>": 11077, "wealthiest</w>": 11078, "Ravens</w>": 11079, "ammuni": 11080, "author</w>": 11081, "y-owned</w>": 11082, "Linde</w>": 11083, "carbon": 11084, "mush": 11085, "musicians</w>": 11086, "analytics</w>": 11087, "suffici": 11088, "closest</w>": 11089, "Bible</w>": 11090, "Bihar</w>": 11091, "Samoa</w>": 11092, "Warner</w>": 11093, "initially</w>": 11094, "achieve</w>": 11095, "Macao</w>": 11096, "Versace</w>": 11097, "Wells</w>": 11098, "second-most</w>": 11099, "express</w>": 11100, "Operation</w>": 11101, "Tencent</w>": 11102, "journeys</w>": 11103, "spoken</w>": 11104, "Nobel</w>": 11105, "fram": 11106, "depressive</w>": 11107, "pregnan": 11108, "Lauder</w>": 11109, "plied</w>": 11110, "toilet</w>": 11111, "snow": 11112, "snacks</w>": 11113, "correctly</w>": 11114, "Expected</w>": 11115, "Papa</w>": 11116, "Solar</w>": 11117, "Williams-S": 11118, "concus": 11119, "weapon</w>": 11120, "detergents</w>": 11121, "powerful</w>": 11122, "-year-old</w>": 11123, "Magic</w>": 11124, "Globe</w>": 11125, "surprisingly</w>": 11126, "Types</w>": 11127, "Earth</w>": 11128, "Earnings</w>": 11129, "advertisements</w>": 11130, "CPG</w>": 11131, "Shakes": 11132, "Smith</w>": 11133, "psycho": 11134, "single-person</w>": 11135, "Henkel</w>": 11136, "wildfires</w>": 11137, "recognized</w>": 11138, "candy</w>": 11139, "regulated</w>": 11140, "auxite</w>": 11141, "documented</w>": 11142, "lithium</w>": 11143, "synthetic</w>": 11144, "Jaguar</w>": 11145, "charitable</w>": 11146, "tomography</w>": 11147, "ingredients</w>": 11148, "start-up</w>": 11149, "rounded</w>": 11150, "end-use</w>": 11151, "conflict</w>": 11152, "Cineworld</w>": 11153, "bench": 11154, "guns</w>": 11155, "Oakland</w>": 11156, "module</w>": 11157,
[...]
