{"<unk>": 0, "!": 1, "#": 2, "$": 3, "%": 4, "&": 5, "'": 6, "(": 7, ")": 8, "+": 9, ",": 10, "-": 11, ".": 12, "/": 13, "0": 14, "1": 15, "2": 16, "3": 17, "4": 18, "5": 19, "6": 20, "7": 21, "8": 22, "9": 23, ":": 24, ";": 25, "<": 26, "=": 27, ">": 28, "?": 29, "@": 30, "A": 31, "B": 32, "C": 33, "D": 34, "E": 35, "F": 36, "G": 37, "H": 38, "I": 39, "J": 40, "K": 41, "L": 42, "M": 43, "N": 44, "O": 45, "P": 46, "Q": 47, "R": 48, "S": 49, "T": 50, "U": 51, "V": 52, "W": 53, "X": 54, "Y": 55, "Z": 56, "[": 57, "]": 58, "_": 59, "`": 60, "a": 61, "b": 62, "c": 63, "d": 64, "e": 65, "f": 66, "g": 67, "h": 68, "i": 69, "j": 70, "k": 71, "l": 72, "m": 73, "n": 74, "o": 75, "p": 76, "q": 77, "r": 78, "s": 79, "t": 80, "u": 81, "v": 82, "w": 83, "x": 84, "y": 85, "z": 86, "\u00ad": 87, "\u00ae": 88, "\u00bb": 89, "\u00e1": 90, "\u00e2": 91, "\u00e9": 92, "\u00ed": 93, "\u00f1": 94, "\u00f3": 95, "\u00f6": 96, "\u2013": 97, "\u2014": 98, "\u2018": 99, "\u2026": 100, "\u20ac": 101, "\u2122": 102, "s</w>": 103, "k</w>": 104, "e</w>": 105, "n</w>": 106, "d</w>": 107, "-</w>": 108, "a</w>": 109, "7</w>": 110, "y</w>": 111, "g</w>": 112, "o</w>": 113, "l</w>": 114, "3</w>": 115, "/</w>": 116, ".</w>": 117, "c</w>": 118, "9</w>": 119, "t</w>": 120, "f</w>": 121, "m</w>": 122, "p</w>": 123, "K</w>": 124, "4</w>": 125, "0</w>": 126, "r</w>": 127, "z</w>": 128, "5</w>": 129, "Q</w>": 130, "1</w>": 131, "w</w>": 132, "A</w>": 133, "S</w>": 134, "8</w>": 135, "6</w>": 136, "h</w>": 137, "T</w>": 138, "i</w>": 139, "E</w>": 140, "N</w>": 141, "2</w>": 142, "b</w>": 143, "Y</w>": 144, "D</w>": 145, "x</w>": 146, "O</w>": 147, "P</w>": 148, "M</w>": 149, "L</w>": 150, "U</w>": 151, "\u2018</w>": 152, "R</w>": 153, "`</w>": 154, "H</w>": 155, "W</w>": 156, "u</w>": 157, "\u00bb</w>": 158, "X</w>": 159, "_</w>": 160, "(</w>": 161, "'</w>": 162, "C</w>": 163, "I</w>": 164, "v</w>": 165, "F</w>": 166, "!</w>": 167, "B</w>": 168, ";</w>": 169, "&</w>": 170, "\u2026</w>": 171, "\u2014</w>": 172, "@</w>": 173, "$</w>": 174, "+</w>": 175, "G</w>": 176, "\u00ad</w>": 177, "[</w>": 178, "V</w>": 179, "J</w>": 180, "q</w>": 181, ",</w>": 182, "%</w>": 183, ")</w>": 184, "<</w>": 185, "\u2013</w>": 186, "]</w>": 187, "></w>": 188, ":</w>": 189, "Z</w>": 190, "#</w>": 191, "\u00ae</w>": 192, "?</w>": 193, "th": 194, "an": 195, "in": 196, "er": 197, "ar": 198, "ti": 199, "the</w>": 200, "or": 201, "on": 202, "en": 203, "ou": 204, "of</w>": 205, "re": 206, "li": 207, "es</w>": 208, "ed</w>": 209, "er</w>": 210, "in</w>": 211, "ly</w>": 212, "ing</w>": 213, "on</w>": 214, "to</w>": 215, "sa": 216, "and</w>": 217, "it": 218, "al": 219, "at": 220, "the": 221, "or</w>": 222, "an</w>": 223, "om": 224, "wh": 225, "os": 226, "ic": 227, "al</w>": 228, "ac": 229, "ati": 230, "es": 231, "are</w>": 232, "is</w>": 233, "ro": 234, "ve</w>": 235, "le</w>": 236, "say</w>": 237, "ts</w>": 238, "at</w>": 239, "as</w>": 240, "en</w>": 241, "ec": 242, "is": 243, "ab": 244, "as": 245, "tr": 246, "us": 247, "di": 248, "ans</w>": 249, "ers</w>": 250, "su": 251, "id": 252, "em": 253, "ore</w>": 254, "ig": 255, "ad": 256, "pu": 257, "out</w>": 258, "wit": 259, "le": 260, "oun": 261, "ol": 262, "ent</w>": 263, "ver": 264, "ne": 265, "with</w>": 266, "con": 267, "oc": 268, "ha": 269, "more</w>": 270, "they</w>": 271, "bli": 272, "ir</w>": 273, "el": 274, "ag": 275, "Am": 276, "than</w>": 277, "sh": 278, "il": 279, "am": 280, "publi": 281, "par": 282, "their</w>": 283, "com": 284, "im": 285, "that</w>": 286, "ely</w>": 287, "ow": 288, "res": 289, "ce</w>": 290, "about</w>": 291, "who</w>": 292, "ws</w>": 293, "for</w>": 294, "op": 295, "st": 296, "20": 297, "ons</w>": 298, "ation</w>": 299, "eric": 300, "Americ": 301, "ur": 302, "ot": 303, "Th": 304, "ul": 305, "vi": 306, "have</w>": 307, "por": 308, "ma": 309, "po": 310, "U.": 311, "'s</w>": 312, "ex": 313, "ter": 314, "be": 315, "coun": 316, "ff": 317, "ch": 318, "U.S": 319, "it</w>": 320, "pro": 321, "Re": 322, "ld</w>": 323, "ear": 324, "no": 325, "ong</w>": 326, "U.S.</w>": 327, "ose</w>": 328, "ar</w>": 329, "ch</w>": 330, "de": 331, "ther</w>": 332, "Americans</w>": 333, "ost</w>": 334, "un": 335, "ocr": 336, "emocr": 337, "public": 338, "ere</w>": 339, "ent": 340, "tion</w>": 341, "countr": 342, "201": 343, "Democr": 344, "si": 345, "Republic": 346, "lik": 347, "ate</w>": 348, "pe": 349, "be</w>": 350, "ile</w>": 351, "ve": 352, "ri": 353, "se": 354, "um": 355, "ould</w>": 356, "ies</w>": 357, "all</w>": 358, "ast</w>": 359, "not</w>": 360, "vie": 361, "rom</w>": 362, "sur": 363, "likely</w>": 364, "ic</w>": 365, "wor": 366, "from</w>": 367, "ty</w>": 368, "this</w>": 369, "iti": 370, "over": 371, "igh": 372, "ity</w>": 373, "those</w>": 374, "pan": 375, "by</w>": 376, "ten</w>": 377, "age</w>": 378, "-in": 379, "ents</w>": 380, "qu": 381, "per": 382, "ted</w>": 383, "lo": 384, "adul": 385, "me": 386, "ir": 387, "ds</w>": 388, "vot": 389, "most</w>": 390, "gr": 391, "-in-": 392, "ap": 393, "maj": 394, "ding</w>": 395, "adults</w>": 396, "ay</w>": 397, "surve": 398, "ess</w>": 399, "se</w>": 400, "tic": 401, "tw": 402, "me</w>": 403, "The</w>": 404, "one</w>": 405, "has</w>": 406, "for": 407, "ally</w>": 408, "while</w>": 409, "cl": 410, "to": 411, "ats</w>": 412, "ople</w>": 413, "lin": 414, "ant</w>": 415, "Republicans</w>": 416, "ge</w>": 417, "som": 418, "fa": 419, "est</w>": 420, "-in-ten</w>": 421, "pres": 422, "ment</w>": 423, "ust</w>": 424, "Democrats</w>": 425, "oug": 426, "ence</w>": 427, "any</w>": 428, "ver</w>": 429, "poli": 430, "uc": 431, "gi": 432, "other</w>": 433, "port": 434, "ter</w>": 435, "among</w>": 436, "th</w>": 437, "people</w>": 438, "pos": 439, "oo": 440, "able</w>": 441, "public</w>": 442, "news</w>": 443, "ations</w>": 444, "enti": 445, "acc": 446, "In</w>": 447, "der</w>": 448, "lac": 449, "ut</w>": 450, "so</w>": 451, "compar": 452, "ial</w>": 453, "Tr": 454, "id</w>": 455, "fe": 456, "country</w>": 457, "survey</w>": 458, "onal</w>": 459, "low": 460, "major": 461, "alf</w>": 462, "share</w>": 463, "ing": 464, "very</w>": 465, "His": 466, "duc": 467, "our": 468, "Trum": 469, "Hispan": 470, "sup": 471, "Trump</w>": 472, "less</w>": 473, "medi": 474, "pre": 475, "do</w>": 476, "econ": 477, "half</w>": 478, "views</w>": 479, "ran": 480, "rec": 481, "ili": 482, "was</w>": 483, "pec": 484, "were</w>": 485, "ta": 486, "diff": 487, "ra": 488, "countries</w>": 489, "ew</w>": 490, "fav": 491, "port</w>": 492, "ill</w>": 493, "ates</w>": 494, "ge": 495, "said</w>": 496, "vid": 497, "use</w>": 498, "compared</w>": 499, "Ch": 500, "thre": 501, "ite</w>": 502, "voters</w>": 503, "ks</w>": 504, "also</w>": 505, "mig": 506, "ary</w>": 507, "gen": 508, "reas": 509, "''</w>": 510, "``</w>": 511, "inter": 512, "would</w>": 513, "ali": 514, "gre": 515, "mar": 516, "many</w>": 517, "line</w>": 518, "In": 519, "tions</w>": 520, "Ab": 521, "ser": 522, "econom": 523, "we": 524, "should</w>": 525, "will</w>": 526, "Wh": 527, "earch</w>": 528, "About</w>": 529, "enc": 530, "ev": 531, "grou": 532, "some": 533, "ep": 534, "pl": 535, "ud": 536, "overn": 537, "ad</w>": 538, "differ": 539, "ated</w>": 540, "ative</w>": 541, "soc": 542, "enter</w>": 543, "fin": 544, "ous</w>": 545, "king</w>": 546, "just</w>": 547, "Res": 548, "these</w>": 549, "Center</w>": 550, "only</w>": 551, "govern": 552, "ities</w>": 553, "same</w>": 554, "majority</w>": 555, "import": 556, "elec": 557, "fol": 558, "what</w>": 559, "ligi": 560, "over</w>": 561, "tical</w>": 562, "chan": 563, "immig": 564, "fi": 565, "ph": 566, "pr": 567, "conf": 568, "Pew</w>": 569, "ber</w>": 570, "ye": 571, "200": 572, "dec": 573, "inc": 574, "ough": 575, "thir": 576, "uch</w>": 577, "but</w>": 578, "cer": 579, "mo": 580, "Research</w>": 581, "ews</w>": 582, "ps</w>": 583, "jo": 584, "ving</w>": 585, "lim": 586, "ages</w>": 587, "ying</w>": 588, "Democrati": 589, "high": 590, "ings</w>": 591, "ound</w>": 592, "fu": 593, "much</w>": 594, "arly</w>": 595, "government</w>": 596, "important</w>": 597, "ood</w>": 598, "ident</w>": 599, "form": 600, "Among</w>": 601, "tly</w>": 602, "favor": 603, "view</w>": 604, "pen": 605, "quar": 606, "ger</w>": 607, "eral</w>": 608, "rel": 609, "twe": 610, "ion</w>": 611, "omen</w>": 612, "year</w>": 613, "thin": 614, "ow</w>": 615, "ough</w>": 616, "str": 617, "follow": 618, "serv": 619, "An": 620, "ting</w>": 621, "ording</w>": 622, "sc": 623, "ational</w>": 624, "popu": 625, "st</w>": 626, "lar": 627, "ys</w>": 628, "lic": 629, "own</w>": 630, "ach</w>": 631, "least</w>": 632, "when</w>": 633, "day</w>": 634, "he": 635, "identi": 636, "comm": 637, "online</w>": 638, "ure</w>": 639, "time</w>": 640, "issu": 641, "Con": 642, "religi": 643, "hol": 644, "year": 645, "clos": 646, "its</w>": 647, "positi": 648, "pa": 649, "all": 650, "ome</w>": 651, "media</w>": 652, "dis": 653, "ics</w>": 654, "Democratic</w>": 655, "shar": 656, "think</w>": 657, "blac": 658, "ru": 659, "off": 660, "ties</w>": 661, "some</w>": 662, "Chin": 663, "increas": 664, "incl": 665, "support</w>": 666, "oughly</w>": 667, "oss</w>": 668, "ich</w>": 669, "divid": 670, "according</w>": 671, "chil": 672, "Hispanic</w>": 673, "ked</w>": 674, "stan": 675, "ris": 676, "ten": 677, "e-": 678, "popul": 679, "col": 680, "women</w>": 681, "ites</w>": 682, "there</w>": 683, "do": 684, "older</w>": 685, "rants</w>": 686, "Eu": 687, "Euro": 688, "pri": 689, "up</w>": 690, "Republican</w>": 691, "pers": 692, "users</w>": 693, "rac": 694, "social</w>": 695, "beli": 696, "see</w>": 697, "ni": 698, "ves</w>": 699, "ke</w>": 700, "concer": 701, "ice</w>": 702, "ences</w>": 703, "had</w>": 704, "cont": 705, "ross</w>": 706, "als</w>": 707, "of": 708, "tween</w>": 709, "political</w>": 710, "Ger": 711, "ke": 712, "ade</w>": 713, "lean": 714, "ight</w>": 715, "years</w>": 716, "te": 717, "dre": 718, "dat": 719, "And</w>": 720, "closely</w>": 721, "each</w>": 722, "ell</w>": 723, "between</w>": 724, "Hispanics</w>": 725, "groups</w>": 726, "ei": 727, "them</w>": 728, "pon": 729, "min": 730, "reg": 731, "leg": 732, "been</w>": 733, "too</w>": 734, "ard</w>": 735, "somewhat</w>": 736, "belie": 737, "bor": 738, "18</w>": 739, "shi": 740, "tim": 741, "oth</w>": 742, "s.</w>": 743, "la": 744, "og": 745, "good</w>": 746, "out": 747, "positive</w>": 748, "Mus": 749, "vs.</w>": 750, "China</w>": 751, "Most</w>": 752, "act</w>": 753, "prob": 754, "ist": 755, "opin": 756, "educ": 757, "illi": 758, "immigrants</w>": 759, "poin": 760, "dren</w>": 761, "gener": 762, "major</w>": 763, "ily</w>": 764, "saying</w>": 765, "tt": 766, "polic": 767, "imil": 768, "ory</w>": 769, "ign</w>": 770, "yed</w>": 771, "alth</w>": 772, "o-": 773, "both</w>": 774, "our</w>": 775, "expres": 776, "wee": 777, "party</w>": 778, "children</w>": 779, "anc": 780, "ance</w>": 781, "which</w>": 782, "men</w>": 783, "30</w>": 784, "ess": 785, "ens</w>": 786, "cons": 787, "wer</w>": 788, "illion</w>": 789, "But</w>": 790, "aff": 791, "fl": 792, "national</w>": 793, "median</w>": 794, "respon": 795, "neg": 796, "American</w>": 797, "Par": 798, "fic": 799, "new</w>": 800, "vely</w>": 801, "far</w>": 802, "ince</w>": 803, "ide</w>": 804, "did": 805, "phone</w>": 806, "dents</w>": 807, "early</w>": 808, "world</w>": 809, "num": 810, "00</w>": 811, "50</w>": 812, "favorable</w>": 813, "19</w>": 814, "cor": 815, "andid": 816, "More</w>": 817, "net</w>": 818, "row": 819, "olog": 820, "ever</w>": 821, "perc": 822, "election</w>": 823, "youn": 824, "igh</w>": 825, "economic</w>": 826, "now</w>": 827, "Lat": 828, "ill": 829, "ently</w>": 830, "der": 831, "thers</w>": 832, "iz": 833, "ters</w>": 834, "ited</w>": 835, "Un": 836, "el</w>": 837, "19": 838, "ical</w>": 839, "lead": 840, "By</w>": 841, "across</w>": 842, "2016</w>": 843, "appro": 844, "News</w>": 845, "ese</w>": 846, "Latin": 847, "29</w>": 848, "ue</w>": 849, "ect</w>": 850, "sci": 851, "hel": 852, "conduc": 853, "come</w>": 854, "differences</w>": 855, "no</w>": 856, "and": 857, "believe</w>": 858, "candid": 859, "est": 860, "thing</w>": 861, "job</w>": 862, "population</w>": 863, "20</w>": 864, "65</w>": 865, "ussi": 866, "idence</w>": 867, "ress</w>": 868, "fac": 869, "top</w>": 870, "divided</w>": 871, "Af": 872, "ship</w>": 873, "For</w>": 874, "high</w>": 875, "10</w>": 876, "49</w>": 877, "nearly</w>": 878, "sub": 879, "followed</w>": 880, "ga": 881, "sp": 882, "lob": 883, "quarter</w>": 884, "des": 885, "urr": 886, "peri": 887, "concern": 888, "ttle</w>": 889, "last</w>": 890, "way</w>": 891, "rea": 892, "bec": 893, "little</w>": 894, "comes</w>": 895, "colle": 896, "hou": 897, "change</w>": 898, "ement</w>": 899, "St": 900, "ea</w>": 901, "sch": 902, "economy</w>": 903, "religious</w>": 904, "ions</w>": 905, "ple</w>": 906, "ass": 907, "contr": 908, "third</w>": 909, "Ma": 910, "sel": 911, "lib": 912, "support": 913, "health</w>": 914, "eb": 915, "fam": 916, "overage</w>": 917, "ved</w>": 918, "thirds</w>": 919, "higher</w>": 920, "This</w>": 921, "o-thirds</w>": 922, "how</w>": 923, "kers</w>": 924, "million</w>": 925, "simil": 926, "surveyed</w>": 927, "well</w>": 928, "white</w>": 929, "issues</w>": 930, "au": 931, "confidence</w>": 932, "Europe": 933, "since</w>": 934, "tho": 935, "vote</w>": 936, "shares</w>": 937, "week</w>": 938, "vel": 939, "group</w>": 940, "ith": 941, "agre": 942, "negative</w>": 943, "ble</w>": 944, "four": 945, "har": 946, "tis": 947, "asked</w>": 948, "eth": 949, "hold</w>": 950, "yp": 951, "internet</w>": 952, "'t</w>": 953, "Russi": 954, "grow": 955, "conducted</w>": 956, "ept": 957, "tter</w>": 958, "get</w>": 959, "data</w>": 960, "cri": 961, "ia</w>": 962, "past</w>": 963, "tu": 964, "tec": 965, "used</w>": 966, "ton</w>": 967, "uding</w>": 968, "whites</w>": 969, "where</w>": 970, "Muslim": 971, "n't</w>": 972, "own": 973, "depen": 974, "college</w>": 975, "majorities</w>": 976, "Ca": 977, "eff": 978, "ether</w>": 979, "number</w>": 980, "orities</w>": 981, "including</w>": 982, "os</w>": 983, "inform": 984, "supporters</w>": 985, "ility</w>": 986, ",0": 987, "sm": 988, "owever</w>": 989, "two</w>": 990, "gree</w>": 991, "Muslims</w>": 992, "glob": 993, "Maj": 994, "Is": 995, "whether</w>": 996, "Pro": 997, "ven</w>": 998, "better</w>": 999, "ors</w>": 1000, "ices</w>": 1001, "story</w>": 1002, "While</w>": 1003, "11</w>": 1004, "ed": 1005, "disa": 1006, "uring</w>": 1007, "five</w>": 1008, "nations</w>": 1009, "chang": 1010, "similar</w>": 1011, "can</w>": 1012, "tive</w>": 1013, "today</w>": 1014, "opinion</w>": 1015, "12</w>": 1016, "plac": 1017, "e-in-ten</w>": 1018, "gu": 1019, "x-in-ten</w>": 1020, "ine</w>": 1021, "expec": 1022, "favor</w>": 1023, "On": 1024, "roughly</w>": 1025, "viru": 1026, "peci": 1027, "virus</w>": 1028, "Ar": 1029, "such</w>": 1030, "ama</w>": 1031, "sti": 1032, "emp": 1033, "ques": 1034, "Ob": 1035, "Vi": 1036, "make</w>": 1037, "44</w>": 1038, "45</w>": 1039, "gh": 1040, "ember</w>": 1041, "ell": 1042, "loc": 1043, "ven": 1044, "Pu": 1045, "ays</w>": 1046, "ric": 1047, "parents</w>": 1048, "low</w>": 1049, "ality</w>": 1050, "house": 1051, "express</w>": 1052, "35</w>": 1053, "pow": 1054, "offic": 1055, "education</w>": 1056, "curr": 1057, "ll</w>": 1058, "conserv": 1059, "even</w>": 1060, "blacks</w>": 1061, "percent": 1062, "Mex": 1063, "bs</w>": 1064, "though</w>": 1065, "ably</w>": 1066, "lot</w>": 1067, "black</w>": 1068, "information</w>": 1069, "Mexic": 1070, "Nearly</w>": 1071, "fir": 1072, "vis": 1073, "Obama</w>": 1074, "Su": 1075, "eng": 1076, "ame</w>": 1077, "Over": 1078, "ture</w>": 1079, "two-thirds</w>": 1080, "immigr": 1081, "recent</w>": 1082, "gress</w>": 1083, "partic": 1084, "Catho": 1085, "tic</w>": 1086, "ste": 1087, "fore": 1088, "his</w>": 1089, "if</w>": 1090, "report</w>": 1091, "overall</w>": 1092, "Inter": 1093, "15</w>": 1094, "bac": 1095, "39</w>": 1096, "bi": 1097, "us</w>": 1098, "infl": 1099, "27</w>": 1100, "home</w>": 1101, "imp": 1102, "Germany</w>": 1103, "family</w>": 1104, "ys": 1105, "ating</w>": 1106, "emb": 1107, "president</w>": 1108, "cas": 1109, "ual</w>": 1110, "born</w>": 1111, "dependents</w>": 1112, "equ": 1113, "with": 1114, "atten": 1115, "four-in-ten</w>": 1116, ",000</w>": 1117, "Roughly</w>": 1118, "rim": 1119, "san</w>": 1120, "ism</w>": 1121, "lack</w>": 1122, "brea": 1123, "right</w>": 1124, "fied</w>": 1125, "Afric": 1126, "tisan</w>": 1127, "work</w>": 1128, "ight": 1129, "relati": 1130, "global</w>": 1131, "37</w>": 1132, "six-in-ten</w>": 1133, "emplo": 1134, "25</w>": 1135, "21</w>": 1136, "32</w>": 1137, "Asi": 1138, "go": 1139, "non": 1140, "omin": 1141, "did</w>": 1142, "fewer</w>": 1143, "leaners</w>": 1144, "51</w>": 1145, "ilit": 1146, "34</w>": 1147, "52</w>": 1148, "care</w>": 1149, "ona": 1150, "Overall</w>": 1151, "trust</w>": 1152, "policy</w>": 1153, "64</w>": 1154, "bas": 1155, "living</w>": 1156, "oward</w>": 1157, "tern</w>": 1158, "times</w>": 1159, "influ": 1160, "46</w>": 1161, "gest</w>": 1162, "ems</w>": 1163, "U.S</w>": 1164, "exam": 1165, "itiz": 1166, "17</w>": 1167, "mon": 1168, "tics</w>": 1169, "jobs</w>": 1170, "often</w>": 1171, "Party</w>": 1172, "accoun": 1173, "soci": 1174, "corona": 1175, "contrast</w>": 1176, "first</w>": 1177, "2017</w>": 1178, "limate</w>": 1179, "31</w>": 1180, "43</w>": 1181, "48</w>": 1182, "26</w>": 1183, "GO": 1184, "There</w>": 1185, "deb": 1186, "coronavirus</w>": 1187, "sig": 1188, "tered</w>": 1189, "Indi": 1190, "41</w>": 1191, "fe</w>": 1192, "toward</w>": 1193, "ority</w>": 1194, "36</w>": 1195, "sts</w>": 1196, "typ": 1197, "experi": 1198, "ology</w>": 1199, "does</w>": 1200, "ethn": 1201, "hn": 1202, "three</w>": 1203, "aller</w>": 1204, "break</w>": 1205, "mos": 1206, "independents</w>": 1207, "2018</w>": 1208, "28</w>": 1209, "fre": 1210, "marri": 1211, "race</w>": 1212, "Germ": 1213, "Clin": 1214, "Just</w>": 1215, "ustr": 1216, "end</w>": 1217, "ampa": 1218, "main": 1219, "issue</w>": 1220, "42</w>": 1221, "No": 1222, "bro": 1223, "hear": 1224, "compan": 1225, "quarters</w>": 1226, "GOP</w>": 1227, "Clinton</w>": 1228, "coverage</w>": 1229, "il</w>": 1230, "are": 1231, "live</w>": 1232, "role</w>": 1233, "outbreak</w>": 1234, "European</w>": 1235, "percentage</w>": 1236, "23</w>": 1237, "24</w>": 1238, "57</w>": 1239, "Ac": 1240, "Sou": 1241, "tur": 1242, "around</w>": 1243, "verage</w>": 1244, "pol": 1245, "new": 1246, "partisan</w>": 1247, "legal</w>": 1248, "descri": 1249, "ilitary</w>": 1250, "led</w>": 1251, "ants</w>": 1252, "stud": 1253, "being</w>": 1254, "degree</w>": 1255, "feel</w>": 1256, "38</w>": 1257, "60</w>": 1258, "av": 1259, "climate</w>": 1260, "lem</w>": 1261, "conservative</w>": 1262, "22</w>": 1263, "55</w>": 1264, "58</w>": 1265, "ib": 1266, "erg": 1267, "fuge": 1268, "commun": 1269, "Congress</w>": 1270, "nific": 1271, "accept": 1272, "teens</w>": 1273, "younger</w>": 1274, "As</w>": 1275, "during</w>": 1276, "sec": 1277, "anal": 1278, "part": 1279, "different</w>": 1280, "following</w>": 1281, "liberal</w>": 1282, "47</w>": 1283, "ause</w>": 1284, "fore</w>": 1285, "regis": 1286, "power</w>": 1287, "scienti": 1288, "16</w>": 1289, "53</w>": 1290, "three-": 1291, "identif": 1292, "personal</w>": 1293, "United</w>": 1294, "signific": 1295, "54</w>": 1296, "others</w>": 1297, "pref": 1298, "either</w>": 1299, "Latinos</w>": 1300, "oppos": 1301, "financ": 1302, "problem</w>": 1303, "influence</w>": 1304, "mostly</w>": 1305, "found</w>": 1306, "pe</w>": 1307, "ones</w>": 1308, "When</w>": 1309, "impact</w>": 1310, "rate</w>": 1311, "tre": 1312, "want</w>": 1313, "ene": 1314, "points</w>": 1315, "ool</w>": 1316, "recei": 1317, "consid": 1318, "ded</w>": 1319, "ago</w>": 1320, "techn": 1321, "Majorities</w>": 1322, "increased</w>": 1323, "includ": 1324, "agree</w>": 1325, "13</w>": 1326, "40</w>": 1327, "56</w>": 1328, "Ira": 1329, "dem": 1330, "eas": 1331, "ling</w>": 1332, "nation</w>": 1333, "Views</w>": 1334, "example</w>": 1335, "val": 1336, "like</w>": 1337, "acceptable</w>": 1338, "sy": 1339, "ful</w>": 1340, "campa": 1341, "inv": 1342, "refuge": 1343, "workers</w>": 1344, "ligh": 1345, "prove</w>": 1346, "ight-in-ten</w>": 1347, "59</w>": 1348, "62</w>": 1349, "aga": 1350, "confident</w>": 1351, "holds</w>": 1352, "leaning</w>": 1353, "candidate</w>": 1354, "gan": 1355, "military</w>": 1356, "ou</w>": 1357, "wid": 1358, "ories</w>": 1359, "tra": 1360, "school</w>": 1361, "Catholic": 1362, "However</w>": 1363, "bad</w>": 1364, "America</w>": 1365, "before</w>": 1366, "working</w>": 1367, "ourt</w>": 1368, "72</w>": 1369, "Mar": 1370, "crim": 1371, "fri": 1372, "hand": 1373, "pp": 1374, "ong": 1375, "concerned</w>": 1376, "smaller</w>": 1377, "ysis</w>": 1378, "heard</w>": 1379, "South</w>": 1380, "ID": 1381, "2015</w>": 1382, "Russia</w>": 1383, "average</w>": 1384, "fic</w>": 1385, "red</w>": 1386, "generally</w>": 1387, "local</w>": 1388, "CO": 1389, "large</w>": 1390, "Europe</w>": 1391, "analysis</w>": 1392, "registered</w>": 1393, "identify</w>": 1394, "co": 1395, "atings</w>": 1396, "acti": 1397, "having</w>": 1398, "vel</w>": 1399, "because</w>": 1400, "Germans</w>": 1401, "Catholics</w>": 1402, "Kor": 1403, "idential</w>": 1404, "changed</w>": 1405, "Iraq</w>": 1406, "61</w>": 1407, "made</w>": 1408, "memb": 1409, "States</w>": 1410, "14</w>": 1411, "VID": 1412, "income</w>": 1413, "trac": 1414, "using</w>": 1415, "level": 1416, "gap</w>": 1417, "COVID": 1418, "COVID-": 1419, "Nor": 1420, "af": 1421, "hi": 1422, "he</w>": 1423, "ments</w>": 1424, "respec": 1425, "2014</w>": 1426, "mart": 1427, "particul": 1428, "Interest</w>": 1429, "acy</w>": 1430, "key</w>": 1431, "Only</w>": 1432, "three-quarters</w>": 1433, "COVID-19</w>": 1434, "-leaning</w>": 1435, "63</w>": 1436, "Some</w>": 1437, "citiz": 1438, "um</w>": 1439, "threat</w>": 1440, "foreign</w>": 1441, "done</w>": 1442, "you</w>": 1443, "Fran": 1444, "ari": 1445, "ully</w>": 1446, "ces</w>": 1447, "cell": 1448, "spen": 1449, "test": 1450, "organ": 1451, "ook</w>": 1452, "great": 1453, "increase</w>": 1454, "question</w>": 1455, "parties</w>": 1456, "deal</w>": 1457, "lower</w>": 1458, "companies</w>": 1459, "Black</w>": 1460, "secon": 1461, "war": 1462, "orig": 1463, "ide": 1464, "racial</w>": 1465, "Pres": 1466, "under</w>": 1467, "fair</w>": 1468, "Chris": 1469, "contin": 1470, "pecially</w>": 1471, "Publi": 1472, "current</w>": 1473, "levels</w>": 1474, "eight-in-ten</w>": 1475, "four</w>": 1476, "sites</w>": 1477, "says</w>": 1478, "Christi": 1479, "especially</w>": 1480, "idents</w>": 1481, "amoun": 1482, "terr": 1483, "leaders</w>": 1484, "expect</w>": 1485, "broad": 1486, "Pe": 1487, "deral</w>": 1488, "ues</w>": 1489, "level</w>": 1490, "federal</w>": 1491, "place</w>": 1492, "ak": 1493, "common</w>": 1494, "33</w>": 1495, "68</w>": 1496, "ban</w>": 1497, "repres": 1498, "them": 1499, "lear</w>": 1500, "grad": 1501, "phones</w>": 1502, "70</w>": 1503, "kn": 1504, "od</w>": 1505, "ord": 1506, "seven": 1507, "presidential</w>": 1508, "person</w>": 1509, "Gre": 1510, "stanti": 1511, "partn": 1512, "campaign</w>": 1513, "ability</w>": 1514, "2010</w>": 1515, "sion</w>": 1516, "gender</w>": 1517, "amount</w>": 1518, "71</w>": 1519, "ning</w>": 1520, "smart": 1521, "provid": 1522, "under": 1523, "few</w>": 1524, "seri": 1525, "Protest": 1526, "seven-in-ten</w>": 1527, "ety</w>": 1528, "point</w>": 1529, "affili": 1530, "selves</w>": 1531, "eg": 1532, "lems</w>": 1533, "thr": 1534, "ind": 1535, "pread</w>": 1536, "someone</w>": 1537, "plat": 1538, "finds</w>": 1539, "help</w>": 1540, "candidates</w>": 1541, "gun</w>": 1542, "nec": 1543, "adv": 1544, "2012</w>": 1545, "minis": 1546, "69</w>": 1547, "regi": 1548, "stat": 1549, "members</w>": 1550, "themselves</w>": 1551, "spe": 1552, "sour": 1553, "into</w>": 1554, "abor": 1555, "France</w>": 1556, "organiz": 1557, "Bid": 1558, "Per": 1559, "down</w>": 1560, "onally</w>": 1561, "itu": 1562, "ison</w>": 1563, "future</w>": 1564, "Mexico</w>": 1565, "Biden</w>": 1566, "am</w>": 1567, "lan": 1568, "ership</w>": 1569, "nex": 1570, "state</w>": 1571, "ingly</w>": 1572, "after</w>": 1573, "66</w>": 1574, "To": 1575, "mi": 1576, "mis": 1577, "ported</w>": 1578, "2019</w>": 1579, "policies</w>": 1580, "immigration</w>": 1581, "Mill": 1582, "ron": 1583, "general</w>": 1584, "elections</w>": 1585, "moder": 1586, "substanti": 1587, "technology</w>": 1588, "67</w>": 1589, "Jap": 1590, "foc": 1591, "inst</w>": 1592, "sus</w>": 1593, "Isra": 1594, "refugees</w>": 1595, "People</w>": 1596, "Japan</w>": 1597, "ition</w>": 1598, "ut": 1599, "dition</w>": 1600, "elm": 1601, "That</w>": 1602, "form</w>": 1603, "comparison</w>": 1604, "prim": 1605, "decis": 1606, "highest</w>": 1607, "concerns</w>": 1608, "households</w>": 1609, "Korea</w>": 1610, "President</w>": 1611, "Millen": 1612, "EU</w>": 1613, "police</w>": 1614, "concern</w>": 1615, "problems</w>": 1616, "know</w>": 1617, "ratings</w>": 1618, "ant": 1619, "whelm": 1620, "ural</w>": 1621, "progr": 1622, "religion</w>": 1623, "Latino</w>": 1624, "Fac": 1625, "Tur": 1626, "Youn": 1627, "et</w>": 1628, "ous": 1629, "idd": 1630, "otal</w>": 1631, "2013</w>": 1632, "sever": 1633, "non-": 1634, "73</w>": 1635, "lim</w>": 1636, "grap": 1637, "doing</w>": 1638, "law</w>": 1639, "e-in-": 1640, "res</w>": 1641, "larger</w>": 1642, "opinions</w>": 1643, "young</w>": 1644, "disap": 1645, "owners</w>": 1646, "still</w>": 1647, "Public</w>": 1648, "graph": 1649, "Wes": 1650, "ms</w>": 1651, "ital</w>": 1652, "give</w>": 1653, "ebook</w>": 1654, "Africa</w>": 1655, "scientists</w>": 1656, "Facebook</w>": 1657, "Al": 1658, "At</w>": 1659, "life</w>": 1660, "tric": 1661, "making</w>": 1662, "twice</w>": 1663, "take</w>": 1664, "relations</w>": 1665, "abortion</w>": 1666, "-born</w>": 1667, "ther": 1668, "ends</w>": 1669, "ouse</w>": 1670, "ign": 1671, "vers": 1672, "main</w>": 1673, "aliz": 1674, "199": 1675, "approve</w>": 1676, "next</w>": 1677, "Me": 1678, "bo": 1679, "ey</w>": 1680, "ograph": 1681, "ale</w>": 1682, "voting</w>": 1683, "services</w>": 1684, "growing</w>": 1685, "gradu": 1686, "ituation</w>": 1687, "Many</w>": 1688, "ee</w>": 1689, "side</w>": 1690, "sligh": 1691, "ements</w>": 1692, "states</w>": 1693, "2008</w>": 1694, "against</w>": 1695, "En": 1696, "hum": 1697, "ways</w>": 1698, "enough</w>": 1699, "app": 1700, "related</w>": 1701, "istan</w>": 1702, "80</w>": 1703, "mor": 1704, "sum": 1705, "comp": 1706, "worse</w>": 1707, "generation</w>": 1708, "science</w>": 1709, "ethnic</w>": 1710, "On</w>": 1711, "Twit": 1712, "name</w>": 1713, "ans": 1714, "end": 1715, "ach": 1716, "ish</w>": 1717, "These</w>": 1718, "view": 1719, "politics</w>": 1720, "through</w>": 1721, "bile</w>": 1722, "ry</w>": 1723, "xed</w>": 1724, "resu": 1725, "tration</w>": 1726, "ential</w>": 1727, "strong</w>": 1728, "Muslim</w>": 1729, "officers</w>": 1730, "76</w>": 1731, "bility</w>": 1732, "ool": 1733, "satis": 1734, "att": 1735, "loo": 1736, "areas</w>": 1737, "serious</w>": 1738, "Di": 1739, "doc": 1740, "sol": 1741, "ths</w>": 1742, "remain": 1743, "ested</w>": 1744, "reason</w>": 1745, "interest</w>": 1746, "forms</w>": 1747, "express": 1748, "Sy": 1749, "ail": 1750, "wide</w>": 1751, "one-in-": 1752, "ests</w>": 1753, "opp": 1754, "urity</w>": 1755, "may</w>": 1756, "ented</w>": 1757, "overwhelm": 1758, "even": 1759, "difference</w>": 1760, "tend</w>": 1761, "dating</w>": 1762, "stem</w>": 1763, "attention</w>": 1764, "ongly</w>": 1765, "North</w>": 1766, "Can": 1767, "situation</w>": 1768, "things</w>": 1769, "poor</w>": 1770, "great</w>": 1771, "school": 1772, "harass": 1773, "relatively</w>": 1774, "citizens</w>": 1775, "several</w>": 1776, "Twitter</w>": 1777, "go</w>": 1778, "tively</w>": 1779, "atives</w>": 1780, "trade</w>": 1781, "adminis": 1782, "part</w>": 1783, "2007</w>": 1784, "March</w>": 1785, "resul": 1786, "Im": 1787, "could</w>": 1788, "ined</w>": 1789, "sions</w>": 1790, "med": 1791, "strongly</w>": 1792, "debate</w>": 1793, "India</w>": 1794, "75</w>": 1795, "New</w>": 1796, "site</w>": 1797, "t-": 1798, "total</w>": 1799, "prof": 1800, "force</w>": 1801, "largest</w>": 1802, "priv": 1803, "off</w>": 1804, "stitu": 1805, "oli": 1806, "another</w>": 1807, "tit": 1808, "tional</w>": 1809, "lean</w>": 1810, "unfavorable</w>": 1811, "feel": 1812, "conflic": 1813, "spli": 1814, "terror": 1815, "slightly</w>": 1816, "77</w>": 1817, "bal": 1818, "best</w>": 1819, "democr": 1820, "onal": 1821, "list</w>": 1822, "ically</w>": 1823, "voted</w>": 1824, "international</w>": 1825, "effec": 1826, "going</w>": 1827, "system</w>": 1828, "Fe": 1829, "bene": 1830, "lec": 1831, "om</w>": 1832, "yment</w>": 1833, "read": 1834, "compu": 1835, "sible</w>": 1836, "regul": 1837, "society</w>": 1838, "Sen": 1839, "pay</w>": 1840, "antly</w>": 1841, "defin": 1842, "tain</w>": 1843, "three-in-ten</w>": 1844, "Sup": 1845, "describe</w>": 1846, "students</w>": 1847, "iddle</w>": 1848, "ci": 1849, "ann": 1850, "Those</w>": 1851, "ights</w>": 1852, "married</w>": 1853, "financial</w>": 1854, "consider": 1855, "handling</w>": 1856, "Protestants</w>": 1857, "organizations</w>": 1858, "ject</w>": 1859, "kes</w>": 1860, "sk": 1861, "dig": 1862, "declin": 1863, "greater</w>": 1864, "partner</w>": 1865, "mixed</w>": 1866, "Millenni": 1867, "Western</w>": 1868, "titud": 1869, "onald</w>": 1870, "79</w>": 1871, "74</w>": 1872, "House</w>": 1873, "NA": 1874, "mat": 1875, "ran</w>": 1876, "add": 1877, "devel": 1878, "White</w>": 1879, "mobile</w>": 1880, "ographic</w>": 1881, "How</w>": 1882, "dro": 1883, "ind</w>": 1884, "iting</w>": 1885, "net": 1886, "term</w>": 1887, "cho": 1888, "access</w>": 1889, "respondents</w>": 1890, "big</w>": 1891, "Not</w>": 1892, "significant</w>": 1893, "benef": 1894, "Millennials</w>": 1895, "Ad": 1896, "Com": 1897, "Gen": 1898, "tom": 1899, "one-": 1900, "ensus</w>": 1901, "crimin": 1902, "particularly</w>": 1903, "spending</w>": 1904, "origin</w>": 1905, "split</w>": 1906, "Ita": 1907, "Wor": 1908, "urban</w>": 1909, "six</w>": 1910, "prefer</w>": 1911, "Apri": 1912, "Fully</w>": 1913, "pat": 1914, "ins</w>": 1915, "aries</w>": 1916, "exc": 1917, "dev": 1918, "seen</w>": 1919, "fair": 1920, "immigrant</w>": 1921, "without</w>": 1922, "him</w>": 1923, "titudes</w>": 1924, "April</w>": 1925, "78</w>": 1926, "Donald</w>": 1927, "pite</w>": 1928, "up": 1929, "ace</w>": 1930, "U.S.": 1931, "prot": 1932, "2011</w>": 1933, "ized</w>": 1934, "based</w>": 1935, "experience</w>": 1936, "Across</w>": 1937, "ergy</w>": 1938, "84</w>": 1939, "De": 1940, "Spa": 1941, "cre": 1942, "ians</w>": 1943, "tting</w>": 1944, "ines</w>": 1945, "arac": 1946, "ith</w>": 1947, "ist</w>": 1948, "publics</w>": 1949, "close</w>": 1950, "consist": 1951, "relation": 1952, "turn": 1953, "community</w>": 1954, "smartphone</w>": 1955, "Syri": 1956, "Spain</w>": 1957, "Court</w>": 1958, "nomin": 1959, "ole</w>": 1960, "household</w>": 1961, "disapprove</w>": 1962, "develop": 1963, "Be": 1964, "usin": 1965, "une</w>": 1966, "siz": 1967, "sibility</w>": 1968, "irs</w>": 1969, "contro": 1970, "Asian</w>": 1971, "moderate</w>": 1972, "administration</w>": 1973, "Coverage</w>": 1974, "Li": 1975, "jus": 1976, "sen": 1977, "ateg": 1978, "sure</w>": 1979, "popular</w>": 1980, "response</w>": 1981, "within</w>": 1982, "platforms</w>": 1983, "region</w>": 1984, "oppose</w>": 1985, "fairly</w>": 1986, "Iran</w>": 1987, "Vot": 1988, "ave</w>": 1989, "lat": 1990, "val</w>": 1991, "ange": 1992, "igure</w>": 1993, "viron": 1994, "ports</w>": 1995, "laws</w>": 1996, "auth": 1997, "growth</w>": 1998, "Christians</w>": 1999, "angelic": 2000, "85</w>": 2001, "Lati": 2002, "Op": 2003, "ft</w>": 2004, "ug": 2005, "ada</w>": 2006, "stand</w>": 2007, "uclear</w>": 2008, "previ": 2009, "Around</w>": 2010, "demographic</w>": 2011, "Latin</w>": 2012, "1.": 2013, "du": 2014, "gin</w>": 2015, "hom": 2016, "nam": 2017, "area</w>": 2018, "almost</w>": 2019, "direc": 2020, "favorably</w>": 2021, "ological</w>": 2022, "respectively</w>": 2023, "Bra": 2024, "Oc": 2025, "fall</w>": 2026, "however</w>": 2027, "ip": 2028, "rural</w>": 2029, "ures</w>": 2030, "thy</w>": 2031, "harassment</w>": 2032, "Jan": 2033, "Span": 2034, "TV</w>": 2035, "dr": 2036, "preme</w>": 2037, "decade</w>": 2038, "become</w>": 2039, "Supreme</w>": 2040, "Nov": 2041, "Perc": 2042, "schools</w>": 2043, "Col": 2044, "speci": 2045, "anwhile</w>": 2046, "ditional</w>": 2047, "research</w>": 2048, "extre": 2049, "cases</w>": 2050, "employment</w>": 2051, "marriage</w>": 2052, "values</w>": 2053, "second</w>": 2054, "medical</w>": 2055, "Ex": 2056, "les</w>": 2057, "nati": 2058, "not": 2059, "rating</w>": 2060, "espread</w>": 2061, "occ": 2062, "oods</w>": 2063, "elected</w>": 2064, "follow</w>": 2065, "ought</w>": 2066, "Chinese</w>": 2067, "Pak": 2068, "car": 2069, "f-": 2070, "man": 2071, "nat": 2072, "nuclear</w>": 2073, "rit": 2074, "wat": 2075, "environ": 2076, "see": 2077, "meas": 2078, "marke": 2079, "ency</w>": 2080, "find</w>": 2081, "Europeans</w>": 2082, "frequ": 2083, "spea": 2084, "Tw": 2085, "band</w>": 2086, "ges</w>": 2087, "estim": 2088, "ush</w>": 2089, "Canada</w>": 2090, "previous</w>": 2091, "Braz": 2092, "83</w>": 2093, "Econ": 2094, "Ja": 2095, "ain</w>": 2096, "busin": 2097, "rights</w>": 2098, "icul": 2099, "tern": 2100, "ourn": 2101, "child</w>": 2102, "Younger</w>": 2103, "ously</w>": 2104, "docum": 2105, "Fewer</w>": 2106, "digital</w>": 2107, "Econom": 2108, "Dec": 2109, "June</w>": 2110, "Simil": 2111, "airs</w>": 2112, "cal</w>": 2113, "sing</w>": 2114, "we</w>": 2115, "war</w>": 2116, "incomes</w>": 2117, "allow": 2118, "ists</w>": 2119, "deal": 2120, "evangelic": 2121, "avail": 2122, "invol": 2123, "Turkey</w>": 2124, "Senate</w>": 2125, "author": 2126, "ders</w>": 2127, "energy</w>": 2128, "parts</w>": 2129, "impro": 2130, "vities</w>": 2131, "ental</w>": 2132, "enced</w>": 2133, "mothers</w>": 2134, "fact": 2135, "case</w>": 2136, "describ": 2137, "security</w>": 2138, "significantly</w>": 2139, "know": 2140, "versity</w>": 2141, "Japan": 2142, "Sept": 2143, "bu": 2144, "dou": 2145, "et": 2146, "ian</w>": 2147, "show": 2148, "def": 2149, "sex</w>": 2150, "tax</w>": 2151, "vide": 2152, "ligible</w>": 2153, "twee": 2154, "educated</w>": 2155, "vision</w>": 2156, "program</w>": 2157, "attac": 2158, "private</w>": 2159, "0,000</w>": 2160, "Bo": 2161, "Cu": 2162, "UK</w>": 2163, "gely</w>": 2164, "jec": 2165, "rates</w>": 2166, "attitudes</w>": 2167, "try</w>": 2168, "led": 2169, "residents</w>": 2170, "Republican": 2171, "to-": 2172, "accep": 2173, "comple": 2174, "democracy</w>": 2175, "duce</w>": 2176, "ournali": 2177, "Japanese</w>": 2178, "Jord": 2179, "Nig": 2180, "big": 2181, "categ": 2182, "domin": 2183, "ls</w>": 2184, "vari": 2185, "ash": 2186, "neigh": 2187, "worri": 2188, "rather</w>": 2189, "period</w>": 2190, "prefer": 2191, "satisfied</w>": 2192, "81</w>": 2193, "82</w>": 2194, "TO</w>": 2195, "eligible</w>": 2196, "fis": 2197, "addition</w>": 2198, "never</w>": 2199, "oper": 2200, "-income</w>": 2201, "difficul": 2202, "decline</w>": 2203, "disc": 2204, "stance</w>": 2205, "effect</w>": 2206, "questions</w>": 2207, "received</w>": 2208, "activities</w>": 2209, "Today</w>": 2210, "Meanwhile</w>": 2211, "crimination</w>": 2212, "relationship</w>": 2213, "ials</w>": 2214, "nin": 2215, "ness</w>": 2216, "tal": 2217, "reported</w>": 2218, "stories</w>": 2219, "ulti": 2220, "terms</w>": 2221, "possible</w>": 2222, "tain": 2223, "margin</w>": 2224, "largely</w>": 2225, "self-": 2226, "2.": 2227, "Le": 2228, "Leb": 2229, "Sh": 2230, "Soc": 2231, "te</w>": 2232, "remain</w>": 2233, "tral</w>": 2234, "star": 2235, "given</w>": 2236, "increasing</w>": 2237, "border</w>": 2238, "responsibility</w>": 2239, "friends</w>": 2240, "Support</w>": 2241, "fiscal</w>": 2242, "Leban": 2243, "Bush</w>": 2244, "East</w>": 2245, "Lar": 2246, "Mor": 2247, "call": 2248, "court</w>": 2249, "xes</w>": 2250, "connec": 2251, "chur": 2252, "uni": 2253, "recor": 2254, "Democratic": 2255, "priority</w>": 2256, "numb": 2257, "engag": 2258, "graduates</w>": 2259, "documented</w>": 2260, "Ph": 2261, "Sa": 2262, "Sti": 2263, "ful": 2264, "fall": 2265, "getting</w>": 2266, "sharing</w>": 2267, "affairs</w>": 2268, "equal</w>": 2269, "terrorism</w>": 2270, "authorized</w>": 2271, "Des": 2272, "LG": 2273, "Pos": 2274, "US": 2275, "fun": 2276, "member</w>": 2277, "sing": 2278, "oms</w>": 2279, "icity</w>": 2280, "ditions</w>": 2281, "emerg": 2282, "discrimination</w>": 2283, "currently</w>": 2284, "consider</w>": 2285, "widespread</w>": 2286, "continue</w>": 2287, "industr": 2288, "sources</w>": 2289, "substantial</w>": 2290, "viewed</w>": 2291, "balance</w>": 2292, "NATO</w>": 2293, "Democratic-leaning</w>": 2294, "0s</w>": 2295, "cell</w>": 2296, "dest</w>": 2297, "eight</w>": 2298, "fem": 2299, "kly</w>": 2300, "ses</w>": 2301, "top": 2302, "uly</w>": 2303, "refl": 2304, "lier</w>": 2305, "actions</w>": 2306, "trus": 2307, "sive</w>": 2308, "office</w>": 2309, "back</w>": 2310, "equality</w>": 2311, "accounted</w>": 2312, "broadband</w>": 2313, "Jews</w>": 2314, "Uk": 2315, "due</w>": 2316, "hist": 2317, "ana</w>": 2318, "read</w>": 2319, "adult</w>": 2320, "ground</w>": 2321, "events</w>": 2322, "sometimes</w>": 2323, "2000</w>": 2324, "certain</w>": 2325, "small</w>": 2326, "officials</w>": 2327, "Israel</w>": 2328, "control</w>": 2329, "Republican-leaning</w>": 2330, "neighbor": 2331, "nine-in-ten</w>": 2332, "Still</w>": 2333, "Ukra": 2334, "Middle</w>": 2335, "cite</w>": 2336, "care": 2337, "dri": 2338, "gres": 2339, "hen": 2340, "oot": 2341, "along</w>": 2342, "althy</w>": 2343, "ise</w>": 2344, "2020</w>": 2345, "produc": 2346, "work": 2347, "plur": 2348, "2009</w>": 2349, "changes</w>": 2350, "experienced</w>": 2351, "advant": 2352, "decision</w>": 2353, "alization</w>": 2354, "human</w>": 2355, "one-in-five</w>": 2356, "Syria</w>": 2357, "Spanish</w>": 2358, "Niger": 2359, "numbers</w>": 2360, "Austr": 2361, "Pol": 2362, "Yor": 2363, "d-": 2364, "ep</w>": 2365, "ken</w>": 2366, "multi": 2367, "ob": 2368, "instance</w>": 2369, "lic</w>": 2370, "atic</w>": 2371, "ads</w>": 2372, "pur": 2373, "restric": 2374, "viol": 2375, "paid</w>": 2376, "effor": 2377, "represent": 2378, "Eng": 2379, "conflict</w>": 2380, "available</w>": 2381, "Jordan</w>": 2382, "BT</w>": 2383, "mid": 2384, "re</w>": 2385, "ren": 2386, "vement</w>": 2387, "They</w>": 2388, "tically</w>": 2389, "risis</w>": 2390, "content</w>": 2391, "autom": 2392, "Indians</w>": 2393, "type</w>": 2394, "include</w>": 2395, "focus</w>": 2396, "overwhelmingly</w>": 2397, "declined</w>": 2398, "justi": 2399, "November</w>": 2400, "ledge</w>": 2401, "LGBT</w>": 2402, "88</w>": 2403, "cc": 2404, "pot": 2405, "vity</w>": 2406, "list": 2407, "succ": 2408, "expan": 2409, "Majority</w>": 2410, "months</w>": 2411, "ibu": 2412, "opposed</w>": 2413, "widely</w>": 2414, "Gener": 2415, "Italy</w>": 2416, "Despite</w>": 2417, "Figure</w>": 2418, "ially</w>": 2419, "vary</w>": 2420, "tin</w>": 2421, "ately</w>": 2422, "parent</w>": 2423, "optim": 2424, "Thre": 2425, "posa": 2426, "exual</w>": 2427, "seven</w>": 2428, "eptions</w>": 2429, "standing</w>": 2430, "regar": 2431, "face</w>": 2432, "affiliated</w>": 2433, "primary</w>": 2434, "attacks</w>": 2435, "single</w>": 2436, "As": 2437, "July</w>": 2438, "cul": 2439, "don": 2440, "fact</w>": 2441, "vacc": 2442, "requ": 2443, "istic</w>": 2444, "old</w>": 2445, "illegal</w>": 2446, "comfor": 2447, "unauthorized</w>": 2448, "sional</w>": 2449, "prehen": 2450, "taxes</w>": 2451, "account</w>": 2452, "ethnicity</w>": 2453, "free</w>": 2454, "evenly</w>": 2455, "dealing</w>": 2456, "10": 2457, "4.": 2458, "86</w>": 2459, "Brit": 2460, "May</w>": 2461, "Rom": 2462, "Since</w>": 2463, "Women</w>": 2464, "every</w>": 2465, "fr": 2466, "fel": 2467, "per</w>": 2468, "ery</w>": 2469, "exper": 2470, "earlier</w>": 2471, "surveys</w>": 2472, "differ</w>": 2473, "2006</w>": 2474, "ficit</w>": 2475, "foreign": 2476, "known</w>": 2477, "lection</w>": 2478, "skep": 2479, "evangelical</w>": 2480, "Aug": 2481, "Jo": 2482, "Not": 2483, "National</w>": 2484, "da": 2485, "den</w>": 2486, "dings</w>": 2487, "sh</w>": 2488, "sam": 2489, "ome": 2490, "ass</w>": 2491, "migrants</w>": 2492, "prom": 2493, "decreas": 2494, "year-": 2495, "turn</w>": 2496, "necess": 2497, "substantially</w>": 2498, "Pakistan</w>": 2499, "frequently</w>": 2500, "USS</w>": 2501, "Even</w>": 2502, "Fren": 2503, "Lib": 2504, "Ol": 2505, "crisis</w>": 2506, "rul": 2507, "hap": 2508, "makes</w>": 2509, "undocumented</w>": 2510, "separ": 2511, "migr": 2512, "decad": 2513, "highly</w>": 2514, "personally</w>": 2515, "leading</w>": 2516, "Afgh": 2517, "Catholic</w>": 2518, "included</w>": 2519, "status</w>": 2520, "decisions</w>": 2521, "expressed</w>": 2522, "annual</w>": 2523, "Janu": 2524, "York</w>": 2525, "Feb": 2526, "Other</w>": 2527, "With</w>": 2528, "billion</w>": 2529, "cap": 2530, "cited</w>": 2531, "ew": 2532, "ever": 2533, "tor": 2534, "lies</w>": 2535, "lives</w>": 2536, "versa": 2537, "show</w>": 2538, "chall": 2539, "position</w>": 2540, "accur": 2541, "recently</w>": 2542, "threats</w>": 2543, "head</w>": 2544, "probably</w>": 2545, "held</w>": 2546, "employe": 2547, "month</w>": 2548, "poll</w>": 2549, "scientific</w>": 2550, "particular</w>": 2551, "Opin": 2552, "Social</w>": 2553, "potential</w>": 2554, "Britain</w>": 2555, "French</w>": 2556, "January</w>": 2557, "3.": 2558, "87</w>": 2559, "Curr": 2560, "Half</w>": 2561, "cy": 2562, "hos": 2563, "sm</w>": 2564, "sro": 2565, "individ": 2566, "ath</w>": 2567, "true</w>": 2568, "verse</w>": 2569, "conditions</w>": 2570, "pects</w>": 2571, "2004</w>": 2572, "dist": 2573, "stand": 2574, "risk</w>": 2575, "contact</w>": 2576, "Union</w>": 2577, "helor</w>": 2578, "reau</w>": 2579, "equally</w>": 2580, "African</w>": 2581, "study</w>": 2582, "ideological</w>": 2583, "Percent</w>": 2584, "Similarly</w>": 2585, "emerging</w>": 2586, "Ukraine</w>": 2587, "decades</w>": 2588, "6.": 2589, "Bu": 2590, "For": 2591, "fully</w>": 2592, "foods</w>": 2593, "mer</w>": 2594, "might</w>": 2595, "ering</w>": 2596, "ech</w>": 2597, "lead</w>": 2598, "improve</w>": 2599, "proc": 2600, "former</w>": 2601, "identity</w>": 2602, "divide</w>": 2603, "affec": 2604, "grown</w>": 2605, "Putin</w>": 2606, "types</w>": 2607, "pattern</w>": 2608, "Voters</w>": 2609, "worried</w>": 2610, "Afghan": 2611, "Mo": 2612, "Sur": 2613, "Ta": 2614, "Wash": 2615, "ber": 2616, "eds</w>": 2617, "table</w>": 2618, "institu": 2619, "enth": 2620, "ref": 2621, "reduc": 2622, "itely</w>": 2623, "ession</w>": 2624, "row</w>": 2625, "ece</w>": 2626, "ney</w>": 2627, "havi": 2628, "pandem": 2629, "lowest</w>": 2630, "pla": 2631, "Conserv": 2632, "offer</w>": 2633, "famili": 2634, "disagree</w>": 2635, "langu": 2636, "extrem": 2637, "Cub": 2638, "difficult</w>": 2639, "Australi": 2640, "Afghanistan</w>": 2641, "It</w>": 2642, "Rec": 2643, "Yet</w>": 2644, "dra": 2645, "days</w>": 2646, "eli": 2647, "long</w>": 2648, "mes": 2649, "wall</w>": 2650, "y-": 2651, "yl": 2652, "ered</w>": 2653, "perform": 2654, "ington</w>": 2655, "prev": 2656, "web": 2657, "dom</w>": 2658, "tele": 2659, "lam</w>": 2660, "Acc": 2661, "provide</w>": 2662, "focused</w>": 2663, "moral</w>": 2664, "feelings</w>": 2665, "definitely</w>": 2666, "knowledge</w>": 2667, "female</w>": 2668, "employees</w>": 2669, "Surve": 2670, "pandemic</w>": 2671, "Ge": 2672, "Poli": 2673, "Say</w>": 2674, "cour": 2675, "mit": 2676, "rich</w>": 2677, "ang": 2678, "ina</w>": 2679, "although</w>": 2680, "action</w>": 2681, "active</w>": 2682, "shoot": 2683, "behavi": 2684, "counter": 2685, "deficit</w>": 2686, "app</w>": 2687, "marks</w>": 2688, "something</w>": 2689, "stands</w>": 2690, "educational</w>": 2691, "illing</w>": 2692, "liber": 2693, "tisans</w>": 2694, "Islam</w>": 2695, "secure</w>": 2696, "cellphone</w>": 2697, "Great</w>": 2698, "understand</w>": 2699, "source</w>": 2700, "remains</w>": 2701, "Engli": 2702, "foreign-born</w>": 2703, "Bureau</w>": 2704, "Washington</w>": 2705, "hand</w>": 2706, "ove</w>": 2707, "spread</w>": 2708, "wom": 2709, "anti": 2710, "atively</w>": 2711, "associ": 2712, "lear": 2713, "ults</w>": 2714, "beg": 2715, "proposa": 2716, "interested</w>": 2717, "plays</w>": 2718, "service</w>": 2719, "generations</w>": 2720, "estin": 2721, "Russian</w>": 2722, "visions</w>": 2723, "crime</w>": 2724, "results</w>": 2725, "computer</w>": 2726, "choice</w>": 2727, "consistently</w>": 2728, "business</w>": 2729, "buil": 2730, "doub": 2731, "Boom": 2732, "experts</w>": 2733, "5.": 2734, "Ano": 2735, "Have</w>": 2736, "Sec": 2737, "Very</w>": 2738, "bel": 2739, "gyp": 2740, "her</w>": 2741, "hind</w>": 2742, "arily</w>": 2743, "safe</w>": 2744, "always</w>": 2745, "why</w>": 2746, "adop": 2747, "olds</w>": 2748, "stay</w>": 2749, "apprehen": 2750, "tober</w>": 2751, "taking</w>": 2752, "reasons</w>": 2753, "Inde": 2754, "findings</w>": 2755, "importance</w>": 2756, "identified</w>": 2757, "rising</w>": 2758, "spap": 2759, "audi": 2760, "bachelor</w>": 2761, "attend</w>": 2762, "spend</w>": 2763, "applic": 2764, "aracter": 2765, "October</w>": 2766, "December</w>": 2767, "Lebanon</w>": 2768, "Large</w>": 2769, "sroom</w>": 2770, "Survey</w>": 2771, "Another</w>": 2772, "-year-": 2773, "Do</w>": 2774, "Egyp": 2775, "Swe": 2776, "We": 2777, "adi": 2778, "mental</w>": 2779, "varies</w>": 2780, "sage</w>": 2781, "esbi": 2782, "lets</w>": 2783, "veter": 2784, "worry</w>": 2785, "posts</w>": 2786, "economies</w>": 2787, "positions</w>": 2788, "leader</w>": 2789, "tually</w>": 2790, "employed</w>": 2791, "opposition</w>": 2792, "cooper": 2793, "Greece</w>": 2794, "affiliation</w>": 2795, "benefits</w>": 2796, "devices</w>": 2797, "sizable</w>": 2798, "Two-thirds</w>": 2799, "restrictions</w>": 2800, "Romney</w>": 2801, "sample</w>": 2802, "counterparts</w>": 2803, "woman</w>": 2804, "Election</w>": 2805, "Fl": 2806, "God</w>": 2807, "No</w>": 2808, "clear</w>": 2809, "ned</w>": 2810, "ually</w>": 2811, "saw</w>": 2812, "usi": 2813, "consum": 2814, "ams</w>": 2815, "behind</w>": 2816, "two": 2817, "posed</w>": 2818, "phys": 2819, "commit": 2820, "minority</w>": 2821, "ills</w>": 2822, "approval</w>": 2823, "eded</w>": 2824, "particip": 2825, "newspap": 2826, "U.S.-born</w>": 2827, "September</w>": 2828, "shows</w>": 2829, "Poland</w>": 2830, "expanding</w>": 2831, "daily</w>": 2832, "Pal": 2833, "dly</w>": 2834, "hard</w>": 2835, "thought</w>": 2836, "er-income</w>": 2837, "on-": 2838, "onger</w>": 2839, "one-in-ten</w>": 2840, "then</w>": 2841, "omes": 2842, "atis": 2843, "ounc": 2844, "unaffiliated</w>": 2845, "works</w>": 2846, "gry</w>": 2847, "apps</w>": 2848, "lines</w>": 2849, "fathers</w>": 2850, "rais": 2851, "pring</w>": 2852, "2005</w>": 2853, "legally</w>": 2854, "Russians</w>": 2855, "expected</w>": 2856, "Are</w>": 2857, "includes</w>": 2858, "lands</w>": 2859, "effects</w>": 2860, "market</w>": 2861, "Sahar": 2862, "full</w>": 2863, "skeptical</w>": 2864, "language</w>": 2865, "-educated</w>": 2866, "An</w>": 2867, "Pac": 2868, "cen": 2869, "dru": 2870, "gay</w>": 2871, "lam": 2872, "ption</w>": 2873, "spec": 2874, "vo": 2875, "ining</w>": 2876, "inequality</w>": 2877, "same": 2878, "above</w>": 2879, "portive</w>": 2880, "presidents</w>": 2881, "giving</w>": 2882, "grew</w>": 2883, "Indon": 2884, "plom": 2885, "debt</w>": 2886, "networking</w>": 2887, "developing</w>": 2888, "environment</w>": 2889, "Brazil</w>": 2890, "to-one</w>": 2891, "Nigeria</w>": 2892, "Indones": 2893, "-Sahar": 2894, "89</w>": 2895, "Ap": 2896, "Far</w>": 2897, "Glob": 2898, "Po": 2899, "br": 2900, "ban": 2901, "ging</w>": 2902, "ific</w>": 2903, "jud": 2904, "tab": 2905, "tors</w>": 2906, "ur</w>": 2907, "well": 2908, "your</w>": 2909, "once</w>": 2910, "entical</w>": 2911, "reduce</w>": 2912, "chec": 2913, "range</w>": 2914, "prices</w>": 2915, "Conf": 2916, "shared</w>": 2917, "legis": 2918, "libr": 2919, "places</w>": 2920, "polled</w>": 2921, "easy</w>": 2922, "friend</w>": 2923, "pped</w>": 2924, "coh": 2925, "warm": 2926, "platform</w>": 2927, "summer</w>": 2928, "ready</w>": 2929, "computers</w>": 2930, "specific</w>": 2931, "biggest</w>": 2932, "violence</w>": 2933, "happen": 2934, "every": 2935, "Currently</w>": 2936, "process</w>": 2937, "Flor": 2938, "Palestin": 2939, "Pacific</w>": 2940, "same-": 2941, "100</w>": 2942, "Census</w>": 2943, "Fav": 2944, "Or": 2945, "Of</w>": 2946, "Sm": 2947, "food</w>": 2948, "gation</w>": 2949, "ij": 2950, "lesbi": 2951, "mas": 2952, "tari": 2953, "arri": 2954, "ards</w>": 2955, "allies</w>": 2956, "asyl": 2957, "trans": 2958, "diversity</w>": 2959, "diplom": 2960, "ida</w>": 2961, "need</w>": 2962, "portion</w>": 2963, "ches</w>": 2964, "character": 2965, "death</w>": 2966, "two-": 2967, "supportive</w>": 2968, "taken</w>": 2969, "interests</w>": 2970, "struc": 2971, "believ": 2972, "venue</w>": 2973, "conservatives</w>": 2974, "back": 2975, "treat": 2976, "receives</w>": 2977, "overwhelming</w>": 2978, "Adults</w>": 2979, "World</w>": 2980, "plurality</w>": 2981, "necessary</w>": 2982, "Geor": 2983, "English</w>": 2984, "usias": 2985, "omestic</w>": 2986, "-Saharan</w>": 2987, "Florida</w>": 2988, "same-sex</w>": 2989, "18": 2990, "Educ": 2991, "Few</w>": 2992, "TE": 2993, "West</w>": 2994, "ahead</w>": 2995, "gun": 2996, "los": 2997, "ns</w>": 2998, "uana</w>": 2999, "ense</w>": 3000, "left</w>": 3001, "protec": 3002, "quality</w>": 3003, "means</w>": 3004, "presid": 3005, "porting</w>": 3006, "ples</w>": 3007, "modest</w>": 3008, "paying</w>": 3009, "rise</w>": 3010, "teach": 3011, "weekly</w>": 3012, "help": 3013, "contribu": 3014, "agreement</w>": 3015, "Young</w>": 3016, "solar</w>": 3017, "protect</w>": 3018, "record</w>": 3019, "automation</w>": 3020, "separate</w>": 3021, "ijuana</w>": 3022, "asylum</w>": 3023, "'ve</w>": 3024, "0.": 3025, "5,000</w>": 3026, "Car": 3027, "Men</w>": 3028, "Neth": 3029, "Tu": 3030, "Uni": 3031, "bud": 3032, "down": 3033, "evid": 3034, "journali": 3035, "wr": 3036, "angry</w>": 3037, "erlands</w>": 3038, "reports</w>": 3039, "already</w>": 3040, "whose</w>": 3041, "uses</w>": 3042, "needs</w>": 3043, "nothing</w>": 3044, "degre": 3045, "play</w>": 3046, "religiously</w>": 3047, "keep</w>": 3048, "law": 3049, "Islam": 3050, "Mexican</w>": 3051, "money</w>": 3052, "typical</w>": 3053, "activity</w>": 3054, "civi": 3055, "nominee</w>": 3056, "gressional</w>": 3057, "August</w>": 3058, "Note</w>": 3059, "institutions</w>": 3060, "Sweden</w>": 3061, "two-in-ten</w>": 3062, "physical</w>": 3063, "Netherlands</w>": 3064, "1,": 3065, "Eas": 3066, "He": 3067, "Less</w>": 3068, "Min": 3069, "air</w>": 3070, "dless</w>": 3071, "gas</w>": 3072, "lap": 3073, "sexual</w>": 3074, "spring</w>": 3075, "inst": 3076, "order</w>": 3077, "identical</w>": 3078, "happ": 3079, "mail</w>": 3080, "Religi": 3081, "unacceptable</w>": 3082, "too": 3083, "gets</w>": 3084, "alities</w>": 3085, "wealthy</w>": 3086, "chance</w>": 3087, "streng": 3088, "Concer": 3089, "belief</w>": 3090, "esses</w>": 3091, "essential</w>": 3092, "correc": 3093, "leadership</w>": 3094, "approved</w>": 3095, "One</w>": 3096, "Mexicans</w>": 3097, "result</w>": 3098, "device</w>": 3099, "nation": 3100, "speak</w>": 3101, "allowing</w>": 3102, "industry</w>": 3103, "histor": 3104, "efforts</w>": 3105, "enthusias": 3106, "performance</w>": 3107, "90</w>": 3108, "At": 3109, "Barac": 3110, "Dis": 3111, "Day</w>": 3112, "Gu": 3113, "Tex": 3114, "aw": 3115, "gent": 3116, "pic": 3117, "sus": 3118, "senti": 3119, "tested</w>": 3120, "rele": 3121, "aby</w>": 3122, "coming</w>": 3123, "open</w>": 3124, "projec": 3125, "set</w>": 3126, "aps</w>": 3127, "radi": 3128, "marijuana</w>": 3129, "populations</w>": 3130, "outside</w>": 3131, "corpor": 3132, "space</w>": 3133, "assess": 3134, "Project</w>": 3135, "Argent": 3136, "Asia</w>": 3137, "opposite</w>": 3138, "receive</w>": 3139, "traditional</w>": 3140, "benefit</w>": 3141, "U.S.-": 3142, "Economic</w>": 3143, "tweets</w>": 3144, "accept</w>": 3145, "categories</w>": 3146, "church</w>": 3147, "reflec": 3148, "Generation</w>": 3149, "vaccine</w>": 3150, "Older</w>": 3151, "migration</w>": 3152, "According</w>": 3153, "-year-olds</w>": 3154, "Egypt</w>": 3155, "Indonesia</w>": 3156, "Islamic</w>": 3157, "Cz": 3158, "Coun": 3159, "Cali": 3160, "One": 3161, "came</w>": 3162, "date</w>": 3163, "ged</w>": 3164, "land</w>": 3165, "inary</w>": 3166, "whom</w>": 3167, "tri": 3168, "aded</w>": 3169, "let</w>": 3170, "shor": 3171, "excell": 3172, "forc": 3173, "supported</w>": 3174, "move</w>": 3175, "stri": 3176, "populist</w>": 3177, "sharp": 3178, "nia</w>": 3179, "minim": 3180, "again</w>": 3181, "second-": 3182, "Christian</w>": 3183, "advanc": 3184, "thern</w>": 3185, "Diff": 3186, "dram": 3187, "advantages</w>": 3188, "frustr": 3189, "Febru": 3190, "challeng": 3191, "individual</w>": 3192, "below</w>": 3193, "audience</w>": 3194, "veterans</w>": 3195, "degrees</w>": 3196, "Barack</w>": 3197, "7.": 3198, "IS": 3199, "Some": 3200, "STE": 3201, "bir": 3202, "cast</w>": 3203, "cir": 3204, "gone</w>": 3205, "long": 3206, "pass": 3207, "run": 3208, "wing</w>": 3209, "an-": 3210, "esti": 3211, "divisions</w>": 3212, "conversa": 3213, "congressional</w>": 3214, "Democrat</w>": 3215, "fornia</w>": 3216, "fiel": 3217, "prior": 3218, "prior</w>": 3219, "suburban</w>": 3220, "ownership</w>": 3221, "Internet</w>": 3222, "communic": 3223, "financially</w>": 3224, "greatest</w>": 3225, "indic": 3226, "looking</w>": 3227, "considerably</w>": 3228, "one-third</w>": 3229, "latest</w>": 3230, "justified</w>": 3231, "Cuba</w>": 3232, "Boomers</w>": 3233, "apprehensions</w>": 3234, "George</w>": 3235, "Eastern</w>": 3236, "radio</w>": 3237, "California</w>": 3238, "excellent</w>": 3239, "STEM</w>": 3240, "'re</w>": 3241, "29": 3242, "Bi": 3243, "Bri": 3244, "Ken": 3245, "Meas": 3246, "Num": 3247, "Sci": 3248, "ca": 3249, "cent": 3250, "dic": 3251, "domestic</w>": 3252, "fs</w>": 3253, "ive</w>": 3254, "lab": 3255, "mp": 3256, "nine</w>": 3257, "tro": 3258, "wan": 3259, "inf": 3260, "abili": 3261, "ase</w>": 3262, "ressing</w>": 3263, "stations</w>": 3264, "unis": 3265, "ilipp": 3266, "plan</w>": 3267, "pros": 3268, "self</w>": 3269, "tish</w>": 3270, "broad</w>": 3271, "newsroom</w>": 3272, "communities</w>": 3273, "friend": 3274, "broadly</w>": 3275, "represents</w>": 3276, "programs</w>": 3277, "direction</w>": 3278, "describes</w>": 3279, "engaged</w>": 3280, "Philipp": 3281, "listed</w>": 3282, "comfortable</w>": 3283, "hosp": 3284, "anti-": 3285, "guns</w>": 3286, "Texas</w>": 3287, "British</w>": 3288, "GM</w>": 3289, "Is</w>": 3290, "Over</w>": 3291, "Prim": 3292, "See</w>": 3293, "Tunis": 3294, "Vene": 3295, "ail</w>": 3296, "census</w>": 3297, "gs</w>": 3298, "ither</w>": 3299, "man</w>": 3300, "nar": 3301, "oil</w>": 3302, "sid": 3303, "uel": 3304, "ya</w>": 3305, "zuel": 3306, "igures</w>": 3307, "additional</w>": 3308, "neither</w>": 3309, "pover": 3310, "progress</w>": 3311, "devoted</w>": 3312, "positively</w>": 3313, "outlets</w>": 3314, "appropri": 3315, "investi": 3316, "smartphones</w>": 3317, "feeling</w>": 3318, "consistent</w>": 3319, "turned</w>": 3320, "estimates</w>": 3321, "video</w>": 3322, "discussi": 3323, "tainment</w>": 3324, "Positi": 3325, "success": 3326, "requi": 3327, "felt</w>": 3328, "cyber": 3329, "Australia</w>": 3330, "treatment</w>": 3331, "Health</w>": 3332, "Number</w>": 3333, "Venezuel": 3334, "..</w>": 3335, "Cen": 3336, "Har": 3337, "Med": 3338, "Ric": 3339, "Sil": 3340, "Seven": 3341, "Te": 3342, "cou": 3343, "kely</w>": 3344, "lation</w>": 3345, "tations</w>": 3346, "vast</w>": 3347, "zed</w>": 3348, "in-": 3349, "inten": 3350, "ended</w>": 3351, "rely</w>": 3352, "revenue</w>": 3353, "ased</w>": 3354, "comparable</w>": 3355, "increases</w>": 3356, "pointed</w>": 3357, "affect</w>": 3358, "facts</w>": 3359, "sub-Saharan</w>": 3360, "State</w>": 3361, "critical</w>": 3362, "Online</w>": 3363, "official</w>": 3364, "debates</w>": 3365, "ibut": 3366, "value</w>": 3367, "invest": 3368, "refugee</w>": 3369, "warm</w>": 3370, "continu": 3371, "ordinary</w>": 3372, "humans</w>": 3373, "look</w>": 3374, "address</w>": 3375, "Likely</w>": 3376, "factor</w>": 3377, "described</w>": 3378, "optimistic</w>": 3379, "liberals</w>": 3380, "wrong</w>": 3381, "February</w>": 3382, "prioritiz": 3383, "94</w>": 3384, "91</w>": 3385, "Blac": 3386, "Tim": 3387, "Wide</w>": 3388, "a-": 3389, "hood</w>": 3390, "late</w>": 3391, "menti": 3392, "male</w>": 3393, "middle</w>": 3394, "right": 3395, "ution</w>": 3396, "titu": 3397, "road</w>": 3398, "dit</w>": 3399, "idea</w>": 3400, "ading</w>": 3401, "shole</w>": 3402, "partisans</w>": 3403, "char": 3404, "worth</w>": 3405, "appe": 3406, "Chan": 3407, "pris": 3408, "diseas": 3409, "beliefs</w>": 3410, "ogni": 3411, "constitu": 3412, "perceptions</w>": 3413, "editing</w>": 3414, "Asians</w>": 3415, "newshole</w>": 3416, "continues</w>": 3417, "Israel": 3418, "ounced</w>": 3419, "Favor": 3420, "forcement</w>": 3421, "sharply</w>": 3422, "ISI": 3423, "Philippines</w>": 3424, "Si": 3425, "Sand": 3426, "gaps</w>": 3427, "yon": 3428, "reli": 3429, "reform</w>": 3430, "lians</w>": 3431, "iled</w>": 3432, "iling</w>": 3433, "comb": 3434, "via</w>": 3435, "exu": 3436, "Republic</w>": 3437, "perman": 3438, "voter</w>": 3439, "portun": 3440, "compares</w>": 3441, "recogni": 3442, "weap": 3443, "high-": 3444, "stric": 3445, "distric": 3446, "run</w>": 3447, "conduct</w>": 3448, "faction</w>": 3449, "goals</w>": 3450, "Protestant</w>": 3451, "bots</w>": 3452, "morally</w>": 3453, "answer</w>": 3454, "conflicts</w>": 3455, "regulations</w>": 3456, "addressing</w>": 3457, "drop</w>": 3458, "turnout</w>": 3459, "notable</w>": 3460, "occur": 3461, "defense</w>": 3462, "videos</w>": 3463, "neighbors</w>": 3464, "prevent</w>": 3465, "budget</w>": 3466, "ISIS</w>": 3467, "92</w>": 3468, "Journali": 3469, "Ratings</w>": 3470, "You": 3471, "blo": 3472, "cally</w>": 3473, "cut</w>": 3474, "hn</w>": 3475, "vers</w>": 3476, "ands</w>": 3477, "int</w>": 3478, "encoun": 3479, "atically</w>": 3480, "ish": 3481, "conv": 3482, "els</w>": 3483, "opportun": 3484, "stag": 3485, "The": 3486, "What</w>": 3487, "Which</w>": 3488, "ept</w>": 3489, "fif": 3490, "favored</w>": 3491, "stances</w>": 3492, "approach</w>": 3493, "agreements</w>": 3494, "basic</w>": 3495, "accounts</w>": 3496, "statement</w>": 3497, "Medi": 3498, "remained</w>": 3499, "estimated</w>": 3500, "Brazili": 3501, "talk</w>": 3502, "trusted</w>": 3503, "midterm</w>": 3504, "John</w>": 3505, "messa": 3506, "hospit": 3507, "Israeli</w>": 3508, "Ro": 3509, "gam": 3510, "rap": 3511, "oned</w>": 3512, "ening</w>": 3513, "reporting</w>": 3514, "istics</w>": 3515, "sta": 3516, "ury</w>": 3517, "vir": 3518, "expl": 3519, "counties</w>": 3520, "mean": 3521, "ge-educated</w>": 3522, "Constitu": 3523, "minorities</w>": 3524, "negatively</w>": 3525, "fication</w>": 3526, "ize</w>": 3527, "placed</w>": 3528, "German</w>": 3529, "finances</w>": 3530, "ideology</w>": 3531, "Top</w>": 3532, "graduate</w>": 3533, "protests</w>": 3534, "size</w>": 3535, "involvement</w>": 3536, "rulings</w>": 3537, "television</w>": 3538, "adoption</w>": 3539, "newspaper</w>": 3540, "two-to-one</w>": 3541, "presidency</w>": 3542, "sentiment</w>": 3543, "challenges</w>": 3544, "Somewhat</w>": 3545, "poverty</w>": 3546, "successful</w>": 3547, "Seven-in-ten</w>": 3548, "Blacks</w>": 3549, "Sanders</w>": 3550, "yond</w>": 3551, "Their</w>": 3552, "30,000</w>": 3553, "From</w>": 3554, "Gen</w>": 3555, "Govern": 3556, "Hun": 3557, "US</w>": 3558, "cu": 3559, "hur": 3560, "ier</w>": 3561, "land": 3562, "nial</w>": 3563, "t.</w>": 3564, "vol": 3565, "willing</w>": 3566, "any": 3567, "lived</w>": 3568, "achi": 3569, "ecu": 3570, "diverse</w>": 3571, "put</w>": 3572, "versi": 3573, "versus</w>": 3574, "needed</w>": 3575, "condition</w>": 3576, "iles</w>": 3577, "ext</w>": 3578, "ffs</w>": 3579, "ram</w>": 3580, "wealth</w>": 3581, "encour": 3582, "finding</w>": 3583, "governments</w>": 3584, "collec": 3585, "teen</w>": 3586, "Arab": 3587, "track</w>": 3588, "Almost</w>": 3589, "dropped</w>": 3590, "nomination</w>": 3591, "Oct.</w>": 3592, "natur": 3593, "Economy</w>": 3594, "driven</w>": 3595, "purch": 3596, "standard</w>": 3597, "families</w>": 3598, "Recession</w>": 3599, "Security</w>": 3600, "well-": 3601, "Smaller</w>": 3602, "tariffs</w>": 3603, "corporations</w>": 3604, "abilities</w>": 3605, "Six-in-ten</w>": 3606, "Hung": 3607, "-related</w>": 3608, "...</w>": 3609, "Bac": 3610, "Hill": 3611, "Mc": 3612, "Se": 3613, "ak</w>": 3614, "aid</w>": 3615, "lost</w>": 3616, "ris</w>": 3617, "utral</w>": 3618, "anger</w>": 3619, "ine": 3620, "enter": 3621, "enship</w>": 3622, "al-": 3623, "whole</w>": 3624, "acted</w>": 3625, "aspects</w>": 3626, "email</w>": 3627, "image</w>": 3628, "statis": 3629, "press</w>": 3630, "Instag": 3631, "pron": 3632, "priorities</w>": 3633, "leges</w>": 3634, "despite</w>": 3635, "Africans</w>": 3636, "valent</w>": 3637, "organization</w>": 3638, "primarily</w>": 3639, "effective</w>": 3640, "Comm": 3641, "named</w>": 3642, "Colle": 3643, "watch": 3644, "watch</w>": 3645, "environmental</w>": 3646, "measures</w>": 3647, "allowed</w>": 3648, "accepting</w>": 3649, "completed</w>": 3650, "products</w>": 3651, "regardless</w>": 3652, "accurate</w>": 3653, "Opinion</w>": 3654, "Fore": 3655, "Conservative</w>": 3656, "proposal</w>": 3657, "Global</w>": 3658, "struction</w>": 3659, "background</w>": 3660, "contributed</w>": 3661, "Tube</w>": 3662, "took</w>": 3663, "YouTube</w>": 3664, "purchas": 3665, "Hillary</w>": 3666, "Instagram</w>": 3667, "Our</w>": 3668, "PE": 3669, "Pri": 3670, "Rel": 3671, "far": 3672, "figures</w>": 3673, "gar": 3674, "grow</w>": 3675, "moms</w>": 3676, "oti": 3677, "tent</w>": 3678, "tory</w>": 3679, "udi": 3680, "erv": 3681, "enforcement</w>": 3682, "reach</w>": 3683, "reach": 3684, "life": 3685, "alty</w>": 3686, "attr": 3687, "ustom": 3688, "sug": 3689, "admit": 3690, "vertis": 3691, "unchanged</w>": 3692, "post": 3693, "encies</w>": 3694, "eps</w>": 3695, "percent</w>": 3696, "gain</w>": 3697, "expectations</w>": 3698, "Asia-": 3699, "basis</w>": 3700, "Kore": 3701, "territ": 3702, "Although</w>": 3703, "satisfaction</w>": 3704, "expressing</w>": 3705, "one-quarter</w>": 3706, "natural</w>": 3707, "speaking</w>": 3708, "involved</w>": 3709, "called</w>": 3710, "falls</w>": 3711, "funding</w>": 3712, "behavior</w>": 3713, "began</w>": 3714, "building</w>": 3715, "Palestinian</w>": 3716, "journalists</w>": 3717, "correctly</w>": 3718, "Central</w>": 3719, "Medic": 3720, "in-person</w>": 3721, "prioritize</w>": 3722, "exuality</w>": 3723, "Constitution</w>": 3724, "Asia-Pacific</w>": 3725, "Baby</w>": 3726, "Gr": 3727, "To</w>": 3728, "book</w>": 3729, "core</w>": 3730, "cost</w>": 3731, "cover": 3732, "hour": 3733, "kind</w>": 3734, "lame</w>": 3735, "rated</w>": 3736, "so": 3737, "sed</w>": 3738, "sent": 3739, "tes</w>": 3740, "wants</w>": 3741, "erto</w>": 3742, "arely</w>": 3743, "lish": 3744, "trum</w>": 3745, "impres": 3746, "open": 3747, "stems</w>": 3748, "surance</w>": 3749, "ooking</w>": 3750, "threat": 3751, "gene</w>": 3752, "eping</w>": 3753, "princ": 3754, "risen</w>": 3755, "shif": 3756, "essim": 3757, "facing</w>": 3758, "assist": 3759, "tracted</w>": 3760, "origin": 3761, "understanding</w>": 3762, "profile</w>": 3763, "matter</w>": 3764, "Depart": 3765, "credit</w>": 3766, "preferences</w>": 3767, "fallen</w>": 3768, "extremism</w>": 3769, "websites</w>": 3770, "associated</w>": 3771, "voice</w>": 3772, "diploma</w>": 3773, "evidence</w>": 3774, "Differ": 3775, "Measuring</w>": 3776, "investment</w>": 3777, "Journalism</w>": 3778, "hurt</w>": 3779, "11": 3780, "75,000</w>": 3781, "Fam": 3782, "Grow": 3783, "Looking</w>": 3784, "Much</w>": 3785, "Press</w>": 3786, "Sour": 3787, "UN</w>": 3788, "War</w>": 3789, "cos": 3790, "cum": 3791, "hon": 3792, "ly": 3793, "ured</w>": 3794, "vals</w>": 3795, "wa": 3796, "yer</w>": 3797, "erful</w>": 3798, "tied</w>": 3799, "ored</w>": 3800, "ensure</w>": 3801, "recomm": 3802, "allow</w>": 3803, "ators</w>": 3804, "ech": 3805, "tro</w>": 3806, "ids</w>": 3807, "advertis": 3808, "neutral</w>": 3809, "ock</w>": 3810, "agn": 3811, "produce</w>": 3812, "enting</w>": 3813, "ire</w>": 3814, "pre-": 3815, "favors</w>": 3816, "dissatisfied</w>": 3817, "colleges</w>": 3818, "weeks</w>": 3819, "negoti": 3820, "ologies</w>": 3821, "gave</w>": 3822, "aug": 3823, "disagre": 3824, "Puerto</w>": 3825, "powerful</w>": 3826, "campaign": 3827, "light</w>": 3828, "respect</w>": 3829, "cellence</w>": 3830, "Millennial</w>": 3831, "answ": 3832, "Canadi": 3833, "profes": 3834, "privacy</w>": 3835, "Excellence</w>": 3836, "businesses</w>": 3837, "improved</w>": 3838, "factors</w>": 3839, "Sept.</w>": 3840, "category</w>": 3841, "reflect</w>": 3842, "regarding</w>": 3843, "decreased</w>": 3844, "Opinions</w>": 3845, "course</w>": 3846, "Index</w>": 3847, "applications</w>": 3848, "cooperation</w>": 3849, "spectrum</w>": 3850, "check</w>": 3851, "library</w>": 3852, "long-": 3853, "Tunisia</w>": 3854, "mentioned</w>": 3855, "Change</w>": 3856, "weapons</w>": 3857, "occurred</w>": 3858, "Government</w>": 3859, "-wing</w>": 3860, "8.": 3861, "93</w>": 3862, "Both</w>": 3863, "Mid": 3864, "Net": 3865, "New": 3866, "Tea</w>": 3867, "athe": 3868, "custom": 3869, "ef</w>": 3870, "figure</w>": 3871, "nor</w>": 3872, "insurance</w>": 3873, "tion": 3874, "ori": 3875, "ond": 3876, "safe": 3877, "altern": 3878, "osexuality</w>": 3879, "acts</w>": 3880, "robots</w>": 3881, "ady</w>": 3882, "leave</w>": 3883, "Than</w>": 3884, "unemployment</w>": 3885, "worship</w>": 3886, "lots</w>": 3887, "votes</w>": 3888, "lower-income</w>": 3889, "predomin": 3890, "takes</w>": 3891, "gether</w>": 3892, "eption</w>": 3893, "moved</w>": 3894, "ruption</w>": 3895, "offen": 3896, "divides</w>": 3897, "races</w>": 3898, "regard</w>": 3899, "ships</w>": 3900, "ances</w>": 3901, "similarly</w>": 3902, "harder</w>": 3903, "depend": 3904, "base</w>": 3905, "experiences</w>": 3906, "mainline</w>": 3907, "tracing</w>": 3908, "regions</w>": 3909, "terrorist</w>": 3910, "democratic</w>": 3911, "considered</w>": 3912, "defend</w>": 3913, "bigger</w>": 3914, "Share</w>": 3915, "topics</w>": 3916, "affecting</w>": 3917, "shooting</w>": 3918, "judges</w>": 3919, "tablet</w>": 3920, "lesbians</w>": 3921, "advanced</w>": 3922, "labor</w>": 3923, "Hungary</w>": 3924, "Medicare</w>": 3925, "Department</w>": 3926, "25": 3927, "BC</w>": 3928, "Xi</w>": 3929, "avi": 3930, "bia</w>": 3931, "fal": 3932, "pessim": 3933, "soli": 3934, "tar": 3935, "ward</w>": 3936, "inning</w>": 3937, "ores</w>": 3938, "items</w>": 3939, "alu": 3940, "thetic</w>": 3941, "rol": 3942, "absent": 3943, "near</w>": 3944, "stood</w>": 3945, "exp": 3946, "proportion</w>": 3947, "earch": 3948, "earning</w>": 3949, "deter": 3950, "deta": 3951, "deep": 3952, "appointed</w>": 3953, "tices</w>": 3954, "politically</w>": 3955, "porters</w>": 3956, "prevalent</w>": 3957, "pect</w>": 3958, "mark</w>": 3959, "Who</w>": 3960, "evalu": 3961, "decid": 3962, "stronger</w>": 3963, "distrust</w>": 3964, "increasingly</w>": 3965, "cold</w>": 3966, "fically</w>": 3967, "ization</w>": 3968, "edoms</w>": 3969, "View</w>": 3970, "got</w>": 3971, "accounting</w>": 3972, "technologies</w>": 3973, "handle</w>": 3974, "citizenship</w>": 3975, "partners</w>": 3976, "mix</w>": 3977, "ront</w>": 3978, "Israeli": 3979, "thered</w>": 3980, "alized</w>": 3981, "regularly</w>": 3982, "Compar": 3983, "Italians</w>": 3984, "double</w>": 3985, "discus": 3986, "stark</w>": 3987, "engagement</w>": 3988, "history</w>": 3989, "career</w>": 3990, "representative</w>": 3991, "Political</w>": 3992, "Confidence</w>": 3993, "characteristics</w>": 3994, "Education</w>": 3995, "teachers</w>": 3996, "laptop</w>": 3997, "assessments</w>": 3998, "Argentina</w>": 3999, "Czech</w>": 4000, "dramatically</w>": 4001, "running</w>": 4002, "conversation</w>": 4003, "friendly</w>": 4004, "continued</w>": 4005, "fifth</w>": 4006, "meaning</w>": 4007, "3,": 4008, "50": 4009, "AA": 4010, "Aff": 4011, "All</w>": 4012, "Last</w>": 4013, "Neg": 4014, "QAn": 4015, "W.</w>": 4016, "eful</w>": 4017, "ld": 4018, "ror</w>": 4019, "rose</w>": 4020, "spre": 4021, "west</w>": 4022, "ani</w>": 4023, "ania</w>": 4024, "ened</w>": 4025, "reti": 4026, "atem": 4027, "assi": 4028, "ols</w>": 4029, "agencies</w>": 4030, "illegally</w>": 4031, "rese": 4032, "stock</w>": 4033, "execu": 4034, "beyond</w>": 4035, "project</w>": 4036, "sett": 4037, "sewhere</w>": 4038, "together</w>": 4039, "faith</w>": 4040, "posted</w>": 4041, "event</w>": 4042, "pray</w>": 4043, "practi": 4044, "print</w>": 4045, "penalty</w>": 4046, "relative</w>": 4047, "closer</w>": 4048, "inclined</w>": 4049, "leaned</w>": 4050, "lag</w>": 4051, "Partisan</w>": 4052, "college-educated</w>": 4053, "tual</w>": 4054, "Sub": 4055, "engage</w>": 4056, "withdra": 4057, "tracked</w>": 4058, "Public": 4059, "statements</w>": 4060, "one-in-four</w>": 4061, "profit</w>": 4062, "skills</w>": 4063, "choose</w>": 4064, "home": 4065, "Jan.</w>": 4066, "various</w>": 4067, "preferred</w>": 4068, "Should</w>": 4069, "advantage</w>": 4070, "Asked</w>": 4071, "culture</w>": 4072, "refer": 4073, "reducing</w>": 4074, "Conservatives</w>": 4075, "Wee": 4076, "warming</w>": 4077, "Minis": 4078, "happen</w>": 4079, "Guatem": 4080, "aware</w>": 4081, "One-in-": 4082, "minimum</w>": 4083, "frustrated</w>": 4084, "birth</w>": 4085, "passed</w>": 4086, "century</w>": 4087, "appropriate</w>": 4088, "Times</w>": 4089, "right-wing</w>": 4090, "permanent</w>": 4091, "achiev": 4092, "admitted</w>": 4093, "territories</w>": 4094, "hours</w>": 4095, "agnos": 4096, "campaigns</w>": 4097, "safety</w>": 4098, "absentee</w>": 4099, "QAnon</w>": 4100, "Guatemal": 4101, "-year</w>": 4102, ".m": 4103, ".1</w>": 4104, "4,": 4105, "95</w>": 4106, "Age</w>": 4107, "Average</w>": 4108, "City</w>": 4109, "Fin": 4110, "Fre": 4111, "Gi": 4112, "Mer": 4113, "Qu": 4114, "Str": 4115, "Slo": 4116, "Use</w>": 4117, "away</w>": 4118, "bul": 4119, "boo": 4120, "eover</w>": 4121, "fas": 4122, "fell</w>": 4123, "got": 4124, "here</w>": 4125, "oes</w>": 4126, "pac": 4127, "spo": 4128, "slow": 4129, "tou": 4130, "attainment</w>": 4131, "actually</w>": 4132, "trou": 4133, "le-": 4134, "haps</w>": 4135, "impl": 4136, "steps</w>": 4137, "makers</w>": 4138, "ter-": 4139, "deport": 4140, "surpris": 4141, "que</w>": 4142, "ticism</w>": 4143, "class</w>": 4144, "links</w>": 4145, "present</w>": 4146, "post-": 4147, "gene": 4148, "alig": 4149, "Whites</w>": 4150, "Respon": 4151, "sharp</w>": 4152, "keeping</w>": 4153, "ances": 4154, "percei": 4155, "desk": 4156, "became</w>": 4157, "house</w>": 4158, "supporting</w>": 4159, "tisan": 4160, "Cain</w>": 4161, "percentages</w>": 4162, "engine": 4163, "student</w>": 4164, "systems</w>": 4165, "providing</w>": 4166, "readers</w>": 4167, "networks</w>": 4168, "nationally</w>": 4169, "terners</w>": 4170, "self-identified</w>": 4171, "Lead": 4172, "Moreover</w>": 4173, "calls</w>": 4174, "optimism</w>": 4175, "capit": 4176, "doubled</w>": 4177, "Indeed</w>": 4178, "consumers</w>": 4179, "drugs</w>": 4180, "Popu": 4181, "losing</w>": 4182, "circum": 4183, "Prime</w>": 4184, "Favorable</w>": 4185, "opportunities</w>": 4186, "Commun": 4187, "determin": 4188, "resett": 4189, "Publics</w>": 4190, "Minister</w>": 4191, ".m.</w>": 4192, "touch</w>": 4193, "circumstances</w>": 4194, "-time</w>": 4195, "Campa": 4196, "Four": 4197, "Hond": 4198, "Ide": 4199, "Mi": 4200, "Pan": 4201, "Race</w>": 4202, "Serv": 4203, "Would</w>": 4204, "ce": 4205, "dary</w>": 4206, "ff</w>": 4207, "her": 4208, "ox</w>": 4209, "obli": 4210, "tem": 4211, "vs</w>": 4212, "wages</w>": 4213, "ret": 4214, "attracted</w>": 4215, "theast</w>": 4216, "ici": 4217, "ask</w>": 4218, "trend</w>": 4219, "agan</w>": 4220, "rest</w>": 4221, "stage</w>": 4222, "studi": 4223, "Though</w>": 4224, "counted</w>": 4225, "worn</w>": 4226, "metro</w>": 4227, "iring</w>": 4228, "recover": 4229, "alism</w>": 4230, "plans</w>": 4231, "elect</w>": 4232, "yet</w>": 4233, "oughout</w>": 4234, "limited</w>": 4235, "served</w>": 4236, "risks</w>": 4237, "kel</w>": 4238, "flu</w>": 4239, "subject</w>": 4240, "owned</w>": 4241, ",00": 4242, "stead</w>": 4243, "steady</w>": 4244, "backers</w>": 4245, "handled</w>": 4246, "origins</w>": 4247, "solve</w>": 4248, "expresses</w>": 4249, "Immigrants</w>": 4250, "developments</w>": 4251, "terns</w>": 4252, "connection</w>": 4253, "universi": 4254, "industries</w>": 4255, "multiple</w>": 4256, "effort</w>": 4257, "Liberal</w>": 4258, "distinc": 4259, "standards</w>": 4260, "Tai": 4261, "extremely</w>": 4262, "behaviors</w>": 4263, "raised</w>": 4264, "everyone</w>": 4265, "believes</w>": 4266, "lawful</w>": 4267, "projected</w>": 4268, "Bible</w>": 4269, "discussions</w>": 4270, "cyberattacks</w>": 4271, "hospitals</w>": 4272, "virtually</w>": 4273, "collected</w>": 4274, "College</w>": 4275, "PEJ</w>": 4276, "honest</w>": 4277, "offensive</w>": 4278, "false</w>": 4279, "Merkel</w>": 4280, "Slov": 4281, "gotten</w>": 4282, "tisanship</w>": 4283, "Hondur": 4284, "1,000</w>": 4285, "9.": 4286, "96</w>": 4287, "AC": 4288, "Ari": 4289, "Be</w>": 4290, "Candid": 4291, "Er": 4292, "High": 4293, "Military</w>": 4294, "PT</w>": 4295, "aving</w>": 4296, "bis": 4297, "call</w>": 4298, "dy</w>": 4299, "dang": 4300, "edom</w>": 4301, "longer</w>": 4302, "op</w>": 4303, "post</w>": 4304, "tin": 4305, "tor</w>": 4306, "vic": 4307, "wi": 4308, "won</w>": 4309, "wage</w>": 4310, "initi": 4311, "tionally</w>": 4312, "ona</w>": 4313, "reviews</w>": 4314, "sales</w>": 4315, "oming</w>": 4316, "accompan": 4317, "tran": 4318, "usually</w>": 4319, "extent</w>": 4320, "sees</w>": 4321, "sequ": 4322, "pressure</w>": 4323, "rank</w>": 4324, "Chil": 4325, "Independents</w>": 4326, "promin": 4327, "favorability</w>": 4328, "strug": 4329, "healthy</w>": 4330, "identification</w>": 4331, "1980</w>": 4332, "thodo": 4333, "powers</w>": 4334, "attenders</w>": 4335, "polling</w>": 4336, "newly": 4337, "avo": 4338, "secondary</w>": 4339, "broader</w>": 4340, "represented</w>": 4341, "seriously</w>": 4342, "Import": 4343, "declining</w>": 4344, "patterns</w>": 4345, "specifically</w>": 4346, "occup": 4347, "Pakist": 4348, "seekers</w>": 4349, "Similar</w>": 4350, "tweeters</w>": 4351, "dominant</w>": 4352, "Lebanese</w>": 4353, "workforce</w>": 4354, "mid-": 4355, "promis": 4356, "shootings</w>": 4357, "proposals</w>": 4358, "cooperate</w>": 4359, "committed</w>": 4360, "drug</w>": 4361, "Orthodo": 4362, "18-</w>": 4363, "helped</w>": 4364, "University</w>": 4365, "civil</w>": 4366, "Religious</w>": 4367, "historically</w>": 4368, "Positive</w>": 4369, "Brazilians</w>": 4370, "Foreign</w>": 4371, "purchasing</w>": 4372, "Source</w>": 4373, "Canadians</w>": 4374, "predominantly</w>": 4375, "Israelis</w>": 4376, "Negative</w>": 4377, "Week</w>": 4378, "Campaign</w>": 4379, "universities</w>": 4380, "Ariz": 4381, "strugg": 4382, "-point</w>": 4383, "Br": 4384, "Care</w>": 4385, "Eight-in-ten</w>": 4386, "Good</w>": 4387, "If</w>": 4388, "Mal": 4389, "Non-": 4390, "OPT</w>": 4391, "Sn": 4392, "TA</w>": 4393, "Vir": 4394, "War": 4395, "Xers</w>": 4396, "ai": 4397, "bur": 4398, "den": 4399, "fer": 4400, "gations</w>": 4401, "ied</w>": 4402, "less": 4403, "mir": 4404, "search</w>": 4405, "usage</w>": 4406, "wins</w>": 4407, "thous": 4408, "arity</w>": 4409, "tili": 4410, "ongoing</w>": 4411, "enh": 4412, "ablish": 4413, "she</w>": 4414, "ils</w>": 4415, "ops</w>": 4416, "ope</w>": 4417, "proval</w>": 4418, "metho": 4419, "meet</w>": 4420, "linked</w>": 4421, "ranging</w>": 4422, "tained</w>": 4423, "web</w>": 4424, "weds</w>": 4425, "scre": 4426, "holding</w>": 4427, "path": 4428, "ponents</w>": 4429, "shift</w>": 4430, "Parents</w>": 4431, "corruption</w>": 4432, "establish": 4433, "ethical</w>": 4434, "tech</w>": 4435, "Viet": 4436, "lock</w>": 4437, "location</w>": 4438, "visit</w>": 4439, "attended</w>": 4440, "monit": 4441, "Indian</w>": 4442, "freedoms</w>": 4443, "cellphones</w>": 4444, "throughout</w>": 4445, "speed</w>": 4446, "primaries</w>": 4447, "Westerners</w>": 4448, "appear": 4449, "Divid": 4450, "doctors</w>": 4451, "reading</w>": 4452, "considering</w>": 4453, "math</w>": 4454, "network</w>": 4455, "exce": 4456, "directly</w>": 4457, "Two</w>": 4458, "improving</w>": 4459, "variety</w>": 4460, "neighboring</w>": 4461, "pluralities</w>": 4462, "learning</w>": 4463, "legislation</w>": 4464, "happens</w>": 4465, "enthusiasm</w>": 4466, "Country</w>": 4467, "field</w>": 4468, "Kenya</w>": 4469, "Silent</w>": 4470, "disease</w>": 4471, "combined</w>": 4472, "recognition</w>": 4473, "messages</w>": 4474, "McCain</w>": 4475, "pronounced</w>": 4476, "reached</w>": 4477, "impression</w>": 4478, "advertising</w>": 4479, "alternative</w>": 4480, "dependent</w>": 4481, "ldwide</w>": 4482, "ancestry</w>": 4483, "Four-in-ten</w>": 4484, "newlyweds</w>": 4485, "Arizona</w>": 4486, "-12</w>": 4487, "Bur": 4488, "Broad</w>": 4489, "CE": 4490, "FTA</w>": 4491, "Je": 4492, "K-12</w>": 4493, "Sal": 4494, "ath": 4495, "blame</w>": 4496, "dads</w>": 4497, "gor": 4498, "gan</w>": 4499, "ka</w>": 4500, "kids</w>": 4501, "milit": 4502, "ov": 4503, "par</w>": 4504, "ros": 4505, "rarely</w>": 4506, "son</w>": 4507, "sent</w>": 4508, "sanc": 4509, "ze</w>": 4510, "inde": 4511, "instruction</w>": 4512, "erous</w>": 4513, "til</w>": 4514, "enrol": 4515, "re-": 4516, "ren</w>": 4517, "rement</w>": 4518, "itself</w>": 4519, "assa": 4520, "ditionally</w>": 4521, "super": 4522, "emig": 4523, "else</w>": 4524, "aging</w>": 4525, "ament</w>": 4526, "chi": 4527, "proposed</w>": 4528, "unte": 4529, "word</w>": 4530, "quite</w>": 4531, "met</w>": 4532, "classi": 4533, "politic": 4534, "pret": 4535, "marry</w>": 4536, "ude</w>": 4537, "governor</w>": 4538, "prac": 4539, "incidents</w>": 4540, "score</w>": 4541, "scale</w>": 4542, "headed</w>": 4543, "closest</w>": 4544, "e-point</w>": 4545, "Unfavorable</w>": 4546, "facial</w>": 4547, "gains</w>": 4548, "fourth</w>": 4549, "globalization</w>": 4550, "changing</w>": 4551, "partici": 4552, "nones</w>": 4553, "typically</w>": 4554, "Act</w>": 4555, "analy": 4556, "traits</w>": 4557, "Northeast</w>": 4558, "speech</w>": 4559, "moderates</w>": 4560, "Turks</w>": 4561, "Disa": 4562, "Immigration</w>": 4563, "defined</w>": 4564, "matters</w>": 4565, "addic": 4566, "exception</w>": 4567, "turns</w>": 4568, "Syrian</w>": 4569, "seni": 4570, "1.2</w>": 4571, "homosexuality</w>": 4572, "Nov.</w>": 4573, "extremis": 4574, "nature</w>": 4575, "measure</w>": 4576, "Cuban</w>": 4577, "worries</w>": 4578, "connections</w>": 4579, "churches</w>": 4580, "topic</w>": 4581, "workplace</w>": 4582, "torate</w>": 4583, "playing</w>": 4584, "learn</w>": 4585, "commitment</w>": 4586, "Univision</w>": 4587, "strength</w>": 4588, "Concerns</w>": 4589, "infec": 4590, "Venezuela</w>": 4591, "Teens</w>": 4592, "districts</w>": 4593, "Roe</w>": 4594, "postgraduate</w>": 4595, "costs</w>": 4596, "practice</w>": 4597, "gorith": 4598, "-majority</w>": 4599, "2,": 4600, "Bud": 4601, "Ev": 4602, "Ear": 4603, "Fox</w>": 4604, "Hind": 4605, "Iow": 4606, "Iran": 4607, "Sun": 4608, "Shi": 4609, "card</w>": 4610, "dam": 4611, "eating</w>": 4612, "fast</w>": 4613, "hy": 4614, "iel": 4615, "ker</w>": 4616, "ming</w>": 4617, "ment": 4618, "none</w>": 4619, "nam</w>": 4620, "ofu": 4621, "pati": 4622, "pra": 4623, "pass</w>": 4624, "rid": 4625, "uli": 4626, "uals</w>": 4627, "vad": 4628, "wine</w>": 4629, "int": 4630, "ort</w>": 4631, "oring</w>": 4632, "reve": 4633, "lied</w>": 4634, "sas</w>": 4635, "alone</w>": 4636, "algorith": 4637, "elsewhere</w>": 4638, "aged</w>": 4639, "urther</w>": 4640, "exten": 4641, "terly</w>": 4642, "earn": 4643, "unfavorably</w>": 4644, "ried</w>": 4645, "pants</w>": 4646, "irls</w>": 4647, "gran": 4648, "tools</w>": 4649, "poses</w>": 4650, "possibility</w>": 4651, "Trends</w>": 4652, "prepar": 4653, "predic": 4654, "serve</w>": 4655, "confir": 4656, "modi": 4657, "modes": 4658, "dogan</w>": 4659, "ket</w>": 4660, "dream</w>": 4661, "minor</w>": 4662, "minds</w>": 4663, "legalization</w>": 4664, "essors</w>": 4665, "illed</w>": 4666, "spouse</w>": 4667, "globally</w>": 4668, "Issu": 4669, "societ": 4670, "easier</w>": 4671, "tradition</w>": 4672, "citizen</w>": 4673, "mission</w>": 4674, "utdown</w>": 4675, "1990</w>": 4676, "remaining</w>": 4677, "ails</w>": 4678, "ballots</w>": 4679, "Sen.</w>": 4680, "sense</w>": 4681, "homes</w>": 4682, "Colom": 4683, "water</w>": 4684, "seeing</w>": 4685, "markets</w>": 4686, "evangelicals</w>": 4687, "talks</w>": 4688, "taining</w>": 4689, "justice</w>": 4690, "Three-": 4691, "comfort</w>": 4692, "associate</w>": 4693, "raising</w>": 4694, "bring</w>": 4695, "libraries</w>": 4696, "lesbian</w>": 4697, "protection</w>": 4698, "install": 4699, "enthusiastic</w>": 4700, "Attitudes</w>": 4701, "release</w>": 4702, "second-generation</w>": 4703, "an-origin</w>": 4704, "Science</w>": 4705, "investigation</w>": 4706, "required</w>": 4707, "Harris</w>": 4708, "ibute</w>": 4709, "stricter</w>": 4710, "rapid": 4711, "cuts</w>": 4712, "Arabs</w>": 4713, "princi": 4714, "deeply</w>": 4715, "books</w>": 4716, "desktop</w>": 4717, "engineering</w>": 4718, "studied</w>": 4719, "Erdogan</w>": 4720, "bisexual</w>": 4721, "thousands</w>": 4722, "Vietnam</w>": 4723, "Salvad": 4724, "sanctions</w>": 4725, "participants</w>": 4726, "ofus</w>": 4727, "modestly</w>": 4728, "societal</w>": 4729, "Fir": 4730, "Jus": 4731, "LS</w>": 4732, "NBC</w>": 4733, "Rac": 4734, "SA</w>": 4735, "Total</w>": 4736, "Wid": 4737, "Your</w>": 4738, "ay": 4739, "bill</w>": 4740, "bills</w>": 4741, "dh": 4742, "frac": 4743, "mons</w>": 4744, "ner</w>": 4745, "pages</w>": 4746, "text</w>": 4747, "win</w>": 4748, "th-": 4749, "anim": 4750, "independent</w>": 4751, "tiv": 4752, "enge</w>": 4753, "reactions</w>": 4754, "returns</w>": 4755, "itt": 4756, "esting</w>": 4757, "trial</w>": 4758, "user</w>": 4759, "dim": 4760, "ounds</w>": 4761, "congre": 4762, "age-point</w>": 4763, "compe": 4764, "chat</w>": 4765, "dea": 4766, "unmarried</w>": 4767, "unpopular</w>": 4768, "likeli": 4769, "peak</w>": 4770, "panels</w>": 4771, "apchat</w>": 4772, "ingdom</w>": 4773, "ranks</w>": 4774, "2002</w>": 4775, "quarant": 4776, "scri": 4777, "heavi": 4778, "commer": 4779, "person": 4780, "minut": 4781, "responding</w>": 4782, "responses</w>": 4783, "Partisans</w>": 4784, "leads</w>": 4785, "spac": 4786, "houses</w>": 4787, "guid": 4788, "percentage-point</w>": 4789, "embar": 4790, "cash</w>": 4791, "hearing</w>": 4792, "Southern</w>": 4793, "newly</w>": 4794, "aker</w>": 4795, "provides</w>": 4796, "provided</w>": 4797, "understood</w>": 4798, "regional</w>": 4799, "Pers": 4800, "versary</w>": 4801, "bothered</w>": 4802, "harassed</w>": 4803, "effectively</w>": 4804, "relationships</w>": 4805, "Between</w>": 4806, "later</w>": 4807, "measured</w>": 4808, "caregi": 4809, "multiracial</w>": 4810, "representing</w>": 4811, "Three-in-ten</w>": 4812, "Feb.</w>": 4813, "accurately</w>": 4814, "website</w>": 4815, "courts</w>": 4816, "warmly</w>": 4817, "downlo": 4818, "lawmakers</w>": 4819, "picture</w>": 4820, "striking</w>": 4821, "29-year-olds</w>": 4822, "Scienti": 4823, "wanted</w>": 4824, "prospects</w>": 4825, "volunte": 4826, "encourage</w>": 4827, "sugg": 4828, "covered</w>": 4829, "Differences</w>": 4830, "Growing</w>": 4831, "professional</w>": 4832, "pessimistic</w>": 4833, "executive</w>": 4834, "ACA</w>": 4835, "Orthodox</w>": 4836, "Snapchat</w>": 4837, "addiction</w>": 4838, "Buddh": 4839, "Iowa</w>": 4840, "Iranian</w>": 4841, "Three-quarters</w>": 4842, "rapidly</w>": 4843, "Justi": 4844, "/11</w>": 4845, "9/11</w>": 4846, "Bill</w>": 4847, "Based</w>": 4848, "Climate</w>": 4849, "Eth": 4850, "High</w>": 4851, "ID</w>": 4852, "Kn": 4853, "Kingdom</w>": 4854, "Ne": 4855, "Siz": 4856, "Smart": 4857, "Wade</w>": 4858, "cle": 4859, "eve</w>": 4860, "floo": 4861, "gin": 4862, "glo": 4863, "hab": 4864, "hop": 4865, "lution</w>": 4866, "midd": 4867, "nect</w>": 4868, "pact</w>": 4869, "tful</w>": 4870, "v.</w>": 4871, "went</w>": 4872, "wary</w>": 4873, "wind</w>": 4874, "ymp": 4875, "ongest</w>": 4876, "ending</w>": 4877, "enari": 4878, "remo": 4879, "ata</w>": 4880, "osen</w>": 4881, "trying</w>": 4882, "emis": 4883, "emails</w>": 4884, "consequ": 4885, "connect</w>": 4886, "elem": 4887, "partisanship</w>": 4888, "ower</w>": 4889, "options</w>": 4890, "expen": 4891, "exists</w>": 4892, "until</w>": 4893, "publicly</w>": 4894, "worked</w>": 4895, "worldwide</w>": 4896, "qua": 4897, "forces</w>": 4898, "link</w>": 4899, "Trade</w>": 4900, "rang": 4901, "taur": 4902, "green</w>": 4903, "Inc": 4904, "udi</w>": 4905, "pride</w>": 4906, "Ang": 4907, "scand": 4908, "comments</w>": 4909, "holders</w>": 4910, "e-ha": 4911, "racially</w>": 4912, "generational</w>": 4913, "fici": 4914, "youngest</w>": 4915, "1960</w>": 4916, "gays</w>": 4917, "spir": 4918, "becoming</w>": 4919, "Prob": 4920, "visited</w>": 4921, "opposing</w>": 4922, "wider</w>": 4923, "coali": 4924, "represent</w>": 4925, "NAFTA</w>": 4926, "names</w>": 4927, "direct</w>": 4928, "carry</w>": 4929, "frequent</w>": 4930, "improvement</w>": 4931, "complete</w>": 4932, "preference</w>": 4933, "calling</w>": 4934, "connected</w>": 4935, "records</w>": 4936, "Phone</w>": 4937, "Saudi</w>": 4938, "violent</w>": 4939, "fellow</w>": 4940, "Aug.</w>": 4941, "Olymp": 4942, "affected</w>": 4943, "refer</w>": 4944, "beginning</w>": 4945, "participate</w>": 4946, "newspapers</w>": 4947, "special</w>": 4948, "Polic": 4949, "legislat": 4950, "cohab": 4951, "Palestinians</w>": 4952, "transgender</w>": 4953, "protecting</w>": 4954, "happy</w>": 4955, "narro": 4956, "encounter</w>": 4957, "Media</w>": 4958, "Grou": 4959, "recommend": 4960, "Respondents</w>": 4961, "dangerous</w>": 4962, "accompanied</w>": 4963, "index</w>": 4964, "superpower</w>": 4965, "patients</w>": 4966, "ride-ha": 4967, "Racial</w>": 4968, "likelihood</w>": 4969, "heavily</w>": 4970, "-percentage-point</w>": 4971, "8,000</w>": 4972, "99</w>": 4973, "BI</w>": 4974, "Cru": 4975, "During</w>": 4976, "Emp": 4977, "Fa": 4978, "Fed": 4979, "II</w>": 4980, "Kav": 4981, "Mit": 4982, "Mos": 4983, "Non": 4984, "Nations</w>": 4985, "OK</w>": 4986, "Out</w>": 4987, "Rem": 4988, "Will</w>": 4989, "aim": 4990, "cal": 4991, "cle</w>": 4992, "cable</w>": 4993, "dol": 4994, "fy</w>": 4995, "flag</w>": 4996, "kish</w>": 4997, "lar</w>": 4998, "med</w>": 4999, "nor": 5000, "nthetic</w>": 5001, "sou": 5002, "tal</w>": 5003, "wise</w>": 5004, "you": 5005, "anis</w>": 5006, "anaug": 5007, "inds</w>": 5008, "inated</w>": 5009, "ars</w>": 5010, "reverse</w>": 5011, "liament</w>": 5012, "itors</w>": 5013, "acting</w>": 5014, "leaving</w>": 5015, "conc": 5016, "occas": 5017, "shutdown</w>": 5018, "exis": 5019, "bean</w>": 5020, "propor": 5021, "profici": 5022, "earn</w>": 5023, "entation</w>": 5024, "surge</w>": 5025, "perhaps</w>": 5026, "gives</w>": 5027, "recy": 5028, "recession</w>": 5029, "pected</w>": 5030, "interactions</w>": 5031, "2003</w>": 5032, "2001</w>": 5033, "thinks</w>": 5034, "rises</w>": 5035, "responsible</w>": 5036, "AfD</w>": 5037, "ream</w>": 5038, "owning</w>": 5039, "informed</w>": 5040, "Overwhelm": 5041, "steadi": 5042, "company</w>": 5043, "polar": 5044, "pollution</w>": 5045, "ibbean</w>": 5046, "technological</w>": 5047, "easily</w>": 5048, "membership</w>": 5049, "ideas</w>": 5050, "misconduct</w>": 5051, "Turkish</w>": 5052, "non-Hispanic</w>": 5053, "alizing</w>": 5054, "attemp": 5055, "regular</w>": 5056, "Additionally</w>": 5057, "criminal</w>": 5058, "create</w>": 5059, "Beli": 5060, "Like</w>": 5061, "notably</w>": 5062, "occur</w>": 5063, "seeking</w>": 5064, "complet": 5065, "tops</w>": 5066, "ometer</w>": 5067, "promot": 5068, "decrease</w>": 5069, "Liber": 5070, "challenge</w>": 5071, "reduced</w>": 5072, "banks</w>": 5073, "believed</w>": 5074, "Caribbean</w>": 5075, "instability</w>": 5076, "indicate</w>": 5077, "cauc": 5078, "sides</w>": 5079, "couples</w>": 5080, "high-speed</w>": 5081, "blood</w>": 5082, "Koreans</w>": 5083, "long-term</w>": 5084, "Midwest</w>": 5085, "customs</w>": 5086, "earchers</w>": 5087, "deportation</w>": 5088, "Service</w>": 5089, "tiny</w>": 5090, "prominent</w>": 5091, "avoid</w>": 5092, "Pakistanis</w>": 5093, "Warren</w>": 5094, "politicians</w>": 5095, "pretty</w>": 5096, "analyzed</w>": 5097, "Issues</w>": 5098, "deaths</w>": 5099, "Sizable</w>": 5100, "clearly</w>": 5101, "emissions</w>": 5102, "scandal</w>": 5103, "ride-hailing</w>": 5104, "Cruz</w>": 5105, "Emplo": 5106, "Federal</w>": 5107, "Kavanaug": 5108, "steadily</w>": 5109, "Kavanaugh</w>": 5110, "30": 5111, "40": 5112, "500</w>": 5113, "97</w>": 5114, "Again</w>": 5115, "Ber": 5116, "Bas": 5117, "Bel": 5118, "Co": 5119, "El": 5120, "Em": 5121, "Gh": 5122, "Jew": 5123, "La": 5124, "Lith": 5125, "Leg": 5126, "Pence</w>": 5127, "Sp": 5128, "We</w>": 5129, "Want</w>": 5130, "Zi": 5131, "ah</w>": 5132, "bom": 5133, "bab": 5134, "clo": 5135, "cover</w>": 5136, "fand</w>": 5137, "gro": 5138, "host</w>": 5139, "hour</w>": 5140, "lose</w>": 5141, "loss</w>": 5142, "pi": 5143, "ping</w>": 5144, "pose</w>": 5145, "p.m.</w>": 5146, "rom": 5147, "rene": 5148, "s-": 5149, "tation</w>": 5150, "tone</w>": 5151, "test</w>": 5152, "told</w>": 5153, "zer": 5154, "arrang": 5155, "reaction</w>": 5156, "saf": 5157, "itual</w>": 5158, "ity-": 5159, "alth": 5160, "icide</w>": 5161, "esday</w>": 5162, "astr": 5163, "tries</w>": 5164, "trends</w>": 5165, "adversary</w>": 5166, "consu": 5167, "ags</w>": 5168, "illin": 5169, "restaur": 5170, "option</w>": 5171, "uro</w>": 5172, "visas</w>": 5173, "count</w>": 5174, "chosen</w>": 5175, "Refuge": 5176, "Reagan</w>": 5177, "earing</w>": 5178, "unch</w>": 5179, "unions</w>": 5180, "unfairly</w>": 5181, "unfriendly</w>": 5182, "grounds</w>": 5183, "entire</w>": 5184, "entirely</w>": 5185, "ources</w>": 5186, "evel": 5187, "final</w>": 5188, "important": 5189, "limits</w>": 5190, "stra": 5191, "rup": 5192, "offline</w>": 5193, "drew</w>": 5194, "daters</w>": 5195, "outcome</w>": 5196, "illions</w>": 5197, "derate</w>": 5198, "1965</w>": 5199, "gained</w>": 5200, "harm</w>": 5201, "bases</w>": 5202, "mainly</w>": 5203, "maintain</w>": 5204, "polls</w>": 5205, "sym": 5206, "organic</w>": 5207, "providers</w>": 5208, "lantic</w>": 5209, "1997</w>": 5210, "1990s</w>": 5211, "apply</w>": 5212, "enda</w>": 5213, "medic": 5214, "Supporters</w>": 5215, "announced</w>": 5216, "Life</w>": 5217, "sensi": 5218, "Perceptions</w>": 5219, "showing</w>": 5220, "dominated</w>": 5221, "varied</w>": 5222, "pursu": 5223, "culation</w>": 5224, "promise</w>": 5225, "individuals</w>": 5226, "Cubans</w>": 5227, "message</w>": 5228, "telephone</w>": 5229, "consumption</w>": 5230, "Globally</w>": 5231, "Conflic": 5232, "happening</w>": 5233, "arrived</w>": 5234, "helping</w>": 5235, "Religion</w>": 5236, "Concern</w>": 5237, "U.S.-Mexico</w>": 5238, "dramatic</w>": 5239, "discussion</w>": 5240, "Venezuelans</w>": 5241, "diseases</w>": 5242, "conventi": 5243, "naturalization</w>": 5244, "Seen</w>": 5245, "entering</w>": 5246, "lifetime</w>": 5247, "threaten</w>": 5248, "shifted</w>": 5249, "assistance</w>": 5250, "Family</w>": 5251, "atheists</w>": 5252, "solid</w>": 5253, "spreading</w>": 5254, "homeowners</w>": 5255, "One-in-five</w>": 5256, "Community</w>": 5257, "resettled</w>": 5258, "retary</w>": 5259, "Children</w>": 5260, "Important</w>": 5261, "occupations</w>": 5262, "enhanc": 5263, "practices</w>": 5264, "seniors</w>": 5265, "Earth</w>": 5266, "First</w>": 5267, "quarantine</w>": 5268, "minutes</w>": 5269, "Scientists</w>": 5270, "Buddhists</w>": 5271, "Know": 5272, "Increas": 5273, "Angel": 5274, "spiritual</w>": 5275, "Policy</w>": 5276, "cohabiting</w>": 5277, "Jewish</w>": 5278, "Lithu": 5279, "Zika</w>": 5280, "clothing</w>": 5281, "1,00": 5282, "CD": 5283, "Citiz": 5284, "Du": 5285, "Den": 5286, "Dem": 5287, "Does</w>": 5288, "Fol": 5289, "Fili": 5290, "FBI</w>": 5291, "Hou": 5292, "Hom": 5293, "Has</w>": 5294, "Here</w>": 5295, "Ine": 5296, "JP</w>": 5297, "Lab": 5298, "Mon": 5299, "Mic": 5300, "Mad": 5301, "NE": 5302, "NP": 5303, "Pr": 5304, "So</w>": 5305, "Som": 5306, "Shar": 5307, "Vla": 5308, "ah": 5309, "bing</w>": 5310, "bon</w>": 5311, "cut": 5312, "dated</w>": 5313, "goods</w>": 5314, "hash": 5315, "ky</w>": 5316, "miles</w>": 5317, "ners</w>": 5318, "native</w>": 5319, "pap": 5320, "sha": 5321, "sist": 5322, "tun": 5323, "vor": 5324, "y/": 5325, "yes</w>": 5326, "yers</w>": 5327, "ygam": 5328, "inet</w>": 5329, "tious</w>": 5330, "tives</w>": 5331, "ensur": 5332, "eness</w>": 5333, "rements</w>": 5334, "replaced</w>": 5335, "lian</w>": 5336, "alleg": 5337, "theless</w>": 5338, "abuse</w>": 5339, "tribu": 5340, "diver": 5341, "iding</w>": 5342, "near": 5343, "concen": 5344, "ocal</w>": 5345, "elli": 5346, "il-": 5347, "resources</w>": 5348, "stre": 5349, "stability</w>": 5350, "exist</w>": 5351, "earth": 5352, "umbia</w>": 5353, "itis</w>": 5354, "ighting</w>": 5355, "quic": 5356, "Trust</w>": 5357, "wear</w>": 5358, "encing</w>": 5359, "electorate</w>": 5360, "decide</w>": 5361, "formal</w>": 5362, "thinking</w>": 5363, "strongest</w>": 5364, "Ann": 5365, "scenari": 5366, "licit</w>": 5367, "commit</w>": 5368, "e-book</w>": 5369, "consensus</w>": 5370, "Parliament</w>": 5371, "ologically</w>": 5372, "desire</w>": 5373, "housing</w>": 5374, "four-year</w>": 5375, "tech": 5376, "ed-": 5377, "edy</w>": 5378, "disast": 5379, "View": 5380, "vention</w>": 5381, "bias</w>": 5382, "gov": 5383, "freedom</w>": 5384, "treated</w>": 5385, "eneg": 5386, "crimes</w>": 5387, "tracking</w>": 5388, "akia</w>": 5389, "Great": 5390, "advance</w>": 5391, "Too</w>": 5392, "Impact</w>": 5393, "declines</w>": 5394, "development</w>": 5395, "Before</w>": 5396, "Voting</w>": 5397, "Percent": 5398, "Columbia</w>": 5399, "seek</w>": 5400, "talking</w>": 5401, "unique</w>": 5402, "fundam": 5403, "succe": 5404, "Libya</w>": 5405, "migrant</w>": 5406, "Mobile</w>": 5407, "Police</w>": 5408, "Web</w>": 5409, "cens": 5410, "brought</w>": 5411, "cohort</w>": 5412, "1,50": 5413, "nationwide</w>": 5414, "reflecting</w>": 5415, "Czech": 5416, "conversations</w>": 5417, "Rico</w>": 5418, "chart</w>": 5419, "encounters</w>": 5420, "Median</w>": 5421, "Back</w>": 5422, "watched</w>": 5423, "Relations</w>": 5424, "lifetimes</w>": 5425, "Korean</w>": 5426, "openness</w>": 5427, "answers</w>": 5428, "target</w>": 5429, "evaluations</w>": 5430, "Compared</w>": 5431, "discuss</w>": 5432, "retirement</w>": 5433, "Guatemala</w>": 5434, "Giuli": 5435, "troub": 5436, "surprisingly</w>": 5437, "Leaders</w>": 5438, "capita</w>": 5439, "Population</w>": 5440, "Panel</w>": 5441, "recovery</w>": 5442, "Higher</w>": 5443, "victory</w>": 5444, "Virgin": 5445, "tility</w>": 5446, "principles</w>": 5447, "Widespread</w>": 5448, "dimir</w>": 5449, "Personal</w>": 5450, "Justice</w>": 5451, "middle": 5452, "Mitt</w>": 5453, "recycl": 5454, "completely</w>": 5455, "Employment</w>": 5456, "Ghana</w>": 5457, "renew": 5458, "consume</w>": 5459, "Lithuania</w>": 5460, "Maduro</w>": 5461, "Vladimir</w>": 5462, "Czechs</w>": 5463, "Giuliani</w>": 5464, "Virginia</w>": 5465, "15": 5466, "27": 5467, "36.": 5468, "70s</w>": 5469, "Bor": 5470, "CN": 5471, "Cor": 5472, "Crim": 5473, "Ed": 5474, "Es": 5475, "El</w>": 5476, "Five</w>": 5477, "Go": 5478, "IA</w>": 5479, "Ow": 5480, "Off": 5481, "Out": 5482, "Path": 5483, "Rights</w>": 5484, "Tri": 5485, "With": 5486, "You</w>": 5487, "baby</w>": 5488, "cau": 5489, "cause</w>": 5490, "fos": 5491, "front</w>": 5492, "girls</w>": 5493, "iPhone</w>": 5494, "kdown</w>": 5495, "kinds</w>": 5496, "lad": 5497, "lement</w>": 5498, "my</w>": 5499, "men": 5500, "mus": 5501, "mother</w>": 5502, "mach": 5503, "od": 5504, "ol</w>": 5505, "pin": 5506, "page</w>": 5507, "sen</w>": 5508, "tex": 5509, "testing</w>": 5510, "vas": 5511, "vice</w>": 5512, "wan</w>": 5513, "writ": 5514, "antic</w>": 5515, "er-": 5516, "ere": 5517, "tivity</w>": 5518, "enjo": 5519, "real</w>": 5520, "really</w>": 5521, "reta": 5522, "remit": 5523, "lin</w>": 5524, "lists</w>": 5525, "aled</w>": 5526, "ation": 5527, "isure</w>": 5528, "abinet</w>": 5529, "adjus": 5530, "verless</w>": 5531, "agenda</w>": 5532, "shr": 5533, "amid</w>": 5534, "publish": 5535, "imports</w>": 5536, "researchers</w>": 5537, "stream</w>": 5538, "make": 5539, "excl": 5540, "expla": 5541, "ched</w>": 5542, "Regi": 5543, "unfair</w>": 5544, "unaccompanied</w>": 5545, "entary</w>": 5546, "sil</w>": 5547, "peers</w>": 5548, "overturn</w>": 5549, "loans</w>": 5550, "grand": 5551, "ticip": 5552, "entially</w>": 5553, "ranked</w>": 5554, "differs</w>": 5555, "raise</w>": 5556, "alia</w>": 5557, "Instead</w>": 5558, "pled</w>": 5559, "plus</w>": 5560, "movi": 5561, "motiv": 5562, "limit</w>": 5563, "favoring</w>": 5564, "scru": 5565, "Consist": 5566, "e-sharing</w>": 5567, "essing</w>": 5568, "After</w>": 5569, "subur": 5570, "assign": 5571, "depending</w>": 5572, "Major</w>": 5573, "edge</w>": 5574, "disability</w>": 5575, "visitors</w>": 5576, "backed</w>": 5577, "impacts</w>": 5578, "tural</w>": 5579, "treat</w>": 5580, "receiving</w>": 5581, "Iraq": 5582, "coal</w>": 5583, "respectful</w>": 5584, "Franc": 5585, "ideal</w>": 5586, "ordable</w>": 5587, "trict</w>": 5588, "1994</w>": 5589, "viewership</w>": 5590, "solo</w>": 5591, "feels</w>": 5592, "digit": 5593, "Commission</w>": 5594, "Gender</w>": 5595, "exceptions</w>": 5596, "created</w>": 5597, "Opposition</w>": 5598, "home-sharing</w>": 5599, "markedly</w>": 5600, "showed</w>": 5601, "universa": 5602, "falling</w>": 5603, "production</w>": 5604, "Nigerians</w>": 5605, "representatives</w>": 5606, "Threat</w>": 5607, "requiring</w>": 5608, "3.4</w>": 5609, "affects</w>": 5610, "Australians</w>": 5611, "Boomer</w>": 5612, "application</w>": 5613, "voic": 5614, "everything</w>": 5615, "master</w>": 5616, "arrivals</w>": 5617, "evident</w>": 5618, "strength": 5619, "District</w>": 5620, "released</w>": 5621, "shortly</w>": 5622, "births</w>": 5623, "circulation</w>": 5624, "caused</w>": 5625, "troops</w>": 5626, "Primary</w>": 5627, "sided</w>": 5628, "requirements</w>": 5629, "Silents</w>": 5630, "district</w>": 5631, "messaging</w>": 5632, "anyah": 5633, "Arabia</w>": 5634, "well-being</w>": 5635, "Relatively</w>": 5636, "original</w>": 5637, "Famili": 5638, "Netanyah": 5639, "Newsroom</w>": 5640, "25-</w>": 5641, "Strong</w>": 5642, "implan": 5643, "align</w>": 5644, "distinct</w>": 5645, "Taiwan</w>": 5646, "Slovakia</w>": 5647, "Candidate</w>": 5648, "initial</w>": 5649, "promises</w>": 5650, "mirror</w>": 5651, "pathway</w>": 5652, "enrolled</w>": 5653, "classified</w>": 5654, "Hindus</w>": 5655, "Salvador</w>": 5656, "spaces</w>": 5657, "globe</w>": 5658, "Olympics</w>": 5659, "narrower</w>": 5660, "Mostly</w>": 5661, "Liberals</w>": 5662, "babies</w>": 5663, "medicine</w>": 5664, "sensitive</w>": 5665, "Follow": 5666, "Filipin": 5667, "shape</w>": 5668, "ensuring</w>": 5669, "scenario</w>": 5670, "Percentage</w>": 5671, "CNN</w>": 5672, "fossil</w>": 5673, "remitt": 5674, "scrutiny</w>": 5675, "Netanyahu</w>": 5676, ".2</w>": 5677, "16": 5678, "12.": 5679, "35": 5680, "3,000</w>": 5681, "4,000</w>": 5682, "4-year-olds</w>": 5683, "98</w>": 5684, "Aga": 5685, "Bec": 5686, "Deb": 5687, "Data</w>": 5688, "Ecu": 5689, "Front</w>": 5690, "Gin": 5691, "HO</w>": 5692, "Il": 5693, "Litt": 5694, "Local</w>": 5695, "MM": 5696, "Mothers</w>": 5697, "PP</w>": 5698, "Pau": 5699, "So": 5700, "Seneg": 5701, "Ter": 5702, "ULS</w>": 5703, "Wit": 5704, "WHO</w>": 5705, "aver": 5706, "aks</w>": 5707, "bil": 5708, "car</w>": 5709, "cities</w>": 5710, "citing</w>": 5711, "eing</w>": 5712, "fill</w>": 5713, "fight</w>": 5714, "fighting</w>": 5715, "gue</w>": 5716, "gness</w>": 5717, "hed</w>": 5718, "him": 5719, "hit</w>": 5720, "iety</w>": 5721, "iards</w>": 5722, "mur": 5723, "mometer</w>": 5724, "millions</w>": 5725, "sli": 5726, "swine</w>": 5727, "willin": 5728, "wearing</w>": 5729, "yle</w>": 5730, "thly</w>": 5731, "anticip": 5732, "ord</w>": 5733, "asks</w>": 5734, "traff": 5735, "emph": 5736, "ade-": 5737, "leisure</w>": 5738, "ounding</w>": 5739, "oldest</w>": 5740, "agues</w>": 5741, "aggres": 5742, "shown</w>": 5743, "parental</w>": 5744, "exit</w>": 5745, "terte</w>": 5746, "ching</w>": 5747, "earned</w>": 5748, "deleg": 5749, "deported</w>": 5750, "unite</w>": 5751, "sib": 5752, "veh": 5753, "viet</w>": 5754, "words</w>": 5755, "itive</w>": 5756, "per-income</w>": 5757, "grade</w>": 5758, "class": 5759, "posure</w>": 5760, "feat": 5761, "lows</w>": 5762, "majority-": 5763, "evol": 5764, "differed</w>": 5765, "fire": 5766, "prise</w>": 5767, "certain": 5768, "fuel</w>": 5769, "scap": 5770, "hear</w>": 5771, "commonly</w>": 5772, "dispar": 5773, "offered</w>": 5774, "e-related</w>": 5775, "collap": 5776, "persons</w>": 5777, "contacted</w>": 5778, "ofregistered</w>": 5779, "tee</w>": 5780, "policing</w>": 5781, "illness</w>": 5782, "helps</w>": 5783, "anda</w>": 5784, "Stud": 5785, "hardly</w>": 5786, "criticism</w>": 5787, "tures</w>": 5788, "small": 5789, "placing</w>": 5790, "veness</w>": 5791, "step</w>": 5792, "examined</w>": 5793, "typology</w>": 5794, "polygam": 5795, "lightly</w>": 5796, "wareness</w>": 5797, "ideologically</w>": 5798, "broadcast</w>": 5799, "Gree": 5800, "partnered</w>": 5801, "affiliates</w>": 5802, "advice</w>": 5803, "e-in-four</w>": 5804, "Also</w>": 5805, "thermometer</w>": 5806, "boys</w>": 5807, "body</w>": 5808, "slight</w>": 5809, "viewers</w>": 5810, "opped</w>": 5811, "regulation</w>": 5812, "Adv": 5813, "excited</w>": 5814, "creates</w>": 5815, "Better</w>": 5816, "senators</w>": 5817, "naming</w>": 5818, "Spaniards</w>": 5819, "occo</w>": 5820, "cards</w>": 5821, "carried</w>": 5822, "manu": 5823, "Dec.</w>": 5824, "dealt</w>": 5825, "availability</w>": 5826, "tweeted</w>": 5827, "Lean</w>": 5828, "Morocco</w>": 5829, "Phil": 5830, "femin": 5831, "trust": 5832, "driving</w>": 5833, "driverless</w>": 5834, "necessarily</w>": 5835, "Moderate</w>": 5836, "played</w>": 5837, "familiar</w>": 5838, "familiarity</w>": 5839, "participation</w>": 5840, "Apple</w>": 5841, "checks</w>": 5842, "Organ": 5843, "masks</w>": 5844, "diplomatic</w>": 5845, "Educational</w>": 5846, "Tuesday</w>": 5847, "historic</w>": 5848, "assessment</w>": 5849, "reflects</w>": 5850, "strikes</w>": 5851, "communications</w>": 5852, "narrow</w>": 5853, "ibutes</w>": 5854, "appear</w>": 5855, "appeals</w>": 5856, "ished</w>": 5857, "Brazilian</w>": 5858, "games</w>": 5859, "naturalized</w>": 5860, "statistically</w>": 5861, "negotiations</w>": 5862, "disagreed</w>": 5863, "atheist</w>": 5864, "detailed</w>": 5865, "details</w>": 5866, "withdraw": 5867, "Quar": 5868, "genetic</w>": 5869, "perceive</w>": 5870, "Ideological</w>": 5871, "tempor": 5872, "Honduras</w>": 5873, "struggle</w>": 5874, "Malay": 5875, "burden</w>": 5876, "screen</w>": 5877, "emigrants</w>": 5878, "extremist</w>": 5879, "Sunn": 5880, "prayer</w>": 5881, "earnings</w>": 5882, "granting</w>": 5883, "competi": 5884, "scrip": 5885, "Ethn": 5886, "Smartphone</w>": 5887, "habits</w>": 5888, "hopeful</w>": 5889, "removal</w>": 5890, "consequences</w>": 5891, "quake</w>": 5892, "romantic</w>": 5893, "Conflict</w>": 5894, "Duterte</w>": 5895, "Denmark</w>": 5896, "House": 5897, "Inequality</w>": 5898, "NPR</w>": 5899, "Somalia</w>": 5900, "cutting</w>": 5901, "paper</w>": 5902, "earthquake</w>": 5903, "written</w>": 5904, "explaining</w>": 5905, "Francis</w>": 5906, "remittances</w>": 5907, "Against</w>": 5908, "Ecuad": 5909, "Little</w>": 5910, "Paul</w>": 5911, "Soviet</w>": 5912, "himself</w>": 5913, "willingness</w>": 5914, "emphas": 5915, "aggressive</w>": 5916, "Malaysi": 5917, "'d</w>": 5918, "/Lean</w>": 5919, "12": 5920, "11.": 5921, "7,": 5922, "AS</w>": 5923, "Bei": 5924, "Busin": 5925, "BJP</w>": 5926, "D.": 5927, "Dr": 5928, "DP</w>": 5929, "Fu": 5930, "Fas": 5931, "Lu": 5932, "MS": 5933, "Mac": 5934, "Memb": 5935, "Pl": 5936, "Post</w>": 5937, "Pali": 5938, "Right</w>": 5939, "Sam": 5940, "Slightly</w>": 5941, "Ted</w>": 5942, "Telem": 5943, "Ur": 5944, "Web": 5945, "az": 5946, "apart</w>": 5947, "bar": 5948, "bit</w>": 5949, "cha": 5950, "cur": 5951, "cog": 5952, "co-": 5953, "dhood</w>": 5954, "e/": 5955, "eding</w>": 5956, "etheless</w>": 5957, "further</w>": 5958, "gate</w>": 5959, "hus": 5960, "hun": 5961, "hoods</w>": 5962, "hov": 5963, "ionally</w>": 5964, "jing</w>": 5965, "k-": 5966, "ma</w>": 5967, "made-": 5968, "night</w>": 5969, "nesses</w>": 5970, "nitive</w>": 5971, "ot</w>": 5972, "pace</w>": 5973, "rare</w>": 5974, "slower</w>": 5975, "sports</w>": 5976, "selected</w>": 5977, "tac": 5978, "ubi": 5979, "vements</w>": 5980, "yan</w>": 5981, "inking</w>": 5982, "entered</w>": 5983, "replace</w>": 5984, "returned</w>": 5985, "liance</w>": 5986, "at-": 5987, "ator</w>": 5988, "atall</w>": 5989, "osity</w>": 5990, "acles</w>": 5991, "ason</w>": 5992, "ussel": 5993, "suff": 5994, "sunam": 5995, "emer": 5996, "adel": 5997, "putation</w>": 5998, "lely</w>": 5999, "oler": 6000, "olina</w>": 6001, "eland</w>": 6002, "ague</w>": 6003, "parti": 6004, "impe": 6005, "immedi": 6006, "immoral</w>": 6007, "resist": 6008, "opponents</w>": 6009, "stable</w>": 6010, "ular</w>": 6011, "mail-": 6012, "poor": 6013, "Rep</w>": 6014, "Regar": 6015, "deli": 6016, "unlikely</w>": 6017, "undo</w>": 6018, "peace</w>": 6019, "vez</w>": 6020, "ve-born</w>": 6021, "umb": 6022, "worthy</w>": 6023, "loy": 6024, "love</w>": 6025, "apparent</w>": 6026, "surveill": 6027, "presence</w>": 6028, "supports</w>": 6029, "ranges</w>": 6030, "reason": 6031, "marital</w>": 6032, "Institu": 6033, "serving</w>": 6034, "differently</w>": 6035, "governing</w>": 6036, "phia</w>": 6037, "phone-": 6038, "movement</w>": 6039, "higher-income</w>": 6040, "strateg": 6041, "heads</w>": 6042, "Convers": 6043, "closed</w>": 6044, "pay": 6045, "displaced</w>": 6046, "dissatisfaction</w>": 6047, "coll": 6048, "collection</w>": 6049, "datab": 6050, "outpac": 6051, "point": 6052, "ancy</w>": 6053, "Paris</w>": 6054, "1988</w>": 6055, "spent</w>": 6056, "Stat": 6057, "International</w>": 6058, "inflation</w>": 6059, "goes</w>": 6060, "monthly</w>": 6061, "ethnically</w>": 6062, "most-": 6063, "turning</w>": 6064, "sector</w>": 6065, "synthetic</w>": 6066, "travel</w>": 6067, "pping</w>": 6068, "trace</w>": 6069, "Norway</w>": 6070, "greatly</w>": 6071, "wards</w>": 6072, "terror</w>": 6073, "grads</w>": 6074, "orders</w>": 6075, "affiliate</w>": 6076, "prime</w>": 6077, "severe</w>": 6078, "disapproval</w>": 6079, "1995</w>": 6080, "1992</w>": 6081, "human": 6082, "morality</w>": 6083, "Direc": 6084, "announc": 6085, "considerable</w>": 6086, "NASA</w>": 6087, "choices</w>": 6088, "General</w>": 6089, "control": 6090, "justices</w>": 6091, "Vote</w>": 6092, "native-born</w>": 6093, "note</w>": 6094, "carbon</w>": 6095, "variation</w>": 6096, "difficulty</w>": 6097, "self-described</w>": 6098, "League</w>": 6099, "started</w>": 6100, "Larger</w>": 6101, "Mormons</w>": 6102, "recorded</w>": 6103, "Post-": 6104, "neighborhoods</w>": 6105, "Ukrain": 6106, "obst": 6107, "observ": 6108, "success</w>": 6109, "Three</w>": 6110, "Associ": 6111, "frame</w>": 6112, "decreases</w>": 6113, "rules</w>": 6114, "ruling</w>": 6115, "Current</w>": 6116, "cycle</w>": 6117, "reduction</w>": 6118, "draws</w>": 6119, "doubt</w>": 6120, "apprehended</w>": 6121, "participated</w>": 6122, "central</w>": 6123, "happened</w>": 6124, "teachings</w>": 6125, "Carolina</w>": 6126, "downturn</w>": 6127, "correct</w>": 6128, "Atlantic</w>": 6129, "Gun</w>": 6130, "suspected</w>": 6131, "Countries</w>": 6132, "communication</w>": 6133, "info</w>": 6134, "intens": 6135, "recognize</w>": 6136, "rapid</w>": 6137, "stayed</w>": 6138, "statistical</w>": 6139, "Priorities</w>": 6140, "solely</w>": 6141, "orientation</w>": 6142, "decided</w>": 6143, "AAAS</w>": 6144, "settings</w>": 6145, "Substanti": 6146, "achieved</w>": 6147, "agnostics</w>": 6148, "pack": 6149, "spoken</w>": 6150, "genetically</w>": 6151, "perceived</w>": 6152, "Mixed</w>": 6153, "herit": 6154, "icient</w>": 6155, "Brussel": 6156, "Divided</w>": 6157, "Jehov": 6158, "Disap": 6159, "caregivers</w>": 6160, "volunteer</w>": 6161, "suggests</w>": 6162, "floods</w>": 6163, "recommendations</w>": 6164, "occasionally</w>": 6165, "proficiency</w>": 6166, "straight</w>": 6167, "rupt</w>": 6168, "allegations</w>": 6169, "concentr": 6170, "quickly</w>": 6171, "Annual</w>": 6172, "techni": 6173, "Born</w>": 6174, "makeup</w>": 6175, "motivated</w>": 6176, "Filipinos</w>": 6177, "MMR</w>": 6178, "delegates</w>": 6179, "vehic": 6180, "Greeks</w>": 6181, "Philadel": 6182, "Organization</w>": 6183, "withdrawal</w>": 6184, "Malaysia</w>": 6185, "Beijing</w>": 6186, "MSNBC</w>": 6187, "Palin</w>": 6188, "Telemundo</w>": 6189, "cognitive</w>": 6190, "made-up</w>": 6191, "sunami</w>": 6192, "impeach": 6193, "surveillance</w>": 6194, "Conversely</w>": 6195, "Jehovah</w>": 6196, "Philadelphia</w>": 6197, "-1": 6198, "-to-": 6199, "-elect</w>": 6200, "17.": 6201, "8,": 6202, "9,": 6203, "Au": 6204, "Abe</w>": 6205, "Bre": 6206, "Bos": 6207, "Best</w>": 6208, "Dig": 6209, "Devel": 6210, "Elec": 6211, "Fri": 6212, "Fair</w>": 6213, "Haw": 6214, "H-1": 6215, "Id": 6216, "Jin": 6217, "Low": 6218, "Mu": 6219, "Others</w>": 6220, "Pen": 6221, "Ryan</w>": 6222, "Swit": 6223, "Sel": 6224, "Sever": 6225, "Typ": 6226, "Wall</w>": 6227, "ather</w>": 6228, "bor</w>": 6229, "cr": 6230, "co</w>": 6231, "city</w>": 6232, "center</w>": 6233, "del": 6234, "ees</w>": 6235, "eting</w>": 6236, "filled</w>": 6237, "hac": 6238, "holi": 6239, "ko</w>": 6240, "kept</w>": 6241, "mood</w>": 6242, "ots</w>": 6243, "ped</w>": 6244, "pir": 6245, "rying</w>": 6246, "sex": 6247, "smar": 6248, "sof": 6249, "simp": 6250, "slim</w>": 6251, "tough</w>": 6252, "une": 6253, "win": 6254, "xit</w>": 6255, "anx": 6256, "ang</w>": 6257, "inte": 6258, "instead</w>": 6259, "era</w>": 6260, "eras</w>": 6261, "orse</w>": 6262, "en-": 6263, "reject</w>": 6264, "reputation</w>": 6265, "itable</w>": 6266, "atred</w>": 6267, "theirs</w>": 6268, "rog": 6269, "isol": 6270, "ast": 6271, "asking</w>": 6272, "useful</w>": 6273, "diminis": 6274, "suicide</w>": 6275, "ides</w>": 6276, "admis": 6277, "elders</w>": 6278, "age": 6279, "shore</w>": 6280, "compromise</w>": 6281, "residential</w>": 6282, "stores</w>": 6283, "ota</w>": 6284, "bet": 6285, "counting</w>": 6286, "Rep": 6287, "dele": 6288, "united</w>": 6289, "unlock</w>": 6290, "enty</w>": 6291, "enters</w>": 6292, "ent-elect</w>": 6293, "six": 6294, "sively</w>": 6295, "ries</w>": 6296, "sey</w>": 6297, "overturned</w>": 6298, "ques</w>": 6299, "pervas": 6300, "loaded</w>": 6301, "mean</w>": 6302, "meanwhile</w>": 6303, "forward</w>": 6304, "claim": 6305, "present": 6306, "gium</w>": 6307, "Histor": 6308, "predec": 6309, "tag</w>": 6310, "Chur": 6311, "three-in-four</w>": 6312, "interact</w>": 6313, "greement</w>": 6314, "economically</w>": 6315, "Where</w>": 6316, "someday</w>": 6317, "plan": 6318, "phot": 6319, "incor": 6320, "inced</w>": 6321, "incident</w>": 6322, "job": 6323, "quarterly</w>": 6324, "tweet</w>": 6325, "scores</w>": 6326, "lars</w>": 6327, "Contro": 6328, "pathetic</w>": 6329, "offers</w>": 6330, "stantive</w>": 6331, "risky</w>": 6332, "contest</w>": 6333, "legalizing</w>": 6334, "borders</w>": 6335, "essed</w>": 6336, "conspir": 6337, "responded</w>": 6338, "1981</w>": 6339, "substantive</w>": 6340, "Statis": 6341, "agreed</w>": 6342, "hard": 6343, "Proposa": 6344, "expecting</w>": 6345, "housework</w>": 6346, "visa</w>": 6347, "goal</w>": 6348, "influenced</w>": 6349, "sectors</w>": 6350, "register</w>": 6351, "identifying</w>": 6352, "travel": 6353, "trajec": 6354, "Northern</w>": 6355, "wars</w>": 6356, "provider</w>": 6357, "program": 6358, "disappro": 6359, "Along</w>": 6360, "graduated</w>": 6361, "applied</w>": 6362, "viewpoints</w>": 6363, "looked</w>": 6364, "administered</w>": 6365, "professors</w>": 6366, "ballot</w>": 6367, "path</w>": 6368, "except</w>": 6369, "update</w>": 6370, "drilling</w>": 6371, "extreme</w>": 6372, "noted</w>": 6373, "manag": 6374, "knowing</w>": 6375, "attack</w>": 6376, "Jordan": 6377, "starkly</w>": 6378, "church": 6379, "university</w>": 6380, "full": 6381, "funded</w>": 6382, "trusting</w>": 6383, "product</w>": 6384, "objec": 6385, "automated</w>": 6386, "Generally</w>": 6387, "Ass": 6388, "10.": 6389, "4.2</w>": 6390, "skepticism</w>": 6391, "Notably</w>": 6392, "accuracy</w>": 6393, "distant</w>": 6394, "institution</w>": 6395, "Recent</w>": 6396, "Secretary</w>": 6397, "veteran</w>": 6398, "contributing</w>": 6399, "nationali": 6400, "sustained</w>": 6401, "relev": 6402, "projects</w>": 6403, "reflected</w>": 6404, "One-": 6405, "tried</w>": 6406, "short</w>": 6407, "centers</w>": 6408, "wanese</w>": 6409, "prospect</w>": 6410, "Tunisians</w>": 6411, "Positions</w>": 6412, "Ricans</w>": 6413, "Time</w>": 6414, "convinced</w>": 6415, "opportunity</w>": 6416, "landline</w>": 6417, "entertainment</w>": 6418, "watching</w>": 6419, "suggest</w>": 6420, "soon</w>": 6421, "princip": 6422, "Different</w>": 6423, "solidly</w>": 6424, "explicit</w>": 6425, "achieving</w>": 6426, "agnostic</w>": 6427, "bull": 6428, "fastest": 6429, "determined</w>": 6430, "obligation</w>": 6431, "temper": 6432, "Taiwanese</w>": 6433, "Slovaks</w>": 6434, "transi": 6435, "assaul": 6436, "Evangelic": 6437, "algorithms</w>": 6438, "prepares</w>": 6439, "Colombia</w>": 6440, "fracking</w>": 6441, "embargo</w>": 6442, "coalition</w>": 6443, "legislators</w>": 6444, "Groups</w>": 6445, "dollars</w>": 6446, "Overwhelming</w>": 6447, "Belgium</w>": 6448, "Legal</w>": 6449, "zerland</w>": 6450, "enhancements</w>": 6451, "Labor</w>": 6452, "tribution</w>": 6453, "fundamental</w>": 6454, "recycled</w>": 6455, "36.6</w>": 6456, "Pathways</w>": 6457, "Within</w>": 6458, "machines</w>": 6459, "Iraqi</w>": 6460, "universal</w>": 6461, "implanted</w>": 6462, "Following</w>": 6463, "Senegal</w>": 6464, "scape</w>": 6465, "trustworthy</w>": 6466, "scripture</w>": 6467, "Future</w>": 6468, "at-home</w>": 6469, "Institutions</w>": 6470, "obstacles</w>": 6471, "Substantial</w>": 6472, "heritage</w>": 6473, "Brussels</w>": 6474, "impeachment</w>": 6475, "Digital</w>": 6476, "Develop": 6477, "Hawai": 6478, "H-1B</w>": 6479, "Jinping</w>": 6480, "Switzerland</w>": 6481, "Several</w>": 6482, "simply</w>": 6483, "integr": 6484, "admissions</w>": 6485, "Historically</w>": 6486, "conspiracy</w>": 6487, "trajectory</w>": 6488, "-up</w>": 6489, "-speaking</w>": 6490, ".3</w>": 6491, ".W</w>": 6492, "08</w>": 6493, "000</w>": 6494, "22": 6495, "50.": 6496, "6th</w>": 6497, "600</w>": 6498, "60s</w>": 6499, "80s</w>": 6500, "AN": 6501, "Ban": 6502, "Bal": 6503, "Bad</w>": 6504, "Bang": 6505, "Cha": 6506, "Cell</w>": 6507, "CIA</w>": 6508, "Da": 6509, "Gar": 6510, "G20</w>": 6511, "Hel": 6512, "Home</w>": 6513, "Jer": 6514, "Jud": 6515, "Lad": 6516, "Los</w>": 6517, "Mig": 6518, "Mass</w>": 6519, "None</w>": 6520, "Now</w>": 6521, "Next</w>": 6522, "Pre": 6523, "Pel": 6524, "Spe": 6525, "Show</w>": 6526, "Situation</w>": 6527, "Up": 6528, "a.m.</w>": 6529, "awareness</w>": 6530, "bin</w>": 6531, "boss</w>": 6532, "ca</w>": 6533, "ction</w>": 6534, "clim": 6535, "cros": 6536, "danger</w>": 6537, "eat</w>": 6538, "fati": 6539, "fear": 6540, "fother</w>": 6541, "fting</w>": 6542, "hatred</w>": 6543, "i.": 6544, "im</w>": 6545, "jum": 6546, "kground</w>": 6547, "kina</w>": 6548, "lu": 6549, "lon": 6550, "lunch</w>": 6551, "ois</w>": 6552, "pas": 6553, "push</w>": 6554, "sight</w>": 6555, "sought</w>": 6556, "shap": 6557, "tability</w>": 6558, "task</w>": 6559, "tags</w>": 6560, "topped</w>": 6561, "tsunami</w>": 6562, "vali": 6563, "wo</w>": 6564, "was": 6565, "wel": 6566, "winning</w>": 6567, "yans</w>": 6568, "anon": 6569, "ints</w>": 6570, "ination</w>": 6571, "inaug": 6572, "error</w>": 6573, "ary": 6574, "til": 6575, "orms</w>": 6576, "onstr": 6577, "reet</w>": 6578, "removed</w>": 6579, "sad</w>": 6580, "aling</w>": 6581, "alking</w>": 6582, "alcoh": 6583, "what": 6584, "osi</w>": 6585, "acqu": 6586, "accomp": 6587, "esity</w>": 6588, "echn": 6589, "abroad</w>": 6590, "asting</w>": 6591, "dies</w>": 6592, "divor": 6593, "ouns</w>": 6594, "very": 6595, "construction</w>": 6596, "occurr": 6597, "composition</w>": 6598, "images</w>": 6599, "ress": 6600, "station</w>": 6601, "stop</w>": 6602, "style</w>": 6603, "2050</w>": 6604, "American": 6605, "uration</w>": 6606, "ull</w>": 6607, "exha": 6608, "extend</w>": 6609, "exposure</w>": 6610, "terri": 6611, "termath</w>": 6612, "Reduc": 6613, "Read</w>": 6614, "Represent": 6615, "depres": 6616, "defe": 6617, "unknown</w>": 6618, "liked</w>": 6619, "worsen": 6620, "tick</w>": 6621, "ticket</w>": 6622, "linois</w>": 6623, "father</w>": 6624, "uct": 6625, "Tra": 6626, "random</w>": 6627, "ranged</w>": 6628, "takers</w>": 6629, "Chang": 6630, "Income</w>": 6631, "weak": 6632, "differing</w>": 6633, "decent</w>": 6634, "limiting</w>": 6635, "highligh": 6636, "reluct": 6637, "health": 6638, "issued</w>": 6639, "closing</w>": 6640, "dispu": 6641, "offended</w>": 6642, "tends</w>": 6643, "tended</w>": 6644, "e-calling</w>": 6645, "minus</w>": 6646, "approvals</w>": 6647, "Latinx</w>": 6648, "est-": 6649, "faced</w>": 6650, "perior</w>": 6651, "Star</w>": 6652, "Street</w>": 6653, "assess</w>": 6654, "assign</w>": 6655, "contribute</w>": 6656, "Main": 6657, "guar": 6658, "locked</w>": 6659, "officer</w>": 6660, "first": 6661, "firms</w>": 6662, "steep</w>": 6663, "backing</w>": 6664, "relatives</w>": 6665, "employer</w>": 6666, "Asian-": 6667, "nonprofit</w>": 6668, "examines</w>": 6669, "accountable</w>": 6670, "GOP": 6671, "communist</w>": 6672, "acceptance</w>": 6673, "identifies</w>": 6674, "valu": 6675, "after-": 6676, "aftermath</w>": 6677, "respects</w>": 6678, "Christie</w>": 6679, "minister</w>": 6680, "misuse</w>": 6681, "1993</w>": 6682, "1991</w>": 6683, "Energy</w>": 6684, "solving</w>": 6685, "ailing</w>": 6686, "one-in-three</w>": 6687, "resulted</w>": 6688, "reader</w>": 6689, "definition</w>": 6690, "cip": 6691, "mater": 6692, "Adminis": 6693, "Workers</w>": 6694, "upper-income</w>": 6695, "protest</w>": 6696, "Def": 6697, "nominees</w>": 6698, "1.3</w>": 6699, "name-calling</w>": 6700, "Extre": 6701, "seem</w>": 6702, "speakers</w>": 6703, "involving</w>": 6704, "Niger</w>": 6705, "dominate</w>": 6706, "operating</w>": 6707, "2.8</w>": 6708, "start</w>": 6709, "Postal</w>": 6710, "Austria</w>": 6711, "multiethnic</w>": 6712, "purpose</w>": 6713, "representation</w>": 6714, "Assad</w>": 6715, "donors</w>": 6716, "vaccinated</w>": 6717, "Job</w>": 6718, "6.4</w>": 6719, "Fort": 6720, "enthood</w>": 6721, "y-at-home</w>": 6722, "performed</w>": 6723, "build</w>": 6724, "doubts</w>": 6725, "5.5</w>": 6726, "adopt</w>": 6727, "Egypti": 6728, "participating</w>": 6729, "tablets</w>": 6730, "legisl": 6731, "journalist</w>": 6732, "historical</w>": 6733, "tripled</w>": 6734, "short": 6735, "fielded</w>": 6736, "Kenyans</w>": 6737, "couple</w>": 6738, "continuing</w>": 6739, "constituted</w>": 6740, "constitute</w>": 6741, "reliable</w>": 6742, "convic": 6743, "stay-at-home</w>": 6744, "Background</w>": 6745, "pronouns</w>": 6746, "Foreign": 6747, "purchases</w>": 6748, "attribute</w>": 6749, "covering</w>": 6750, "Growth</w>": 6751, "wait</w>": 6752, "waiting</w>": 6753, "disagreements</w>": 6754, "oriented</w>": 6755, "expand</w>": 6756, "discussed</w>": 6757, "Affordable</w>": 6758, "spreads</w>": 6759, "Sub-Saharan</w>": 6760, "homework</w>": 6761, "referred</w>": 6762, "Given</w>": 6763, "slowed</w>": 6764, "trouble</w>": 6765, "surprising</w>": 6766, "Popular</w>": 6767, "cele": 6768, "promising</w>": 6769, "method</w>": 6770, "established</w>": 6771, "monitoring</w>": 6772, "Divide</w>": 6773, "Burkina</w>": 6774, "chip</w>": 6775, "infectious</w>": 6776, "confirmed</w>": 6777, "modified</w>": 6778, "Colombi": 6779, "commerc": 6780, "Problems</w>": 6781, "youth</w>": 6782, "existed</w>": 6783, "caucus</w>": 6784, "Basis</w>": 6785, "Law</w>": 6786, "grocer": 6787, "safer</w>": 6788, "astron": 6789, "restaurants</w>": 6790, "Refugee</w>": 6791, "CDC</w>": 6792, "Citizens</w>": 6793, "Prices</w>": 6794, "diverge</w>": 6795, "near-": 6796, "ellig": 6797, "stream": 6798, "Viewed</w>": 6799, "middle-income</w>": 6800, "Edwards</w>": 6801, "Gov</w>": 6802, "lades": 6803, "mention</w>": 6804, "music</w>": 6805, "odds</w>": 6806, "adjusted</w>": 6807, "suburbs</w>": 6808, "Because</w>": 6809, "Illinois</w>": 6810, "murder</w>": 6811, "traffic</w>": 6812, "classes</w>": 6813, "certainty</w>": 6814, "collapse</w>": 6815, "smallest</w>": 6816, "polygamy</w>": 6817, "Quarterly</w>": 6818, "temporary</w>": 6819, "Faso</w>": 6820, "Web-": 6821, "tactics</w>": 6822, "emerge</w>": 6823, "partial</w>": 6824, "mail-in</w>": 6825, "announcement</w>": 6826, "Ukrainians</w>": 6827, "package</w>": 6828, "Brexit</w>": 6829, "sexually</w>": 6830, "smart</w>": 6831, "pervasive</w>": 6832, "Church</w>": 6833, "Control</w>": 6834, "Statistics</w>": 6835, "programming</w>": 6836, "relevant</w>": 6837, "bullying</w>": 6838, "Evangelical</w>": 6839, "Banglades": 6840, "Daily</w>": 6841, "Jersey</w>": 6842, "Laden</w>": 6843, "Pelosi</w>": 6844, "fatigue</w>": 6845, "anony": 6846, "terrible</w>": 6847, "Representatives</w>": 6848, "-growing</w>": 6849, "-ended</w>": 6850, "-neutral</w>": 6851, "49": 6852, "ABC</w>": 6853, "Agreement</w>": 6854, "Bar": 6855, "Ben": 6856, "Bro": 6857, "Bul": 6858, "CB": 6859, "Cour": 6860, "EU": 6861, "Eur": 6862, "Early</w>": 6863, "Figures</w>": 6864, "Further</w>": 6865, "Goo": 6866, "GDP</w>": 6867, "Huc": 6868, "H.W</w>": 6869, "IC": 6870, "IN": 6871, "Kas": 6872, "Kagan</w>": 6873, "Lin": 6874, "Multi": 6875, "Nat": 6876, "Nic": 6877, "Os</w>": 6878, "Opp": 6879, "Pope</w>": 6880, "Power</w>": 6881, "Qa": 6882, "Qur": 6883, "Role</w>": 6884, "Rubi": 6885, "Sol": 6886, "Sch": 6887, "Sta": 6888, "Speci": 6889, "Soli": 6890, "Satis": 6891, "Tan": 6892, "Tali": 6893, "Toward</w>": 6894, "Techn": 6895, "Ug": 6896, "Ve": 6897, "Wat": 6898, "barri": 6899, "cat": 6900, "cam": 6901, "crow": 6902, "di</w>": 6903, "dation</w>": 6904, "dance</w>": 6905, "em</w>": 6906, "ear</w>": 6907, "ehn": 6908, "fat": 6909, "fying</w>": 6910, "flaws</w>": 6911, "files</w>": 6912, "ger": 6913, "gle</w>": 6914, "gated</w>": 6915, "i-": 6916, "ious</w>": 6917, "kab": 6918, "kep": 6919, "mer": 6920, "mass</w>": 6921, "nu": 6922, "nership</w>": 6923, "ron</w>": 6924, "rent</w>": 6925, "ril": 6926, "rant</w>": 6927, "sic": 6928, "slow</w>": 6929, "slot</w>": 6930, "vul": 6931, "venti": 6932, "ware</w>": 6933, "instances</w>": 6934, "inaccurate</w>": 6935, "erve</w>": 6936, "aring</w>": 6937, "arts</w>": 6938, "orts</w>": 6939, "orad": 6940, "oration</w>": 6941, "orial</w>": 6942, "enacted</w>": 6943, "outwe": 6944, "redi": 6945, "reporters</w>": 6946, "save</w>": 6947, "alliance</w>": 6948, "icial</w>": 6949, "atio</w>": 6950, "esters</w>": 6951, "essive</w>": 6952, "asons</w>": 6953, "division</w>": 6954, "emo": 6955, "adly</w>": 6956, "ola</w>": 6957, "nel</w>": 6958, "nedy</w>": 6959, "ocks</w>": 6960, "parenting</w>": 6961, "residing</w>": 6962, "storms</w>": 6963, "stress": 6964, "200</w>": 6965, "exposed</w>": 6966, "beat</w>": 6967, "pro-": 6968, "proven</w>": 6969, "Reg": 6970, "earth</w>": 6971, "earns</w>": 6972, "unsure</w>": 6973, "unsafe</w>": 6974, "seats</w>": 6975, "setting</w>": 6976, "umin": 6977, "worst</w>": 6978, "oversight</w>": 6979, "quali": 6980, "loan</w>": 6981, "meant</w>": 6982, "meeting</w>": 6983, "grich</w>": 6984, "portation</w>": 6985, "lacking</w>": 6986, "feed</w>": 6987, "lowering</w>": 6988, "ingu": 6989, "ingual</w>": 6990, "Hispanic": 6991, "medium</w>": 6992, "migrate</w>": 6993, "gender": 6994, "intermarriage</w>": 6995, "interviewed</w>": 6996, "internationally</w>": 6997, "marches</w>": 6998, "Ind": 6999, "Individ": 7000, "plant</w>": 7001, "fold</w>": 7002, "fires</w>": 7003, "mom</w>": 7004, "joining</w>": 7005, "format</w>": 7006, "relying</w>": 7007, "think": 7008, "strain</w>": 7009, "religions</w>": 7010, "discip": 7011, "childhood</w>": 7012, "e-to-": 7013, "perspec": 7014, "kewise</w>": 7015, "teen": 7016, "mining</w>": 7017, "born": 7018, "anced</w>": 7019, "ancing</w>": 7020, "essentially</w>": 7021, "Part": 7022, "Parties</w>": 7023, "illustr": 7024, "Unauthorized</w>": 7025, "scienc": 7026, "factual</w>": 7027, "subgroups</w>": 7028, "substitu": 7029, "gather": 7030, "colleagues</w>": 7031, "contrac": 7032, "auts</w>": 7033, "tuition</w>": 7034, "eda</w>": 7035, "placement</w>": 7036, "emptive</w>": 7037, "eller</w>": 7038, "venues</w>": 7039, "stee</w>": 7040, "steel</w>": 7041, "nonwhite</w>": 7042, "examples</w>": 7043, "signs</w>": 7044, "experiencing</w>": 7045, "ethnic": 7046, "three-to-one</w>": 7047, "demonstr": 7048, "agaz": 7049, "traditions</w>": 7050, "coast</w>": 7051, "coast": 7052, "respective</w>": 7053, "smartphone-": 7054, "Perhaps</w>": 7055, "ituations</w>": 7056, "missi": 7057, "misunderstood</w>": 7058, "modern</w>": 7059, "Turn": 7060, "1996</w>": 7061, "Enter": 7062, "endants</w>": 7063, "viewing</w>": 7064, "evening</w>": 7065, "Image</w>": 7066, "Super</w>": 7067, "annually</w>": 7068, "match</w>": 7069, "dropping</w>": 7070, "Worse</w>": 7071, "upcoming</w>": 7072, "protesters</w>": 7073, "Deficit</w>": 7074, "developed</w>": 7075, "Being</w>": 7076, "Beyond</w>": 7077, "Likewise</w>": 7078, "sending</w>": 7079, "1.5</w>": 7080, "Colorad": 7081, "measles</w>": 7082, "estimate</w>": 7083, "knowled": 7084, "Boehn": 7085, "jected</w>": 7086, "neighbor</w>": 7087, "self-identify</w>": 7088, "2.4</w>": 7089, "2.1</w>": 7090, "starting</w>": 7091, "engaging</w>": 7092, "obesity</w>": 7093, "midterms</w>": 7094, "require</w>": 7095, "4.7</w>": 7096, "4.6</w>": 7097, "Jobs</w>": 7098, "3.2</w>": 7099, "distance</w>": 7100, "6.5</w>": 7101, "Modi</w>": 7102, "Take</w>": 7103, "liberties</w>": 7104, "English": 7105, "belong</w>": 7106, "applicants</w>": 7107, "consumer</w>": 7108, "banning</w>": 7109, "everyday</w>": 7110, "mask</w>": 7111, "backgrounds</w>": 7112, "losses</w>": 7113, "teaching</w>": 7114, "budgets</w>": 7115, "civic</w>": 7116, "strengthen</w>": 7117, "nationality</w>": 7118, "nationalities</w>": 7119, "picked</w>": 7120, "sentiments</w>": 7121, "projections</w>": 7122, "Argentines</w>": 7123, "U.S.-China</w>": 7124, "County</w>": 7125, "trip</w>": 7126, "second-most</w>": 7127, "advances</w>": 7128, "password</w>": 7129, "communicate</w>": 7130, "29-": 7131, "Big</w>": 7132, "Kennedy</w>": 7133, "causes</w>": 7134, "investigations</w>": 7135, "relief</w>": 7136, "strict</w>": 7137, "strictly</w>": 7138, "statistics</w>": 7139, "College-educated</w>": 7140, "Prior</w>": 7141, "attributes</w>": 7142, "shifting</w>": 7143, "assistants</w>": 7144, "originally</w>": 7145, "116th</w>": 7146, "wake</w>": 7147, "pre-election</w>": 7148, "pre-emptive</w>": 7149, "answered</w>": 7150, "professions</w>": 7151, "Network</w>": 7152, "deciding</w>": 7153, "Affairs</w>": 7154, "withdrawing</w>": 7155, "Freedom</w>": 7156, "Ques": 7157, "spot</w>": 7158, "Leader</w>": 7159, "capitalism</w>": 7160, "resettlement</w>": 7161, "ceiling</w>": 7162, "herents</w>": 7163, "Candidates</w>": 7164, "wife</w>": 7165, "Brits</w>": 7166, "fertility</w>": 7167, "lesser</w>": 7168, "methods</w>": 7169, "re-election</w>": 7170, "extremists</w>": 7171, "Shifting</w>": 7172, "algorithm</w>": 7173, "installed</w>": 7174, "th-largest</w>": 7175, "congregation</w>": 7176, "Problem</w>": 7177, "proportion": 7178, "polarized</w>": 7179, "polarization</w>": 7180, "arrangement</w>": 7181, "Knowledge</w>": 7182, "disaster</w>": 7183, "govt</w>": 7184, "Greatest</w>": 7185, "censor</w>": 7186, "renewable</w>": 7187, "Outside</w>": 7188, "ereas</w>": 7189, "movies</w>": 7190, "Consistent</w>": 7191, "Gingrich</w>": 7192, "Witnesses</w>": 7193, "anticipate</w>": 7194, "feature</w>": 7195, "firear": 7196, "Sunni</w>": 7197, "competitive</w>": 7198, "Ethnicity</w>": 7199, "Business</w>": 7200, "Macron</w>": 7201, "Urban</w>": 7202, "husband</w>": 7203, "olerant</w>": 7204, "Regardless</w>": 7205, "database</w>": 7206, "Direction</w>": 7207, "techniques</w>": 7208, "Lower-income</w>": 7209, "diminished</w>": 7210, "incorrec": 7211, "fastest-growing</w>": 7212, "Hawaii</w>": 7213, "Speaker</w>": 7214, "passage</w>": 7215, "welcome</w>": 7216, "alcohol</w>": 7217, "accomplish": 7218, "exhaus": 7219, "guaran": 7220, "GOP-leaning</w>": 7221, "Egyptians</w>": 7222, "legislative</w>": 7223, "commercial</w>": 7224, "astronauts</w>": 7225, "anonym": 7226, "EU-": 7227, "Google</w>": 7228, "Huckab": 7229, "Oppose</w>": 7230, "Quran</w>": 7231, "Rubio</w>": 7232, "Solid</w>": 7233, "Uganda</w>": 7234, "stressful</w>": 7235, "gender-neutral</w>": 7236, "e-to-face</w>": 7237, "coastline</w>": 7238, "Colorado</w>": 7239, "Boehner</w>": 7240, "Huckabee</w>": 7241, "-age</w>": 7242, "-to-one</w>": 7243, ".4</w>": 7244, "/or</w>": 7245, "14": 7246, "10,000</w>": 7247, "300</w>": 7248, "6,": 7249, "700</w>": 7250, "90": 7251, "AR": 7252, "Att": 7253, "Audi": 7254, "Big": 7255, "CD</w>": 7256, "Cap": 7257, "Cell": 7258, "DK</w>": 7259, "Did</w>": 7260, "Dru": 7261, "Dak": 7262, "Domestic</w>": 7263, "Davi": 7264, "DACA</w>": 7265, "ET": 7266, "Eli": 7267, "Eff": 7268, "Equ": 7269, "ECD</w>": 7270, "Ferg": 7271, "Floy": 7272, "Ga": 7273, "Gor": 7274, "His</w>": 7275, "Hil": 7276, "Lan": 7277, "My": 7278, "N=": 7279, "NA</w>": 7280, "Nancy</w>": 7281, "OECD</w>": 7282, "Por": 7283, "Pinterest</w>": 7284, "Prefer</w>": 7285, "Ris": 7286, "SP": 7287, "Sc": 7288, "S.</w>": 7289, "Sing": 7290, "Ste": 7291, "Sant": 7292, "Swine</w>": 7293, "Tem": 7294, "Tak": 7295, "Tech</w>": 7296, "TPP</w>": 7297, "UN": 7298, "Used</w>": 7299, "Well</w>": 7300, "bran": 7301, "brow": 7302, "bled</w>": 7303, "batt": 7304, "cy</w>": 7305, "cing</w>": 7306, "cents</w>": 7307, "cabinet</w>": 7308, "dates</w>": 7309, "dology</w>": 7310, "ddit</w>": 7311, "ey": 7312, "e.</w>": 7313, "eth</w>": 7314, "fare</w>": 7315, "fover</w>": 7316, "gins</w>": 7317, "hib": 7318, "hands</w>": 7319, "ie": 7320, "jun": 7321, "leng": 7322, "mom": 7323, "mit</w>": 7324, "must</w>": 7325, "nic": 7326, "other": 7327, "ror": 7328, "ration</w>": 7329, "round</w>": 7330, "rout": 7331, "rass": 7332, "rude</w>": 7333, "ratio</w>": 7334, "s/": 7335, "sers</w>": 7336, "swe": 7337, "send</w>": 7338, "situations</w>": 7339, "town</w>": 7340, "tell</w>": 7341, "tasks</w>": 7342, "xim": 7343, "yi": 7344, "yiel": 7345, "zing</w>": 7346, "zab": 7347, "anity</w>": 7348, "ink</w>": 7349, "iness</w>": 7350, "erts</w>": 7351, "erence</w>": 7352, "erran": 7353, "arying</w>": 7354, "arrog": 7355, "ony</w>": 7356, "oning</w>": 7357, "repe": 7358, "reless</w>": 7359, "revers": 7360, "return</w>": 7361, "sat": 7362, "alle": 7363, "altered</w>": 7364, "alumin": 7365, "theories</w>": 7366, "whereas</w>": 7367, "osing</w>": 7368, "icers</w>": 7369, "essions</w>": 7370, "ecos": 7371, "ission</w>": 7372, "ases</w>": 7373, "aspect</w>": 7374, "truly</w>": 7375, "uson</w>": 7376, "superior</w>": 7377, "adequ": 7378, "adherents</w>": 7379, "pun": 7380, "leak</w>": 7381, "nell</w>": 7382, "Amid</w>": 7383, "aman": 7384, "compl": 7385, "compris": 7386, "compromising</w>": 7387, "ime</w>": 7388, "owed</w>": 7389, "stant</w>": 7390, "Thus</w>": 7391, "pothe": 7392, "exer": 7393, "tering</w>": 7394, "terans</w>": 7395, "begin</w>": 7396, "progres": 7397, "provisions</w>": 7398, "Reform</w>": 7399, "Reasons</w>": 7400, "dep": 7401, "del</w>": 7402, "dedic": 7403, "unable</w>": 7404, "union</w>": 7405, "uncomfortable</w>": 7406, "entually</w>": 7407, "sets</w>": 7408, "season</w>": 7409, "ume</w>": 7410, "umps</w>": 7411, "surpassed</w>": 7412, "worsen</w>": 7413, "perform</w>": 7414, "-in-three</w>": 7415, "apt</w>": 7416, "appoint": 7417, "ticked</w>": 7418, "cles</w>": 7419, "clergy</w>": 7420, "failed</w>": 7421, "pressing</w>": 7422, "ingful</w>": 7423, "ingredi": 7424, "medians</w>": 7425, "pretend</w>": 7426, "recre": 7427, "rab</w>": 7428, "genders</w>": 7429, "interviews</w>": 7430, "interfer": 7431, "alists</w>": 7432, "gregation</w>": 7433, "greedy</w>": 7434, "margins</w>": 7435, "Inform": 7436, "sermons</w>": 7437, "wed": 7438, "weather</w>": 7439, "Why</w>": 7440, "eventually</w>": 7441, "epts</w>": 7442, "plenty</w>": 7443, "electr": 7444, "folder</w>": 7445, "channe": 7446, "chances</w>": 7447, "price</w>": 7448, "ougher</w>": 7449, "third-": 7450, "movements</w>": 7451, "fuels</w>": 7452, "relating</w>": 7453, "Anti": 7454, "Andro": 7455, "scar": 7456, "Connell</w>": 7457, "pair</w>": 7458, "alls</w>": 7459, "disproportion": 7460, "offshore</w>": 7461, "tensions</w>": 7462, "populated</w>": 7463, "coldest</w>": 7464, "priests</w>": 7465, "racism</w>": 7466, "contests</w>": 7467, "of-": 7468, "kets</w>": 7469, "leanings</w>": 7470, "tea</w>": 7471, "mine</w>": 7472, "regime</w>": 7473, "legacy</w>": 7474, "outsour": 7475, "outstanding</w>": 7476, "outlook</w>": 7477, "output</w>": 7478, "generous</w>": 7479, "week": 7480, "afford</w>": 7481, "negatives</w>": 7482, "Parenthood</w>": 7483, "ficial</w>": 7484, "dered</w>": 7485, "izing</w>": 7486, "1972</w>": 7487, "approving</w>": 7488, "approach": 7489, "and/or</w>": 7490, "estate</w>": 7491, "estingly</w>": 7492, "face-to-face</w>": 7493, "span</w>": 7494, "spous": 7495, "Stories</w>": 7496, "Main</w>": 7497, "self": 7498, "famil": 7499, "critics</w>": 7500, "tured</w>": 7501, "Muslim-majority</w>": 7502, "efficient</w>": 7503, "stic</w>": 7504, "Obam": 7505, "locations</w>": 7506, "firm</w>": 7507, "engines</w>": 7508, "steal</w>": 7509, "Interestingly</w>": 7510, "backs</w>": 7511, "embrace</w>": 7512, "breakdown</w>": 7513, "goers</w>": 7514, "signed</w>": 7515, "marriages</w>": 7516, "mainstream</w>": 7517, "secular</w>": 7518, "part-time</w>": 7519, "demand</w>": 7520, "demograph": 7521, "ease</w>": 7522, "widened</w>": 7523, "training</w>": 7524, "Marri": 7525, "pper</w>": 7526, "actively</w>": 7527, "Presidential</w>": 7528, "Christianity</w>": 7529, "grades</w>": 7530, "underrepresented</w>": 7531, "state": 7532, "speaker</w>": 7533, "there": 7534, "board</w>": 7535, "Environ": 7536, "morning</w>": 7537, "endorse</w>": 7538, "schooling</w>": 7539, "schoolwork</w>": 7540, "administr": 7541, "t-level</w>": 7542, "profiles</w>": 7543, "terrorists</w>": 7544, "define</w>": 7545, "anned</w>": 7546, "develop</w>": 7547, "drop": 7548, "benefited</w>": 7549, "one-sided</w>": 7550, "Italian</w>": 7551, "Worries</w>": 7552, "excuse</w>": 7553, "Syrians</w>": 7554, "previously</w>": 7555, "ipi": 7556, "Spanish": 7557, "drone</w>": 7558, "Exc": 7559, "Experi": 7560, "cars</w>": 7561, "involve</w>": 7562, "buy</w>": 7563, "difficulties</w>": 7564, "2.5</w>": 7565, "2.6</w>": 7566, "2.2</w>": 7567, "Least</w>": 7568, "Shoot": 7569, "Society</w>": 7570, "Possible</w>": 7571, "careers</w>": 7572, "careful</w>": 7573, "driver</w>": 7574, "worker</w>": 7575, "Nigerian</w>": 7576, "Poles</w>": 7577, "multigenerational</w>": 7578, "listen": 7579, "cultural</w>": 7580, "100,000</w>": 7581, "4.8</w>": 7582, "experim": 7583, "Libr": 7584, "separately</w>": 7585, "capable</w>": 7586, "torture</w>": 7587, "cycles</w>": 7588, "languages</w>": 7589, "preventing</w>": 7590, "prevailing</w>": 7591, "built</w>": 7592, "5.7</w>": 7593, "adopters</w>": 7594, "-year-old</w>": 7595, "raises</w>": 7596, "App</w>": 7597, "brid": 7598, "Favor</w>": 7599, "mascul": 7600, "transit</w>": 7601, "treatments</w>": 7602, "helpful</w>": 7603, "civilians</w>": 7604, "civilian</w>": 7605, "Concerned</w>": 7606, "corporate</w>": 7607, "triple</w>": 7608, "frustrating</w>": 7609, "fields</w>": 7610, "wanting</w>": 7611, "friendship</w>": 7612, "cyberbullying</w>": 7613, "intense</w>": 7614, "intended</w>": 7615, "investments</w>": 7616, "charge</w>": 7617, "charged</w>": 7618, "weapon</w>": 7619, "occurs</w>": 7620, "ishes</w>": 7621, "explored</w>": 7622, "exploration</w>": 7623, "meaningful</w>": 7624, "anyone</w>": 7625, "achieve</w>": 7626, "encouraged</w>": 7627, "McConnell</w>": 7628, "al-native</w>": 7629, "Priv": 7630, "farm</w>": 7631, "garia</w>": 7632, "reaching</w>": 7633, "impressions</w>": 7634, "open-ended</w>": 7635, "threatening</w>": 7636, "recommended</w>": 7637, "negotiating</w>": 7638, "tioning</w>": 7639, "pessimism</w>": 7640, "Comparable</w>": 7641, "Guatemalan</w>": 7642, "4,9": 7643, "Free</w>": 7644, "deportations</w>": 7645, "aligned</w>": 7646, "determine</w>": 7647, "Mike</w>": 7648, "Panaman": 7649, "Services</w>": 7650, "wireless</w>": 7651, "Importance</w>": 7652, "Non-Hispanic</w>": 7653, "aim</w>": 7654, "screens</w>": 7655, "appears</w>": 7656, "appearance</w>": 7657, "exceeded</w>": 7658, "Burma</w>": 7659, "CEOs</w>": 7660, "hypothe": 7661, "reveal</w>": 7662, "granted</w>": 7663, "installing</w>": 7664, "animals</w>": 7665, "guidance</w>": 7666, "embarrass": 7667, "caregiver</w>": 7668, "downloaded</w>": 7669, "coalitions</w>": 7670, "Group</w>": 7671, "Nonetheless</w>": 7672, "northern</w>": 7673, "concepts</w>": 7674, "Believe</w>": 7675, "caucuses</w>": 7676, "Spli": 7677, "arrangements</w>": 7678, "sympathetic</w>": 7679, "Increase</w>": 7680, "Angela</w>": 7681, "Angeles</w>": 7682, "Demographic</w>": 7683, "Homosexuality</w>": 7684, "Homeland</w>": 7685, "hashtag</w>": 7686, "hashtags</w>": 7687, "succeed</w>": 7688, "27-": 7689, "Estim": 7690, "texts</w>": 7691, "assignments</w>": 7692, "digital-native</w>": 7693, "strengthening</w>": 7694, "Debt</w>": 7695, "Terror": 7696, "bilingual</w>": 7697, "sibly</w>": 7698, "feminist</w>": 7699, "Households</w>": 7700, "D.C": 7701, "immediate</w>": 7702, "resistance</w>": 7703, "reasonable</w>": 7704, "collabor": 7705, "Status</w>": 7706, "concentrated</w>": 7707, "vehicles</w>": 7708, "Aug</w>": 7709, "hacking</w>": 7710, "isolated</w>": 7711, "deleted</w>": 7712, "full-time</w>": 7713, "Assess": 7714, "nationalist</w>": 7715, "One-third</w>": 7716, "transition</w>": 7717, "Bank</w>": 7718, "Garner</w>": 7719, "crossing</w>": 7720, "i.e.</w>": 7721, "inauguration</w>": 7722, "divorce</w>": 7723, "occurring</w>": 7724, "Reducing</w>": 7725, "worsened</w>": 7726, "after-school</w>": 7727, "Administration</w>": 7728, "Fortune</w>": 7729, "streaming</w>": 7730, "Web-only</w>": 7731, "Bangladesh</w>": 7732, "Bulgaria</w>": 7733, "Courts</w>": 7734, "Kasich</w>": 7735, "Natur": 7736, "Qaeda</w>": 7737, "Taliban</w>": 7738, "Veterans</w>": 7739, "barriers</w>": 7740, "ventilat": 7741, "qualified</w>": 7742, "science-related</w>": 7743, "substitutes</w>": 7744, "ethnicities</w>": 7745, "English-speaking</w>": 7746, "anonymous</w>": 7747, "Dakota</w>": 7748, "David</w>": 7749, "Elizab": 7750, "Ferguson</w>": 7751, "Floyd</w>": 7752, "moment</w>": 7753, "arrogant</w>": 7754, "reversed</w>": 7755, "aluminum</w>": 7756, "progressively</w>": 7757, "ingredients</w>": 7758, "interference</w>": 7759, "Android</w>": 7760, "outsourcing</w>": 7761, "spouses</w>": 7762, "Elizabeth</w>": 7763, "--</w>": 7764, "-country</w>": 7765, "-off</w>": 7766, "-language</w>": 7767, "-plurality</w>": 7768, "-again</w>": 7769, ".5</w>": 7770, "04</w>": 7771, "13": 7772, "36": 7773, "30s</w>": 7774, "45": 7775, "4th</w>": 7776, "65": 7777, "800</w>": 7778, "85,000</w>": 7779, "Athe": 7780, "Air": 7781, "Arab</w>": 7782, "Cy": 7783, "Can</w>": 7784, "Cam": 7785, "Cons</w>": 7786, "Cup</w>": 7787, "Crisis</w>": 7788, "Clos": 7789, "Close</w>": 7790, "Cabinet</w>": 7791, "Dow</w>": 7792, "Domin": 7793, "Dav": 7794, "Dut": 7795, "ES": 7796, "Eb": 7797, "Fi</w>": 7798, "Fiel": 7799, "Go</w>": 7800, "Gay</w>": 7801, "Gall": 7802, "Gaps</w>": 7803, "Girls</w>": 7804, "Hu": 7805, "Hus": 7806, "Ham": 7807, "Hand": 7808, "Its</w>": 7809, "Key</w>": 7810, "Land": 7811, "Lower</w>": 7812, "ME": 7813, "Man": 7814, "NR": 7815, "Nin": 7816, "Nar": 7817, "Nation</w>": 7818, "Nev": 7819, "Nomin": 7820, "Neither</w>": 7821, "Net</w>": 7822, "Nuclear</w>": 7823, "Niel": 7824, "Of": 7825, "PR": 7826, "Pent": 7827, "Pay</w>": 7828, "Plan": 7829, "Rate</w>": 7830, "Rural</w>": 7831, "Ronald</w>": 7832, "Sus": 7833, "Sud": 7834, "Such</w>": 7835, "Spring</w>": 7836, "Tre": 7837, "Ten</w>": 7838, "Usage</w>": 7839, "Wal": 7840, "Wil": 7841, "Well": 7842, "Wi-": 7843, "Year</w>": 7844, "air": 7845, "aying</w>": 7846, "ains</w>": 7847, "ben": 7848, "bed</w>": 7849, "bus": 7850, "bot": 7851, "bri": 7852, "billi": 7853, "bell": 7854, "bothers</w>": 7855, "barely</w>": 7856, "cue</w>": 7857, "de</w>": 7858, "des</w>": 7859, "dom": 7860, "dad</w>": 7861, "ex</w>": 7862, "eable</w>": 7863, "etration</w>": 7864, "fit": 7865, "fit</w>": 7866, "fest": 7867, "flow</w>": 7868, "fron": 7869, "filling</w>": 7870, "gn": 7871, "hi</w>": 7872, "hal": 7873, "jam": 7874, "jur": 7875, "jury</w>": 7876, "kingly</w>": 7877, "killed</w>": 7878, "mu": 7879, "mon</w>": 7880, "muse</w>": 7881, "mism</w>": 7882, "magaz": 7883, "mumps</w>": 7884, "ner": 7885, "oto</w>": 7886, "pes": 7887, "pope</w>": 7888, "rum": 7889, "ride</w>": 7890, "stim": 7891, "slots</w>": 7892, "search": 7893, "sworn</w>": 7894, "select</w>": 7895, "sessions</w>": 7896, "tow": 7897, "tougher</w>": 7898, "wes": 7899, "wave</w>": 7900, "wishes</w>": 7901, "xed-": 7902, "your": 7903, "zen</w>": 7904, "zania</w>": 7905, "\u00e1vez</w>": 7906, "than": 7907, "that": 7908, "thus</w>": 7909, "thwest</w>": 7910, "insu": 7911, "intro": 7912, "ark</w>": 7913, "timore</w>": 7914, "time": 7915, "tiveness</w>": 7916, "onset</w>": 7917, "enem": 7918, "outw": 7919, "oured</w>": 7920, "reb": 7921, "rea</w>": 7922, "review</w>": 7923, "reelection</w>": 7924, "rememb": 7925, "remove</w>": 7926, "replacement</w>": 7927, "lift</w>": 7928, "alerts</w>": 7929, "ateral</w>": 7930, "atory</w>": 7931, "ack</w>": 7932, "acare</w>": 7933, "atible</w>": 7934, "ation-": 7935, "escap": 7936, "escal": 7937, "rob": 7938, "room</w>": 7939, "island</w>": 7940, "absol": 7941, "asts</w>": 7942, "ush": 7943, "usion</w>": 7944, "usual</w>": 7945, "divis": 7946, "dial-": 7947, "emin": 7948, "emed</w>": 7949, "emen</w>": 7950, "adol": 7951, "lef": 7952, "olen</w>": 7953, "olars</w>": 7954, "conven": 7955, "eled</w>": 7956, "eling</w>": 7957, "eline</w>": 7958, "elements</w>": 7959, "agu": 7960, "agric": 7961, "agency</w>": 7962, "agged</w>": 7963, "resol": 7964, "reserv": 7965, "star</w>": 7966, "stabili": 7967, "2060</w>": 7968, "oture</w>": 7969, "ull": 7970, "uled</w>": 7971, "extr": 7972, "exports</w>": 7973, "chose</w>": 7974, "Report</w>": 7975, "deep</w>": 7976, "unpaid</w>": 7977, "unsuccessful</w>": 7978, "unhappy</w>": 7979, "undecided</w>": 7980, "ve-": 7981, "rio": 7982, "rival": 7983, "sein</w>": 7984, "itions</w>": 7985, "quit": 7986, "permit": 7987, "gross</w>": 7988, "tware</w>": 7989, "claim</w>": 7990, "cloture</w>": 7991, "presidenti": 7992, "ucture</w>": 7993, "gia</w>": 7994, "posting</w>": 7995, "ooher</w>": 7996, "entives</w>": 7997, "accessing</w>": 7998, "accessed</w>": 7999, "feach</w>": 8000, "presum": 8001, "pregn": 8002, "recover</w>": 8003, "recipi": 8004, "ilities</w>": 8005, "Character": 8006, "Ch\u00e1vez</w>": 8007, "gency</w>": 8008, "intern": 8009, "intermarried</w>": 8010, "marrying</w>": 8011, "wealth": 8012, "What": 8013, "Whether</w>": 8014, "eved</w>": 8015, "planned</w>": 8016, "finish</w>": 8017, "Reserve</w>": 8018, "government": 8019, "fired</w>": 8020, "prin": 8021, "confused</w>": 8022, "confron": 8023, "2000s</w>": 8024, "declar": 8025, "incentives</w>": 8026, "model</w>": 8027, "join</w>": 8028, "highlight</w>": 8029, "penetration</w>": 8030, "follows</w>": 8031, "scored</w>": 8032, "head": 8033, "heated</w>": 8034, "Consum": 8035, "Congo</w>": 8036, "religiosity</w>": 8037, "all-": 8038, "display</w>": 8039, "disrupt</w>": 8040, "distribution</w>": 8041, "rubell": 8042, "tenure</w>": 8043, "tenders</w>": 8044, "coloured</w>": 8045, "privi": 8046, "nie</w>": 8047, "ofthe</w>": 8048, "ofU.S</w>": 8049, "ked": 8050, "minors</w>": 8051, "minded</w>": 8052, "essor</w>": 8053, "flu": 8054, "respond</w>": 8055, "Partisanship</w>": 8056, "correlated</w>": 8057, "rown</w>": 8058, "Unlike</w>": 8059, "Unemployment</w>": 8060, "1968</w>": 8061, "1970</w>": 8062, "1980s</w>": 8063, "conducting</w>": 8064, "sched": 8065, "scholars</w>": 8066, "seldom</w>": 8067, "fourths</w>": 8068, "harm": 8069, "tism</w>": 8070, "owner</w>": 8071, "smission</w>": 8072, "Protec": 8073, "ede</w>": 8074, "ght</w>": 8075, "locally</w>": 8076, "rich": 8077, "Mexican-origin</w>": 8078, "visiting</w>": 8079, "bio": 8080, "embr": 8081, "casting</w>": 8082, "casual</w>": 8083, "attending</w>": 8084, "employers</w>": 8085, "nonvoters</w>": 8086, "nonpolitical</w>": 8087, "influences</w>": 8088, "debris</w>": 8089, "maintained</w>": 8090, "hearings</w>": 8091, "newsro": 8092, "erging</w>": 8093, "registering</w>": 8094, "three-fourths</w>": 8095, "trail</w>": 8096, "trailed</w>": 8097, "Marco</w>": 8098, "friended</w>": 8099, "Presid": 8100, "themes</w>": 8101, "graders</w>": 8102, "stature</w>": 8103, "Peru</w>": 8104, "misinformation</w>": 8105, "moderately</w>": 8106, "focusing</w>": 8107, "ousness</w>": 8108, "non-Hispanics</w>": 8109, "non-STEM</w>": 8110, "disappointed</w>": 8111, "alize</w>": 8112, "ographers</w>": 8113, "Enforcement</w>": 8114, "applies</w>": 8115, "compare</w>": 8116, "compatible</w>": 8117, "attenti": 8118, "Divisions</w>": 8119, "sold</w>": 8120, "System</w>": 8121, "opping</w>": 8122, "Immigrant</w>": 8123, "medd": 8124, "t-style</w>": 8125, "t-ticket</w>": 8126, "skin</w>": 8127, "matches</w>": 8128, "drops</w>": 8129, "patrio": 8130, "upon</w>": 8131, "upward</w>": 8132, "Dem</w>": 8133, "controls</w>": 8134, "Living</w>": 8135, "senator</w>": 8136, "Opposed</w>": 8137, "1.7</w>": 8138, "duty</w>": 8139, "drones</w>": 8140, "Cold</w>": 8141, "specialists</w>": 8142, "manage</w>": 8143, "measuring</w>": 8144, "frequency</w>": 8145, "Economist</w>": 8146, "facturing</w>": 8147, "buying</w>": 8148, "defendants</w>": 8149, "Republican-": 8150, "complex": 8151, "categor": 8152, "self-reported</w>": 8153, "self-employed</w>": 8154, "connectivity</w>": 8155, "single-": 8156, "emerged</w>": 8157, "caregiving</w>": 8158, "purposes</w>": 8159, "listen</w>": 8160, "listening</w>": 8161, "listened</w>": 8162, "expansion</w>": 8163, "Generations</w>": 8164, "4.4</w>": 8165, "4.5</w>": 8166, "4.1</w>": 8167, "frastr": 8168, "promo": 8169, "decreasing</w>": 8170, "capac": 8171, "captured</w>": 8172, "3.9</w>": 8173, "3.5</w>": 8174, "3.1</w>": 8175, "distress</w>": 8176, "6.3</w>": 8177, "refers</w>": 8178, "web-": 8179, "angle</w>": 8180, "antibio": 8181, "begins</w>": 8182, "5.4</w>": 8183, "5.0</w>": 8184, "5.6</w>": 8185, "Swedes</w>": 8186, "Wealth</w>": 8187, "two-in-three</w>": 8188, "physically</w>": 8189, "Indonesians</w>": 8190, "Approve</w>": 8191, "Apprehen": 8192, "judge</w>": 8193, "judicial</w>": 8194, "Orig": 8195, "Small</w>": 8196, "Smith</w>": 8197, "tarian</w>": 8198, "characterized</w>": 8199, "characterize</w>": 8200, "two-year</w>": 8201, "struck</w>": 8202, "believing</w>": 8203, "Georgia</w>": 8204, "loses</w>": 8205, "president-elect</w>": 8206, "1,9": 8207, "too/": 8208, "tool</w>": 8209, "pictures</w>": 8210, "One-in-ten</w>": 8211, "minimizing</w>": 8212, "frustration</w>": 8213, "communicating</w>": 8214, "indicating</w>": 8215, "Measured</w>": 8216, "prosper": 8217, "sider</w>": 8218, "appropriately</w>": 8219, "investigate</w>": 8220, "Positively</w>": 8221, "cybersecurity</w>": 8222, "Teen</w>": 8223, "coup</w>": 8224, "intensi": 8225, "appeal</w>": 8226, "Changes</w>": 8227, "constitution</w>": 8228, "constitutional</w>": 8229, "constitutes</w>": 8230, "reliance</w>": 8231, "permanently</w>": 8232, "high-profile</w>": 8233, "blog</w>": 8234, "hospitalized</w>": 8235, "staying</w>": 8236, "virtual</w>": 8237, "explain</w>": 8238, "anything</w>": 8239, "well-paying</w>": 8240, "Bachelor</w>": 8241, "Common</w>": 8242, "farther</w>": 8243, "attribu": 8244, "Gray</w>": 8245, "shifts</w>": 8246, "assistant</w>": 8247, "originated</w>": 8248, "Sources</w>": 8249, "advertisers</w>": 8250, "negotiate</w>": 8251, "disagreement</w>": 8252, "answering</w>": 8253, "Canadian</w>": 8254, "8.5</w>": 8255, "retired</w>": 8256, "settled</w>": 8257, "One-in-four</w>": 8258, "Finally</w>": 8259, "Financ": 8260, "slowly</w>": 8261, "post-9/11</w>": 8262, "obligations</w>": 8263, "recovering</w>": 8264, "transmission</w>": 8265, "Pakistani</w>": 8266, "denomin": 8267, "monitor</w>": 8268, "appeared</w>": 8269, "exceeds</w>": 8270, "Jeb</w>": 8271, "athle": 8272, "militants</w>": 8273, "militarily</w>": 8274, "chief</w>": 8275, "Sunday</w>": 8276, "intellig": 8277, "revealed</w>": 8278, "predict</w>": 8279, "Salvador": 8280, "commerce</w>": 8281, "personality</w>": 8282, "personnel</w>": 8283, "guides</w>": 8284, "flooding</w>": 8285, "elementary</w>": 8286, "expenses</w>": 8287, "expensive</w>": 8288, "recommendation</w>": 8289, "Fathers</w>": 8290, "southern</w>": 8291, "existing</w>": 8292, "proportions</w>": 8293, "Overwhelmingly</w>": 8294, "promoting</w>": 8295, "Bernie</w>": 8296, "Elsewhere</w>": 8297, "Emerging</w>": 8298, "grows</w>": 8299, "restaurant</w>": 8300, "Refugees</w>": 8301, "tuned</w>": 8302, "disasters</w>": 8303, "Greater</w>": 8304, "Crime</w>": 8305, "Crimea</w>": 8306, "published</w>": 8307, "Regional</w>": 8308, "grandparents</w>": 8309, "voiced</w>": 8310, "slipped</w>": 8311, "evolved</w>": 8312, "disparity</w>": 8313, "manufacturing</w>": 8314, "Ecuador": 8315, "emphasis</w>": 8316, "Members</w>": 8317, "Sample</w>": 8318, "hundre": 8319, "controlling</w>": 8320, "Association</w>": 8321, "intensity</w>": 8322, "Identi": 8323, "Mueller</w>": 8324, "Penn</w>": 8325, "holidays</w>": 8326, "software</w>": 8327, "better": 8328, "claims</w>": 8329, "predecessors</w>": 8330, "traveling</w>": 8331, "disapproved</w>": 8332, "manager</w>": 8333, "Jordanians</w>": 8334, "tempered</w>": 8335, "assault-style</w>": 8336, "Baltimore</w>": 8337, "Help</w>": 8338, "jumped</w>": 8339, "validated</w>": 8340, "tilt</w>": 8341, "Americanism</w>": 8342, "defeat</w>": 8343, "Changing</w>": 8344, "Defense</w>": 8345, "Extremism</w>": 8346, "grocery</w>": 8347, "49-year-olds</w>": 8348, "Benjam": 8349, "CBS</w>": 8350, "Euros": 8351, "Linked": 8352, "Tanzania</w>": 8353, "Technology</w>": 8354, "fatal</w>": 8355, "rilole</w>": 8356, "sick</w>": 8357, "Industr": 8358, "teenag": 8359, "contracep": 8360, "Audience</w>": 8361, "Equal</w>": 8362, "Hilton</w>": 8363, "SPD</w>": 8364, "Scot": 8365, "Temer</w>": 8366, "battle</w>": 8367, "otherwise</w>": 8368, "yielded</w>": 8369, "recreational</w>": 8370, "Information</w>": 8371, "channels</w>": 8372, "disproportionately</w>": 8373, "family-": 8374, "Obamacare</w>": 8375, "Marriage</w>": 8376, "hypothetical</w>": 8377, "Estimated</w>": 8378, "Terrorism</w>": 8379, "Assessments</w>": 8380, "Atheists</w>": 8381, "Davis</w>": 8382, "Dutch</w>": 8383, "Ebola</w>": 8384, "Field</w>": 8385, "Hussein</w>": 8386, "NRA</w>": 8387, "Nine-in-ten</w>": 8388, "Nielsen</w>": 8389, "Wi-Fi</w>": 8390, "bench": 8391, "stimul": 8392, "divisive</w>": 8393, "dial-up</w>": 8394, "adoles": 8395, "agricul": 8396, "reservations</w>": 8397, "stabilized</w>": 8398, "presidential": 8399, "Characteristics</w>": 8400, "rubella</w>": 8401, "newsrooms</w>": 8402, "frastructure</w>": 8403, "Benjamin</w>": 8404, "'nones</w>": 8405, ",5": 8406, "-1</w>": 8407, "-party</w>": 8408, "-nation</w>": 8409, "-Oct.</w>": 8410, "-profit</w>": 8411, "17": 8412, "1th</w>": 8413, "1,0": 8414, "123</w>": 8415, "13,": 8416, "2,000</w>": 8417, "2,00": 8418, "37": 8419, "30.": 8420, "40s</w>": 8421, "50,000</w>": 8422, "60": 8423, "9,000</w>": 8424, "Am</w>": 8425, "Agree</w>": 8426, "AID": 8427, "Blame</w>": 8428, "BLS</w>": 8429, "Brown</w>": 8430, "Ci": 8431, "Cer": 8432, "Cou": 8433, "Cab": 8434, "Cost</w>": 8435, "Care": 8436, "Clear</w>": 8437, "DO": 8438, "Do": 8439, "Dou": 8440, "Del": 8441, "Est": 8442, "Each</w>": 8443, "EAR": 8444, "FA": 8445, "FN</w>": 8446, "FM</w>": 8447, "Foun": 8448, "Fur": 8449, "Fun": 8450, "Four</w>": 8451, "Gam": 8452, "Gul": 8453, "Gov": 8454, "HO": 8455, "Hol": 8456, "Hop": 8457, "Hear": 8458, "Hum": 8459, "Hous": 8460, "Having</w>": 8461, "IR": 8462, "It": 8463, "IP</w>": 8464, "Ka": 8465, "Ker": 8466, "King</w>": 8467, "Kam": 8468, "LL</w>": 8469, "Low</w>": 8470, "Long": 8471, "Lesbi": 8472, "Lack</w>": 8473, "Mar</w>": 8474, "Mir": 8475, "Made</w>": 8476, "Mide": 8477, "Male</w>": 8478, "Moms</w>": 8479, "Native</w>": 8480, "NSA</w>": 8481, "Nation": 8482, "OR": 8483, "Oreg": 8484, "Ohi": 8485, "Osam": 8486, "Py": 8487, "Pot": 8488, "Past</w>": 8489, "Prefer": 8490, "Q4</w>": 8491, "R-": 8492, "Ra": 8493, "Ram": 8494, "Ser": 8495, "Sar": 8496, "San</w>": 8497, "Sig": 8498, "Sum": 8499, "Sadd": 8500, "Stri": 8501, "Slight</w>": 8502, "Skep": 8503, "TV": 8504, "Ties</w>": 8505, "Using</w>": 8506, "Users</w>": 8507, "Ver": 8508, "Vide": 8509, "Yemen</w>": 8510, "aked</w>": 8511, "bra": 8512, "cop": 8513, "dent</w>": 8514, "dress</w>": 8515, "destin": 8516, "dfunding</w>": 8517, "eu": 8518, "e\u2014": 8519, "eg</w>": 8520, "eal": 8521, "ean</w>": 8522, "elim": 8523, "fa</w>": 8524, "fli": 8525, "fle": 8526, "fil": 8527, "fate</w>": 8528, "fits</w>": 8529, "foot": 8530, "flows</w>": 8531, "gas": 8532, "gers</w>": 8533, "gum": 8534, "gage</w>": 8535, "gating</w>": 8536, "gants</w>": 8537, "ho": 8538, "hor": 8539, "hot": 8540, "hiring</w>": 8541, "iz</w>": 8542, "ial": 8543, "iop": 8544, "ires</w>": 8545, "kup</w>": 8546, "knew</w>": 8547, "mil": 8548, "mun": 8549, "mere</w>": 8550, "nered</w>": 8551, "ox": 8552, "ram": 8553, "renters</w>": 8554, "s\u2014": 8555, "sle": 8556, "selec": 8557, "so-": 8558, "session</w>": 8559, "sort</w>": 8560, "sApp</w>": 8561, "tot": 8562, "tment</w>": 8563, "turing</w>": 8564, "tably</w>": 8565, "ton-": 8566, "tgage</w>": 8567, "ulic</w>": 8568, "utility</w>": 8569, "upper</w>": 8570, "vac": 8571, "vings</w>": 8572, "vant": 8573, "varying</w>": 8574, "y\u2014": 8575, "ystan": 8576, "yang</w>": 8577, "zo</w>": 8578, "then-": 8579, "inate</w>": 8580, "inqu": 8581, "intrus": 8582, "infrequently</w>": 8583, "incoming</w>": 8584, "infrastructure</w>": 8585, "ert</w>": 8586, "artic": 8587, "argum": 8588, "tile</w>": 8589, "ortion</w>": 8590, "ordered</w>": 8591, "onies</w>": 8592, "enon</w>": 8593, "enom": 8594, "encomp": 8595, "entry</w>": 8596, "reali": 8597, "remar": 8598, "reacting</w>": 8599, "lity</w>": 8600, "lifest": 8601, "sal": 8602, "itate</w>": 8603, "ala</w>": 8604, "altogether</w>": 8605, "attitud": 8606, "theory</w>": 8607, "theft</w>": 8608, "omes</w>": 8609, "osevel": 8610, "ican": 8611, "actual</w>": 8612, "acknowled": 8613, "ativity</w>": 8614, "es\u2014": 8615, "essible</w>": 8616, "roc": 8617, "roll</w>": 8618, "roots</w>": 8619, "ecting</w>": 8620, "isa</w>": 8621, "ises</w>": 8622, "isted</w>": 8623, "abama</w>": 8624, "abric": 8625, "ash</w>": 8626, "astically</w>": 8627, "trillion</w>": 8628, "diers</w>": 8629, "sup</w>": 8630, "adan</w>": 8631, "added</w>": 8632, "leans</w>": 8633, "ounded</w>": 8634, "oline</w>": 8635, "veri": 8636, "verdic": 8637, "concl": 8638, "constan": 8639, "containing</w>": 8640, "hael</w>": 8641, "agement</w>": 8642, "Amaz": 8643, "shold</w>": 8644, "comers</w>": 8645, "comprehen": 8646, "comprise</w>": 8647, "impover": 8648, "resid": 8649, "residence</w>": 8650, "rescue</w>": 8651, "stem": 8652, "store</w>": 8653, "stalking</w>": 8654, "stolen</w>": 8655, "20,000</w>": 8656, "ericans</w>": 8657, "urban": 8658, "Thr": 8659, "Thir": 8660, "ulations</w>": 8661, "vil</w>": 8662, "exchange</w>": 8663, "exhib": 8664, "terers</w>": 8665, "counts</w>": 8666, "Reli": 8667, "Reddit</w>": 8668, "deals</w>": 8669, "unless</w>": 8670, "units</w>": 8671, "uncertainty</w>": 8672, "entally</w>": 8673, "Democracy</w>": 8674, "peal</w>": 8675, "peop": 8676, "rival</w>": 8677, "um-": 8678, "surg": 8679, "surged</w>": 8680, "overy</w>": 8681, "ighten": 8682, "panel</w>": 8683, "persion</w>": 8684, "log": 8685, "iry</w>": 8686, "grand</w>": 8687, "for-profit</w>": 8688, "toys</w>": 8689, "fail": 8690, "accessible</w>": 8691, "feder": 8692, "low-": 8693, "prece": 8694, "ranking</w>": 8695, "recall</w>": 8696, "tains</w>": 8697, "raft</w>": 8698, "Chile</w>": 8699, "Chanc": 8700, "Chris</w>": 8701, "threshold</w>": 8702, "interactive</w>": 8703, "intervention</w>": 8704, "marked</w>": 8705, "Invol": 8706, "Abortion</w>": 8707, "series</w>": 8708, "somewhere</w>": 8709, "uded</w>": 8710, "finto</w>": 8711, "finance</w>": 8712, "governors</w>": 8713, "five": 8714, "phenom": 8715, "moving</w>": 8716, "formats</w>": 8717, "quarter-": 8718, "relates</w>": 8719, "followers</w>": 8720, "follow-up</w>": 8721, "Angry</w>": 8722, "scant</w>": 8723, "licen": 8724, "lications</w>": 8725, "heading</w>": 8726, "heighten": 8727, "Contr": 8728, "Content</w>": 8729, "Consider</w>": 8730, "positives</w>": 8731, "pathy</w>": 8732, "all-time</w>": 8733, "dispersion</w>": 8734, "coldly</w>": 8735, "dozen</w>": 8736, "persist</w>": 8737, "contested</w>": 8738, "context</w>": 8739, "contacts</w>": 8740, "tees</w>": 8741, "teach</w>": 8742, "mind</w>": 8743, "miners</w>": 8744, "borrow": 8745, "laun": 8746, "outnumber</w>": 8747, "outpace</w>": 8748, "policy": 8749, "essly</w>": 8750, "responsibly</w>": 8751, "perception</w>": 8752, "1964</w>": 8753, "1975</w>": 8754, "1970s</w>": 8755, "1960s</w>": 8756, "approxim": 8757, "sciences</w>": 8758, "conducts</w>": 8759, "fact-": 8760, "subscri": 8761, "urrican": 8762, "becomes</w>": 8763, "contrasting</w>": 8764, "four-point</w>": 8765, "ethics</w>": 8766, "critic": 8767, "tuiti": 8768, "owns</w>": 8769, "edly</w>": 8770, "Arri": 8771, "ellor</w>": 8772, "officially</w>": 8773, "vised</w>": 8774, "visits</w>": 8775, "Suicide</w>": 8776, "forefront</w>": 8777, "bipartisan</w>": 8778, "impacted</w>": 8779, "embrac": 8780, "attendance</w>": 8781, "breaking</w>": 8782, "onaires</w>": 8783, "influencing</w>": 8784, "socialism</w>": 8785, "freely</w>": 8786, "maintaining</w>": 8787, "broken</w>": 8788, "Action</w>": 8789, "newcomers</w>": 8790, "nificant</w>": 8791, "secretary</w>": 8792, "registration</w>": 8793, "trait</w>": 8794, "trailing</w>": 8795, "Catholicism</w>": 8796, "Martin</w>": 8797, "Maryl": 8798, "Market</w>": 8799, "ongyang</w>": 8800, "activis": 8801, "tractive</w>": 8802, "leveled</w>": 8803, "respected</w>": 8804, "arian</w>": 8805, "arians</w>": 8806, "Greedy</w>": 8807, "next-": 8808, "non-Tea</w>": 8809, "Altern": 8810, "Alabama</w>": 8811, "thermore</w>": 8812, "therhood</w>": 8813, "bot</w>": 8814, "mortgage</w>": 8815, "endar</w>": 8816, "resume</w>": 8817, "looks</w>": 8818, "soldiers</w>": 8819, "remainder</w>": 8820, "Sym": 8821, "Synthetic</w>": 8822, "Impro": 8823, "effectiveness</w>": 8824, "Feb</w>": 8825, "Feel</w>": 8826, "beneficial</w>": 8827, "defines</w>": 8828, "choosing</w>": 8829, "Gen-": 8830, "Worry</w>": 8831, "fairness</w>": 8832, "uptick</w>": 8833, "upbeat</w>": 8834, "Death</w>": 8835, "creating</w>": 8836, "controversi": 8837, "1.9</w>": 8838, "1.4</w>": 8839, "1.1</w>": 8840, "1.6</w>": 8841, "directed</w>": 8842, "drastically</w>": 8843, "caring</w>": 8844, "documents</w>": 8845, "dealings</w>": 8846, "improper</w>": 8847, "factories</w>": 8848, "knowingly</w>": 8849, "attacked</w>": 8850, "Boko</w>": 8851, "accepted</w>": 8852, "2.9</w>": 8853, "Sochi</w>": 8854, "starts</w>": 8855, "Largest</w>": 8856, "Mormon</w>": 8857, "fulness</w>": 8858, "LGB</w>": 8859, "Post": 8860, "emerges</w>": 8861, "henko</w>": 8862, "produced</w>": 8863, "restrictive</w>": 8864, "justify</w>": 8865, "potentially</w>": 8866, "expanded</w>": 8867, "vaccines</w>": 8868, "4.9</w>": 8869, "Roma</w>": 8870, "Joe</w>": 8871, "year-round</w>": 8872, "ruled</w>": 8873, "capital</w>": 8874, "toric</w>": 8875, "3.7</w>": 8876, "3.6</w>": 8877, "host": 8878, "distingu": 8879, "Motiv": 8880, "Taxes</w>": 8881, "Australian</w>": 8882, "draw</w>": 8883, "draulic</w>": 8884, "Getting</w>": 8885, "Politics</w>": 8886, "Polish</w>": 8887, "double-": 8888, "Secure</w>": 8889, "audiences</w>": 8890, "committee</w>": 8891, "Approval</w>": 8892, "judici": 8893, "tables</w>": 8894, "well-educated</w>": 8895, "arrive</w>": 8896, "diplomacy</w>": 8897, "characteristic</w>": 8898, "backdrop</w>": 8899, "Educated</w>": 8900, "journalism</w>": 8901, "writing</w>": 8902, "Atten": 8903, "Discrimination</w>": 8904, "Disease</w>": 8905, "pick</w>": 8906, "Argentine</w>": 8907, "U.S.-led</w>": 8908, "U.S.-based</w>": 8909, "sharpest</w>": 8910, "second-highest</w>": 8911, "second-largest</w>": 8912, "Differ</w>": 8913, "challenging</w>": 8914, "7.9</w>": 8915, "indicators</w>": 8916, "hospital</w>": 8917, "anti-American</w>": 8918, "narrow": 8919, "Haram</w>": 8920, "Tele": 8921, "intention</w>": 8922, "rightthing</w>": 8923, "Favorability</w>": 8924, "reliant</w>": 8925, "combat</w>": 8926, "exuals</w>": 8927, "Journalists</w>": 8928, "bloc</w>": 8929, "ishment</w>": 8930, "hospitalization</w>": 8931, "Roosevel": 8932, "landmark</w>": 8933, "ecutive</w>": 8934, "inet-level</w>": 8935, "attract</w>": 8936, "admitting</w>": 8937, "openly</w>": 8938, "threatened</w>": 8939, "8.6</w>": 8940, "Newt</w>": 8941, "customer</w>": 8942, "customers</w>": 8943, "alternatives</w>": 8944, "targe": 8945, "targets</w>": 8946, "practition": 8947, "withdraw</w>": 8948, "referend": 8949, "4,7": 8950, "Finland</w>": 8951, "Freedoms</w>": 8952, "bullied</w>": 8953, "faster</w>": 8954, "fastest</w>": 8955, "implem": 8956, "implant</w>": 8957, "obligated</w>": 8958, "Honduran</w>": 8959, "9.3</w>": 8960, "dangers</w>": 8961, "accompanying</w>": 8962, "avoiding</w>": 8963, "struggling</w>": 8964, "Mali</w>": 8965, "lessness</w>": 8966, "less-educated</w>": 8967, "mirr": 8968, "establishing</w>": 8969, "exceed</w>": 8970, "CES</w>": 8971, "military": 8972, "senior</w>": 8973, "infections</w>": 8974, "damage</w>": 8975, "hydraulic</w>": 8976, "mentally</w>": 8977, "praying</w>": 8978, "extensive</w>": 8979, "predicted</w>": 8980, "confirm</w>": 8981, "principle</w>": 8982, "fracturing</w>": 8983, "congregations</w>": 8984, "congregants</w>": 8985, "downloading</w>": 8986, "volunteered</w>": 8987, "suggested</w>": 8988, "Ethiop": 8989, "removing</w>": 8990, "aimed</w>": 8991, "calendar</w>": 8992, "dollar</w>": 8993, "youths</w>": 8994, "attempt</w>": 8995, "attempted</w>": 8996, "Belief</w>": 8997, "promote</w>": 8998, "30-</w>": 8999, "406</w>": 9000, "Emmanu": 9001, "bombing</w>": 9002, "piece</w>": 9003, "safely</w>": 9004, "pursue</w>": 9005, "pursuing</w>": 9006, "conventions</w>": 9007, "conventional</w>": 9008, "conventionally</w>": 9009, "Knows</w>": 9010, "Citizenship</w>": 9011, "Dem/Lean</w>": 9012, "Michael</w>": 9013, "NET</w>": 9014, "NEET": 9015, "Sharp</w>": 9016, "succeeded</w>": 9017, "troubled</w>": 9018, "troubles</w>": 9019, "middle-</w>": 9020, "Officers</w>": 9021, "Trib": 9022, "Triangle</w>": 9023, "cautious</w>": 9024, "texting</w>": 9025, "enjoy</w>": 9026, "retali": 9027, "shrinking</w>": 9028, "publishing</w>": 9029, "grandchildren</w>": 9030, "movie</w>": 9031, "assigned</w>": 9032, "digitally</w>": 9033, "Familiar</w>": 9034, "averaged</w>": 9035, "bilateral</w>": 9036, "evolution</w>": 9037, "Student</w>": 9038, "feminism</w>": 9039, "Plan</w>": 9040, "hunting</w>": 9041, "poorly</w>": 9042, "strategy</w>": 9043, "humanities</w>": 9044, "controlled</w>": 9045, "observant</w>": 9046, "Associated</w>": 9047, "intensely</w>": 9048, "Disapproval</w>": 9049, "Boston</w>": 9050, "Elections</w>": 9051, "Self-": 9052, "uneth": 9053, "winner</w>": 9054, "anxiety</w>": 9055, "ageous</w>": 9056, "Rep/Lean</w>": 9057, "photos</w>": 9058, "Proposal</w>": 9059, "Proposals</w>": 9060, "churchgoing</w>": 9061, "churchgoers</w>": 9062, "principal</w>": 9063, "Developing</w>": 9064, "Development</w>": 9065, "Chavez</w>": 9066, "Migration</w>": 9067, "lonely</w>": 9068, "waste</w>": 9069, "very/</w>": 9070, "depression</w>": 9071, "Traditional</w>": 9072, "highlighted</w>": 9073, "reluctant</w>": 9074, "dispute</w>": 9075, "Asian-Americans</w>": 9076, "shortages</w>": 9077, "convicted</w>": 9078, "Foreign-born</w>": 9079, "Broad": 9080, "Satisfaction</w>": 9081, "cameras</w>": 9082, "crowdfunding</w>": 9083, "nutr": 9084, "discipline</w>": 9085, "born-again</w>": 9086, "gathering</w>": 9087, "demonstrations</w>": 9088, "Turnout</w>": 9089, "Question</w>": 9090, "firearm</w>": 9091, "accomplishments</w>": 9092, "exhaustion</w>": 9093, "Langu": 9094, "Single</w>": 9095, "Taken</w>": 9096, "eye</w>": 9097, "junction</w>": 9098, "length</w>": 9099, "adequate</w>": 9100, "punishment</w>": 9101, "exerc": 9102, "depth</w>": 9103, "appointments</w>": 9104, "electron": 9105, "Anti-": 9106, "approaches</w>": 9107, "selfish</w>": 9108, "demographics</w>": 9109, "Environment</w>": 9110, "administrations</w>": 9111, "drop-off</w>": 9112, "Spanish-language</w>": 9113, "listenership</w>": 9114, "Library</w>": 9115, "masculine</w>": 9116, "Private</w>": 9117, "embarrassment</w>": 9118, "Split</w>": 9119, "D.C.</w>": 9120, "collaboration</w>": 9121, "ventilators</w>": 9122, "Gallup</w>": 9123, "Nevada</w>": 9124, "Often</w>": 9125, "Pentecos": 9126, "Planned</w>": 9127, "Suspected</w>": 9128, "Sudan</w>": 9129, "Well-": 9130, "billionaires</w>": 9131, "domains</w>": 9132, "fitness</w>": 9133, "much": 9134, "towards</w>": 9135, "western</w>": 9136, "introduc": 9137, "remembered</w>": 9138, "absolut": 9139, "permitted</w>": 9140, "pregnant</w>": 9141, "recipients</w>": 9142, "wealthier</w>": 9143, "WhatsApp</w>": 9144, "harmful</w>": 9145, "meddling</w>": 9146, "complexity</w>": 9147, "web-using</w>": 9148, "Apprehensions</w>": 9149, "attributed</w>": 9150, "Financial</w>": 9151, "athletes</w>": 9152, "hundreds</w>": 9153, "teenagers</w>": 9154, "benchmark</w>": 9155, "adolescents</w>": 9156, "AIDS</w>": 9157, "Cabinet-level</w>": 9158, "Doub": 9159, "Foundation</w>": 9160, "Furthermore</w>": 9161, "Heard</w>": 9162, "Housing</w>": 9163, "Kerry</w>": 9164, "Kamala</w>": 9165, "Mideast</w>": 9166, "Oregon</w>": 9167, "Ohio</w>": 9168, "Osama</w>": 9169, "Pyongyang</w>": 9170, "Potential</w>": 9171, "Ramadan</w>": 9172, "Significant</w>": 9173, "Saddam</w>": 9174, "Video</w>": 9175, "brain</w>": 9176, "gasoline</w>": 9177, "totaled</w>": 9178, "ystanders</w>": 9179, "inquiry</w>": 9180, "articles</w>": 9181, "realistic</w>": 9182, "remark": 9183, "attitude</w>": 9184, "abricated</w>": 9185, "constantly</w>": 9186, "Amazon</w>": 9187, "comprehensive</w>": 9188, "impoverished</w>": 9189, "preceding</w>": 9190, "Chancellor</w>": 9191, "phenomenon</w>": 9192, "heightened</w>": 9193, "approximately</w>": 9194, "Maryland</w>": 9195, "Alternative</w>": 9196, "double-dig": 9197, "judiciary</w>": 9198, "Roosevelt</w>": 9199, "Emmanuel</w>": 9200, "NEETs</w>": 9201, ",6": 9202, ",500</w>": 9203, "-43</w>": 9204, "-Mexico</w>": 9205, "-Pacific</w>": 9206, "-0.": 9207, "-excuse</w>": 9208, "-tempered</w>": 9209, ".8</w>": 9210, ".following</w>": 9211, "/C": 9212, "/Pacific</w>": 9213, "00": 9214, "07</w>": 9215, "02</w>": 9216, "1st</w>": 9217, "120</w>": 9218, "14,": 9219, "24": 9220, "250</w>": 9221, "2100</w>": 9222, "31": 9223, "400</w>": 9224, "40,000</w>": 9225, "5th</w>": 9226, "50s</w>": 9227, "6,000</w>": 9228, "64-year-olds</w>": 9229, "70.": 9230, "AB": 9231, "AI</w>": 9232, "Aid</w>": 9233, "Ages</w>": 9234, "Bom": 9235, "Bes": 9236, "Bil": 9237, "Blo": 9238, "Brea": 9239, "Bene": 9240, "But": 9241, "Bills</w>": 9242, "Border</w>": 9243, "Bystanders</w>": 9244, "CH</w>": 9245, "Cal": 9246, "Core</w>": 9247, "Cri": 9248, "Centers</w>": 9249, "D-": 9250, "DA": 9251, "Dems</w>": 9252, "Dads</w>": 9253, "DNA</w>": 9254, "Erit": 9255, "ELL</w>": 9256, "Foc": 9257, "Frequ": 9258, "Full</w>": 9259, "Gas</w>": 9260, "Glo": 9261, "He</w>": 9262, "Hill</w>": 9263, "Hard</w>": 9264, "Hold</w>": 9265, "Hurrican": 9266, "Juli": 9267, "Ke": 9268, "Kyi": 9269, "Lo": 9270, "Las</w>": 9271, "Lond": 9272, "Mat": 9273, "Mis": 9274, "Mem": 9275, "Midd": 9276, "Nec": 9277, "Nex": 9278, "NTE": 9279, "OU": 9280, "Or</w>": 9281, "Off</w>": 9282, "Pem": 9283, "Pur": 9284, "Pool</w>": 9285, "Plat": 9286, "Pros": 9287, "PPP</w>": 9288, "Paying</w>": 9289, "Ri": 9290, "Ran": 9291, "Rou": 9292, "Ron</w>": 9293, "Rally</w>": 9294, "Rates</w>": 9295, "Rud": 9296, "Rated</w>": 9297, "Rating</w>": 9298, "Rous": 9299, "Rob": 9300, "Radi": 9301, "RES": 9302, "SD": 9303, "Sw": 9304, "SU</w>": 9305, "SR</w>": 9306, "Sincl": 9307, "Sept</w>": 9308, "Size</w>": 9309, "Score</w>": 9310, "Up</w>": 9311, "U/C": 9312, "VA</w>": 9313, "VV</w>": 9314, "Val": 9315, "Vast</w>": 9316, "Willi": 9317, "Your": 9318, "Zim": 9319, "ap</w>": 9320, "aism</w>": 9321, "alike</w>": 9322, "bings</w>": 9323, "brac": 9324, "best": 9325, "blam": 9326, "blocked</w>": 9327, "clean</w>": 9328, "crit": 9329, "ctioning</w>": 9330, "ditu": 9331, "dwell": 9332, "dressing</w>": 9333, "dvant": 9334, "ets</w>": 9335, "east</w>": 9336, "eigh": 9337, "eech</w>": 9338, "elicit</w>": 9339, "fts</w>": 9340, "fregistered</w>": 9341, "fidentified</w>": 9342, "founding</w>": 9343, "gen</w>": 9344, "gar</w>": 9345, "game</w>": 9346, "han</w>": 9347, "hig": 9348, "hob": 9349, "hani</w>": 9350, "ible</w>": 9351, "ired</w>": 9352, "li</w>": 9353, "lare</w>": 9354, "lop": 9355, "lot": 9356, "lements</w>": 9357, "mation</w>": 9358, "mot": 9359, "mul": 9360, "mand": 9361, "matic</w>": 9362, "n=": 9363, "nes": 9364, "nad": 9365, "nings</w>": 9366, "ods</w>": 9367, "ogi": 9368, "ofeach</w>": 9369, "ply</w>": 9370, "pare</w>": 9371, "ptions</w>": 9372, "ptive</w>": 9373, "ra</w>": 9374, "rally</w>": 9375, "rhe": 9376, "rallies</w>": 9377, "rase</w>": 9378, "sl": 9379, "ss": 9380, "sor": 9381, "sof</w>": 9382, "spar": 9383, "sit</w>": 9384, "sinc": 9385, "sound</w>": 9386, "spon": 9387, "soften</w>": 9388, "sporting</w>": 9389, "sored</w>": 9390, "ta</w>": 9391, "t0</w>": 9392, "tat</w>": 9393, "tel": 9394, "tfor</w>": 9395, "tour": 9396, "tell": 9397, "tories</w>": 9398, "tude</w>": 9399, "tolerant</w>": 9400, "tume</w>": 9401, "usa": 9402, "uge</w>": 9403, "uine</w>": 9404, "ubs</w>": 9405, "vest": 9406, "wal": 9407, "x-": 9408, "yes": 9409, "ymen</w>": 9410, "yos</w>": 9411, "ynam": 9412, "anma": 9413, "ansas</w>": 9414, "inb": 9415, "inno": 9416, "intend</w>": 9417, "infrequent</w>": 9418, "inefficient</w>": 9419, "erly</w>": 9420, "ard": 9421, "ared</w>": 9422, "argu": 9423, "arms</w>": 9424, "arital</w>": 9425, "ardly</w>": 9426, "armed</w>": 9427, "tier</w>": 9428, "tigi": 9429, "tivities</w>": 9430, "tioned</w>": 9431, "onate</w>": 9432, "onists</w>": 9433, "onize</w>": 9434, "enlisted</w>": 9435, "real": 9436, "returning</w>": 9437, "revenues</w>": 9438, "satur": 9439, "savings</w>": 9440, "itly</w>": 9441, "item</w>": 9442, "itarian</w>": 9443, "alle</w>": 9444, "the-": 9445, "the.following</w>": 9446, "oshenko</w>": 9447, "icides</w>": 9448, "accom": 9449, "acks</w>": 9450, "acknowledge</w>": 9451, "acqua": 9452, "atitude</w>": 9453, "essi": 9454, "roads</w>": 9455, "eces</w>": 9456, "ecraft</w>": 9457, "isons</w>": 9458, "ismatic</w>": 9459, "abo": 9460, "asser": 9461, "aside</w>": 9462, "astic</w>": 9463, "assets</w>": 9464, "tru": 9465, "truc": 9466, "trating</w>": 9467, "trapp": 9468, "trading</w>": 9469, "died</w>": 9470, "diversi": 9471, "diagnos": 9472, "diox": 9473, "sue</w>": 9474, "emency</w>": 9475, "adem": 9476, "adline</w>": 9477, "adapt</w>": 9478, "puts</w>": 9479, "putting</w>": 9480, "leagues</w>": 9481, "oll</w>": 9482, "olving</w>": 9483, "ologi": 9484, "negi": 9485, "needing</w>": 9486, "contain</w>": 9487, "convention</w>": 9488, "constant</w>": 9489, "conjunction</w>": 9490, "oca": 9491, "har</w>": 9492, "elder": 9493, "elines</w>": 9494, "eliness</w>": 9495, "agge": 9496, "aggre": 9497, "agger": 9498, "shad": 9499, "shrun": 9500, "shops</w>": 9501, "ilers</w>": 9502, "amarital</w>": 9503, "parity</w>": 9504, "parks</w>": 9505, "partly</w>": 9506, "paralle": 9507, "comment</w>": 9508, "compla": 9509, "compromises</w>": 9510, "comScore</w>": 9511, "imm": 9512, "imported</w>": 9513, "ow-": 9514, "ressed</w>": 9515, "ster</w>": 9516, "stan</w>": 9517, "stover</w>": 9518, "stret": 9519, "uralities</w>": 9520, "Thought</w>": 9521, "ult</w>": 9522, "ulation</w>": 9523, "ularly</w>": 9524, "ultim": 9525, "vive</w>": 9526, "exagger": 9527, "terday</w>": 9528, "bea</w>": 9529, "begun</w>": 9530, "bears</w>": 9531, "chores</w>": 9532, "Reports</w>": 9533, "Revenue</w>": 9534, "ears</w>": 9535, "no-excuse</w>": 9536, "dea</w>": 9537, "depar": 9538, "deport</w>": 9539, "dead</w>": 9540, "deporting</w>": 9541, "deadly</w>": 9542, "deadline</w>": 9543, "unclear</w>": 9544, "unanim": 9545, "unloaded</w>": 9546, "unknowingly</w>": 9547, "countrymen</w>": 9548, "sidies</w>": 9549, "peaked</w>": 9550, "riots</w>": 9551, "seat</w>": 9552, "seas</w>": 9553, "seems</w>": 9554, "seff</w>": 9555, "ump</w>": 9556, "overseas</w>": 9557, "ighs</w>": 9558, "quad": 9559, "quiz</w>": 9560, "permis": 9561, "meals</w>": 9562, "grav": 9563, "gratitude</w>": 9564, "appl": 9565, "appoint</w>": 9566, "apologi": 9567, "ticle</w>": 9568, "tickets</w>": 9569, "fores": 9570, "clin": 9571, "cler": 9572, "clemency</w>": 9573, "lined</w>": 9574, "lining</w>": 9575, "fake</w>": 9576, "faith": 9577, "prescri": 9578, "presented</w>": 9579, "politen": 9580, "ucus</w>": 9581, "ooks</w>": 9582, "entities</w>": 9583, "accused</w>": 9584, "comparisons</w>": 9585, "Trans": 9586, "fee</w>": 9587, "fear</w>": 9588, "ing-age</w>": 9589, "History</w>": 9590, "duck</w>": 9591, "super</w>": 9592, "prec": 9593, "premarital</w>": 9594, "prepare</w>": 9595, "pectations</w>": 9596, "tah</w>": 9597, "take": 9598, "tail</w>": 9599, "get": 9600, "geographic</w>": 9601, "Char": 9602, "Chance</w>": 9603, "genuine</w>": 9604, "interven": 9605, "internet": 9606, "interpret": 9607, "green": 9608, "Influ": 9609, "economics</w>": 9610, "weak</w>": 9611, "pling</w>": 9612, "udes</w>": 9613, "finished</w>": 9614, "Restric": 9615, "Respect</w>": 9616, "Resolving</w>": 9617, "elector": 9618, "electability</w>": 9619, "fie</w>": 9620, "fiers</w>": 9621, "fiable</w>": 9622, "photo</w>": 9623, "phrase</w>": 9624, "prison</w>": 9625, "conference</w>": 9626, "declare</w>": 9627, "incumb": 9628, "oughts</w>": 9629, "cerem": 9630, "joined</w>": 9631, "lims</w>": 9632, "highest-": 9633, "favorites</w>": 9634, "pending</w>": 9635, "relessly</w>": 9636, "strang": 9637, "Anal": 9638, "Anger</w>": 9639, "scope</w>": 9640, "scoring</w>": 9641, "popular": 9642, "lick</w>": 9643, "licitly</w>": 9644, "hea</w>": 9645, "identifiers</w>": 9646, "Congres": 9647, "Congressional</w>": 9648, "Contin": 9649, "religionists</w>": 9650, "payment</w>": 9651, "distracted</w>": 9652, "sharers</w>": 9653, "sharia</w>": 9654, "offend</w>": 9655, "offering</w>": 9656, "childless</w>": 9657, "e-sex</w>": 9658, "door</w>": 9659, "persisted</w>": 9660, "ofall</w>": 9661, "ofadults</w>": 9662, "keholds</w>": 9663, "kewarm</w>": 9664, "teous</w>": 9665, "datory</w>": 9666, "ponent</w>": 9667, "legalized</w>": 9668, "laz": 9669, "ogus</w>": 9670, "outlier</w>": 9671, "outstri": 9672, "istent</w>": 9673, "generated</w>": 9674, "expressions</w>": 9675, "consecutive</w>": 9676, "affordable</w>": 9677, "afflu": 9678, "flags</w>": 9679, "flagge": 9680, "corrupt</w>": 9681, "Latvia</w>": 9682, "izes</w>": 9683, "Under</w>": 9684, "1928</w>": 9685, "1983</w>": 9686, "facul": 9687, "subset</w>": 9688, "subsequ": 9689, "subsidies</w>": 9690, "gaining</w>": 9691, "design</w>": 9692, "periods</w>": 9693, "Stocks</w>": 9694, "Stark</w>": 9695, "contribut": 9696, "Making</w>": 9697, "selfie</w>": 9698, "velations</w>": 9699, "agreeing</w>": 9700, "four-to-one</w>": 9701, "hard-": 9702, "harsh</w>": 9703, "informative</w>": 9704, "disadvant": 9705, "expects</w>": 9706, "Once</w>": 9707, "Article</w>": 9708, "locality</w>": 9709, "bien": 9710, "implications</w>": 9711, "equi": 9712, "breakup</w>": 9713, "African-": 9714, "non-</w>": 9715, "nonwhites</w>": 9716, "nonetheless</w>": 9717, "influx</w>": 9718, "accountability</w>": 9719, "socializing</w>": 9720, "Indiana</w>": 9721, "mainland</w>": 9722, "news": 9723, "acceptability</w>": 9724, "prefers</w>": 9725, "treats</w>": 9726, "treating</w>": 9727, "eased</w>": 9728, "eastern</w>": 9729, "syl": 9730, "system": 9731, "invested</w>": 9732, "traditionally</w>": 9733, "respecting</w>": 9734, "warmer</w>": 9735, "warmes": 9736, "ideals</w>": 9737, "broadcasting</w>": 9738, "Peace</w>": 9739, "undergraduate</w>": 9740, "seriousness</w>": 9741, "abortions</w>": 9742, "mixed-": 9743, "focuses</w>": 9744, "anti</w>": 9745, "non-users</w>": 9746, "non-parents</w>": 9747, "non-English</w>": 9748, "non-Cuban</w>": 9749, "non-Web</w>": 9750, "non-veteran</w>": 9751, "1999</w>": 9752, "1998</w>": 9753, "Metho": 9754, "boost</w>": 9755, "boxes</w>": 9756, "ographical</w>": 9757, "compiled</w>": 9758, "satisfying</w>": 9759, "solution</w>": 9760, "one-in-six</w>": 9761, "even-tempered</w>": 9762, "school-": 9763, "schoolchildren</w>": 9764, "resulting</w>": 9765, "split-ticket</w>": 9766, "regulating</w>": 9767, "regularity</w>": 9768, "chokeholds</w>": 9769, "Compan": 9770, "Commit": 9771, "Gene</w>": 9772, "one-fifth</w>": 9773, "Work</w>": 9774, "Worth</w>": 9775, "Worldwide</w>": 9776, "Worried</w>": 9777, "excessive</w>": 9778, "updating</w>": 9779, "updated</w>": 9780, "Dec</w>": 9781, "Deportation</w>": 9782, "creation</w>": 9783, "consistency</w>": 9784, "nominated</w>": 9785, "Voted</w>": 9786, "Voter</w>": 9787, "authority</w>": 9788, "Optim": 9789, "1.8</w>": 9790, "homeland</w>": 9791, "Brain</w>": 9792, "ipeline</w>": 9793, "Exam": 9794, "Expectations</w>": 9795, "cares</w>": 9796, "f-century</w>": 9797, "managing</w>": 9798, "mandatory</w>": 9799, "Two-": 9800, "icult</w>": 9801, "ournal</w>": 9802, "Decis": 9803, "Decreas": 9804, "Decade</w>": 9805, "allows</w>": 9806, "improves</w>": 9807, "describing</w>": 9808, "bureau</w>": 9809, "defending</w>": 9810, "jects</w>": 9811, "completion</w>": 9812, "operation</w>": 9813, "operations</w>": 9814, "discover": 9815, "discour": 9816, "talked</w>": 9817, "Leading</w>": 9818, "Shia</w>": 9819, "Morality</w>": 9820, "connecting</w>": 9821, "uniform": 9822, "USA</w>": 9823, "USSR</w>": 9824, "fund</w>": 9825, "funds</w>": 9826, "function</w>": 9827, "functioning</w>": 9828, "industry-": 9829, "trusters</w>": 9830, "produces</w>": 9831, "workplaces</w>": 9832, "work-related</w>": 9833, "Polar": 9834, "York-": 9835, "obtain</w>": 9836, "restrict</w>": 9837, "Engagement</w>": 9838, "automatically</w>": 9839, "Generational</w>": 9840, "comfortably</w>": 9841, "10th</w>": 9842, "foreigners</w>": 9843, "day-": 9844, "tornad": 9845, "hosting</w>": 9846, "distancing</w>": 9847, "6.7</w>": 9848, "6.9</w>": 9849, "6.2</w>": 9850, "Forum</w>": 9851, "Tay": 9852, "Tax</w>": 9853, "Taking</w>": 9854, "bert</w>": 9855, "refuse</w>": 9856, "reductions</w>": 9857, "drawing</w>": 9858, "elite</w>": 9859, "Politically</w>": 9860, "courteous</w>": 9861, "shooter</w>": 9862, "liberty</w>": 9863, "antis</w>": 9864, "association</w>": 9865, "learned</w>": 9866, "buildings</w>": 9867, "5.3</w>": 9868, "5.2</w>": 9869, "on-free</w>": 9870, "on-demand</w>": 9871, "Appeal</w>": 9872, "Poor</w>": 9873, "banites</w>": 9874, "tabulations</w>": 9875, "checking</w>": 9876, "cohorts</w>": 9877, "warmest</w>": 9878, "tariff</w>": 9879, "transparent</w>": 9880, "transportation</w>": 9881, "structure</w>": 9882, "gun-": 9883, "protects</w>": 9884, "presidencies</w>": 9885, "Carter</w>": 9886, "Carnegi": 9887, "Minorities</w>": 9888, "laptops</w>": 9889, "Religiously</w>": 9890, "awa": 9891, "suspects</w>": 9892, "suspect</w>": 9893, "short-": 9894, "forcing</w>": 9895, "minimize</w>": 9896, "Difficult</w>": 9897, "7.4</w>": 9898, "7.2</w>": 9899, "Someone</w>": 9900, "longtime</w>": 9901, "longstanding</w>": 9902, "runs</w>": 9903, "Bipartisan</w>": 9904, "label</w>": 9905, "labeled</w>": 9906, "friendships</w>": 9907, "anti-social</w>": 9908, "anti-Americanism</w>": 9909, "appropriations</w>": 9910, "investigating</w>": 9911, "successfully</w>": 9912, "requirement</w>": 9913, "Center": 9914, "coups</w>": 9915, "in-depth</w>": 9916, "prioritized</w>": 9917, "mentions</w>": 9918, "charismatic</w>": 9919, "Favored</w>": 9920, "relieved</w>": 9921, "permanent": 9922, "high-level</w>": 9923, "blog": 9924, "landscape</w>": 9925, "anywhere</w>": 9926, "Hungarians</w>": 9927, "al-Assad</w>": 9928, "watchers</w>": 9929, "PEW</w>": 9930, "fares</w>": 9931, "garners</w>": 9932, "garnered</w>": 9933, "postgraduates</w>": 9934, "Grad": 9935, "hourly</w>": 9936, "soared</w>": 9937, "114th</w>": 9938, "costume</w>": 9939, "echo</w>": 9940, "echan": 9941, "long-running</w>": 9942, "8.7</w>": 9943, "8.9</w>": 9944, "deepening</w>": 9945, "decidedly</w>": 9946, "Comparing</w>": 9947, "settlements</w>": 9948, "achievements</w>": 9949, "bulk</w>": 9950, "book": 9951, "spoke</w>": 9952, "slows</w>": 9953, "le-class</w>": 9954, "ter-paying</w>": 9955, "post-election</w>": 9956, "Responses</w>": 9957, "desktop": 9958, "engineers</w>": 9959, "Ideology</w>": 9960, "iciency</w>": 9961, "studies</w>": 9962, "distinctions</w>": 9963, "Hondurans</w>": 9964, "9.9</w>": 9965, "9.4</w>": 9966, "9.6</w>": 9967, "wirelessly</w>": 9968, "prominently</w>": 9969, "occupation</w>": 9970, "Orthodox": 9971, "Virtually</w>": 9972, "dens": 9973, "methodology</w>": 9974, "CENTE": 9975, "assaults</w>": 9976, "classify</w>": 9977, "Disabled</w>": 9978, "infected</w>": 9979, "2,2": 9980, "intenti": 9981, "intolerant</w>": 9982, "reveals</w>": 9983, "extends</w>": 9984, "extended</w>": 9985, "confirmation</w>": 9986, "installment</w>": 9987, "dimen": 9988, "spacecraft</w>": 9989, "Needed</w>": 9990, "hoped</w>": 9991, "consequence</w>": 9992, "expenditu": 9993, "Olympic</w>": 9994, "legislator</w>": 9995, "narrows</w>": 9996, "Fair": 9997, "Faith</w>": 9998, "Nonwhites</w>": 9999, "Remitt": 10000, "concept</w>": 10001, "proficient</w>": 10002, "attempts</w>": 10003, "Berlin</w>": 10004, "Bashar</w>": 10005, "Coast</w>": 10006, "Cooperation</w>": 10007, "bombings</w>": 10008, "pieces</w>": 10009, "s-up</w>": 10010, "sympath": 10011, "CDU/C": 10012, "Labour</w>": 10013, "Monday</w>": 10014, "Michig": 10015, "tributed</w>": 10016, "streams</w>": 10017, "fundamentally</w>": 10018, "recycling</w>": 10019, "renewed</w>": 10020, "150,000</w>": 10021, "Corpor": 10022, "Corruption</w>": 10023, "Ownership</w>": 10024, "ladder</w>": 10025, "retail</w>": 10026, "adjusting</w>": 10027, "shrines</w>": 10028, "excluding</w>": 10029, "excluded</w>": 10030, "Consistently</w>": 10031, "suburbanites</w>": 10032, "voicemail</w>": 10033, "strengthens</w>": 10034, "Families</w>": 10035, "Familiarity</w>": 10036, "12.5</w>": 10037, "disparities</w>": 10038, "Study</w>": 10039, "Advanced</w>": 10040, "Sunnis</w>": 10041, "competition</w>": 10042, "Household</w>": 10043, "Ecuador</w>": 10044, "emphasize</w>": 10045, "7,8": 10046, "Membership</w>": 10047, "Pluralities</w>": 10048, "co-religionists</w>": 10049, "sufficient</w>": 10050, "immediately</w>": 10051, "resistant</w>": 10052, "deliver</w>": 10053, "payments</w>": 10054, "collect</w>": 10055, "outpaced</w>": 10056, "outpacing</w>": 10057, "most-used</w>": 10058, "vehicle</w>": 10059, "Friend</w>": 10060, "Identical</w>": 10061, "Selfidentified</w>": 10062, "Typical</w>": 10063, "Typology</w>": 10064, "holiday</w>": 10065, "soft</w>": 10066, "anxie": 10067, "age18</w>": 10068, "better-paying</w>": 10069, "predecessor</w>": 10070, "planning</w>": 10071, "hardworking</w>": 10072, "management</w>": 10073, "Jordanian</w>": 10074, "assault</w>": 10075, "integrated</w>": 10076, "ANC</w>": 10077, "Judaism</w>": 10078, "Prevention</w>": 10079, "fears</w>": 10080, "fearful</w>": 10081, "loneliness</w>": 10082, "shaped</w>": 10083, "shaping</w>": 10084, "whatever</w>": 10085, "highlights</w>": 10086, "reluctance</w>": 10087, "healthier</w>": 10088, "disputes</w>": 10089, "Mainline</w>": 10090, "valued</w>": 10091, "material</w>": 10092, "materials</w>": 10093, "celebri": 10094, "Colombians</w>": 10095, "ICE</w>": 10096, "Multiracial</w>": 10097, "Specific</w>": 10098, "Specifically</w>": 10099, "catching</w>": 10100, "vulner": 10101, "vulgar</w>": 10102, "outweigh</w>": 10103, "emotions</w>": 10104, "emotional</w>": 10105, "Individuals</w>": 10106, "perspective</w>": 10107, "perspectives</w>": 10108, "Partnership</w>": 10109, "smartphone-only</w>": 10110, "mission": 10111, "missile</w>": 10112, "incorrect</w>": 10113, "incorrectly</w>": 10114, "Attacks</w>": 10115, "Biggest</w>": 10116, "Gorsuch</w>": 10117, "Myanma": 10118, "Poroshenko</w>": 10119, "Rising</w>": 10120, "Santa</w>": 10121, "satlantic</w>": 10122, "dedicated</w>": 10123, "wedding</w>": 10124, "weekday</w>": 10125, "Except</w>": 10126, "Experience</w>": 10127, "Shooting</w>": 10128, "27-Aug.</w>": 10129, "Naturalization</w>": 10130, "65+</w>": 10131, "Closely</w>": 10132, "Dominic": 10133, "Huff": 10134, "Hamas</w>": 10135, "Handling</w>": 10136, "Landscape</w>": 10137, "Manch": 10138, "Walker</w>": 10139, "half-century</w>": 10140, "magazines</w>": 10141, "rumors</w>": 10142, "enemy</w>": 10143, "outwardly</w>": 10144, "left-": 10145, "conveni": 10146, "resolution</w>": 10147, "presumptive</w>": 10148, "internal</w>": 10149, "printed</w>": 10150, "declared</w>": 10151, "headlines</w>": 10152, "scheduled</w>": 10153, "embryos</w>": 10154, "President-elect</w>": 10155, "attentiveness</w>": 10156, "patriotic</w>": 10157, "capacity</w>": 10158, "antibiotics</w>": 10159, "Origin</w>": 10160, "denominations</w>": 10161, "Salvadorans</w>": 10162, "better-educated</w>": 10163, "LinkedIn</w>": 10164, "Scott</w>": 10165, "stimulus</w>": 10166, "presidentialelection</w>": 10167, "Certain</w>": 10168, "Couples</w>": 10169, "Doing</w>": 10170, "Eston": 10171, "EARCH</w>": 10172, "Funding</w>": 10173, "Games</w>": 10174, "Gulf</w>": 10175, "Gov't</w>": 10176, "Human</w>": 10177, "IRS</w>": 10178, "Items</w>": 10179, "Preference</w>": 10180, "Sarah</w>": 10181, "Summer</w>": 10182, "TVs</w>": 10183, "copy</w>": 10184, "eliminated</w>": 10185, "flipped</w>": 10186, "fleeing</w>": 10187, "so-called</w>": 10188, "encompass": 10189, "salary</w>": 10190, "acknowledging</w>": 10191, "verdict</w>": 10192, "Relief</w>": 10193, "peoples</w>": 10194, "licensees</w>": 10195, "launched</w>": 10196, "policymaking</w>": 10197, "subscribe</w>": 10198, "tuition-free</w>": 10199, "Television</w>": 10200, "referendum</w>": 10201, "militaryforce</w>": 10202, "Ethiopia</w>": 10203, "Tribune</w>": 10204, "retaliatory</w>": 10205, "Language</w>": 10206, "exercise</w>": 10207, "Pentecostal</w>": 10208, "double-digit</w>": 10209, "Besides</w>": 10210, "Benefits</w>": 10211, "Buttigi": 10212, "Globe</w>": 10213, "Hurricane</w>": 10214, "Julie</w>": 10215, "Kyiv</w>": 10216, "London</w>": 10217, "Memorial</w>": 10218, "Pemex</w>": 10219, "Prospects</w>": 10220, "Rouhani</w>": 10221, "Rudy</w>": 10222, "Rousseff</w>": 10223, "Radio</w>": 10224, "RESEARCH</w>": 10225, "Sinclair</w>": 10226, "criter": 10227, "dwellers</w>": 10228, "lopsided</w>": 10229, "rhetoric</w>": 10230, "sponsored</w>": 10231, "telling</w>": 10232, "yesterday</w>": 10233, "innov": 10234, "accommo": 10235, "acquaint": 10236, "trapped</w>": 10237, "dioxide</w>": 10238, "elderly</w>": 10239, "shrunk</w>": 10240, "exaggerated</w>": 10241, "applying</w>": 10242, "apologized</w>": 10243, "politeness</w>": 10244, "Trans-Pacific</w>": 10245, "interpretation</w>": 10246, "Influence</w>": 10247, "Restrictions</w>": 10248, "incumbent</w>": 10249, "popularity</w>": 10250, "affluent</w>": 10251, "hard-working</w>": 10252, "African-Americans</w>": 10253, "warmestrating</w>": 10254, "industry-funded</w>": 10255, "tornadoes</w>": 10256, "Carnegie</w>": 10257, "CENTER</w>": 10258, "expenditures</w>": 10259, "CDU/CSU</w>": 10260, "Michigan</w>": 10261, "anxieties</w>": 10262, "celebrities</w>": 10263, "vulnerable</w>": 10264, "Myanmar</w>": 10265, "Buttigieg</w>": 10266, "'somewhat</w>": 10267, "'mostly</w>": 10268, "+10": 10269, "-2</w>": 10270, "-23</w>": 10271, "-made</w>": 10272, "-ethnic</w>": 10273, "-March</w>": 10274, "-Sti": 10275, "-run</w>": 10276, "-Sept.</w>": 10277, "-Nov.</w>": 10278, "-of-": 10279, ".7</w>": 10280, ".for</w>": 10281, "/laptop</w>": 10282, "/hour</w>": 10283, "0-</w>": 10284, "06</w>": 10285, "112</w>": 10286, "11.2</w>": 10287, "13.4</w>": 10288, "28": 10289, "23,": 10290, "35,000</w>": 10291, "37.": 10292, "38,000</w>": 10293, "34-year-olds</w>": 10294, "39,": 10295, "47": 10296, "414,": 10297, "59": 10298, "5,00": 10299, "682</w>": 10300, "76": 10301, "8-</w>": 10302, "8th</w>": 10303, "80,000</w>": 10304, "88,000</w>": 10305, "900</w>": 10306, "999</w>": 10307, "Al</w>": 10308, "AN</w>": 10309, "AP</w>": 10310, "Are": 10311, "Aur": 10312, "App": 10313, "Aut": 10314, "Adiffer</w>": 10315, "Ahead</w>": 10316, "Awareness</w>": 10317, "Agency</w>": 10318, "BC": 10319, "Ben</w>": 10320, "Bis": 10321, "Boss</w>": 10322, "Boli": 10323, "BIA</w>": 10324, "CH": 10325, "Ce": 10326, "CR</w>": 10327, "Cul": 10328, "Chad</w>": 10329, "Clevel": 10330, "Custom": 10331, "D.</w>": 10332, "DA</w>": 10333, "Don</w>": 10334, "Done</w>": 10335, "Dra": 10336, "Dep": 10337, "Due</w>": 10338, "Days</w>": 10339, "Ero": 10340, "Eis": 10341, "Ech": 10342, "Eight</w>": 10343, "Eight": 10344, "EEU</w>": 10345, "Eligible</w>": 10346, "EFTA</w>": 10347, "F.</w>": 10348, "Fem": 10349, "Food</w>": 10350, "FJP</w>": 10351, "F-1</w>": 10352, "G7</w>": 10353, "Gem": 10354, "Give</w>": 10355, "Gaz": 10356, "Hon": 10357, "Hen": 10358, "Has": 10359, "Happ": 10360, "Hallow": 10361, "Home": 10362, "HBC": 10363, "HCR</w>": 10364, "IM": 10365, "Jan</w>": 10366, "Jim": 10367, "Journal</w>": 10368, "Kan</w>": 10369, "Kind": 10370, "Kim</w>": 10371, "Los": 10372, "Lim": 10373, "MO": 10374, "Mo</w>": 10375, "ME</w>": 10376, "Mus</w>": 10377, "Massa": 10378, "NS": 10379, "NY": 10380, "Nep": 10381, "Nei": 10382, "Nour</w>": 10383, "Nie": 10384, "Nooks</w>": 10385, "OO": 10386, "OR</w>": 10387, "ODA": 10388, "Pi": 10389, "PA</w>": 10390, "PS</w>": 10391, "Plac": 10392, "Put</w>": 10393, "Path</w>": 10394, "Pessim": 10395, "Preferred</w>": 10396, "PVV</w>": 10397, "Q1</w>": 10398, "Ross</w>": 10399, "Rise</w>": 10400, "Rather</w>": 10401, "SS</w>": 10402, "Sis": 10403, "Squ": 10404, "Suc": 10405, "Side</w>": 10406, "Sea</w>": 10407, "Seven</w>": 10408, "Saf": 10409, "TT": 10410, "Tor": 10411, "Tro": 10412, "Tab": 10413, "Top": 10414, "Tough</w>": 10415, "TODA": 10416, "Utah</w>": 10417, "Vis": 10418, "Vacc": 10419, "Vary</w>": 10420, "Vice</w>": 10421, "Vari": 10422, "Veg": 10423, "Wy": 10424, "WS</w>": 10425, "Win": 10426, "Wol": 10427, "Were</w>": 10428, "Wed": 10429, "Yes</w>": 10430, "Years</w>": 10431, "Zers</w>": 10432, "Zeal": 10433, "ac</w>": 10434, "akers</w>": 10435, "bre": 10436, "bat": 10437, "bent</w>": 10438, "bar</w>": 10439, "bother</w>": 10440, "biting</w>": 10441, "by-": 10442, "bols</w>": 10443, "block</w>": 10444, "bogus</w>": 10445, "cli": 10446, "cans</w>": 10447, "cent</w>": 10448, "cess</w>": 10449, "cross</w>": 10450, "canc": 10451, "cessing</w>": 10452, "da</w>": 10453, "din": 10454, "dar": 10455, "dons</w>": 10456, "denti": 10457, "dden": 10458, "dfires</w>": 10459, "dynam": 10460, "ee": 10461, "e-</w>": 10462, "eer</w>": 10463, "een</w>": 10464, "eous</w>": 10465, "eus</w>": 10466, "eight": 10467, "eav": 10468, "efully</w>": 10469, "efs</w>": 10470, "fan": 10471, "fof</w>": 10472, "fed</w>": 10473, "fing</w>": 10474, "file</w>": 10475, "fran": 10476, "fics</w>": 10477, "fru": 10478, "fearly</w>": 10479, "fect</w>": 10480, "fought</w>": 10481, "filed</w>": 10482, "ftun": 10483, "fabricated</w>": 10484, "gy": 10485, "ga</w>": 10486, "gent</w>": 10487, "gover": 10488, "gir": 10489, "gment</w>": 10490, "gering</w>": 10491, "g-related</w>": 10492, "ho</w>": 10493, "hran</w>": 10494, "ik": 10495, "ie</w>": 10496, "ipu": 10497, "iors</w>": 10498, "ipping</w>": 10499, "jour": 10500, "juni": 10501, "jail</w>": 10502, "ki</w>": 10503, "kin</w>": 10504, "killing</w>": 10505, "klin</w>": 10506, "kfulness</w>": 10507, "kansas</w>": 10508, "l-": 10509, "ls": 10510, "lly</w>": 10511, "lay</w>": 10512, "lment</w>": 10513, "lates</w>": 10514, "ly-": 10515, "moun": 10516, "mate</w>": 10517, "mates</w>": 10518, "mber</w>": 10519, "merg": 10520, "ne</w>": 10521, "na</w>": 10522, "nt</w>": 10523, "noc": 10524, "nur": 10525, "natives</w>": 10526, "nesday</w>": 10527, "oo</w>": 10528, "oding</w>": 10529, "overs</w>": 10530, "oengineering</w>": 10531, "pil": 10532, "psy": 10533, "pled": 10534, "pson</w>": 10535, "pipeline</w>": 10536, "rar": 10537, "ral</w>": 10538, "ray</w>": 10539, "renting</w>": 10540, "rounding</w>": 10541, "san": 10542, "ser</w>": 10543, "sim": 10544, "sear": 10545, "snews</w>": 10546, "sover</w>": 10547, "smo": 10548, "sign</w>": 10549, "sweek</w>": 10550, "sole</w>": 10551, "s-related</w>": 10552, "sexuality</w>": 10553, "ton": 10554, "tto</w>": 10555, "tep": 10556, "tfive</w>": 10557, "tled</w>": 10558, "tests</w>": 10559, "tellig": 10560, "toll</w>": 10561, "ub": 10562, "utr": 10563, "uph": 10564, "ups</w>": 10565, "utili": 10566, "va</w>": 10567, "vy</w>": 10568, "von</w>": 10569, "vent": 10570, "wn</w>": 10571, "wa</w>": 10572, "wed</w>": 10573, "wish</w>": 10574, "walking</w>": 10575, "xing</w>": 10576, "xemb": 10577, "yor</w>": 10578, "yout</w>": 10579, "yles</w>": 10580, "yfree</w>": 10581, "yware</w>": 10582, "\u00f1a</w>": 10583, "\u00f3n</w>": 10584, "throw</w>": 10585, "thusias": 10586, "thumb": 10587, "ana": 10588, "anam": 10589, "anations</w>": 10590, "annex": 10591, "antism</w>": 10592, "aneous</w>": 10593, "inal</w>": 10594, "intr": 10595, "inely</w>": 10596, "inks</w>": 10597, "intly</w>": 10598, "inating</w>": 10599, "inside</w>": 10600, "inSyria</w>": 10601, "inverse</w>": 10602, "instruc": 10603, "incomplete</w>": 10604, "insensitive</w>": 10605, "injur": 10606, "inzo</w>": 10607, "erity</w>": 10608, "eroding</w>": 10609, "ary-": 10610, "arming</w>": 10611, "argue</w>": 10612, "array</w>": 10613, "tie</w>": 10614, "tible</w>": 10615, "or-": 10616, "ora</w>": 10617, "ords</w>": 10618, "orever</w>": 10619, "orship</w>": 10620, "orum</w>": 10621, "orney</w>": 10622, "orbit</w>": 10623, "orbiting</w>": 10624, "onial</w>": 10625, "ena</w>": 10626, "ener</w>": 10627, "enac": 10628, "enable</w>": 10629, "enforce</w>": 10630, "enrich</w>": 10631, "enrich": 10632, "enroll</w>": 10633, "oul": 10634, "ouster</w>": 10635, "repa": 10636, "reality</w>": 10637, "retain</w>": 10638, "revision</w>": 10639, "retweets</w>": 10640, "revol": 10641, "real-": 10642, "rearing</w>": 10643, "rejected</w>": 10644, "rebuilt</w>": 10645, "retransmission</w>": 10646, "remot": 10647, "revelations</w>": 10648, "liam": 10649, "lific</w>": 10650, "lish</w>": 10651, "lized</w>": 10652, "liances</w>": 10653, "saints</w>": 10654, "sayfree</w>": 10655, "itant</w>": 10656, "itol</w>": 10657, "iterran": 10658, "ales</w>": 10659, "albe": 10660, "algovernment</w>": 10661, "alties</w>": 10662, "alked</w>": 10663, "ale-": 10664, "alsituation</w>": 10665, "atto</w>": 10666, "ature</w>": 10667, "ate/": 10668, "they": 10669, "thejob</w>": 10670, "omber": 10671, "ompson</w>": 10672, "osion</w>": 10673, "icians</w>": 10674, "icap</w>": 10675, "acies</w>": 10676, "actors</w>": 10677, "ationally</w>": 10678, "atical</w>": 10679, "es-": 10680, "es.": 10681, "esty</w>": 10682, "esdropping</w>": 10683, "esitant</w>": 10684, "roles</w>": 10685, "robot</w>": 10686, "iser</w>": 10687, "ising</w>": 10688, "istered</w>": 10689, "isdic": 10690, "about": 10691, "asa</w>": 10692, "aska</w>": 10693, "usions</w>": 10694, "uset": 10695, "us-related</w>": 10696, "ushed</w>": 10697, "sun": 10698, "sudden": 10699, "ement": 10700, "emical</w>": 10701, "emselves</w>": 10702, "emingly</w>": 10703, "igo</w>": 10704, "igare": 10705, "aders</w>": 10706, "adding</w>": 10707, "admit</w>": 10708, "pub": 10709, "witn": 10710, "lees</w>": 10711, "lege</w>": 10712, "leach</w>": 10713, "leverage</w>": 10714, "leholds</w>": 10715, "leum</w>": 10716, "ount</w>": 10717, "ounce</w>": 10718, "oli</w>": 10719, "vered</w>": 10720, "very/": 10721, "never": 10722, "contenders</w>": 10723, "contains</w>": 10724, "ocalls</w>": 10725, "hair</w>": 10726, "blical</w>": 10727, "elve</w>": 10728, "element</w>": 10729, "ely/": 10730, "Amount</w>": 10731, "illeg": 10732, "ilors</w>": 10733, "ama": 10734, "amings</w>": 10735, "ambi": 10736, "amina</w>": 10737, "parent": 10738, "pardons</w>": 10739, "composted</w>": 10740, "components</w>": 10741, "imposed</w>": 10742, "restrial</w>": 10743, "opted</w>": 10744, "opt-": 10745, "opening</w>": 10746, "opponent</w>": 10747, "st-</w>": 10748, "sta</w>": 10749, "ston</w>": 10750, "stone</w>": 10751, "step": 10752, "stress</w>": 10753, "stays</w>": 10754, "stere": 10755, "stopped</w>": 10756, "stocks</w>": 10757, "stopping</w>": 10758, "stamina</w>": 10759, "2045</w>": 10760, "oted</w>": 10761, "otyp": 10762, "Thinking</w>": 10763, "Thompson</w>": 10764, "Themselves</w>": 10765, "ula</w>": 10766, "ular": 10767, "vious</w>": 10768, "portions</w>": 10769, "portrait</w>": 10770, "pod": 10771, "ex-": 10772, "extern": 10773, "exchanging</w>": 10774, "terrestrial</w>": 10775, "ffw</w>": 10776, "chuset": 10777, "chemical</w>": 10778, "U.S-Mexico</w>": 10779, "proper</w>": 10780, "prolific</w>": 10781, "Refl": 10782, "Reaction</w>": 10783, "Reason</w>": 10784, "Retransmission</w>": 10785, "novel</w>": 10786, "depart": 10787, "deliber": 10788, "unfol": 10789, "unlike</w>": 10790, "unemployed</w>": 10791, "unkind</w>": 10792, "unrest</w>": 10793, "unhealthy</w>": 10794, "unwanted</w>": 10795, "uninsu": 10796, "unfriended</w>": 10797, "publications</w>": 10798, "entfrom</w>": 10799, "petro": 10800, "vege": 10801, "rique</w>": 10802, "sea</w>": 10803, "seas": 10804, "segment</w>": 10805, "seemingly</w>": 10806, "ums</w>": 10807, "surpass</w>": 10808, "surprise</w>": 10809, "survive</w>": 10810, "wording</w>": 10811, "itious</w>": 10812, "overuse</w>": 10813, "overshad": 10814, "paneli": 10815, "pan-ethnic</w>": 10816, "qualities</w>": 10817, "per-": 10818, "perly</w>": 10819, "perfect</w>": 10820, "login</w>": 10821, "looms</w>": 10822, "metic</w>": 10823, "meet": 10824, "vote-": 10825, "gram</w>": 10826, "-in-Ten</w>": 10827, "appre": 10828, "appoin": 10829, "forec": 10830, "forum</w>": 10831, "fortun": 10832, "clubs</w>": 10833, "tom</w>": 10834, "fail</w>": 10835, "fails</w>": 10836, "presents</w>": 10837, "pression</w>": 10838, "uck</w>": 10839, "ucial</w>": 10840, "givers</w>": 10841, "porter</w>": 10842, "posing</w>": 10843, "entive</w>": 10844, "entions</w>": 10845, "entious</w>": 10846, "accum": 10847, "accident</w>": 10848, "accord</w>": 10849, "comparing</w>": 10850, "comparatively</w>": 10851, "Tray": 10852, "fees</w>": 10853, "fever</w>": 10854, "federate</w>": 10855, "majors</w>": 10856, "inging</w>": 10857, "ourg</w>": 10858, "Truman</w>": 10859, "pret</w>": 10860, "preval": 10861, "recru": 10862, "ilies</w>": 10863, "rainb": 10864, "ge-": 10865, "geable</w>": 10866, "geta": 10867, "geoengineering</w>": 10868, "Chi": 10869, "Chec": 10870, "Chall": 10871, "interro": 10872, "interpersonal</w>": 10873, "interaction</w>": 10874, "interesting</w>": 10875, "interacting</w>": 10876, "interpret</w>": 10877, "green-": 10878, "margin": 10879, "Initi": 10880, "Intellig": 10881, "weights</w>": 10882,
[...]
