{"<unk>": 0, "!": 1, "#": 2, "$": 3, "%": 4, "&": 5, "'": 6, "(": 7, ")": 8, "+": 9, ",": 10, "-": 11, ".": 12, "/": 13, "0": 14, "1": 15, "2": 16, "3": 17, "4": 18, "5": 19, "6": 20, "7": 21, "8": 22, "9": 23, ":": 24, ";": 25, "<": 26, "=": 27, ">": 28, "?": 29, "@": 30, "A": 31, "B": 32, "C": 33, "D": 34, "E": 35, "F": 36, "G": 37, "H": 38, "I": 39, "J": 40, "K": 41, "L": 42, "M": 43, "N": 44, "O": 45, "P": 46, "Q": 47, "R": 48, "S": 49, "T": 50, "U": 51, "V": 52, "W": 53, "X": 54, "Y": 55, "Z": 56, "[": 57, "]": 58, "_": 59, "`": 60, "a": 61, "b": 62, "c": 63, "d": 64, "e": 65, "f": 66, "g": 67, "h": 68, "i": 69, "j": 70, "k": 71, "l": 72, "m": 73, "n": 74, "o": 75, "p": 76, "q": 77, "r": 78, "s": 79, "t": 80, "u": 81, "v": 82, "w": 83, "x": 84, "y": 85, "z": 86, "\u00ad": 87, "\u00ae": 88, "\u00bb": 89, "\u00e1": 90, "\u00e7": 91, "\u00e8": 92, "\u00e9": 93, "\u00ed": 94, "\u00ef": 95, "\u00f1": 96, "\u00f3": 97, "\u00f6": 98, "\u00fc": 99, "\u011f": 100, "\u014d": 101, "\u015e": 102, "\u015f": 103, "\u2013": 104, "\u2014": 105, "\u2018": 106, "\u2022": 107, "\u2026": 108, "\u20ac": 109, "\ufffd": 110, "s</w>": 111, "0</w>": 112, "y</w>": 113, "c</w>": 114, "f</w>": 115, "e</w>": 116, "d</w>": 117, "1</w>": 118, "g</w>": 119, "m</w>": 120, "n</w>": 121, "r</w>": 122, "t</w>": 123, "7</w>": 124, "o</w>": 125, "w</w>": 126, "k</w>": 127, "l</w>": 128, "2</w>": 129, "5</w>": 130, "i</w>": 131, "'</w>": 132, ".</w>": 133, "a</w>": 134, "x</w>": 135, "-</w>": 136, "M</w>": 137, "L</w>": 138, "h</w>": 139, "/</w>": 140, "4</w>": 141, "C</w>": 142, "p</w>": 143, "3</w>": 144, "6</w>": 145, "D</w>": 146, "O</w>": 147, "9</w>": 148, "A</w>": 149, "F</w>": 150, "E</w>": 151, "8</w>": 152, "u</w>": 153, "v</w>": 154, "N</w>": 155, "T</w>": 156, "(</w>": 157, "I</w>": 158, "b</w>": 159, "P</w>": 160, "S</w>": 161, "%</w>": 162, "H</w>": 163, "R</w>": 164, "z</w>": 165, "V</w>": 166, "Y</w>": 167, "J</w>": 168, "q</w>": 169, "+</w>": 170, "\u2013</w>": 171, "G</w>": 172, "j</w>": 173, "]</w>": 174, "B</w>": 175, "\u2014</w>": 176, "W</w>": 177, "?</w>": 178, "K</w>": 179, "=</w>": 180, "U</w>": 181, "\u2026</w>": 182, "@</w>": 183, "!</w>": 184, "></w>": 185, "`</w>": 186, "[</w>": 187, "#</w>": 188, "X</w>": 189, "\u00bb</w>": 190, "<</w>": 191, "$</w>": 192, "\u00ad</w>": 193, "Q</w>": 194, "\u2022</w>": 195, "Z</w>": 196, "_</w>": 197, "\u00ae</w>": 198, ")</w>": 199, ":</w>": 200, ",</w>": 201, ";</w>": 202, "\u00e9</w>": 203, "\u2018</w>": 204, "&</w>": 205, "th": 206, "in": 207, "an": 208, "er": 209, "the</w>": 210, "ar": 211, "ti": 212, "on": 213, "en": 214, "or": 215, "of</w>": 216, "ou": 217, "re": 218, "li": 219, "ed</w>": 220, "in</w>": 221, "er</w>": 222, "ing</w>": 223, "es</w>": 224, "on</w>": 225, "ly</w>": 226, "to</w>": 227, "sa": 228, "at": 229, "and</w>": 230, "al": 231, "it": 232, "st</w>": 233, "or</w>": 234, "ro": 235, "the": 236, "an</w>": 237, "wh": 238, "st": 239, "om": 240, "ati": 241, "al</w>": 242, "ic": 243, "is</w>": 244, "ac": 245, "as</w>": 246, "ec": 247, "le</w>": 248, "ve</w>": 249, "at</w>": 250, "si": 251, "en</w>": 252, "ab": 253, "are</w>": 254, "ts</w>": 255, "lo": 256, "say</w>": 257, "le": 258, "se</w>": 259, "di": 260, "po": 261, "su": 262, "ne": 263, "ri": 264, "mo": 265, "ver": 266, "ad": 267, "se": 268, "ent</w>": 269, "ans</w>": 270, "ers</w>": 271, "pu": 272, "20": 273, "out</w>": 274, "ore</w>": 275, "ag": 276, "ig": 277, "am": 278, "con": 279, "ha": 280, "ol": 281, "wit": 282, "they</w>": 283, "vi": 284, "ws</w>": 285, "sh": 286, "oun": 287, "ce</w>": 288, "with</w>": 289, "de": 290, "bli": 291, "more</w>": 292, "who</w>": 293, "for</w>": 294, "il": 295, "publi": 296, "Re": 297, "than</w>": 298, "Th": 299, "sp": 300, "that</w>": 301, "ation</w>": 302, "Am": 303, "about</w>": 304, "par": 305, "ve": 306, "ir</w>": 307, "ons</w>": 308, "be": 309, "U.": 310, "com": 311, "ot": 312, "ur": 313, "'s</w>": 314, "have</w>": 315, "op": 316, "their</w>": 317, "ul": 318, "el": 319, "201": 320, "ss</w>": 321, "ent": 322, "pro": 323, "ma": 324, "U.S": 325, "tr": 326, "eric": 327, "Americ": 328, "no": 329, "ar</w>": 330, "por": 331, "U.S.</w>": 332, "ter": 333, "pre": 334, "ong</w>": 335, "rat": 336, "us": 337, "fi": 338, "De": 339, "ex": 340, "un": 341, "ere</w>": 342, "ch</w>": 343, "as": 344, "im": 345, "ch": 346, "coun": 347, "rom</w>": 348, "tion</w>": 349, "ast</w>": 350, "from</w>": 351, "we": 352, "age</w>": 353, "ci": 354, "den": 355, "moc": 356, "over": 357, "ther</w>": 358, "public": 359, "ld</w>": 360, "ff": 361, "it</w>": 362, "ew</w>": 363, "ear": 364, "ke": 365, "Democ": 366, "by</w>": 367, "me": 368, "Republic": 369, "sur": 370, "um": 371, "ment</w>": 372, "Americans</w>": 373, "to": 374, "has</w>": 375, "The</w>": 376, "this</w>": 377, "all</w>": 378, "per": 379, "ile</w>": 380, "ap": 381, "gi": 382, "wor": 383, "news</w>": 384, "ews</w>": 385, "ty</w>": 386, "ay</w>": 387, "ate</w>": 388, "me</w>": 389, "ding</w>": 390, "pe": 391, "adul": 392, "low": 393, "ted</w>": 394, "be</w>": 395, "ic</w>": 396, "ds</w>": 397, "fa": 398, "most</w>": 399, "tho": 400, "lin": 401, "vot": 402, "ver</w>": 403, "ould</w>": 404, "adults</w>": 405, "ity</w>": 406, "qu": 407, "gr": 408, "surve": 409, "not</w>": 410, "ally</w>": 411, "-in": 412, "du": 413, "is": 414, "ten</w>": 415, "able</w>": 416, "gh": 417, "th</w>": 418, "one</w>": 419, "for": 420, "ust</w>": 421, "was</w>": 422, "In</w>": 423, "est</w>": 424, "while</w>": 425, "oo": 426, "200": 427, "-in-": 428, "those</w>": 429, "kely</w>": 430, "econ": 431, "among</w>": 432, "inc": 433, "Republicans</w>": 434, "fol": 435, "ing": 436, "likely</w>": 437, "ge</w>": 438, "igh": 439, "ople</w>": 440, "ut</w>": 441, "public</w>": 442, "tic": 443, "gre": 444, "ir": 445, "Democrat": 446, "clo": 447, "very</w>": 448, "maj": 449, "Democrats</w>": 450, "ter</w>": 451, "id</w>": 452, "any</w>": 453, "other</w>": 454, "rec": 455, "ations</w>": 456, "onal</w>": 457, "ant</w>": 458, "follow": 459, "der</w>": 460, "fav": 461, "-in-ten</w>": 462, "ori": 463, "mar": 464, "were</w>": 465, "poli": 466, "arch</w>": 467, "ties</w>": 468, "econom": 469, "ra": 470, "people</w>": 471, "ini": 472, "acc": 473, "fe": 474, "ge": 475, "duc": 476, "som": 477, "so</w>": 478, "ye": 479, "survey</w>": 480, "In": 481, "ber</w>": 482, "our": 483, "ow": 484, "dec": 485, "port": 486, "str": 487, "try</w>": 488, "compar": 489, "inter": 490, "sely</w>": 491, "tri": 492, "share</w>": 493, "ran": 494, "te": 495, "Hi": 496, "closely</w>": 497, "said</w>": 498, "lu": 499, "es": 500, "mig": 501, "country</w>": 502, "Hisp": 503, "year</w>": 504, "search</w>": 505, "Hispan": 506, "over</w>": 507, "Ch": 508, "``</w>": 509, "''</w>": 510, "pl": 511, "alf</w>": 512, "Cent": 513, "favor": 514, "ili": 515, "medi": 516, "sid": 517, "Tr": 518, "ents</w>": 519, "Pew</w>": 520, "mil": 521, "tions</w>": 522, "tw": 523, "voters</w>": 524, "gen": 525, "ates</w>": 526, "ority</w>": 527, "Center</w>": 528, "sup": 529, "year": 530, "port</w>": 531, "ary</w>": 532, "rea": 533, "less</w>": 534, "do</w>": 535, "half</w>": 536, "ince</w>": 537, "views</w>": 538, "line</w>": 539, "Research</w>": 540, "grou": 541, "pa": 542, "ks</w>": 543, "overn": 544, "king</w>": 545, "thre": 546, "pri": 547, "id": 548, "ump</w>": 549, "just</w>": 550, "ence</w>": 551, "also</w>": 552, "Wh": 553, "so": 554, "Trump</w>": 555, "pul": 556, "tive</w>": 557, "stor": 558, "tries</w>": 559, "bet": 560, "ings</w>": 561, "use</w>": 562, "ta": 563, "ite</w>": 564, "countries</w>": 565, "govern": 566, "wee": 567, "jo": 568, "years</w>": 569, "elec": 570, "ev": 571, "19": 572, "followed</w>": 573, "chan": 574, "immig": 575, "em": 576, "many</w>": 577, "up</w>": 578, "ill</w>": 579, "ous</w>": 580, "ative</w>": 581, "ser": 582, "but</w>": 583, "ying</w>": 584, "posi": 585, "compared</w>": 586, "day</w>": 587, "diff": 588, "of": 589, "only</w>": 590, "fin": 591, "sc": 592, "reas": 593, "ach</w>": 594, "popul": 595, "dents</w>": 596, "ack</w>": 597, "ligi": 598, "ke</w>": 599, "high": 600, "been</w>": 601, "Ab": 602, "government</w>": 603, "rati": 604, "should</w>": 605, "time</w>": 606, "ough": 607, "view</w>": 608, "ated</w>": 609, "ded</w>": 610, "ording</w>": 611, "ood</w>": 612, "since</w>": 613, "Con": 614, "ali": 615, "About</w>": 616, "ational</w>": 617, "arly</w>": 618, "ps</w>": 619, "story</w>": 620, "tical</w>": 621, "ten": 622, "poin": 623, "denti": 624, "ys</w>": 625, "soci": 626, "same</w>": 627, "eral</w>": 628, "ph": 629, "would</w>": 630, "ms</w>": 631, "ni": 632, "when</w>": 633, "cont": 634, "these</w>": 635, "stan": 636, "Democrati": 637, "gh</w>": 638, "its</w>": 639, "had</w>": 640, "Ob": 641, "ich</w>": 642, "ama</w>": 643, "ough</w>": 644, "lar": 645, "lion</w>": 646, "ages</w>": 647, "Obama</w>": 648, "last</w>": 649, "rel": 650, "will</w>": 651, "mu": 652, "thir": 653, "la": 654, "according</w>": 655, "differ": 656, "ving</w>": 657, "favorable</w>": 658, "ep": 659, "ces</w>": 660, "he": 661, "import": 662, "do": 663, "rac": 664, "own</w>": 665, "Chin": 666, "num": 667, "each</w>": 668, "Among</w>": 669, "sts</w>": 670, "overage</w>": 671, "ound</w>": 672, "spec": 673, "sti": 674, "some": 675, "much</w>": 676, "hol": 677, "fu": 678, "ked</w>": 679, "ween</w>": 680, "majority</w>": 681, "ad</w>": 682, "what</w>": 683, "opini": 684, "News</w>": 685, "bl": 686, "Democratic</w>": 687, "wer</w>": 688, "cent": 689, "ome</w>": 690, "00</w>": 691, "rants</w>": 692, "tt": 693, "all": 694, "ade</w>": 695, "off": 696, "row": 697, "week</w>": 698, "saying</w>": 699, "confi": 700, "economy</w>": 701, "appro": 702, "ru": 703, "ger</w>": 704, "million</w>": 705, "between</w>": 706, "population</w>": 707, "Hispanic</w>": 708, "there</w>": 709, "our</w>": 710, "ign</w>": 711, "pres": 712, "oth</w>": 713, "least</w>": 714, "religi": 715, "cer": 716, "omen</w>": 717, "ell</w>": 718, "quar": 719, "shi": 720, "sident</w>": 721, "tur": 722, "important</w>": 723, "dence</w>": 724, "thin": 725, "media</w>": 726, "dat": 727, "pen": 728, "ect</w>": 729, "ow</w>": 730, "serv": 731, "An": 732, "Republican</w>": 733, "support</w>": 734, "inclu": 735, "ice</w>": 736, "economic</w>": 737, "which</w>": 738, "now</w>": 739, "als</w>": 740, "ud": 741, "ves</w>": 742, "urr": 743, "ics</w>": 744, "ster": 745, "form": 746, "war": 747, "online</w>": 748, "ently</w>": 749, "oughly</w>": 750, "both</w>": 751, "good</w>": 752, "some</w>": 753, "min": 754, "divi": 755, "positive</w>": 756, "fic": 757, "sion</w>": 758, "lic": 759, "wi": 760, "political</w>": 761, "orities</w>": 762, "18</w>": 763, "number</w>": 764, "Mo": 765, "job</w>": 766, "China</w>": 767, "Par": 768, "ani": 769, "issu": 770, "regi": 771, "new</w>": 772, "think</w>": 773, "col": 774, "tim": 775, "gener": 776, "national</w>": 777, "one": 778, "users</w>": 779, "But</w>": 780, "increas": 781, "bor": 782, "women</w>": 783, "alth</w>": 784, "top</w>": 785, "out": 786, "net</w>": 787, "dre": 788, "ga": 789, "come</w>": 790, "groups</w>": 791, "lean": 792, "social</w>": 793, "leg": 794, "ei": 795, "shar": 796, "election</w>": 797, "uro": 798, "igh</w>": 799, "immigrants</w>": 800, "Euro": 801, "comm": 802, "ites</w>": 803, "conduc": 804, "tly</w>": 805, "enti": 806, "pers": 807, "St": 808, "grow": 809, "ll</w>": 810, "older</w>": 811, "af": 812, "coverage</w>": 813, "au": 814, "past</w>": 815, "American</w>": 816, ",0": 817, "ved</w>": 818, "leve": 819, "ance</w>": 820, "phone</w>": 821, "percent": 822, "Ger": 823, "More</w>": 824, "cy</w>": 825, "2016</w>": 826, "sing</w>": 827, "lead": 828, "early</w>": 829, "50</w>": 830, "peri": 831, "Inter": 832, "cam": 833, "see</w>": 834, "beli": 835, "major</w>": 836, "ill": 837, "ting</w>": 838, "ross</w>": 839, "fac": 840, "chil": 841, "And</w>": 842, "ussi": 843, "Hispanics</w>": 844, "recent</w>": 845, "opinion</w>": 846, "data</w>": 847, "fir": 848, "sed</w>": 849, "neg": 850, "ese</w>": 851, "world</w>": 852, "ship</w>": 853, "conducted</w>": 854, "30</w>": 855, "ited</w>": 856, "This</w>": 857, "prob": 858, "way</w>": 859, "Mus": 860, "and": 861, "low</w>": 862, "high</w>": 863, "nearly</w>": 864, "Russi": 865, "presi": 866, "Musli": 867, "yed</w>": 868, "Un": 869, "following</w>": 870, "10</w>": 871, "el</w>": 872, "spon": 873, "two</w>": 874, "party</w>": 875, "confidence</w>": 876, "concer": 877, "points</w>": 878, "andi": 879, "andid": 880, "them</w>": 881, "eb": 882, "no</w>": 883, "ton</w>": 884, "oc": 885, "youn": 886, "vely</w>": 887, "righ": 888, "hel": 889, "gress</w>": 890, "hou": 891, "depen": 892, "chang": 893, "For</w>": 894, "Is": 895, "group</w>": 896, "plo": 897, "zed</w>": 898, "ttle</w>": 899, "today</w>": 900, "29</w>": 901, "higher</w>": 902, "percentage</w>": 903, "20</w>": 904, "uring</w>": 905, "little</w>": 906, "main": 907, "internet</w>": 908, "belie": 909, "bec": 910, "two": 911, "ess</w>": 912, "candid": 913, "far</w>": 914, "his</w>": 915, "s.</w>": 916, "By</w>": 917, "educ": 918, "Lat": 919, "ences</w>": 920, "first</w>": 921, "rate</w>": 922, "respon": 923, "Most</w>": 924, "sis</w>": 925, "vs.</w>": 926, "parti": 927, "Latin": 928, "ble</w>": 929, "Pre": 930, "ily</w>": 931, "ls</w>": 932, "exic": 933, "Mexic": 934, "too</w>": 935, "proble": 936, "2012</w>": 937, "health</w>": 938, ",000</w>": 939, "identi": 940, "campa": 941, "U.S</w>": 942, "19</w>": 943, "ens</w>": 944, "hi": 945, "get</w>": 946, "har": 947, "kers</w>": 948, "ical</w>": 949, "acks</w>": 950, "Af": 951, "curr": 952, "e-": 953, "mon": 954, "disa": 955, "-thir": 956, "negative</w>": 957, "median</w>": 958, "dren</w>": 959, "men</w>": 960, "inu": 961, "sig": 962, "somewhat</w>": 963, "11</w>": 964, "ven</w>": 965, "new": 966, "ell": 967, "sub": 968, "yp": 969, "Congress</w>": 970, "up": 971, "change</w>": 972, "der": 973, "lob": 974, "Pro": 975, "ste": 976, "sehol": 977, "Vi": 978, "sel": 979, "cor": 980, "hear": 981, "tu": 982, "well</w>": 983, "quarter</w>": 984, "during</w>": 985, "president</w>": 986, "end</w>": 987, "ilit": 988, "ssi": 989, "though</w>": 990, "children</w>": 991, "own": 992, "Interest</w>": 993, "sci": 994, "thers</w>": 995, "continu": 996, "ward</w>": 997, "Pu": 998, "ric": 999, "Party</w>": 1000, "thing</w>": 1001, "overall</w>": 1002, "ple</w>": 1003, "ably</w>": 1004, "12</w>": 1005, "ou</w>": 1006, "immigr": 1007, "fam": 1008, "stly</w>": 1009, "accoun": 1010, "press</w>": 1011, "ility</w>": 1012, "65</w>": 1013, "comes</w>": 1014, "campaign</w>": 1015, "lim": 1016, "aly": 1017, "religious</w>": 1018, "sm": 1019, "atten": 1020, "comp": 1021, "199": 1022, "15</w>": 1023, "across</w>": 1024, "marri": 1025, "househol": 1026, "sch": 1027, "including</w>": 1028, "eff": 1029, "ial</w>": 1030, "ters</w>": 1031, "indepen": 1032, "As</w>": 1033, "verage</w>": 1034, "2013</w>": 1035, "Ira": 1036, "cri": 1037, "analy": 1038, "49</w>": 1039, "gu": 1040, "2015</w>": 1041, "vote</w>": 1042, "relati": 1043, "stered</w>": 1044, "owe": 1045, "2014</w>": 1046, "While</w>": 1047, "even</w>": 1048, "asked</w>": 1049, "owever</w>": 1050, "ned</w>": 1051, "sted</w>": 1052, "believe</w>": 1053, "deb": 1054, "go": 1055, "scri": 1056, "av": 1057, "used</w>": 1058, "sho": 1059, "fied</w>": 1060, "44</w>": 1061, "ays</w>": 1062, "such</w>": 1063, "divided</w>": 1064, "colle": 1065, "ven": 1066, "where</w>": 1067, "you</w>": 1068, "lib": 1069, "deral</w>": 1070, "milit": 1071, "log": 1072, "did</w>": 1073, "increased</w>": 1074, "co": 1075, "35</w>": 1076, "ari": 1077, "gest</w>": 1078, "non": 1079, "ine</w>": 1080, "exp": 1081, "lobal</w>": 1082, "Me": 1083, "eth": 1084, "white</w>": 1085, "ques": 1086, "dential</w>": 1087, "17</w>": 1088, "25</w>": 1089, "Po": 1090, "ses</w>": 1091, "Iraq</w>": 1092, "simil": 1093, "ago</w>": 1094, "-thirds</w>": 1095, "No": 1096, "Per": 1097, "ling</w>": 1098, "inf": 1099, "reg": 1100, "agre": 1101, "On": 1102, "five</w>": 1103, "act</w>": 1104, "'t</w>": 1105, "bi": 1106, "care</w>": 1107, "rease</w>": 1108, "mid": 1109, "four": 1110, "tec": 1111, "Clin": 1112, "roughly</w>": 1113, "ure</w>": 1114, "third</w>": 1115, "United</w>": 1116, "od</w>": 1117, "nation</w>": 1118, "Clinton</w>": 1119, "registered</w>": 1120, "san</w>": 1121, "bs</w>": 1122, "mber</w>": 1123, "born</w>": 1124, "2008</w>": 1125, "gree</w>": 1126, "how</w>": 1127, "surveyed</w>": 1128, "ether</w>": 1129, "work</w>": 1130, "issues</w>": 1131, "pp": 1132, "mostly</w>": 1133, "tis": 1134, "down</w>": 1135, "eng": 1136, "itu": 1137, "os</w>": 1138, "sions</w>": 1139, "toward</w>": 1140, "independents</w>": 1141, "ors</w>": 1142, "2017</w>": 1143, "Ac": 1144, "us</w>": 1145, "interest</w>": 1146, "27</w>": 1147, "ths</w>": 1148, "mi": 1149, "nations</w>": 1150, "ture</w>": 1151, "express</w>": 1152, "Ma": 1153, "changed</w>": 1154, "right</w>": 1155, "analysis</w>": 1156, "Asi": 1157, "Jap": 1158, "n't</w>": 1159, "ppro": 1160, "24</w>": 1161, "Ca": 1162, "bers</w>": 1163, "presidential</w>": 1164, "16</w>": 1165, "auth": 1166, "45</w>": 1167, "whites</w>": 1168, "contr": 1169, "federal</w>": 1170, "whether</w>": 1171, "22</w>": 1172, "Nearly</w>": 1173, "average</w>": 1174, "inform": 1175, "cell": 1176, "ew": 1177, "speci": 1178, "similar</w>": 1179, "are": 1180, "better</w>": 1181, "favor</w>": 1182, "college</w>": 1183, "sy": 1184, "uni": 1185, "fore": 1186, "Russia</w>": 1187, "bad</w>": 1188, "Just</w>": 1189, "living</w>": 1190, "differences</w>": 1191, "home</w>": 1192, "pe</w>": 1193, "nific": 1194, "found</w>": 1195, "military</w>": 1196, "14</w>": 1197, "34</w>": 1198, "28</w>": 1199, "40</w>": 1200, "loc": 1201, "ratings</w>": 1202, "Ar": 1203, "Europe": 1204, "ore": 1205, "oppo": 1206, "leaners</w>": 1207, "can</w>": 1208, "ement</w>": 1209, "ligh": 1210, "ism</w>": 1211, "43</w>": 1212, "ories</w>": 1213, "porters</w>": 1214, "26</w>": 1215, "2010</w>": 1216, "legal</w>": 1217, "signific": 1218, "ace</w>": 1219, "lot</w>": 1220, "37</w>": 1221, "Over": 1222, "fewer</w>": 1223, "de</w>": 1224, "otal</w>": 1225, "emplo": 1226, "39</w>": 1227, "38</w>": 1228, "ns</w>": 1229, "parents</w>": 1230, "jobs</w>": 1231, "remain": 1232, "after</w>": 1233, "31</w>": 1234, "46</w>": 1235, "52</w>": 1236, "21</w>": 1237, "make</w>": 1238, "increase</w>": 1239, "three</w>": 1240, "Muslims</w>": 1241, "13</w>": 1242, "ected</w>": 1243, "policy</w>": 1244, "48</w>": 1245, "51</w>": 1246, "GO": 1247, "offic": 1248, "equ": 1249, "il</w>": 1250, "States</w>": 1251, "authori": 1252, "41</w>": 1253, "55</w>": 1254, "omin": 1255, "terr": 1256, "information</w>": 1257, "report</w>": 1258, "black</w>": 1259, "education</w>": 1260, "gap</w>": 1261, "made</w>": 1262, "tic</w>": 1263, "Germany</w>": 1264, "contrast</w>": 1265, "2018</w>": 1266, "majorities</w>": 1267, "global</w>": 1268, "income</w>": 1269, "exam": 1270, "declin": 1271, "Roughly</w>": 1272, "eigh": 1273, "tics</w>": 1274, "current</w>": 1275, "adm": 1276, "point</w>": 1277, "47</w>": 1278, "if</w>": 1279, "ituation</w>": 1280, "avi": 1281, "e-in-ten</w>": 1282, "ethn": 1283, "54</w>": 1284, "ments</w>": 1285, "ide</w>": 1286, "23</w>": 1287, "60</w>": 1288, "fre": 1289, "two-thirds</w>": 1290, "typ": 1291, "aga": 1292, "GOP</w>": 1293, "aff": 1294, "tiz": 1295, "ong": 1296, "consi": 1297, "brea": 1298, "authorized</w>": 1299, "32</w>": 1300, "2007</w>": 1301, "shares</w>": 1302, "fore</w>": 1303, "ices</w>": 1304, "Overall</w>": 1305, "working</w>": 1306, "partisan</w>": 1307, "57</w>": 1308, "bro": 1309, "Views</w>": 1310, "term</w>": 1311, "36</w>": 1312, "ase</w>": 1313, "cle": 1314, "dent</w>": 1315, "level</w>": 1316, "To": 1317, "cour": 1318, "leaders</w>": 1319, "often</w>": 1320, "fuge": 1321, "blacks</w>": 1322, "Li": 1323, "four</w>": 1324, "red</w>": 1325, "cial</w>": 1326, "different</w>": 1327, "repres": 1328, "four-in-ten</w>": 1329, "ality</w>": 1330, "x-in-ten</w>": 1331, "ach": 1332, "approve</w>": 1333, "bu": 1334, "situation</w>": 1335, "Indi": 1336, "with": 1337, "ide": 1338, "led</w>": 1339, "ool</w>": 1340, "rus</w>": 1341, "There</w>": 1342, "recei": 1343, "42</w>": 1344, "53</w>": 1345, "Bus": 1346, "state</w>": 1347, "sec": 1348, "sus</w>": 1349, "supporters</w>": 1350, "ed": 1351, "ook</w>": 1352, "finan": 1353, "33</w>": 1354, "lat": 1355, "outh</w>": 1356, "workers</w>": 1357, "64</w>": 1358, "2011</w>": 1359, "Afric": 1360, "val</w>": 1361, "being</w>": 1362, "influ": 1363, "nu": 1364, "Maj": 1365, "En": 1366, "Jan": 1367, "conserv": 1368, "tra": 1369, "feel</w>": 1370, "President</w>": 1371, "58</w>": 1372, "experi": 1373, "Publi": 1374, "like</w>": 1375, "before</w>": 1376, "issue</w>": 1377, "clim": 1378, "ron": 1379, "force</w>": 1380, "ased</w>": 1381, "repor": 1382, "imp": 1383, "Gre": 1384, "dro": 1385, "fe</w>": 1386, "rating</w>": 1387, "lower</w>": 1388, "levels</w>": 1389, "descri": 1390, "hand": 1391, "scienti": 1392, "ability</w>": 1393, "accep": 1394, "Germ": 1395, "finds</w>": 1396, "school</w>": 1397, "Au": 1398, "nam": 1399, "total</w>": 1400, "break</w>": 1401, "Bush</w>": 1402, "times</w>": 1403, "Isra": 1404, "Dec": 1405, "question</w>": 1406, "ause</w>": 1407, "onally</w>": 1408, "ning</w>": 1409, "refuge": 1410, "Europe</w>": 1411, "part": 1412, "stric": 1413, "problem</w>": 1414, "70</w>": 1415, "cent</w>": 1416, "ully</w>": 1417, "family</w>": 1418, "sour": 1419, "threat</w>": 1420, "enni": 1421, "six-in-ten</w>": 1422, "trust</w>": 1423, "When</w>": 1424, "Mexico</w>": 1425, "immigration</w>": 1426, "Pe": 1427, "ends</w>": 1428, "does</w>": 1429, "ful</w>": 1430, "degree</w>": 1431, "unauthorized</w>": 1432, "key</w>": 1433, "mart": 1434, "personal</w>": 1435, "younger</w>": 1436, "spe": 1437, "mem": 1438, "Hou": 1439, "res</w>": 1440, "fic</w>": 1441, "impro": 1442, "ue</w>": 1443, "ris": 1444, "We": 1445, "quarters</w>": 1446, "generally</w>": 1447, "However</w>": 1448, "highest</w>": 1449, "disappro": 1450, "non-": 1451, "59</w>": 1452, "Di": 1453, "ate": 1454, "ess": 1455, "race</w>": 1456, "either</w>": 1457, "period</w>": 1458, "heard</w>": 1459, "ak": 1460, "ene": 1461, "attention</w>": 1462, "Catho": 1463, "56</w>": 1464, "outbreak</w>": 1465, "Public</w>": 1466, "lack</w>": 1467, "pan": 1468, "unfavorable</w>": 1469, "cies</w>": 1470, "still</w>": 1471, "read</w>": 1472, "logy</w>": 1473, "example</w>": 1474, "ced</w>": 1475, "dle</w>": 1476, "tre": 1477, "parties</w>": 1478, "pref": 1479, "deci": 1480, "stration</w>": 1481, "identif": 1482, "climate</w>": 1483, "sligh": 1484, "power</w>": 1485, "candidate</w>": 1486, "onavi": 1487, "large</w>": 1488, "coronavi": 1489, "role</w>": 1490, "62</w>": 1491, "yment</w>": 1492, "thr": 1493, "around</w>": 1494, "candidates</w>": 1495, "gun</w>": 1496, "coronavirus</w>": 1497, "March</w>": 1498, "them": 1499, "That</w>": 1500, "ticul": 1501, "Latinos</w>": 1502, "secon": 1503, "satis": 1504, "America</w>": 1505, "aller</w>": 1506, "into</w>": 1507, "org": 1508, "citiz": 1509, "Only</w>": 1510, "particul": 1511, "decline</w>": 1512, "teens</w>": 1513, "households</w>": 1514, "clear</w>": 1515, "main</w>": 1516, "hold</w>": 1517, "Su": 1518, "South</w>": 1519, "ingly</w>": 1520, "racial</w>": 1521, "loo": 1522, "63</w>": 1523, "tively</w>": 1524, "sum": 1525, "three-": 1526, "contro": 1527, "because</w>": 1528, "local</w>": 1529, "admini": 1530, "influence</w>": 1531, "bac": 1532, "European</w>": 1533, "Tur": 1534, "expres": 1535, "app": 1536, "estim": 1537, "side</w>": 1538, "ose</w>": 1539, "2009</w>": 1540, "leaning</w>": 1541, "growth</w>": 1542, "tech": 1543, "72</w>": 1544, "Le": 1545, "Mill": 1546, "liberal</w>": 1547, "conservative</w>": 1548, "Fran": 1549, "young</w>": 1550, "few</w>": 1551, "ership</w>": 1552, "Millenni": 1553, "ending</w>": 1554, "stan</w>": 1555, "EU</w>": 1556, "Fac": 1557, "est": 1558, "respec": 1559, "things</w>": 1560, "voted</w>": 1561, "elections</w>": 1562, "selves</w>": 1563, "smart": 1564, "grad": 1565, "great": 1566, "aniz": 1567, "impact</w>": 1568, "val": 1569, "opinions</w>": 1570, "specially</w>": 1571, "61</w>": 1572, "table</w>": 1573, "want</w>": 1574, "live</w>": 1575, "Latino</w>": 1576, "orig": 1577, "une</w>": 1578, "fri": 1579, "tit": 1580, "ones</w>": 1581, "broad": 1582, "1.": 1583, "seri": 1584, "going</w>": 1585, "dic": 1586, "erg": 1587, "stat": 1588, "substan": 1589, "80</w>": 1590, "ered</w>": 1591, "sure</w>": 1592, "cep": 1593, "inst</w>": 1594, "themselves</w>": 1595, "especially</w>": 1596, "he</w>": 1597, "lec": 1598, "close</w>": 1599, "Chri": 1600, "identify</w>": 1601, "Faceb": 1602, "using</w>": 1603, "debate</w>": 1604, "Facebook</w>": 1605, "Im": 1606, "under</w>": 1607, "People</w>": 1608, "Apri": 1609, "sul": 1610, "stern</w>": 1611, "part</w>": 1612, "growing</w>": 1613, "ous": 1614, "sever": 1615, "general</w>": 1616, "slightly</w>": 1617, "Fe": 1618, "Some</w>": 1619, "tial</w>": 1620, "previ": 1621, "accounted</w>": 1622, "agree</w>": 1623, "April</w>": 1624, "-leaning</w>": 1625, "Oc": 1626, "t-in-ten</w>": 1627, "stu": 1628, "nex": 1629, "surveys</w>": 1630, "declined</w>": 1631, "At</w>": 1632, "des</w>": 1633, "fall": 1634, "others</w>": 1635, "Muslim</w>": 1636, "et</w>": 1637, "foreign</w>": 1638, "Nor": 1639, "dis": 1640, "amoun": 1641, "refugees</w>": 1642, "Coverage</w>": 1643, "mat": 1644, "mea": 1645, "wide": 1646, "House</w>": 1647, "June</w>": 1648, "Sup": 1649, "problems</w>": 1650, "67</w>": 1651, "ak</w>": 1652, "pr": 1653, "ensus</w>": 1654, "Japan</w>": 1655, "0s</w>": 1656, "uly</w>": 1657, "organiz": 1658, "Com": 1659, "Mid": 1660, "van": 1661, "doing</w>": 1662, "religion</w>": 1663, "three-quarters</w>": 1664, "techno": 1665, "titud": 1666, "68</w>": 1667, "Al": 1668, "per</w>": 1669, "net": 1670, "strong</w>": 1671, "66</w>": 1672, "ating</w>": 1673, "largest</w>": 1674, "smaller</w>": 1675, "law</w>": 1676, "71</w>": 1677, "ail": 1678, "ject</w>": 1679, "decade</w>": 1680, "69</w>": 1681, "sites</w>": 1682, "making</w>": 1683, "Kore": 1684, "Since</w>": 1685, "2000</w>": 1686, "decad": 1687, "comparis": 1688, "Percent</w>": 1689, "Janu": 1690, "Econ": 1691, "air": 1692, "read": 1693, "pol": 1694, "against</w>": 1695, "members</w>": 1696, "Bu": 1697, "et": 1698, "ies</w>": 1699, "ze</w>": 1700, "stories</w>": 1701, "provi": 1702, "ish</w>": 1703, "off</w>": 1704, "previous</w>": 1705, "titudes</w>": 1706, "velo": 1707, "favorably</w>": 1708, "future</w>": 1709, "Germans</w>": 1710, "disapprove</w>": 1711, "Econom": 1712, "July</w>": 1713, "antly</w>": 1714, "deal</w>": 1715, "ry</w>": 1716, "dition</w>": 1717, "Christi": 1718, "January</w>": 1719, "done</w>": 1720, "we</w>": 1721, "seven": 1722, "rates</w>": 1723, "fili": 1724, "form</w>": 1725, "recor": 1726, "relatively</w>": 1727, "amount</w>": 1728, "ety</w>": 1729, "ming</w>": 1730, "says</w>": 1731, "concerned</w>": 1732, "married</w>": 1733, "administration</w>": 1734, "resul": 1735, "owners</w>": 1736, "comparison</w>": 1737, "give</w>": 1738, "generation</w>": 1739, "occ": 1740, "become</w>": 1741, "decades</w>": 1742, "bal": 1743, "vol": 1744, "wide</w>": 1745, "relation": 1746, "ho": 1747, "consist": 1748, "next</w>": 1749, "ave</w>": 1750, "sol": 1751, "services</w>": 1752, "Today</w>": 1753, "ref": 1754, "att": 1755, "acti": 1756, "position</w>": 1757, "ways</w>": 1758, "conf": 1759, "policies</w>": 1760, "marriage</w>": 1761, "eight-in-ten</w>": 1762, "Curr": 1763, "Sep": 1764, "US": 1765, "arri": 1766, "ith</w>": 1767, "commun": 1768, "velop": 1769, "seven-in-ten</w>": 1770, "foc": 1771, "view": 1772, "reau</w>": 1773, "priority</w>": 1774, "represent": 1775, "am</w>": 1776, "anese</w>": 1777, "compani": 1778, "regul": 1779, "consid": 1780, "now": 1781, "affili": 1782, "scientists</w>": 1783, "-born</w>": 1784, "abor</w>": 1785, "months</w>": 1786, "ethnic</w>": 1787, "another</w>": 1788, "2006</w>": 1789, "take</w>": 1790, "10": 1791, "igure</w>": 1792, "These</w>": 1793, "progr": 1794, "stitu": 1795, "handling</w>": 1796, "2.": 1797, "Sy": 1798, "grap": 1799, "CO": 1800, "ases</w>": 1801, "sm</w>": 1802, "concern</w>": 1803, "through</w>": 1804, "vari": 1805, "related</w>": 1806, "Ex": 1807, "fair</w>": 1808, "xed</w>": 1809, "west</w>": 1810, "Prote": 1811, "several</w>": 1812, "sh</w>": 1813, "Majorities</w>": 1814, "gradu": 1815, "onal": 1816, "abor": 1817, "place</w>": 1818, "Not</w>": 1819, "financial</w>": 1820, "ft</w>": 1821, "life</w>": 1822, "spite</w>": 1823, "confident</w>": 1824, "students</w>": 1825, "graph": 1826, "tional</w>": 1827, "marke": 1828, "relations</w>": 1829, "smartphone</w>": 1830, "ju": 1831, "ongly</w>": 1832, "Bureau</w>": 1833, "ord": 1834, "trac": 1835, "phones</w>": 1836, "Black</w>": 1837, "dou": 1838, "iting</w>": 1839, "states</w>": 1840, "may</w>": 1841, "approval</w>": 1842, "New</w>": 1843, "Wor": 1844, "under": 1845, "ight</w>": 1846, "particularly</w>": 1847, "origin</w>": 1848, "ID": 1849, "viron": 1850, "fair": 1851, "primar": 1852, "someone</w>": 1853, "regar": 1854, "France</w>": 1855, "USS</w>": 1856, "war</w>": 1857, "whel": 1858, "one-in-": 1859, "avail": 1860, "Millennials</w>": 1861, "Twit": 1862, "know</w>": 1863, "nec": 1864, "ce": 1865, "dr": 1866, "ital</w>": 1867, "vers": 1868, "spending</w>": 1869, "ligible</w>": 1870, "go</w>": 1871, "site</w>": 1872, "ins</w>": 1873, "ically</w>": 1874, "democ": 1875, "2019</w>": 1876, "fisc": 1877, "stri": 1878, "common</w>": 1879, "household</w>": 1880, "serious</w>": 1881, "fiscal</w>": 1882, "orism</w>": 1883, "resi": 1884, "month</w>": 1885, "companies</w>": 1886, "Fully</w>": 1887, "pat": 1888, "sment</w>": 1889, "tor": 1890, "ined</w>": 1891, "strongly</w>": 1892, "three-in-ten</w>": 1893, "Twitter</w>": 1894, "NA": 1895, "On</w>": 1896, "ban</w>": 1897, "bir": 1898, "six</w>": 1899, "develop": 1900, "ssional</w>": 1901, "Eng": 1902, "relationship</w>": 1903, "Bar": 1904, "Gen": 1905, "ering</w>": 1906, "airs</w>": 1907, "Ad": 1908, "Sh": 1909, "gin</w>": 1910, "trade</w>": 1911, "ought</w>": 1912, "tting</w>": 1913, "Africa</w>": 1914, "Cour": 1915, "Pal": 1916, "Youn": 1917, "mplo": 1918, "viol": 1919, "gender</w>": 1920, "Cu": 1921, "ash": 1922, "ale</w>": 1923, "having</w>": 1924, "Chinese</w>": 1925, "respondents</w>": 1926, "hearing</w>": 1927, "continue</w>": 1928, "significantly</w>": 1929, "Aug": 1930, "aki": 1931, "hum": 1932, "poor</w>": 1933, "latest</w>": 1934, "estini": 1935, "onald</w>": 1936, "Feb": 1937, "Rec": 1938, "person</w>": 1939, "citizens</w>": 1940, "abortion</w>": 1941, "Palestini": 1942, "could</w>": 1943, "kes</w>": 1944, "te</w>": 1945, "ind</w>": 1946, "spread</w>": 1947, "plat": 1948, "difference</w>": 1949, "immigrant</w>": 1950, "expect</w>": 1951, "Israel</w>": 1952, "COV": 1953, "3.": 1954, "Jo": 1955, "lier</w>": 1956, "lean</w>": 1957, "moder": 1958, "def": 1959, "Those</w>": 1960, "urity</w>": 1961, "stem</w>": 1962, "significant</w>": 1963, "Korea</w>": 1964, "COVID": 1965, "Op": 1966, "bile</w>": 1967, "indu": 1968, "-income</w>": 1969, "twice</w>": 1970, "larger</w>": 1971, "help</w>": 1972, "acceptable</w>": 1973, "satisfied</w>": 1974, "Tw": 1975, "based</w>": 1976, "preme</w>": 1977, "COVID-": 1978, "73</w>": 1979, "case</w>": 1980, "environ": 1981, "oms</w>": 1982, "voting</w>": 1983, "gely</w>": 1984, "paid</w>": 1985, "Supreme</w>": 1986, "fairly</w>": 1987, "COVID-19</w>": 1988, "78</w>": 1989, "Bo": 1990, "back</w>": 1991, "man": 1992, "ner</w>": 1993, "access</w>": 1994, "international</w>": 1995, "Catholic": 1996, "conflic": 1997, "75</w>": 1998, "76</w>": 1999, "Sen": 2000, "dev": 2001, "worse</w>": 2002, "newsho": 2003, "affairs</w>": 2004, "India</w>": 2005, "reported</w>": 2006, "advan": 2007, "2004</w>": 2008, "second</w>": 2009, "greater</w>": 2010, "Support</w>": 2011, "newshole</w>": 2012, "77</w>": 2013, "nati": 2014, "ran</w>": 2015, "ines</w>": 2016, "star": 2017, "Syri": 2018, "Catholics</w>": 2019, "So": 2020, "enough</w>": 2021, "seen</w>": 2022, "reason</w>": 2023, "effec": 2024, "terrorism</w>": 2025, "Currently</w>": 2026, "available</w>": 2027, "him</w>": 2028, "received</w>": 2029, "4.": 2030, "cum": 2031, "know": 2032, "ster</w>": 2033, "pped</w>": 2034, "Paki": 2035, "eligible</w>": 2036, "ember</w>": 2037, "largely</w>": 2038, "laws</w>": 2039, "Barack</w>": 2040, "Court</w>": 2041, "Can": 2042, "perform": 2043, "grown</w>": 2044, "mixed</w>": 2045, "December</w>": 2046, "Middle</w>": 2047, "0,000</w>": 2048, "Many</w>": 2049, "tain</w>": 2050, "stance</w>": 2051, "Nove": 2052, "control</w>": 2053, "Donald</w>": 2054, "East</w>": 2055, "ment": 2056, "om</w>": 2057, "The": 2058, "beg": 2059, "best</w>": 2060, "overwhel": 2061, "system</w>": 2062, "dri": 2063, "ues</w>": 2064, "mograph": 2065, "White</w>": 2066, "region</w>": 2067, "decision</w>": 2068, "technology</w>": 2069, "November</w>": 2070, "ful": 2071, "dig": 2072, "ign": 2073, "migrants</w>": 2074, "popular</w>": 2075, "74</w>": 2076, "bility</w>": 2077, "ditions</w>": 2078, "vement</w>": 2079, "ourn": 2080, "tend</w>": 2081, "famili": 2082, "Fav": 2083, "atis": 2084, "rise</w>": 2085, "sex</w>": 2086, "char": 2087, "cip": 2088, "police</w>": 2089, "bene": 2090, "lan": 2091, "sen": 2092, "spap": 2093, "politics</w>": 2094, "organizations</w>": 2095, "however</w>": 2096, "les</w>": 2097, "attitudes</w>": 2098, "possi": 2099, "mobile</w>": 2100, "suppor": 2101, "almost</w>": 2102, "ome": 2103, "terms</w>": 2104, "gelic": 2105, "ession</w>": 2106, "society</w>": 2107, "concerns</w>": 2108, "Asian</w>": 2109, "Col": 2110, "Wash": 2111, "mis": 2112, "remain</w>": 2113, "then</w>": 2114, "earlier</w>": 2115, "held</w>": 2116, "North</w>": 2117, "Sti": 2118, "Uni": 2119, "end": 2120, "ses": 2121, "ington</w>": 2122, "even": 2123, "haras": 2124, "describe</w>": 2125, "100</w>": 2126, "79</w>": 2127, "not": 2128, "sex": 2129, "given</w>": 2130, "lowing</w>": 2131, "border</w>": 2132, "remained</w>": 2133, "Iran</w>": 2134, "domin": 2135, "fall</w>": 2136, "reduc": 2137, "lish</w>": 2138, "officers</w>": 2139, "wat": 2140, "office</w>": 2141, "remains</w>": 2142, "friends</w>": 2143, "May</w>": 2144, "bil": 2145, "stud": 2146, "Washington</w>": 2147, "labor</w>": 2148, "anwhile</w>": 2149, "sam": 2150, "sources</w>": 2151, "Turkey</w>": 2152, "ther": 2153, "demograph": 2154, "forms</w>": 2155, "198": 2156, "Census</w>": 2157, "bo": 2158, "bus": 2159, "um</w>": 2160, "direc": 2161, "ditional</w>": 2162, "congre": 2163, "proj": 2164, "great</w>": 2165, "patter": 2166, "vity</w>": 2167, "usti": 2168, "ficit</w>": 2169, "Octo": 2170, "Still</w>": 2171, "Se": 2172, "kly</w>": 2173, "lowest</w>": 2174, "les": 2175, "med": 2176, "feel": 2177, "science</w>": 2178, "Japanese</w>": 2179, "performance</w>": 2180, "Do</w>": 2181, "Ge": 2182, "How</w>": 2183, "Not": 2184, "see": 2185, "margin</w>": 2186, "Vot": 2187, "ever</w>": 2188, "nat": 2189, "too": 2190, "iden</w>": 2191, "expressed</w>": 2192, "ournali": 2193, "cases</w>": 2194, "U.S.": 2195, "to-": 2196, "rights</w>": 2197, "Fewer</w>": 2198, "sexu": 2199, "Biden</w>": 2200, "ber": 2201, "newspap": 2202, "nuclear</w>": 2203, "October</w>": 2204, "Uk": 2205, "ia</w>": 2206, "sing": 2207, "changes</w>": 2208, "Western</w>": 2209, "National</w>": 2210, "cap": 2211, "cell</w>": 2212, "lit</w>": 2213, "nemplo": 2214, "adult</w>": 2215, "Inde": 2216, "stants</w>": 2217, "experience</w>": 2218, "fallen</w>": 2219, "Ukra": 2220, "call": 2221, "poll</w>": 2222, "ural</w>": 2223, "produc": 2224, "events</w>": 2225, "bud": 2226, "ges</w>": 2227, "tal": 2228, "ans": 2229, "TV</w>": 2230, "band</w>": 2231, "pas": 2232, "ring</w>": 2233, "aliz": 2234, "racy</w>": 2235, "busin": 2236, "oice</w>": 2237, "enced</w>": 2238, "atives</w>": 2239, "deal": 2240, "2005</w>": 2241, "tribu": 2242, "path": 2243, "big</w>": 2244, "without</w>": 2245, "nomin": 2246, "anti": 2247, "lines</w>": 2248, "recently</w>": 2249, "pain</w>": 2250, "numbers</w>": 2251, "currently</w>": 2252, "Meanwhile</w>": 2253, "ideo": 2254, "August</w>": 2255, "big": 2256, "mer</w>": 2257, "requ": 2258, "stand</w>": 2259, "Across</w>": 2260, "prefer": 2261, "5.": 2262, "ply</w>": 2263, "ants</w>": 2264, "publics</w>": 2265, "work": 2266, "Senate</w>": 2267, "Syria</w>": 2268, "Num": 2269, "eration</w>": 2270, "tially</w>": 2271, "sia</w>": 2272, "ame</w>": 2273, "dest</w>": 2274, "tele": 2275, "respectively</w>": 2276, "Protestants</w>": 2277, "Favor": 2278, "18": 2279, "Figure</w>": 2280, "Spain</w>": 2281, "ool": 2282, "angelic": 2283, "conditions</w>": 2284, "intere": 2285, "evangelic": 2286, "fact</w>": 2287, "effor": 2288, "oppose</w>": 2289, "measu": 2290, "medical</w>": 2291, "tro": 2292, "devoted</w>": 2293, "Sa": 2294, "Sur": 2295, "TO</w>": 2296, "With</w>": 2297, "asi": 2298, "cre": 2299, "reach": 2300, "mothers</w>": 2301, "portion</w>": 2302, "stru": 2303, "ously</w>": 2304, "English</w>": 2305, "Number</w>": 2306, "Span": 2307, "aily</w>": 2308, "tor</w>": 2309, "invol": 2310, "split</w>": 2311, "below</w>": 2312, "stry</w>": 2313, "responsi": 2314, "describ": 2315, "record</w>": 2316, "Spanish</w>": 2317, "Leb": 2318, "d-": 2319, "ep</w>": 2320, "ged</w>": 2321, "extre": 2322, "Afgh": 2323, "name</w>": 2324, "ately</w>": 2325, "Eg": 2326, "top": 2327, "incomes</w>": 2328, "presiden": 2329, "comple": 2330, "community</w>": 2331, "demographic</w>": 2332, "Egyp": 2333, "Te": 2334, "ken</w>": 2335, "mor": 2336, "deficit</w>": 2337, "migr": 2338, "source</w>": 2339, "balance</w>": 2340, "harassment</w>": 2341, "re</w>": 2342, "research</w>": 2343, "disc": 2344, "addition</w>": 2345, "vision</w>": 2346, "compu": 2347, "tically</w>": 2348, "school": 2349, "Great</w>": 2350, "prin": 2351, "Christians</w>": 2352, "Septe": 2353, "NATO</w>": 2354, "pay</w>": 2355, "along</w>": 2356, "icity</w>": 2357, "rising</w>": 2358, "show</w>": 2359, "Republican": 2360, "increasing</w>": 2361, "Sim": 2362, "ay": 2363, "ana</w>": 2364, "st-": 2365, "amati": 2366, "generations</w>": 2367, "within</w>": 2368, "nual</w>": 2369, "Geor": 2370, "took</w>": 2371, "September</w>": 2372, "Simil": 2373, "ath</w>": 2374, "never</w>": 2375, "seven</w>": 2376, "defin": 2377, "preh": 2378, "ements</w>": 2379, "debt</w>": 2380, "shoot": 2381, "democracy</w>": 2382, "Ita": 2383, "t.</w>": 2384, "legi": 2385, "ented</w>": 2386, "rather</w>": 2387, "plac": 2388, "continues</w>": 2389, "consistently</w>": 2390, "84</w>": 2391, "ders</w>": 2392, "long</w>": 2393, "ped</w>": 2394, "list</w>": 2395, "kep": 2396, "residents</w>": 2397, "conflict</w>": 2398, "prehen": 2399, "ures</w>": 2400, "thought</w>": 2401, "ada</w>": 2402, "priv": 2403, "tain": 2404, "legally</w>": 2405, "response</w>": 2406, "Economic</w>": 2407, "violence</w>": 2408, "Febru": 2409, "single</w>": 2410, "Surve": 2411, "days</w>": 2412, "every</w>": 2413, "threat": 2414, "dom</w>": 2415, "Project</w>": 2416, "effect</w>": 2417, "frequ": 2418, "reports</w>": 2419, "prefer</w>": 2420, "applic": 2421, "families</w>": 2422, "February</w>": 2423, "Jord": 2424, "anistan</w>": 2425, "personally</w>": 2426, "Medi": 2427, "equal</w>": 2428, "market</w>": 2429, "dramati": 2430, "crisis</w>": 2431, "risen</w>": 2432, "congressional</w>": 2433, "budget</w>": 2434, "adi": 2435, "late</w>": 2436, "rele": 2437, "alth": 2438, "acy</w>": 2439, "separ": 2440, "excell": 2441, "elected</w>": 2442, "Russians</w>": 2443, "Isl": 2444, "histor": 2445, "liber": 2446, "consider": 2447, "Afghanistan</w>": 2448, "81</w>": 2449, "83</w>": 2450, "unemplo": 2451, "rated</w>": 2452, "year-": 2453, "dating</w>": 2454, "shows</w>": 2455, "Acc": 2456, "areas</w>": 2457, "opposed</w>": 2458, "values</w>": 2459, "ceptions</w>": 2460, "viewed</w>": 2461, "Pakistan</w>": 2462, "possible</w>": 2463, "dealing</w>": 2464, "Pri": 2465, "Ver": 2466, "cul": 2467, "asses": 2468, "comparable</w>": 2469, "engag": 2470, "employment</w>": 2471, "security</w>": 2472, "partner</w>": 2473, "presidency</w>": 2474, "legis": 2475, "Bra": 2476, "tors</w>": 2477, "row</w>": 2478, "nee": 2479, "addre": 2480, "olds</w>": 2481, "unchanged</w>": 2482, "getting</w>": 2483, "minority</w>": 2484, "court</w>": 2485, "platforms</w>": 2486, "It</w>": 2487, "No</w>": 2488, "mul": 2489, "nin": 2490, "prot": 2491, "questions</w>": 2492, "sym": 2493, "6.": 2494, "85</w>": 2495, "Over</w>": 2496, "fell</w>": 2497, "on-": 2498, "stra": 2499, "typical</w>": 2500, "dropped</w>": 2501, "estimates</w>": 2502, "program</w>": 2503, "digital</w>": 2504, "1,": 2505, "82</w>": 2506, "PE": 2507, "Ph": 2508, "dings</w>": 2509, "rit": 2510, "ground</w>": 2511, "turn</w>": 2512, "continued</w>": 2513, "small</w>": 2514, "logical</w>": 2515, "foreign": 2516, "Half</w>": 2517, "sive</w>": 2518, "ness</w>": 2519, "Despite</w>": 2520, "me-": 2521, "oods</w>": 2522, "Mexicans</w>": 2523, "tually</w>": 2524, "status</w>": 2525, "attacks</w>": 2526, "Boom": 2527, "cla": 2528, "nout</w>": 2529, "ob": 2530, "illegal</w>": 2531, "ples</w>": 2532, "Democratic": 2533, "educated</w>": 2534, "George</w>": 2535, "-to-": 2536, "..</w>": 2537, "Lati": 2538, "cite</w>": 2539, "den</w>": 2540, "ging</w>": 2541, "ense</w>": 2542, "lives</w>": 2543, "follow</w>": 2544, "find</w>": 2545, "lam</w>": 2546, "docum": 2547, "rices</w>": 2548, "consider</w>": 2549, "focused</w>": 2550, "graduates</w>": 2551, "excellent</w>": 2552, "Latin</w>": 2553, "male</w>": 2554, "tici": 2555, "ult</w>": 2556, "ergy</w>": 2557, "substantially</w>": 2558, "Two": 2559, "eli": 2560, "inve": 2561, "restric": 2562, "old</w>": 2563, "Thre": 2564, "standing</w>": 2565, "Islam</w>": 2566, "Press</w>": 2567, "moderate</w>": 2568, "Islam": 2569, "Pol": 2570, "dra": 2571, "long": 2572, "ut": 2573, "tin</w>": 2574, "poten": 2575, "suc": 2576, "vide": 2577, "due</w>": 2578, "leading</w>": 2579, "one-in-five</w>": 2580, "versity</w>": 2581, "Cub": 2582, "advant": 2583, "Canada</w>": 2584, "Braz": 2585, "includes</w>": 2586, "experienced</w>": 2587, "Ukraine</w>": 2588, "Survey</w>": 2589, "Even</w>": 2590, "Elec": 2591, "Lar": 2592, "ake</w>": 2593, "your</w>": 2594, "same-": 2595, "neigh": 2596, "emerg": 2597, "Poli": 2598, "Note</w>": 2599, "According</w>": 2600, "86</w>": 2601, "her</w>": 2602, "ren": 2603, "sk": 2604, "ard</w>": 2605, "sting</w>": 2606, "2020</w>": 2607, "approved</w>": 2608, "two-in-ten</w>": 2609, "offici": 2610, "human</w>": 2611, "study</w>": 2612, "same-sex</w>": 2613, "He": 2614, "annual</w>": 2615, "lions</w>": 2616, "action</w>": 2617, "mail</w>": 2618, "ches</w>": 2619, "head</w>": 2620, "Popul": 2621, "ateg": 2622, "broadband</w>": 2623, "Nig": 2624, "dly</w>": 2625, "lic</w>": 2626, "pur": 2627, "member</w>": 2628, "worri": 2629, "content</w>": 2630, "eight</w>": 2631, "widely</w>": 2632, "reached</w>": 2633, "daily</w>": 2634, "hom": 2635, "ove</w>": 2636, "always</w>": 2637, "Republican-leaning</w>": 2638, "fully</w>": 2639, "prices</w>": 2640, "parts</w>": 2641, "duce</w>": 2642, "one-in-ten</w>": 2643, "leader</w>": 2644, "mid-": 2645, "substantial</w>": 2646, "primary</w>": 2647, "billion</w>": 2648, "protect</w>": 2649, "PEJ</w>": 2650, "Niger": 2651, "land</w>": 2652, "although</w>": 2653, "lead</w>": 2654, "death</w>": 2655, "weeks</w>": 2656, "ethnicity</w>": 2657, "summer</w>": 2658, "Younger</w>": 2659, "Democratic-leaning</w>": 2660, "Ano": 2661, "cement</w>": 2662, "hind</w>": 2663, "vacc": 2664, "pover": 2665, "optim": 2666, "2002</w>": 2667, "Palestinians</w>": 2668, "began</w>": 2669, "nine-in-ten</w>": 2670, "Islamic</w>": 2671, "Another</w>": 2672, "Ne": 2673, "categ": 2674, "fits</w>": 2675, "ping</w>": 2676, "twee": 2677, "disp": 2678, "ady</w>": 2679, "proportion</w>": 2680, "marks</w>": 2681, "findings</w>": 2682, "offer</w>": 2683, "dividu": 2684, "Mexican</w>": 2685, "Europeans</w>": 2686, "sympath": 2687, "foreign-born</w>": 2688, "Have</w>": 2689, "ely</w>": 2690, "ssa": 2691, "indic": 2692, "apprehen": 2693, "tests</w>": 2694, "included</w>": 2695, "former</w>": 2696, "child</w>": 2697, "middle</w>": 2698, "employed</w>": 2699, "activi": 2700, "sample</w>": 2701, "Jordan</w>": 2702, "Other</w>": 2703, "evi": 2704, "instance</w>": 2705, "ands</w>": 2706, "ney</w>": 2707, "bled</w>": 2708, "account</w>": 2709, "Index</w>": 2710, "potential</w>": 2711, "cu": 2712, "done": 2713, "consum": 2714, "behind</w>": 2715, "grew</w>": 2716, "Indone": 2717, "Chan": 2718, "look</w>": 2719, "regarding</w>": 2720, "Opini": 2721, "Union</w>": 2722, "pattern</w>": 2723, "separate</w>": 2724, "unemployment</w>": 2725, "-year-": 2726, "food</w>": 2727, "lies</w>": 2728, "parent</w>": 2729, "voter</w>": 2730, "plur": 2731, "particip": 2732, "improve</w>": 2733, "Catholic</w>": 2734, "widespread</w>": 2735, "necess": 2736, "documented</w>": 2737, "At": 2738, "Say</w>": 2739, "Women</w>": 2740, "ain</w>": 2741, "justi": 2742, "mingly</w>": 2743, "onger</w>": 2744, "ech</w>": 2745, "civi": 2746, "weekly</w>": 2747, "certain</w>": 2748, "include</w>": 2749, "sharply</w>": 2750, "illing</w>": 2751, "helor</w>": 2752, "crime</w>": 2753, "area</w>": 2754, "risk</w>": 2755, "estimated</w>": 2756, "Share</w>": 2757, "They</w>": 2758, "Very</w>": 2759, "cy": 2760, "cess</w>": 2761, "nar": 2762, "t-": 2763, "actions</w>": 2764, "above</w>": 2765, "shor": 2766, "coming</w>": 2767, "tem": 2768, "turnout</w>": 2769, "Around</w>": 2770, "buil": 2771, "alization</w>": 2772, "multi": 2773, "poverty</w>": 2774, "An</w>": 2775, "fun": 2776, "sro": 2777, "vic": 2778, "ory</w>": 2779, "ads</w>": 2780, "true</w>": 2781, "suring</w>": 2782, "fication</w>": 2783, "free</w>": 2784, "result</w>": 2785, "affiliated</w>": 2786, "juana</w>": 2787, "Jews</w>": 2788, "f-": 2789, "oil</w>": 2790, "once</w>": 2791, "stant</w>": 2792, "propo": 2793, "chur": 2794, "mination</w>": 2795, "venue</w>": 2796, "Are</w>": 2797, "activity</w>": 2798, "Social</w>": 2799, "full</w>": 2800, "responsibility</w>": 2801, "officials</w>": 2802, "87</w>": 2803, "88</w>": 2804, "ency</w>": 2805, "allowing</w>": 2806, "service</w>": 2807, "Russian</w>": 2808, "networking</w>": 2809, "ready</w>": 2810, "mental</w>": 2811, "Last</w>": 2812, "down": 2813, "gas</w>": 2814, "taking</w>": 2815, "ofU.S</w>": 2816, "midterm</w>": 2817, "cellphone</w>": 2818, "decisions</w>": 2819, "bachelor</w>": 2820, "schools</w>": 2821, "Similarly</w>": 2822, "Boomers</w>": 2823, "UK</w>": 2824, "cast</w>": 2825, "ize</w>": 2826, "anon</w>": 2827, "order</w>": 2828, "saw</w>": 2829, "ece</w>": 2830, "discri": 2831, "versa": 2832, "spring</w>": 2833, "range</w>": 2834, "sometimes</w>": 2835, "faction</w>": 2836, "-third</w>": 2837, "speak</w>": 2838, "World</w>": 2839, "television</w>": 2840, "evangelical</w>": 2841, "Lebanon</w>": 2842, "ser</w>": 2843, "y-": 2844, "individu": 2845, "opposition</w>": 2846, "diffic": 2847, "sharing</w>": 2848, "ential</w>": 2849, "ownership</w>": 2850, "Putin</w>": 2851, "Indians</w>": 2852, "scientific</w>": 2853, "results</w>": 2854, "birth</w>": 2855, "Egypt</w>": 2856, "migration</w>": 2857, "activities</w>": 2858, "...</w>": 2859, "cited</w>": 2860, "fel": 2861, "lation</w>": 2862, "listed</w>": 2863, "active</w>": 2864, "streng": 2865, "millions</w>": 2866, "increasingly</w>": 2867, "Recession</w>": 2868, "neighbor": 2869, "Brit": 2870, "Ol": 2871, "Sec": 2872, "rol": 2873, "set</w>": 2874, "igures</w>": 2875, "fit</w>": 2876, "chec": 2877, "recover": 2878, "stands</w>": 2879, "spects</w>": 2880, "Asians</w>": 2881, "equally</w>": 2882, "Lib": 2883, "defense</w>": 2884, "industry</w>": 2885, "environment</w>": 2886, "overwhelmingly</w>": 2887, "evenly</w>": 2888, "ournalism</w>": 2889, "7.": 2890, "TE": 2891, "da</w>": 2892, "rul": 2893, "skep": 2894, "pow": 2895, "ams</w>": 2896, "porting</w>": 2897, "prior</w>": 2898, "one-": 2899, "unities</w>": 2900, "employe": 2901, "back": 2902, "Yor": 2903, "ca": 2904, "well": 2905, "associ": 2906, "minorities</w>": 2907, "hard</w>": 2908, "Excell": 2909, "efforts</w>": 2910, "Mar": 2911, "Rom": 2912, "Yet</w>": 2913, "thu": 2914, "stay</w>": 2915, "posts</w>": 2916, "gry</w>": 2917, "Which</w>": 2918, "disagree</w>": 2919, "equality</w>": 2920, "Greece</w>": 2921, "Is</w>": 2922, "Of</w>": 2923, "US</w>": 2924, "ners</w>": 2925, "wall</w>": 2926, "ining</w>": 2927, "inning</w>": 2928, "energy</w>": 2929, "contribu": 2930, "spend</w>": 2931, "urban</w>": 2932, "trend</w>": 2933, "counter": 2934, "positions</w>": 2935, "identified</w>": 2936, "lesbi": 2937, "business</w>": 2938, "althy</w>": 2939, "Health</w>": 2940, "W.</w>": 2941, "astern</w>": 2942, "rese": 2943, "already</w>": 2944, "aci": 2945, "led": 2946, "cir": 2947, "messa": 2948, "mari": 2949, "oughout</w>": 2950, "stand": 2951, "One</w>": 2952, "again</w>": 2953, "Majority</w>": 2954, "developing</w>": 2955, "Italy</w>": 2956, "9.": 2957, "Rat": 2958, "encour": 2959, "rose</w>": 2960, "makes</w>": 2961, "outside</w>": 2962, "steady</w>": 2963, "coh": 2964, "types</w>": 2965, "measure</w>": 2966, "Comm": 2967, "benefits</w>": 2968, "discrimination</w>": 2969, "marijuana</w>": 2970, "Ratings</w>": 2971, "Mc": 2972, "ppen": 2973, "institu": 2974, "lid</w>": 2975, "2001</w>": 2976, "favored</w>": 2977, "1980</w>": 2978, "satisfaction</w>": 2979, "anti-": 2980, "considerably</w>": 2981, "Population</w>": 2982, "-time</w>": 2983, "0.": 2984, "car": 2985, "hood</w>": 2986, "wr": 2987, "ina</w>": 2988, "revenue</w>": 2989, "comb": 2990, "means</w>": 2991, "teen</w>": 2992, "tax</w>": 2993, "coll": 2994, ",00": 2995, "came</w>": 2996, "ills</w>": 2997, "face</w>": 2998, "attend</w>": 2999, "type</w>": 3000, "partment</w>": 3001, "employees</w>": 3002, "Fl": 3003, "ither</w>": 3004, "run": 3005, "rural</w>": 3006, "ya</w>": 3007, "happ": 3008, "protec": 3009, "turned</w>": 3010, "divide</w>": 3011, "one-third</w>": 3012, "self-": 3013, "atistics</w>": 3014, "sroom</w>": 3015, "ops</w>": 3016, "works</w>": 3017, "teach": 3018, "plan</w>": 3019, "differ</w>": 3020, "entiment</w>": 3021, "educational</w>": 3022, "expected</w>": 3023, "Austra": 3024, "spea": 3025, "newspapers</w>": 3026, "biggest</w>": 3027, "private</w>": 3028, "Australi": 3029, "5,000</w>": 3030, "Few</w>": 3031, "Global</w>": 3032, "Journalism</w>": 3033, "Less</w>": 3034, "rely</w>": 3035, "sta": 3036, "size</w>": 3037, "aby</w>": 3038, "undocumented</w>": 3039, "lowed</w>": 3040, "lum</w>": 3041, "importance</w>": 3042, "warming</w>": 3043, "partis": 3044, "sments</w>": 3045, "African</w>": 3046, "Jan.</w>": 3047, "drop</w>": 3048, "consistent</w>": 3049, "focus</w>": 3050, "reducing</w>": 3051, "struc": 3052, "emerging</w>": 3053, "-year-olds</w>": 3054, "Britain</w>": 3055, "As": 3056, "Ric": 3057, "Some": 3058, "cally</w>": 3059, "sentiment</w>": 3060, "thous": 3061, "neither</w>": 3062, "modest</w>": 3063, "connec": 3064, "dem": 3065, "tru": 3066, "pris": 3067, "Confi": 3068, "known</w>": 3069, "direction</w>": 3070, "Favorable</w>": 3071, "Two-thirds</w>": 3072, "long-": 3073, "York</w>": 3074, "Romney</w>": 3075, "1,000</w>": 3076, "Gu": 3077, "LG": 3078, "cover": 3079, "care": 3080, "gone</w>": 3081, "might</w>": 3082, "vals</w>": 3083, "angry</w>": 3084, "reli": 3085, "verse</w>": 3086, "ury</w>": 3087, "decreas": 3088, "taken</w>": 3089, "identity</w>": 3090, "Mea": 3091, "course</w>": 3092, "improved</w>": 3093, "device</w>": 3094, "effects</w>": 3095, "class</w>": 3096, "90</w>": 3097, "Or": 3098, "Paci": 3099, "fl": 3100, "ole</w>": 3101, "an-": 3102, "anc": 3103, "rest</w>": 3104, "distric": 3105, "adop": 3106, "happen": 3107, "Religi": 3108, "asy": 3109, "chall": 3110, "accur": 3111, "favorability</w>": 3112, "highly</w>": 3113, "shared</w>": 3114, "Internet</w>": 3115, "Cain</w>": 3116, "traditional</w>": 3117, "affiliation</w>": 3118, "Excellence</w>": 3119, "Pacific</w>": 3120, "-year</w>": 3121, "BT</w>": 3122, "Educ": 3123, "From</w>": 3124, "dle": 3125, "jud": 3126, "land": 3127, "reform</w>": 3128, "logi": 3129, "lets</w>": 3130, "wealth</w>": 3131, "worry</w>": 3132, "ems</w>": 3133, "Parti": 3134, "terrori": 3135, "Although</w>": 3136, "Economy</w>": 3137, "reflec": 3138, "projected</w>": 3139, "Voters</w>": 3140, "passed</w>": 3141, "computer</w>": 3142, "worried</w>": 3143, "Confidence</w>": 3144, "Grow": 3145, "War</w>": 3146, "dru": 3147, "gay</w>": 3148, "itted</w>": 3149, "atively</w>": 3150, "versus</w>": 3151, "ext</w>": 3152, "choice</w>": 3153, "tested</w>": 3154, "1990</w>": 3155, "expan": 3156, "German</w>": 3157, "looking</w>": 3158, "occup": 3159, "programs</w>": 3160, "Generation</w>": 3161, "devices</w>": 3162, "interests</w>": 3163, "frequently</w>": 3164, "Phili": 3165, "LGBT</w>": 3166, "IS": 3167, "One": 3168, "figures</w>": 3169, "mism</w>": 3170, "assi": 3171, "reasons</w>": 3172, "treat": 3173, "births</w>": 3174, "necessary</w>": 3175, "thusi": 3176, "Flori": 3177, "Philipp": 3178, "Be": 3179, "Xi</w>": 3180, "fer": 3181, "why</w>": 3182, "vir": 3183, "iled</w>": 3184, "protests</w>": 3185, "perceptions</w>": 3186, "giving</w>": 3187, "peak</w>": 3188, "law": 3189, "regions</w>": 3190, "represents</w>": 3191, "regulations</w>": 3192, "Young</w>": 3193, "Palestinian</w>": 3194, "measures</w>": 3195, "apprehensions</w>": 3196, "-point</w>": 3197, "hand</w>": 3198, "ur</w>": 3199, "leave</w>": 3200, "vis": 3201, "prev": 3202, "excep": 3203, "istic</w>": 3204, "2003</w>": 3205, "economies</w>": 3206, "specific</w>": 3207, "nation": 3208, "overwhelming</w>": 3209, "ideological</w>": 3210, "Cuba</w>": 3211, "Nigeria</w>": 3212, "Indonesia</w>": 3213, "Florida</w>": 3214, "89</w>": 3215, "Gen</w>": 3216, "God</w>": 3217, "Sour": 3218, "ai": 3219, "cou": 3220, "clu": 3221, "ee</w>": 3222, "mone": 3223, "rich</w>": 3224, "tes</w>": 3225, "won</w>": 3226, "xes</w>": 3227, "inten": 3228, "al-": 3229, "ects</w>": 3230, "siz": 3231, "iling</w>": 3232, "ults</w>": 3233, "exper": 3234, "keep</w>": 3235, "gets</w>": 3236, "believ": 3237, "released</w>": 3238, "difficult</w>": 3239, "McCain</w>": 3240, "asylum</w>": 3241, "8.": 3242, "Eastern</w>": 3243, "Tuni": 3244, "dom": 3245, "nine</w>": 3246, "ral</w>": 3247, "ys": 3248, "ant": 3249, "acted</w>": 3250, "ecu": 3251, "very": 3252, "shed</w>": 3253, "closer</w>": 3254, "head": 3255, "coop": 3256, "particular</w>": 3257, "supportive</w>": 3258, "See</w>": 3259, "sexual</w>": 3260, "applications</w>": 3261, "thusias": 3262, "Philippines</w>": 3263, "money</w>": 3264, "91</w>": 3265, "Sil": 3266, "dol": 3267, "uel": 3268, "er-income</w>": 3269, "ening</w>": 3270, "allies</w>": 3271, "left</w>": 3272, "unaffiliated</w>": 3273, "cially</w>": 3274, "plays</w>": 3275, "What</w>": 3276, "shift</w>": 3277, "accounting</w>": 3278, "Posi": 3279, "agreement</w>": 3280, "territ": 3281, "Diff": 3282, "Compar": 3283, "communic": 3284, "Sahar": 3285, "assessments</w>": 3286, "Election</w>": 3287, "Bet": 3288, "Fore": 3289, "foods</w>": 3290, "lac": 3291, "ption</w>": 3292, "s-": 3293, "zuel": 3294, "dise": 3295, "conn": 3296, "show": 3297, "profe": 3298, "fiel": 3299, "self</w>": 3300, "1990s</w>": 3301, "doubled</w>": 3302, "knowled": 3303, "U.S.-born</w>": 3304, "threats</w>": 3305, "restrictions</w>": 3306, "Large</w>": 3307, "plurality</w>": 3308, "counterparts</w>": 3309, "Cam": 3310, "Ken": 3311, "Vene": 3312, "ahead</w>": 3313, "gun": 3314, "hn</w>": 3315, "acter": 3316, "abili": 3317, "lear": 3318, "versi": 3319, "tran": 3320, "positively</w>": 3321, "Conserv": 3322, "shif": 3323, "factor</w>": 3324, "named</w>": 3325, "Sept.</w>": 3326, "feelings</w>": 3327, "Median</w>": 3328, "Poland</w>": 3329, "evidence</w>": 3330, "Venezuel": 3331, "Appro": 3332, "Coun": 3333, "Day</w>": 3334, "Govern": 3335, "IS</w>": 3336, "Mu": 3337, "Si": 3338, "West</w>": 3339, "bas": 3340, "gam": 3341, "sage</w>": 3342, "despite</w>": 3343, "Department</w>": 3344, "image</w>": 3345, "impres": 3346, "pla": 3347, "middle": 3348, "official</w>": 3349, "expressing</w>": 3350, "tracked</w>": 3351, "video</w>": 3352, "well-": 3353, "thousands</w>": 3354, "Measuring</w>": 3355, "50": 3356, "flu": 3357, "native</w>": 3358, "tom": 3359, "vary</w>": 3360, "lived</w>": 3361, "itely</w>": 3362, "stable</w>": 3363, "terans</w>": 3364, "rais": 3365, "plom": 3366, "audi": 3367, "Asia</w>": 3368, "Arab": 3369, "editing</w>": 3370, "Israel": 3371, "dissatisfied</w>": 3372, "langu": 3373, "places</w>": 3374, "tainment</w>": 3375, "advantage</w>": 3376, "Somewhat</w>": 3377, "Average</w>": 3378, "New": 3379, "cl": 3380, "figure</w>": 3381, "mini": 3382, "erto</w>": 3383, "whose</w>": 3384, "stre": 3385, "need</w>": 3386, "forcement</w>": 3387, "run</w>": 3388, "gain</w>": 3389, "Puerto</w>": 3390, "mix</w>": 3391, "Christian</w>": 3392, "represented</w>": 3393, "understand</w>": 3394, "justified</w>": 3395, "proposa": 3396, "Partisan</w>": 3397, "ISIS</w>": 3398, "Saharan</w>": 3399, "During</w>": 3400, "To</w>": 3401, "gle</w>": 3402, "sli": 3403, "ssing</w>": 3404, "whom</w>": 3405, "stoc": 3406, "havi": 3407, "shown</w>": 3408, "Democr": 3409, "gave</w>": 3410, "State</w>": 3411, "correc": 3412, "Likely</w>": 3413, "receive</w>": 3414, "double</w>": 3415, "shootings</w>": 3416, "dramatically</w>": 3417, "-to-one</w>": 3418, "sympathize</w>": 3419, "Swe": 3420, "iden": 3421, "inci": 3422, "ici": 3423, "achi": 3424, "diplom": 3425, "female</w>": 3426, "play</w>": 3427, "outlets</w>": 3428, "corpor": 3429, "declining</w>": 3430, "essential</w>": 3431, "statement</w>": 3432, "organization</w>": 3433, "polls</w>": 3434, "varies</w>": 3435, "environmental</w>": 3436, "feeling</w>": 3437, "called</w>": 3438, "felt</w>": 3439, "Loo": 3440, "Sm": 3441, "Sp": 3442, "vice</w>": 3443, "enthusias": 3444, "itt": 3445, "move</w>": 3446, "adju": 3447, "additional</w>": 3448, "behavi": 3449, "file</w>": 3450, "exi": 3451, "unfavorably</w>": 3452, "ching</w>": 3453, "solid</w>": 3454, "taxes</w>": 3455, "Concer": 3456, "something</w>": 3457, "financially</w>": 3458, "Adults</w>": 3459, "driven</w>": 3460, "requi": 3461, "lesbians</w>": 3462, "virtually</w>": 3463, "-Saharan</w>": 3464, "11": 3465, "All</w>": 3466, "Cri": 3467, "Str": 3468, "Tu": 3469, "prac": 3470, "v.</w>": 3471, "losing</w>": 3472, "percent</w>": 3473, "ire</w>": 3474, "marry</w>": 3475, "Indepen": 3476, "ofus</w>": 3477, "identification</w>": 3478, "throughout</w>": 3479, "Millennial</w>": 3480, "newspaper</w>": 3481, "workforce</w>": 3482, "troops</w>": 3483, "Mic": 3484, "RE": 3485, "Total</w>": 3486, "ban": 3487, "wage</w>": 3488, "any": 3489, "tion": 3490, "reduce</w>": 3491, "lost</w>": 3492, "adver": 3493, "2050</w>": 3494, "open": 3495, "progress</w>": 3496, "nothing</w>": 3497, "execu": 3498, "web": 3499, "worth</w>": 3500, "grees</w>": 3501, "plan": 3502, "alities</w>": 3503, "cost</w>": 3504, "second-": 3505, "Lead": 3506, "reading</w>": 3507, "provide</w>": 3508, "occur": 3509, "character": 3510, "legislation</w>": 3511, "needs</w>": 3512, "Brazil</w>": 3513, "br": 3514, "rap": 3515, "voice</w>": 3516, "condition</w>": 3517, "uses</w>": 3518, "recession</w>": 3519, "paying</w>": 3520, "paign</w>": 3521, "governments</w>": 3522, "populations</w>": 3523, "high-": 3524, "stig": 3525, "leges</w>": 3526, "Statistics</w>": 3527, "solve</w>": 3528, "Job</w>": 3529, "definitely</w>": 3530, "engaged</w>": 3531, "ticism</w>": 3532, "rench</w>": 3533, "knowledge</w>": 3534, "Democrat</w>": 3535, "French</w>": 3536, "Men</w>": 3537, "a-": 3538, "boo": 3539, "book</w>": 3540, "arity</w>": 3541, "enship</w>": 3542, "diversity</w>": 3543, "esses</w>": 3544, "estic</w>": 3545, "phys": 3546, "minim": 3547, "presidents</w>": 3548, "belief</w>": 3549, "tish</w>": 3550, "Divi": 3551, "pandem": 3552, "hosp": 3553, "Their</w>": 3554, "thern</w>": 3555, "describes</w>": 3556, "address</w>": 3557, "draw": 3558, "background</w>": 3559, "partisans</w>": 3560, "Campaign</w>": 3561, "Government</w>": 3562, "identical</w>": 3563, "Baby</w>": 3564, "Hill": 3565, "Qu": 3566, "pic": 3567, "tari": 3568, "wan": 3569, "lity</w>": 3570, "life": 3571, "sug": 3572, "near</w>": 3573, "weap": 3574, "aps</w>": 3575, "apps</w>": 3576, "alized</w>": 3577, "lars</w>": 3578, "holds</w>": 3579, "math</w>": 3580, "industri": 3581, "supported</w>": 3582, "U.S.-": 3583, "print</w>": 3584, "Neg": 3585, "Attitudes</w>": 3586, "wrong</w>": 3587, "stock</w>": 3588, "Looking</w>": 3589, "pandemic</w>": 3590, "Hillary</w>": 3591, "1,00": 3592, "Both</w>": 3593, "For": 3594, "Fol": 3595, "Ser": 3596, "bar": 3597, "ek</w>": 3598, "sses</w>": 3599, "let</w>": 3600, "post-": 3601, "conversa": 3602, "ched</w>": 3603, "appe": 3604, "pessi": 3605, "increases</w>": 3606, "autom": 3607, "leadership</w>": 3608, "goals</w>": 3609, "polled</w>": 3610, "representative</w>": 3611, "natur": 3612, "talk</w>": 3613, "interested</w>": 3614, "described</w>": 3615, "optimistic</w>": 3616, "institutions</w>": 3617, "Source</w>": 3618, "Israeli</w>": 3619, "adjusted</w>": 3620, "'re</w>": 3621, "95</w>": 3622, "Bri": 3623, "Gi": 3624, "Sal": 3625, "STE": 3626, "Tim": 3627, "Use</w>": 3628, "aw": 3629, "date</w>": 3630, "grow</w>": 3631, "osexu": 3632, "enrol": 3633, "degrees</w>": 3634, "unity</w>": 3635, "pass</w>": 3636, "priorities</w>": 3637, "colleges</w>": 3638, "steadi": 3639, "broad</w>": 3640, "refl": 3641, "developments</w>": 3642, "platform</w>": 3643, "John</w>": 3644, "start</w>": 3645, "skeptical</w>": 3646, "Australia</w>": 3647, "dollars</w>": 3648, "guns</w>": 3649, "92</w>": 3650, "AA": 3651, "Cali": 3652, "Gr": 3653, "email</w>": 3654, "sha": 3655, "yon": 3656, "thly</w>": 3657, "tising</w>": 3658, "constitu": 3659, "veterans</w>": 3660, "process</w>": 3661, "cho": 3662, "perman": 3663, "votes</w>": 3664, "quite</w>": 3665, "eping</w>": 3666, "religiously</w>": 3667, "probably</w>": 3668, "two-to-one</w>": 3669, "receives</w>": 3670, "greatest</w>": 3671, "tory</w>": 3672, "capit": 3673, "investig": 3674, "Political</w>": 3675, "British</w>": 3676, "steadily</w>": 3677, "'ve</w>": 3678, "Bro": 3679, "High": 3680, "Sun": 3681, "air</w>": 3682, "cha": 3683, "ef</w>": 3684, "ff</w>": 3685, "fru": 3686, "vast</w>": 3687, "ann": 3688, "ended</w>": 3689, "safe</w>": 3690, "ators</w>": 3691, "lows</w>": 3692, "aged</w>": 3693, "opport": 3694, "ears</w>": 3695, "fathers</w>": 3696, "gether</w>": 3697, "newsroom</w>": 3698, "critical</w>": 3699, "opposite</w>": 3700, "Top</w>": 3701, "refugee</w>": 3702, "Oct.</w>": 3703, "considered</w>": 3704, "moral</w>": 3705, "vaccine</w>": 3706, "Security</w>": 3707, "encourage</w>": 3708, "terrorist</w>": 3709, "2,": 3710, "High</w>": 3711, "If</w>": 3712, "Mi": 3713, "Mor": 3714, "More": 3715, "edom</w>": 3716, "man</w>": 3717, "lish": 3718, "whole</w>": 3719, "mode": 3720, "movement</w>": 3721, "ounced</w>": 3722, "deport": 3723, "ope</w>": 3724, "trends</w>": 3725, "forni": 3726, "gene</w>": 3727, "percentages</w>": 3728, "secure</w>": 3729, "Disa": 3730, "Immigration</w>": 3731, "Colle": 3732, "projec": 3733, "measured</w>": 3734, "dramatic</w>": 3735, "expanding</w>": 3736, "language</w>": 3737, "STEM</w>": 3738, "Californi": 3739, "Moreover</w>": 3740, "Co": 3741, "Our</w>": 3742, "hour": 3743, "journali": 3744, "mp": 3745, "nor</w>": 3746, "ss": 3747, "willing</w>": 3748, "reach</w>": 3749, "statis": 3750, "visi": 3751, "chance</w>": 3752, "sharp</w>": 3753, "campaig": 3754, "history</w>": 3755, "broader</w>": 3756, "network</w>": 3757, "humans</w>": 3758, "domestic</w>": 3759, "Sweden</w>": 3760, "physical</w>": 3761, "yond</w>": 3762, "Age</w>": 3763, "dless</w>": 3764, "tied</w>": 3765, "Rep</w>": 3766, "keeping</w>": 3767, "pea": 3768, "quake</w>": 3769, "races</w>": 3770, "gays</w>": 3771, "facing</w>": 3772, "sub-Saharan</w>": 3773, "later</w>": 3774, "polling</w>": 3775, "nationally</w>": 3776, "watch</w>": 3777, "Opinions</w>": 3778, "civil</w>": 3779, "individual</w>": 3780, "teachers</w>": 3781, "decreased</w>": 3782, "occupations</w>": 3783, "sizable</w>": 3784, "hospit": 3785, "Care</w>": 3786, "Fre": 3787, "GM</w>": 3788, "Sci": 3789, "Wi": 3790, "cis</w>": 3791, "census</w>": 3792, "gent": 3793, "gaps</w>": 3794, "ine": 3795, "alty</w>": 3796, "stood</w>": 3797, "lea": 3798, "quality</w>": 3799, "radi": 3800, "Central</w>": 3801, "century</w>": 3802, "appropri": 3803, "wider</w>": 3804, "gains</w>": 3805, "Argent": 3806, "Francis</w>": 3807, "graduate</w>": 3808, "Feb.</w>": 3809, "nomination</w>": 3810, "bigger</w>": 3811, "needed</w>": 3812, "participation</w>": 3813, "building</w>": 3814, "challeng": 3815, "Differ": 3816, "Between</w>": 3817, "occurred</w>": 3818, "Negative</w>": 3819, "3,": 3820, "Bl": 3821, "Labor</w>": 3822, "Net": 3823, "cess": 3824, "moms</w>": 3825, "tab": 3826, "th-": 3827, "ards</w>": 3828, "allowed</w>": 3829, "pose</w>": 3830, "seas": 3831, "put</w>": 3832, "agan</w>": 3833, "via</w>": 3834, "deter": 3835, "track</w>": 3836, "asy</w>": 3837, "thodo": 3838, "Whites</w>": 3839, "serve</w>": 3840, "disagre": 3841, "newly</w>": 3842, "Viet": 3843, "arely</w>": 3844, "edoms</w>": 3845, "citizenship</w>": 3846, "Two</w>": 3847, "Canadi": 3848, "benefit</w>": 3849, "businesses</w>": 3850, "asic</w>": 3851, "involvement</w>": 3852, "shooting</w>": 3853, "church</w>": 3854, "combined</w>": 3855, "logies</w>": 3856, "experts</w>": 3857, "corporations</w>": 3858, "osexuality</w>": 3859, "California</w>": 3860, "campaigns</w>": 3861, "Bi": 3862, "Marri": 3863, "Shi": 3864, "UN</w>": 3865, "basic</w>": 3866, "cing</w>": 3867, "hur": 3868, "pi": 3869, "wa": 3870, "thquake</w>": 3871, "erful</w>": 3872, "arch": 3873, "enforcement</w>": 3874, "stations</w>": 3875, "Rel": 3876, "Than</w>": 3877, "comfor": 3878, "fif": 3879, "compares</w>": 3880, "heavi": 3881, "ania</w>": 3882, "illed</w>": 3883, "Act</w>": 3884, "idea</w>": 3885, "conservatives</w>": 3886, "Protestant</w>": 3887, "versary</w>": 3888, "democrati": 3889, "tweets</w>": 3890, "associated</w>": 3891, "audience</w>": 3892, "advertising</w>": 3893, "industries</w>": 3894, "Car": 3895, "Far</w>": 3896, "Tex": 3897, "We</w>": 3898, "every": 3899, "easy</w>": 3900, "gar": 3901, "ki": 3902, "son</w>": 3903, "spo": 3904, "wom": 3905, "inequality</w>": 3906, "err": 3907, "enh": 3908, "vers</w>": 3909, "Republic</w>": 3910, "open</w>": 3911, "earthquake</w>": 3912, "appoin": 3913, "Inc": 3914, "commit": 3915, "aries</w>": 3916, "Percent": 3917, "Online</w>": 3918, "unions</w>": 3919, "non-Hispanic</w>": 3920, "broadly</w>": 3921, "effective</w>": 3922, "patterns</w>": 3923, "addressing</w>": 3924, "Positive</w>": 3925, "territories</w>": 3926, "radio</w>": 3927, "heavily</w>": 3928, "93</w>": 3929, "aid</w>": 3930, "text</w>": 3931, "inde": 3932, "alu": 3933, "post": 3934, "urther</w>": 3935, "together</w>": 3936, "plans</w>": 3937, "priori": 3938, "evalu": 3939, "ofregistered</w>": 3940, "final</w>": 3941, "approach</w>": 3942, "leaned</w>": 3943, "1992</w>": 3944, "crimin": 3945, "debates</w>": 3946, "light</w>": 3947, "Turks</w>": 3948, "Lean</w>": 3949, "valent</w>": 3950, "solu": 3951, "various</w>": 3952, "lands</w>": 3953, "culation</w>": 3954, "shortly</w>": 3955, "Older</w>": 3956, "Growing</w>": 3957, "nationwide</w>": 3958, "Ap": 3959, "Xers</w>": 3960, "aths</w>": 3961, "fs</w>": 3962, "longer</w>": 3963, "tations</w>": 3964, "inking</w>": 3965, "til</w>": 3966, "attrac": 3967, "lots</w>": 3968, "sequ": 3969, "illegally</w>": 3970, "politically</w>": 3971, "yet</w>": 3972, "gene": 3973, "After</w>": 3974, "got</w>": 3975, "agreements</w>": 3976, "Asia-": 3977, "Israeli": 3978, "friend</w>": 3979, "cee": 3980, "ideology</w>": 3981, "completed</w>": 3982, "Tea</w>": 3983, "historically</w>": 3984, "liberals</w>": 3985, "cyc": 3986, "powerful</w>": 3987, "headed</w>": 3988, "games</w>": 3989, "weapons</w>": 3990, "democratic</w>": 3991, "Asia-Pacific</w>": 3992, "25": 3993, "Justi": 3994, "away</w>": 3995, "aspects</w>": 3996, "gs</w>": 3997, "gal</w>": 3998, "lling</w>": 3999, "anger</w>": 4000, "arre": 4001, "sians</w>": 4002, "ils</w>": 4003, "Though</w>": 4004, "spou": 4005, "profile</w>": 4006, "pre-": 4007, "prepar": 4008, "choo": 4009, "faith</w>": 4010, "ge-": 4011, "Chil": 4012, "Who</w>": 4013, "scale</w>": 4014, "libr": 4015, "Indian</w>": 4016, "drop": 4017, "Immigrants</w>": 4018, "volun": 4019, "arrived</w>": 4020, "arrivals</w>": 4021, "regularly</w>": 4022, "violent</w>": 4023, "Cuban</w>": 4024, "chart</w>": 4025, "answer</w>": 4026, "nominee</w>": 4027, "18-</w>": 4028, "engagement</w>": 4029, "success": 4030, "long-term</w>": 4031, "covered</w>": 4032, "couples</w>": 4033, "impression</w>": 4034, "College</w>": 4035, "woman</w>": 4036, "75,000</w>": 4037, "BC</w>": 4038, "Dis": 4039, "Ga": 4040, "Good</w>": 4041, "Seven": 4042, "core</w>": 4043, "ian</w>": 4044, "mes</w>": 4045, "tar": 4046, "tent</w>": 4047, "tionally</w>": 4048, "lians</w>": 4049, "space</w>": 4050, "trou": 4051, "ported</w>": 4052, "wealthy</w>": 4053, "issions</w>": 4054, "tely</w>": 4055, "contact</w>": 4056, "divides</w>": 4057, "negatively</w>": 4058, "tual</w>": 4059, "independent</w>": 4060, "finances</w>": 4061, "value</w>": 4062, "Almost</w>": 4063, "networks</w>": 4064, "10.": 4065, "beginning</w>": 4066, "notable</w>": 4067, "effort</w>": 4068, "utdown</w>": 4069, "skills</w>": 4070, "category</w>": 4071, "running</w>": 4072, "Education</w>": 4073, "Tunisia</w>": 4074, "basis</w>": 4075, "11.": 4076, "29": 4077, "30,000</w>": 4078, "94</w>": 4079, "ele": 4080, "hit</w>": 4081, "jec": 4082, "med</w>": 4083, "vad": 4084, "insur": 4085, "reve": 4086, "attribu": 4087, "alone</w>": 4088, "sters</w>": 4089, "stag": 4090, "virus</w>": 4091, "deaths</w>": 4092, "lower-income</w>": 4093, "Trends</w>": 4094, "stances</w>": 4095, "present</w>": 4096, "served</w>": 4097, "Unauthorized</w>": 4098, "mainly</w>": 4099, "View</w>": 4100, "technologies</w>": 4101, "Pakistan": 4102, "dominant</w>": 4103, "computers</w>": 4104, "historic</w>": 4105, "invest": 4106, "Brazili": 4107, "speaking</w>": 4108, "adoption</w>": 4109, "correctly</w>": 4110, "Independents</w>": 4111, "Following</w>": 4112, "NE": 4113, "Neth": 4114, "Ro": 4115, "Wide</w>": 4116, "cable</w>": 4117, "kind</w>": 4118, "pon": 4119, "sent": 4120, "wages</w>": 4121, "erlands</w>": 4122, "ored</w>": 4123, "attainment</w>": 4124, "allu": 4125, "ack": 4126, "moved</w>": 4127, "Rep": 4128, "spor": 4129, "perc": 4130, "elector": 4131, "cold</w>": 4132, "monthly</w>": 4133, "lobally</w>": 4134, "crimes</w>": 4135, "typically</w>": 4136, "Federal</w>": 4137, "falling</w>": 4138, "doub": 4139, "primarily</w>": 4140, "Media</w>": 4141, "consumers</w>": 4142, "Change</w>": 4143, "Opinion</w>": 4144, "recovery</w>": 4145, "treatment</w>": 4146, "prevent</w>": 4147, "field</w>": 4148, "abilities</w>": 4149, "Conservative</w>": 4150, "Texas</w>": 4151, "Netherlands</w>": 4152, "/Lean</w>": 4153, "Based</w>": 4154, "Cz": 4155, "Nations</w>": 4156, "ah": 4157, "cut</w>": 4158, "eve</w>": 4159, "tility</w>": 4160, "deep": 4161, "assa": 4162, "decrease</w>": 4163, "divisions</w>": 4164, "collec": 4165, "communities</w>": 4166, "responses</w>": 4167, "limited</w>": 4168, "expec": 4169, "Week</w>": 4170, "smartphones</w>": 4171, "dominated</w>": 4172, "seekers</w>": 4173, "answ": 4174, "preferred</w>": 4175, "circulation</w>": 4176, "districts</w>": 4177, "Religious</w>": 4178, "exception</w>": 4179, "Approval</w>": 4180, "Salvad": 4181, "permanent</w>": 4182, "projections</w>": 4183, "16": 4184, "4,": 4185, "Eth": 4186, "II</w>": 4187, "Min": 4188, "Mini": 4189, "Tai": 4190, "Would</w>": 4191, "bur": 4192, "here</w>": 4193, "home": 4194, "men": 4195, "ang": 4196, "oned</w>": 4197, "encies</w>": 4198, "reporting</w>": 4199, "safe": 4200, "alter": 4201, "ech": 4202, "posed</w>": 4203, "near": 4204, "trum</w>": 4205, "forces</w>": 4206, "offen": 4207, "after": 4208, "limit</w>": 4209, "tech</w>": 4210, "employ": 4211, "tize</w>": 4212, "improvement</w>": 4213, "providing</w>": 4214, "full": 4215, "natural</w>": 4216, "Saud": 4217, "strug": 4218, "categories</w>": 4219, "cyber": 4220, "resett": 4221, "cohab": 4222, "happy</w>": 4223, "One-in-": 4224, "cooperation</w>": 4225, "Silent</w>": 4226, "capita</w>": 4227, "Seven-in-ten</w>": 4228, "Fi": 4229, "Fili": 4230, "Har": 4231, "Mer": 4232, "Milit": 4233, "nam</w>": 4234, "usage</w>": 4235, "yc": 4236, "unacceptable</w>": 4237, "until</w>": 4238, "stronger</w>": 4239, "relative</w>": 4240, "freedoms</w>": 4241, "solar</w>": 4242, "regard</w>": 4243, "advanced</w>": 4244, "evangelicals</w>": 4245, "Prime</w>": 4246, "purcha": 4247, "accurate</w>": 4248, "Compared</w>": 4249, "showed</w>": 4250, "diploma</w>": 4251, "Blacks</w>": 4252, "attracted</w>": 4253, "Israelis</w>": 4254, "successful</w>": 4255, "Minister</w>": 4256, "Saudi</w>": 4257, "AC": 4258, "Gallu": 4259, "Hun": 4260, "IG": 4261, "Non-": 4262, "Ow": 4263, "bom": 4264, "ise</w>": 4265, "nings</w>": 4266, "pt</w>": 4267, "pin": 4268, "era</w>": 4269, "Regi": 4270, "Dem</w>": 4271, "unmarried</w>": 4272, "word</w>": 4273, "iring</w>": 4274, "ranks</w>": 4275, "1970</w>": 4276, "spectrum</w>": 4277, "penalty</w>": 4278, "beliefs</w>": 4279, "agreed</w>": 4280, "experiences</w>": 4281, "dispu": 4282, "recorded</w>": 4283, "Should</w>": 4284, "sense</w>": 4285, "nature</w>": 4286, "Indeed</w>": 4287, "defined</w>": 4288, "Foreign</w>": 4289, "minimum</w>": 4290, "shape</w>": 4291, "opportunities</w>": 4292, "challenges</w>": 4293, "Vietnam</w>": 4294, "Canadians</w>": 4295, "hurt</w>": 4296, "fifth</w>": 4297, "insurance</w>": 4298, "Filipin": 4299, "Gallup</w>": 4300, "9/": 4301, "Clo": 4302, "bab": 4303, "blo": 4304, "bol": 4305, "got": 4306, "par</w>": 4307, "tary</w>": 4308, "win": 4309, "tis</w>": 4310, "ongoing</w>": 4311, "really</w>": 4312, "itself</w>": 4313, "actually</w>": 4314, "shutdown</w>": 4315, "de-": 4316, "Reagan</w>": 4317, "entering</w>": 4318, "promo": 4319, "project</w>": 4320, "stron": 4321, "sides</w>": 4322, "takes</w>": 4323, "event</w>": 4324, "scand": 4325, "fically</w>": 4326, "conduct</w>": 4327, "factors</w>": 4328, "mainline</w>": 4329, "became</w>": 4330, "signed</w>": 4331, "1995</w>": 4332, "costs</w>": 4333, "declines</w>": 4334, "Africans</w>": 4335, "stricter</w>": 4336, "improving</w>": 4337, "falls</w>": 4338, "preference</w>": 4339, "extremism</w>": 4340, "advantages</w>": 4341, "homosexuality</w>": 4342, "optimism</w>": 4343, "strength</w>": 4344, "neighbors</w>": 4345, "landline</w>": 4346, "reflects</w>": 4347, "Smaller</w>": 4348, "criminal</w>": 4349, "choose</w>": 4350, "volunte": 4351, "percei": 4352, "Military</w>": 4353, "30": 4354, "Fin": 4355, "Gul": 4356, "Ham": 4357, "Ke": 4358, "bership</w>": 4359, "dur": 4360, "fil": 4361, "gni": 4362, "op</w>": 4363, "oti": 4364, "sity</w>": 4365, "er-": 4366, "re-": 4367, "died</w>": 4368, "dist": 4369, "post</w>": 4370, "agencies</w>": 4371, "Respon": 4372, "earning</w>": 4373, "mely</w>": 4374, "worn</w>": 4375, "ights</w>": 4376, "recyc": 4377, "Income</w>": 4378, "rank</w>": 4379, "ships</w>": 4380, "warm</w>": 4381, "Unfavorable</w>": 4382, "1991</w>": 4383, "Nov.</w>": 4384, "represent</w>": 4385, "Three-in-ten</w>": 4386, "check</w>": 4387, "one-quarter</w>": 4388, "cohor": 4389, "flu</w>": 4390, "lawful</w>": 4391, "believes</w>": 4392, "disease</w>": 4393, "Much</w>": 4394, "executive</w>": 4395, "reflect</w>": 4396, "frust": 4397, "appropriate</w>": 4398, "Justice</w>": 4399, "ge-educated</w>": 4400, "gotten</w>": 4401, "Bill</w>": 4402, "Goo": 4403, "Vir": 4404, "bill</w>": 4405, "cen": 4406, "ctu": 4407, "dy</w>": 4408, "iz": 4409, "ist</w>": 4410, "ized</w>": 4411, "mur": 4412, "sent</w>": 4413, "vs</w>": 4414, "ances</w>": 4415, "ord</w>": 4416, "reti": 4417, "sas</w>": 4418, "allow</w>": 4419, "theless</w>": 4420, "distr": 4421, "amid</w>": 4422, "convic": 4423, "deported</w>": 4424, "els</w>": 4425, "chi": 4426, "ket</w>": 4427, "kel</w>": 4428, "words</w>": 4429, "worship</w>": 4430, "istics</w>": 4431, "ower</w>": 4432, "facts</w>": 4433, "house</w>": 4434, "accounts</w>": 4435, "universi": 4436, "admitted</w>": 4437, "speech</w>": 4438, "primaries</w>": 4439, "General</w>": 4440, "Aug.</w>": 4441, "mistic</w>": 4442, "Lebanese</w>": 4443, "liberties</w>": 4444, "indicate</w>": 4445, "contributed</w>": 4446, "collected</w>": 4447, "struction</w>": 4448, "behavior</w>": 4449, "Increas": 4450, "Taiw": 4451, "Merkel</w>": 4452, "Hung": 4453, "BI</w>": 4454, "Fam": 4455, "FIG": 4456, "IC": 4457, "Jew": 4458, "Mal": 4459, "Now</w>": 4460, "Will</w>": 4461, "call</w>": 4462, "far": 4463, "sen</w>": 4464, "tation</w>": 4465, "usu": 4466, "wins</w>": 4467, "ymp": 4468, "tious</w>": 4469, "reta": 4470, "stage</w>": 4471, "diverse</w>": 4472, "haps</w>": 4473, "ental</w>": 4474, "makers</w>": 4475, "metho": 4476, "app</w>": 4477, "lined</w>": 4478, "linked</w>": 4479, "mark</w>": 4480, "ram</w>": 4481, "lag</w>": 4482, "fici": 4483, "Partis": 4484, "negoti": 4485, "helped</w>": 4486, "matter</w>": 4487, "matters</w>": 4488, "100,000</w>": 4489, "stark</w>": 4490, "reduction</w>": 4491, "calls</w>": 4492, "products</w>": 4493, "preferences</w>": 4494, "involved</w>": 4495, "extremely</w>": 4496, "topic</w>": 4497, "privacy</w>": 4498, "assessment</w>": 4499, "Libya</w>": 4500, "Community</w>": 4501, "drug</w>": 4502, "Venezuela</w>": 4503, "middle-income</w>": 4504, "fluctu": 4505, "wanted</w>": 4506, "pessimistic</w>": 4507, "index</w>": 4508, "prioritize</w>": 4509, "Gulf</w>": 4510, "universities</w>": 4511, "FIGU": 4512, "Jewish</w>": 4513, "-related</w>": 4514, "Fo": 4515, "Loc": 4516, "further</w>": 4517, "ker</w>": 4518, "ld": 4519, "pron": 4520, "sou": 4521, "ance": 4522, "ened</w>": 4523, "encoun": 4524, "attem": 4525, "theast</w>": 4526, "oming</w>": 4527, "sewhere</w>": 4528, "aging</w>": 4529, "hailing</w>": 4530, "Thr": 4531, "enting</w>": 4532, "promin": 4533, "trans": 4534, "immedi": 4535, "cities</w>": 4536, "worked</w>": 4537, "pay": 4538, "evol": 4539, "Consi": 4540, "holding</w>": 4541, "minor</w>": 4542, "harm</w>": 4543, "opposing</w>": 4544, "aker</w>": 4545, "Import": 4546, "Current</w>": 4547, "one-in-four</w>": 4548, "conflicts</w>": 4549, "University</w>": 4550, "student</w>": 4551, "extremi": 4552, "Egypti": 4553, "discus": 4554, "princi": 4555, "Olymp": 4556, "circum": 4557, "laced</w>": 4558, "connected</w>": 4559, "Kenya</w>": 4560, "ineering</w>": 4561, "Percentage</w>": 4562, "investment</w>": 4563, "9/11</w>": 4564, "babies</w>": 4565, "Google</w>": 4566, "Ci": 4567, "DP</w>": 4568, "Ear": 4569, "Four": 4570, "FBI</w>": 4571, "Identi": 4572, "Mat": 4573, "Pope</w>": 4574, "You": 4575, "bing</w>": 4576, "bul": 4577, "lap": 4578, "winning</w>": 4579, "sales</w>": 4580, "popu": 4581, "suff": 4582, "sees</w>": 4583, "beyond</w>": 4584, "tro</w>": 4585, "weigh": 4586, "mean": 4587, "que</w>": 4588, "Instag": 4589, "spect</w>": 4590, "generational</w>": 4591, "persons</w>": 4592, "changing</w>": 4593, "continuing</w>": 4594, "1996</w>": 4595, "freedom</w>": 4596, "clearly</w>": 4597, "handle</w>": 4598, "speed</w>": 4599, "estimate</w>": 4600, "regular</w>": 4601, "ordin": 4602, "funding</w>": 4603, "Sunn": 4604, "journalists</w>": 4605, "FIGURE": 4606, "circumstances</w>": 4607, "Instagram</w>": 4608, "Aff": 4609, "Bud": 4610, "Emplo": 4611, "Ha": 4612, "Has</w>": 4613, "Iran": 4614, "Off": 4615, "Som": 4616, "don": 4617, "gation</w>": 4618, "jected</w>": 4619, "ly": 4620, "menti": 4621, "s\u2014": 4622, "posted</w>": 4623, "ride-": 4624, "ounds</w>": 4625, "exclu": 4626, "excee": 4627, "ask</w>": 4628, "tices</w>": 4629, "ranging</w>": 4630, "favors</w>": 4631, "ream</w>": 4632, "subject</w>": 4633, "1994</w>": 4634, "similarly</w>": 4635, "withdraw": 4636, "accepting</w>": 4637, "membership</w>": 4638, "variety</w>": 4639, "tracking</w>": 4640, "Favorability</w>": 4641, "powers</w>": 4642, "standards</w>": 4643, "connection</w>": 4644, "Orthodo": 4645, "shifted</w>": 4646, "Service</w>": 4647, "enrolled</w>": 4648, "modestly</w>": 4649, "peaked</w>": 4650, "Differences</w>": 4651, "scandal</w>": 4652, "ancestry</w>": 4653, "12": 4654, "Fir": 4655, "Hom": 4656, "You</w>": 4657, "bring</w>": 4658, "dads</w>": 4659, "tel": 4660, "va": 4661, "inst": 4662, "at-": 4663, "ican": 4664, "icide</w>": 4665, "leak</w>": 4666, "deta": 4667, "oper": 4668, "predomin": 4669, "prevalent</w>": 4670, "exten": 4671, "extent</w>": 4672, "earnings</w>": 4673, "ingdom</w>": 4674, "interviews</w>": 4675, "Congre": 4676, "analyzed</w>": 4677, "vention</w>": 4678, "fourth</w>": 4679, "syst": 4680, "ideal</w>": 4681, "ront</w>": 4682, "Gree": 4683, "Househol": 4684, "backers</w>": 4685, "respect</w>": 4686, "respects</w>": 4687, "friend": 4688, "statements</w>": 4689, "ballots</w>": 4690, "markets</w>": 4691, "understanding</w>": 4692, "Recent</w>": 4693, "migrant</w>": 4694, "legislat": 4695, "displaced</w>": 4696, "neighboring</w>": 4697, "ruling</w>": 4698, "standard</w>": 4699, "protecting</w>": 4700, "fertility</w>": 4701, "professional</w>": 4702, "incidents</w>": 4703, "sugge": 4704, "determin": 4705, "archers</w>": 4706, "comfortable</w>": 4707, "spouse</w>": 4708, "Brazilians</w>": 4709, "aftermath</w>": 4710, "40": 4711, "99</w>": 4712, "Low</w>": 4713, "Litt": 4714, "SA</w>": 4715, "Smart": 4716, "base</w>": 4717, "mir</w>": 4718, "oes</w>": 4719, "enjo": 4720, "ats</w>": 4721, "spir": 4722, "expen": 4723, "web</w>": 4724, "earth</w>": 4725, "persi": 4726, "1960</w>": 4727, "finding</w>": 4728, "thinking</w>": 4729, "urrican": 4730, "Parents</w>": 4731, "houses</w>": 4732, "pping</w>": 4733, "Dec.</w>": 4734, "regardless</w>": 4735, "Gener": 4736, "defend</w>": 4737, "calling</w>": 4738, "alizing</w>": 4739, "cust": 4740, "churches</w>": 4741, "individuals</w>": 4742, "messages</w>": 4743, "happen</w>": 4744, "judges</w>": 4745, "Tube</w>": 4746, "automation</w>": 4747, "Grou": 4748, "safety</w>": 4749, "strongest</w>": 4750, "YouTube</w>": 4751, "populist</w>": 4752, "ride-hailing</w>": 4753, "Little</w>": 4754, "500</w>": 4755, "Fri": 4756, "Hear": 4757, "Mon": 4758, "Shar": 4759, "cs</w>": 4760, "di</w>": 4761, "dhood</w>": 4762, "easi": 4763, "her": 4764, "hop": 4765, "if": 4766, "ists</w>": 4767, "use": 4768, "utr": 4769, "youth</w>": 4770, "arily</w>": 4771, "liam": 4772, "le-": 4773, "poor": 4774, "agno": 4775, "Deb": 4776, "sident": 4777, "Trade</w>": 4778, "idly</w>": 4779, "ofthe</w>": 4780, "confir": 4781, "religions</w>": 4782, "drew</w>": 4783, "International</w>": 4784, "illance</w>": 4785, "Presi": 4786, "college-educated</w>": 4787, "specifically</w>": 4788, "handled</w>": 4789, "slight</w>": 4790, "1.2</w>": 4791, "provides</w>": 4792, "representing</w>": 4793, "2.2</w>": 4794, "water</w>": 4795, "Ukraini": 4796, "Similar</w>": 4797, "placed</w>": 4798, "1,50": 4799, "multiple</w>": 4800, "protection</w>": 4801, "Six-in-ten</w>": 4802, "proposal</w>": 4803, "proposals</w>": 4804, "statistically</w>": 4805, "libraries</w>": 4806, "electorate</w>": 4807, "Filipinos</w>": 4808, "laptop</w>": 4809, "Candid": 4810, "Go": 4811, "Sand": 4812, "cal": 4813, "cau": 4814, "ka</w>": 4815, "iness</w>": 4816, "oring</w>": 4817, "rement</w>": 4818, "lian</w>": 4819, "items</w>": 4820, "thetic</w>": 4821, "strat": 4822, "acts</w>": 4823, "ecting</w>": 4824, "loss</w>": 4825, "cons": 4826, "produce</w>": 4827, "ports</w>": 4828, "met</w>": 4829, "inclined</w>": 4830, "marg": 4831, "gence</w>": 4832, "Constitu": 4833, "alig": 4834, "alism</w>": 4835, "healthy</w>": 4836, "Ang": 4837, "mind</w>": 4838, "gained</w>": 4839, "entire</w>": 4840, "youngest</w>": 4841, "helping</w>": 4842, "housing</w>": 4843, "monit": 4844, "suburban</w>": 4845, "stead</w>": 4846, "Medic": 4847, "bia</w>": 4848, "sector</w>": 4849, "accept</w>": 4850, "accepted</w>": 4851, "citizen</w>": 4852, "looked</w>": 4853, "origin": 4854, "Northeast</w>": 4855, "refer": 4856, "2.5</w>": 4857, "topics</w>": 4858, "Teens</w>": 4859, "taining</w>": 4860, "considerable</w>": 4861, "success</w>": 4862, "Cubans</w>": 4863, "multiracial</w>": 4864, "checks</w>": 4865, "trusted</w>": 4866, "career</w>": 4867, "connect</w>": 4868, "achiev": 4869, "enthusiastic</w>": 4870, "websites</w>": 4871, "Leaders</w>": 4872, "characteristics</w>": 4873, "rapidly</w>": 4874, "lifetime</w>": 4875, "conversation</w>": 4876, "Times</w>": 4877, "Marriage</w>": 4878, "kids</w>": 4879, "Pakistanis</w>": 4880, "full-time</w>": 4881, "Fox</w>": 4882, "at-home</w>": 4883, "Ari": 4884, "Jin": 4885, "Mit": 4886, "Pan": 4887, "Pen": 4888, "SN": 4889, "Ye": 4890, "dary</w>": 4891, "floo": 4892, "ians</w>": 4893, "pap": 4894, "tou": 4895, "tough</w>": 4896, "ution</w>": 4897, "aring</w>": 4898, "onest</w>": 4899, "orit": 4900, "robo": 4901, "she</w>": 4902, "desk": 4903, "ingu": 4904, "feach</w>": 4905, "1965</w>": 4906, "wise</w>": 4907, "outlook</w>": 4908, "e-point</w>": 4909, "engineering</w>": 4910, "identifying</w>": 4911, "striking</w>": 4912, "manag": 4913, "notably</w>": 4914, "require</w>": 4915, "telephone</w>": 4916, "responsible</w>": 4917, "topped</w>": 4918, "Italians</w>": 4919, "videos</w>": 4920, "victory</w>": 4921, "strength": 4922, "researchers</w>": 4923, "Rico</w>": 4924, "Country</w>": 4925, "raised</w>": 4926, "Arabia</w>": 4927, "enthusiasm</w>": 4928, "practi": 4929, "aware</w>": 4930, "cycle</w>": 4931, "distinc": 4932, "pronounced</w>": 4933, "Orthodox</w>": 4934, "Greeks</w>": 4935, "Ariz": 4936, "24": 4937, "3,000</w>": 4938, "8,000</w>": 4939, "Be</w>": 4940, "City</w>": 4941, "Domin": 4942, "GDP</w>": 4943, "Rights</w>": 4944, "Sou": 4945, "bit</w>": 4946, "fand</w>": 4947, "gini": 4948, "anship</w>": 4949, "tives</w>": 4950, "tivity</w>": 4951, "ensure</w>": 4952, "lities</w>": 4953, "ature</w>": 4954, "ation": 4955, "dies</w>": 4956, "ols</w>": 4957, "visas</w>": 4958, "Refuge": 4959, "entered</w>": 4960, "profici": 4961, "predic": 4962, "unpopular</w>": 4963, "earned</w>": 4964, "quic": 4965, "duty</w>": 4966, "tee</w>": 4967, "tenure</w>": 4968, "tensions</w>": 4969, "special</w>": 4970, "stim": 4971, "widen": 4972, "comments</w>": 4973, "person": 4974, "aug": 4975, "steps</w>": 4976, "corru": 4977, "tures</w>": 4978, "attended</w>": 4979, "Pers": 4980, "trave": 4981, "expresses</w>": 4982, "strikes</w>": 4983, "drilling</w>": 4984, "enda</w>": 4985, "talking</w>": 4986, "completely</w>": 4987, "morally</w>": 4988, "release</w>": 4989, "Liberal</w>": 4990, "drugs</w>": 4991, "raising</w>": 4992, "anyah": 4993, "Disappro": 4994, "Netanyah": 4995, "tablet</w>": 4996, "commitment</w>": 4997, "files</w>": 4998, "Virgini": 4999, "cens": 5000, "Hungary</w>": 5001, "ldwide</w>": 5002, "Olympics</w>": 5003, "Matter</w>": 5004, "ordinary</w>": 5005, "telli": 5006, "systems</w>": 5007, "Angel": 5008, "Netanyahu</w>": 5009, "Virginia</w>": 5010, "000</w>": 5011, "17": 5012, "AS</w>": 5013, "Ed": 5014, "Estim": 5015, "La": 5016, "LS</w>": 5017, "Ni": 5018, "OP": 5019, "Pl": 5020, "Ris": 5021, "nered</w>": 5022, "y/": 5023, "ypo": 5024, "in-": 5025, "erate</w>": 5026, "lied</w>": 5027, "list": 5028, "rows</w>": 5029, "road</w>": 5030, "stay": 5031, "sunam": 5032, "agency</w>": 5033, "shore</w>": 5034, "dead": 5035, "elsewhere</w>": 5036, "asse": 5037, "counties</w>": 5038, "metro</w>": 5039, "surge</w>": 5040, "surpris": 5041, "per-income</w>": 5042, "ing-": 5043, "soon</w>": 5044, "stores</w>": 5045, "emp": 5046, "emal": 5047, "doc": 5048, "legalization</w>": 5049, "leads</w>": 5050, "becoming</w>": 5051, "two-": 5052, "Prob": 5053, "owning</w>": 5054, "itual</w>": 5055, "cellphones</w>": 5056, "affects</w>": 5057, "Too</w>": 5058, "edy</w>": 5059, "estab": 5060, "seriously</w>": 5061, "readers</w>": 5062, "seeing</w>": 5063, "narrow": 5064, "narrow</w>": 5065, "associate</w>": 5066, "speakers</w>": 5067, "an-origin</w>": 5068, "happens</w>": 5069, "diseases</w>": 5070, "classi": 5071, "announ": 5072, "Argentina</w>": 5073, "Czech</w>": 5074, "offensive</w>": 5075, "strugg": 5076, "cohabiting</w>": 5077, "principles</w>": 5078, "First</w>": 5079, "urricane</w>": 5080, "utral</w>": 5081, "Jinping</w>": 5082, "Year</w>": 5083, "stay-": 5084, "sunami</w>": 5085, "surprisingly</w>": 5086, "70s</w>": 5087, "98</w>": 5088, "Em": 5089, "Er": 5090, "Ho": 5091, "Kingdom</w>": 5092, "Rac": 5093, "Wall</w>": 5094, "dated</w>": 5095, "gn": 5096, "im</w>": 5097, "iors</w>": 5098, "itis</w>": 5099, "sw": 5100, "tty</w>": 5101, "tone</w>": 5102, "wake</w>": 5103, "yes</w>": 5104, "ores</w>": 5105, "aled</w>": 5106, "ste</w>": 5107, "poses</w>": 5108, "sett": 5109, "conv": 5110, "mas": 5111, "expl": 5112, "surveillance</w>": 5113, "irr": 5114, "close": 5115, "mart</w>": 5116, "Chur": 5117, "supporting</w>": 5118, "tained</w>": 5119, "week": 5120, "electr": 5121, "score</w>": 5122, "spected</w>": 5123, "stilities</w>": 5124, "blame</w>": 5125, "wards</w>": 5126, "commer": 5127, "mainland</w>": 5128, "harder</w>": 5129, "criticism</w>": 5130, "avo": 5131, "infec": 5132, "remaining</w>": 5133, "Liber": 5134, "risks</w>": 5135, "secondary</w>": 5136, "records</w>": 5137, "ceed</w>": 5138, "possibility</w>": 5139, "frequent</w>": 5140, "temper": 5141, "Gun</w>": 5142, "district</w>": 5143, "Concern</w>": 5144, "deportations</w>": 5145, "visit</w>": 5146, "spoken</w>": 5147, "enhanc": 5148, "evaluations</w>": 5149, "expectations</w>": 5150, "alternative</w>": 5151, "cyberattacks</w>": 5152, "resettled</w>": 5153, "frustrated</w>": 5154, "Partisans</w>": 5155, "Local</w>": 5156, "Iranian</w>": 5157, "predominantly</w>": 5158, "Mitt</w>": 5159, "stay-at-home</w>": 5160, "-12</w>": 5161, "AR": 5162, "K-12</w>": 5163, "Tri": 5164, "ath": 5165, "ather</w>": 5166, "bills</w>": 5167, "dam": 5168, "eing</w>": 5169, "fast</w>": 5170, "hus": 5171, "my</w>": 5172, "ma</w>": 5173, "mad": 5174, "uss</w>": 5175, "inaug": 5176, "resources</w>": 5177, "like": 5178, "atemal": 5179, "accomp": 5180, "pope</w>": 5181, "neutral</w>": 5182, "modi": 5183, "adversary</w>": 5184, "sear": 5185, "age-point</w>": 5186, "agenda</w>": 5187, "vements</w>": 5188, "compe": 5189, "option</w>": 5190, "else</w>": 5191, "profit</w>": 5192, "portions</w>": 5193, "publicly</w>": 5194, "2000s</w>": 5195, "alia</w>": 5196, "numb": 5197, "Mostly</w>": 5198, "onetheless</w>": 5199, "percentage-point</w>": 5200, "helle</w>": 5201, "signs</w>": 5202, "owned</w>": 5203, "1993</w>": 5204, "1999</w>": 5205, "engage</w>": 5206, "union</w>": 5207, "terror</w>": 5208, "examined</w>": 5209, "edge</w>": 5210, "Publics</w>": 5211, "strict</w>": 5212, "appear": 5213, "relationships</w>": 5214, "solving</w>": 5215, "4.1</w>": 5216, "Colom": 5217, "reduced</w>": 5218, "discuss</w>": 5219, "applicants</w>": 5220, "cuts</w>": 5221, "Asked</w>": 5222, "happened</w>": 5223, "lawmakers</w>": 5224, "Strong</w>": 5225, "Michelle</w>": 5226, "Higher</w>": 5227, "With": 5228, "error</w>": 5229, "appointed</w>": 5230, "Children</w>": 5231, "fluctuated</w>": 5232, "Important</w>": 5233, "Smartphone</w>": 5234, "spiritual</w>": 5235, "desktop</w>": 5236, "Personal</w>": 5237, "OPT</w>": 5238, "-majority</w>": 5239, "15": 5240, "97</w>": 5241, "96</w>": 5242, "Bur": 5243, "CD": 5244, "Daily</w>": 5245, "Il": 5246, "Lo": 5247, "Lad": 5248, "OK</w>": 5249, "Sc": 5250, "Sene": 5251, "bin</w>": 5252, "cro": 5253, "citing</w>": 5254, "fo": 5255, "nor": 5256, "ssed</w>": 5257, "tun": 5258, "vo": 5259, "erous</w>": 5260, "reaction</w>": 5261, "liance</w>": 5262, "ditionally</w>": 5263, "super": 5264, "sume</w>": 5265, "oldest</w>": 5266, "desi": 5267, "spill</w>": 5268, "user</w>": 5269, "ash</w>": 5270, "asks</w>": 5271, "counted</w>": 5272, "tools</w>": 5273, "politici": 5274, "Trust</w>": 5275, "ided</w>": 5276, "important": 5277, "ussions</w>": 5278, "gov": 5279, "affect</w>": 5280, "Life</w>": 5281, "ed-": 5282, "traits</w>": 5283, "Midwest</w>": 5284, "provided</w>": 5285, "occasi": 5286, "markedly</w>": 5287, "stribu": 5288, "4.6</w>": 5289, "1987</w>": 5290, "product</w>": 5291, "culture</w>": 5292, "Three-": 5293, "homes</w>": 5294, "pluralities</w>": 5295, "tempor": 5296, "proposed</w>": 5297, "caused</w>": 5298, "Guatemal": 5299, "Foreign": 5300, "transi": 5301, "Divided</w>": 5302, "choices</w>": 5303, "everyone</w>": 5304, "Salvador": 5305, "Ethn": 5306, "purchasing</w>": 5307, "ACA</w>": 5308, "Egyptians</w>": 5309, "mentioned</w>": 5310, "Presidential</w>": 5311, "strate": 5312, "Constitution</w>": 5313, "Laden</w>": 5314, "Bei": 5315, "Eigh": 5316, "Evan": 5317, "Ebol": 5318, "Hon": 5319, "Je": 5320, "Out": 5321, "Rate</w>": 5322, "Race</w>": 5323, "aver": 5324, "city</w>": 5325, "ests</w>": 5326, "honest</w>": 5327, "jing</w>": 5328, "jum": 5329, "kin": 5330, "lag": 5331, "ogni": 5332, "ple": 5333, "s/": 5334, "tsunami</w>": 5335, "win</w>": 5336, "ona</w>": 5337, "absolu": 5338, "dit</w>": 5339, "polar": 5340, "ries</w>": 5341, "ounded</w>": 5342, "oppon": 5343, "enty</w>": 5344, "trad": 5345, "meet</w>": 5346, "perhaps</w>": 5347, "gir": 5348, "faster</w>": 5349, "tick</w>": 5350, "recogni": 5351, "feder": 5352, "decess": 5353, "strations</w>": 5354, "play": 5355, "sided</w>": 5356, "prime</w>": 5357, "elect</w>": 5358, "emer": 5359, "Contro": 5360, "contacted</w>": 5361, "raci": 5362, "approach": 5363, "sterners</w>": 5364, "Modi</w>": 5365, "regional</w>": 5366, "borders</w>": 5367, "Stre": 5368, "maintain</w>": 5369, "View": 5370, "militants</w>": 5371, "Perceptions</w>": 5372, "bias</w>": 5373, "affected</w>": 5374, "Lives</w>": 5375, "dropping</w>": 5376, "Web</w>": 5377, "Sub": 5378, "severe</w>": 5379, "holi": 5380, "torture</w>": 5381, "effectively</w>": 5382, "directly</w>": 5383, "seeking</w>": 5384, "talks</w>": 5385, "worries</w>": 5386, "messaging</w>": 5387, "reflecting</w>": 5388, "communications</w>": 5389, "playing</w>": 5390, "Arabs</w>": 5391, "Concerns</w>": 5392, "brought</w>": 5393, "conversations</w>": 5394, "AAAS</w>": 5395, "hours</w>": 5396, "hourly</w>": 5397, "Gap</w>": 5398, "deeply</w>": 5399, "cohort</w>": 5400, "murder</w>": 5401, "Consist": 5402, "Somalia</w>": 5403, "robots</w>": 5404, "practice</w>": 5405, "Three-quarters</w>": 5406, "Beijing</w>": 5407, "Ebola</w>": 5408, "-percentage-point</w>": 5409, "Bor": 5410, "Bir": 5411, "Back</w>": 5412, "Den": 5413, "Fa": 5414, "Iow": 5415, "Lu": 5416, "Right</w>": 5417, "So</w>": 5418, "Ste": 5419, "Up</w>": 5420, "Want</w>": 5421, "hab": 5422, "pace</w>": 5423, "slow": 5424, "smart</w>": 5425, "went</w>": 5426, "wave</w>": 5427, "thered</w>": 5428, "eness</w>": 5429, "remo": 5430, "reviews</w>": 5431, "recomm": 5432, "sal": 5433, "alle": 5434, "sty": 5435, "ation-": 5436, "sim": 5437, "losses</w>": 5438, "Repres": 5439, "compri": 5440, "options</w>": 5441, "pretty</w>": 5442, "predecess": 5443, "usse": 5444, "Dem": 5445, "ffs</w>": 5446, "worldwide</w>": 5447, "gran": 5448, "acces": 5449, "lution</w>": 5450, "scre": 5451, "all-time</w>": 5452, "legalizing</w>": 5453, "depending</w>": 5454, "Issu": 5455, "hardly</w>": 5456, "affecting</w>": 5457, "ideas</w>": 5458, "sectors</w>": 5459, "partners</w>": 5460, "essenti": 5461, "1.5</w>": 5462, "dissatisfaction</w>": 5463, "pray</w>": 5464, "price</w>": 5465, "Koreans</w>": 5466, "2.8</w>": 5467, "started</w>": 5468, "ometer</w>": 5469, "1980s</w>": 5470, "workplace</w>": 5471, "involving</w>": 5472, "discussions</w>": 5473, "evident</w>": 5474, "consumption</w>": 5475, "versal</w>": 5476, "connections</w>": 5477, "believed</w>": 5478, "cooperate</w>": 5479, "learn</w>": 5480, "Venezuelans</w>": 5481, "Countries</w>": 5482, "well-being</w>": 5483, "slipped</w>": 5484, "Ques": 5485, "picture</w>": 5486, "tariffs</w>": 5487, "Mixed</w>": 5488, "deportation</w>": 5489, "Science</w>": 5490, "Scienti": 5491, "leaving</w>": 5492, "usually</w>": 5493, "Four-in-ten</w>": 5494, "liament</w>": 5495, "Medicare</w>": 5496, "touch</w>": 5497, "closest</w>": 5498, "avoid</w>": 5499, "searches</w>": 5500, "Eight-in-ten</w>": 5501, "Iowa</w>": 5502, "27": 5503, "7,": 5504, "Ban": 5505, "Bec": 5506, "Du": 5507, "Sch": 5508, "TA</w>": 5509, "Tra": 5510, "Vla": 5511, "Yes</w>": 5512, "athe": 5513, "awar": 5514, "em</w>": 5515, "ier</w>": 5516, "lab": 5517, "mitt": 5518, "rarely</w>": 5519, "tot": 5520, "zer": 5521, "enge</w>": 5522, "lihood</w>": 5523, "ata</w>": 5524, "ator</w>": 5525, "stone</w>": 5526, "atic</w>": 5527, "acking</w>": 5528, "abuse</w>": 5529, "dimir</w>": 5530, "concent": 5531, "viet</w>": 5532, "shr": 5533, "defe": 5534, "illin": 5535, "beat</w>": 5536, "uration</w>": 5537, "eland</w>": 5538, "entu": 5539, "Develop": 5540, "asking</w>": 5541, "surpassed</w>": 5542, "links</w>": 5543, "testing</w>": 5544, "pled</w>": 5545, "center</w>": 5546, "tural</w>": 5547, "Stories</w>": 5548, "responding</w>": 5549, "company</w>": 5550, "marriages</w>": 5551, "Iraq": 5552, "ethical</w>": 5553, "midterms</w>": 5554, "misu": 5555, "lock</w>": 5556, "Major</w>": 5557, "disapproved</w>": 5558, "representatives</w>": 5559, "2.1</w>": 5560, "Admini": 5561, "3.4</w>": 5562, "moderates</w>": 5563, "Soviet</w>": 5564, "4.2</w>": 5565, "therm": 5566, "kept</w>": 5567, "Phone</w>": 5568, "vaccin": 5569, "apprehended</w>": 5570, "rulings</w>": 5571, "self-identified</w>": 5572, "covering</w>": 5573, "relief</w>": 5574, "except</w>": 5575, "learning</w>": 5576, "books</w>": 5577, "postgraduate</w>": 5578, "arrests</w>": 5579, "recycling</w>": 5580, "meaning</w>": 5581, "Arizona</w>": 5582, "quickly</w>": 5583, "Church</w>": 5584, "Hondur": 5585, "girls</w>": 5586, "Street</w>": 5587, "Represent": 5588, "essentially</w>": 5589, "Vladimir</w>": 5590, "BJ": 5591, "Beli": 5592, "EN": 5593, "Eff": 5594, "Globally</w>": 5595, "IA</w>": 5596, "Ide": 5597, "Qur": 5598, "Slo": 5599, "WH": 5600, "War": 5601, "bot": 5602, "fr": 5603, "fy</w>": 5604, "goods</w>": 5605, "lment</w>": 5606, "mirr": 5607, "tough": 5608, "anni": 5609, "ancy</w>": 5610, "enacted</w>": 5611, "encing</w>": 5612, "rements</w>": 5613, "distribu": 5614, "posa": 5615, "suspected</w>": 5616, "aggre": 5617, "shing</w>": 5618, "ounding</w>": 5619, "spent</w>": 5620, "bean</w>": 5621, "composition</w>": 5622, "uro</w>": 5623, "eline</w>": 5624, "promis": 5625, "prospects</w>": 5626, "pregn": 5627, "assig": 5628, "asles</w>": 5629, "umb": 5630, "peace</w>": 5631, "decide</w>": 5632, "ides</w>": 5633, "embar": 5634, "popularity</w>": 5635, "Cont": 5636, "phot": 5637, "dog": 5638, "commonly</w>": 5639, "disaster</w>": 5640, "veness</w>": 5641, "nones</w>": 5642, "Overwhel": 5643, "Great": 5644, "Turk": 5645, "graders</w>": 5646, "1.3</w>": 5647, "Opposition</w>": 5648, "Syrian</w>": 5649, "digit": 5650, "less-": 5651, "seek</w>": 5652, "produced</w>": 5653, "pass": 5654, "requiring</w>": 5655, "historical</w>": 5656, "claim": 5657, "utes</w>": 5658, "renew": 5659, "skepticism</w>": 5660, "message</w>": 5661, "challenge</w>": 5662, "showing</w>": 5663, "behaviors</w>": 5664, "required</w>": 5665, "high-speed</w>": 5666, "U.S.-Mexico</w>": 5667, "appear</w>": 5668, "naturalization</w>": 5669, "Time</w>": 5670, "investigation</w>": 5671, "seasonally</w>": 5672, "genetically</w>": 5673, "dispute</w>": 5674, "volunteer</w>": 5675, "Respondents</w>": 5676, "distrust</w>": 5677, "negotiations</w>": 5678, "extremist</w>": 5679, "Budd": 5680, "Congressional</w>": 5681, "Ukrainians</w>": 5682, "Sanders</w>": 5683, "classified</w>": 5684, "enhancements</w>": 5685, "likelihood</w>": 5686, "occasionally</w>": 5687, "Control</w>": 5688, "thermometer</w>": 5689, "Representatives</w>": 5690, "Quran</w>": 5691, "-only</w>": 5692, "AN": 5693, "Bad</w>": 5694, "Cari": 5695, "MM": 5696, "Mad": 5697, "Nar": 5698, "Qa": 5699, "Rating</w>": 5700, "Unemplo": 5701, "Wide": 5702, "batt": 5703, "bbean</w>": 5704, "dang": 5705, "hic": 5706, "lad": 5707, "sanc": 5708, "tol": 5709, "tex": 5710, "tell</w>": 5711, "tance</w>": 5712, "xim": 5713, "ani</w>": 5714, "tiv": 5715, "returned</w>": 5716, "alleg": 5717, "stabili": 5718, "abin": 5719, "rises</w>": 5720, "ve-": 5721, "enter": 5722, "proper": 5723, "exit</w>": 5724, "count</w>": 5725, "mean</w>": 5726, "surpri": 5727, "ape</w>": 5728, "forward</w>": 5729, "Influ": 5730, "plum": 5731, "gency</w>": 5732, "pride</w>": 5733, "job": 5734, "emb": 5735, "serving</w>": 5736, "Conver": 5737, "turning</w>": 5738, "minds</w>": 5739, "minutes</w>": 5740, "licy</w>": 5741, "childhood</w>": 5742, "disap": 5743, "upper-income</w>": 5744, "1997</w>": 5745, "Post</w>": 5746, "Policy</w>": 5747, "location</w>": 5748, "eda</w>": 5749, "speaker</w>": 5750, "controversi": 5751, "appears</w>": 5752, "origins</w>": 5753, "pollution</w>": 5754, "3.5</w>": 5755, "Jobs</w>": 5756, "modern</w>": 5757, "seniors</w>": 5758, "supports</w>": 5759, "Three</w>": 5760, "justice</w>": 5761, "downturn</w>": 5762, "anti-terrorism</w>": 5763, "stayed</w>": 5764, "Associ": 5765, "Tunisians</w>": 5766, "Conservatives</w>": 5767, "achieve</w>": 5768, "second-generation</w>": 5769, "Given</w>": 5770, "announced</w>": 5771, "Shia</w>": 5772, "Close</w>": 5773, "attemp": 5774, "consensus</w>": 5775, "strengthening</w>": 5776, "Dominic": 5777, "announcement</w>": 5778, "Erdog": 5779, "inauguration</w>": 5780, "Turkish</w>": 5781, "Caribbean</w>": 5782, "Erdogan</w>": 5783, ".1</w>": 5784, "1,0": 5785, "2,000</w>": 5786, "60s</w>": 5787, "ABC</w>": 5788, "CN": 5789, "El": 5790, "FTA</w>": 5791, "Home</w>": 5792, "Hurricane</w>": 5793, "Nic": 5794, "Nonetheless</w>": 5795, "PP</w>": 5796, "ast": 5797, "bly</w>": 5798, "bri": 5799, "ema": 5800, "ften</w>": 5801, "gross</w>": 5802, "jury</w>": 5803, "killing</w>": 5804, "lay</w>": 5805, "mons</w>": 5806, "ograph": 5807, "pact</w>": 5808, "peline</w>": 5809, "si</w>": 5810, "zation</w>": 5811, "reactions</w>": 5812, "retary</w>": 5813, "itors</w>": 5814, "load": 5815, "suicide</w>": 5816, "200</w>": 5817, "Regar": 5818, "terly</w>": 5819, "medic": 5820, "tow": 5821, "lining</w>": 5822, "grade</w>": 5823, "initial</w>": 5824, "ranked</w>": 5825, "emissions</w>": 5826, "societ": 5827, "lay": 5828, "offs</w>": 5829, "offline</w>": 5830, "offered</w>": 5831, "thinks</w>": 5832, "formal</w>": 5833, "Mothers</w>": 5834, "Stat": 5835, "goal</w>": 5836, "Post": 5837, "lightly</w>": 5838, "admissions</w>": 5839, "Like</w>": 5840, "secu": 5841, "edged</w>": 5842, "administered</w>": 5843, "backed</w>": 5844, "apply</w>": 5845, "Legal</w>": 5846, "series</w>": 5847, "substantive</w>": 5848, "ballot</w>": 5849, "ordable</w>": 5850, "senators</w>": 5851, "Notably</w>": 5852, "created</w>": 5853, "credit</w>": 5854, "6.6</w>": 5855, "Two-in-ten</w>": 5856, "Police</w>": 5857, "pursu": 5858, "Nigerians</w>": 5859, "rules</w>": 5860, "lesbian</w>": 5861, "collap": 5862, "Religion</w>": 5863, "Growth</w>": 5864, "assistance</w>": 5865, "Before</w>": 5866, "communication</w>": 5867, "suggest</w>": 5868, "naturalized</w>": 5869, "Broad": 5870, "genetic</w>": 5871, "29-year-olds</w>": 5872, "Roe</w>": 5873, "homeowners</w>": 5874, "blood</w>": 5875, "Throughout</w>": 5876, "immediately</w>": 5877, "Earth</w>": 5878, "suggests</w>": 5879, "Hearing</w>": 5880, "Candidate</w>": 5881, "Panel</w>": 5882, "widened</w>": 5883, "Estimated</w>": 5884, "ypology</w>": 5885, "Proble": 5886, "narrowed</w>": 5887, "electron": 5888, "infectious</w>": 5889, "numbered</w>": 5890, "CDC</w>": 5891, "Scot": 5892, "Senegal</w>": 5893, "politicians</w>": 5894, "kinds</w>": 5895, "Born</w>": 5896, "salary</w>": 5897, "tougher</w>": 5898, "Buddhi": 5899, "Qaeda</w>": 5900, "sanctions</w>": 5901, "4,000</w>": 5902, "6,000</w>": 5903, "Aga": 5904, "Br": 5905, "Ber": 5906, "Border</w>": 5907, "DK</w>": 5908, "Does</w>": 5909, "Fu": 5910, "Gh": 5911, "ON</w>": 5912, "Out</w>": 5913, "Show</w>": 5914, "Satis": 5915, "Slightly</w>": 5916, "Zi": 5917, "barely</w>": 5918, "ca</w>": 5919, "cover</w>": 5920, "e/": 5921, "front</w>": 5922, "globally</w>": 5923, "hun": 5924, "lative</w>": 5925, "nership</w>": 5926, "nthetic</w>": 5927, "send</w>": 5928, "tin": 5929, "vor": 5930, "reb": 5931, "real</w>": 5932, "reporters</w>": 5933, "iti</w>": 5934, "sic</w>": 5935, "ague</w>": 5936, "conclu": 5937, "construction</w>": 5938, "fies</w>": 5939, "unable</w>": 5940, "mea</w>": 5941, "measles</w>": 5942, "quali": 5943, "grounds</w>": 5944, "folder</w>": 5945, "ighting</w>": 5946, "Instead</w>": 5947, "Where</w>": 5948, "1970s</w>": 5949, "scores</w>": 5950, "scape</w>": 5951, "lays</w>": 5952, "hear</w>": 5953, "heads</w>": 5954, "holders</w>": 5955, "bling</w>": 5956, "offshore</w>": 5957, "rown</w>": 5958, "pressure</w>": 5959, "formation</w>": 5960, "committed</w>": 5961, "e-up</w>": 5962, "e-book</w>": 5963, "Projected</w>": 5964, "steep</w>": 5965, "Poor</w>": 5966, "courts</w>": 5967, "trajec": 5968, "controls</w>": 5969, "studied</w>": 5970, "hostilities</w>": 5971, "cele": 5972, "residence</w>": 5973, "Additionally</w>": 5974, "manu": 5975, "Favor</w>": 5976, "Vote</w>": 5977, "anticip": 5978, "Jordani": 5979, "purpose</w>": 5980, "vaccines</w>": 5981, "recovered</w>": 5982, "prison": 5983, "prison</w>": 5984, "caregi": 5985, "Org": 5986, "accurately</w>": 5987, "treatments</w>": 5988, "Silents</w>": 5989, "Newsroom</w>": 5990, "Crimea</w>": 5991, "Tues": 5992, "practices</w>": 5993, "openings</w>": 5994, "statistical</w>": 5995, "Relations</w>": 5996, "dropout</w>": 5997, "burden</w>": 5998, "Five</w>": 5999, "Taiwan</w>": 6000, "retail</w>": 6001, "prominent</w>": 6002, "Identification</w>": 6003, "Haiti</w>": 6004, "withdrawal</w>": 6005, "paper</w>": 6006, "ingual</w>": 6007, "Southern</w>": 6008, "in-person</w>": 6009, "ing-age</w>": 6010, "struggling</w>": 6011, "made-up</w>": 6012, "voic": 6013, "desire</w>": 6014, "Evangelic": 6015, "style</w>": 6016, "Issues</w>": 6017, "WHO</w>": 6018, "MMR</w>": 6019, "societal</w>": 6020, "Against</w>": 6021, "Zika</w>": 6022, ".m": 6023, "9,": 6024, "Again</w>": 6025, "Ben": 6026, "Here</w>": 6027, "IN": 6028, "Ka": 6029, "Lin": 6030, "Man": 6031, "Power</w>": 6032, "Rates</w>": 6033, "Secon": 6034, "Snow": 6035, "afavorable</w>": 6036, "bor</w>": 6037, "baby</w>": 6038, "carri": 6039, "don</w>": 6040, "dance</w>": 6041, "e-in-": 6042, "filled</w>": 6043, "game</w>": 6044, "hour</w>": 6045, "killed</w>": 6046, "mer": 6047, "mas</w>": 6048, "mit</w>": 6049, "mach": 6050, "night</w>": 6051, "obli": 6052, "plu": 6053, "slowed</w>": 6054, "test</w>": 6055, "tiveness</w>": 6056, "rever": 6057, "replace</w>": 6058, "reverse</w>": 6059, "rower</w>": 6060, "statistics</w>": 6061, "acqu": 6062, "mother</w>": 6063, "adv": 6064, "ado</w>": 6065, "agu": 6066, "consequ": 6067, "shes</w>": 6068, "spi": 6069, "spreading</w>": 6070, "vehic": 6071, "proportions</w>": 6072, "president": 6073, "Def": 6074, "earn</w>": 6075, "ght</w>": 6076, "fold</w>": 6077, "closed</w>": 6078, "get": 6079, "tril": 6080, "trip</w>": 6081, "Char": 6082, "favoring</w>": 6083, "highs</w>": 6084, "contest</w>": 6085, "stic</w>": 6086, "bles</w>": 6087, "Annual</w>": 6088, "Moder": 6089, "Parliament</w>": 6090, "outcome</w>": 6091, "entirely</w>": 6092, "aul</w>": 6093, "guar": 6094, "mise</w>": 6095, "tradition</w>": 6096, "Deci": 6097, "disapproval</w>": 6098, "treat</w>": 6099, "treated</w>": 6100, "broadcast</w>": 6101, "Christ": 6102, "Impact</w>": 6103, "Supporters</w>": 6104, "host</w>": 6105, "attack</w>": 6106, "viewpoints</w>": 6107, "English": 6108, "Advan": 6109, "Sen.</w>": 6110, "watching</w>": 6111, "watched</w>": 6112, "reaching</w>": 6113, "Tele": 6114, "legislative</w>": 6115, "Boomer</w>": 6116, "draw</w>": 6117, "tweeters</w>": 6118, "Indonesians</w>": 6119, "civilian</w>": 6120, "short</w>": 6121, "profess": 6122, "played</w>": 6123, "icient</w>": 6124, "disagreed</w>": 6125, "pipeline</w>": 6126, "NET</w>": 6127, "Rep/Lean</w>": 6128, "perceived</w>": 6129, "Family</w>": 6130, "method</w>": 6131, "Sunni</w>": 6132, "friendly</w>": 6133, "corruption</w>": 6134, "Racial</w>": 6135, "swine</w>": 6136, "jumped</w>": 6137, "Administration</w>": 6138, "frame</w>": 6139, "Continu": 6140, "Unemployment</w>": 6141, "plumme": 6142, "Organiz": 6143, "Tuesday</w>": 6144, ".m.</w>": 6145, "plus</w>": 6146, "70": 6147, "Bal": 6148, "Hindu": 6149, "Non": 6150, "Ori": 6151, "Tali": 6152, "Tech</w>": 6153, "Wade</w>": 6154, "bed</w>": 6155, "cr": 6156, "car</w>": 6157, "eful</w>": 6158, "fal": 6159, "hal": 6160, "lled</w>": 6161, "wary</w>": 6162, "thy</w>": 6163, "ars</w>": 6164, "orado</w>": 6165, "ales</w>": 6166, "aces</w>": 6167, "abroad</w>": 6168, "verdic": 6169, "seats</w>": 6170, "2060</w>": 6171, "Thinking</w>": 6172, "Amid</w>": 6173, "ular</w>": 6174, "mass</w>": 6175, "trying</w>": 6176, "unfairly</w>": 6177, "weigh</w>": 6178, "isa</w>": 6179, "economically</w>": 6180, "raise</w>": 6181, "internet": 6182, "interviewed</w>": 6183, "interactions</w>": 6184, "trial</w>": 6185, "teen": 6186, "teach</w>": 6187, "ratio</w>": 6188, "music</w>": 6189, "rup": 6190, "turns</w>": 6191, "Stud": 6192, "subscri": 6193, "subsequ": 6194, "inflation</w>": 6195, "ength</w>": 6196, "training</w>": 6197, "Westerners</w>": 6198, "techni": 6199, "esting</w>": 6200, "viewing</w>": 6201, "varied</w>": 6202, "Work</w>": 6203, "one-in-three</w>": 6204, "availability</w>": 6205, "versy</w>": 6206, "NAFTA</w>": 6207, "developed</w>": 6208, "Gender</w>": 6209, "3.6</w>": 6210, "3.9</w>": 6211, "driving</w>": 6212, "familiar</w>": 6213, "lantic</w>": 6214, "Colorado</w>": 6215, "noted</w>": 6216, "bilingual</w>": 6217, "less": 6218, "Voter</w>": 6219, "capital</w>": 6220, "production</w>": 6221, "5.6</w>": 6222, "creates</w>": 6223, "complete</w>": 6224, "unemployed</w>": 6225, "restricting</w>": 6226, "participate</w>": 6227, "narrower</w>": 6228, "institution</w>": 6229, "partisanship</w>": 6230, "visa</w>": 6231, "transpor": 6232, "shifts</w>": 6233, "website</w>": 6234, "Quar": 6235, "chosen</w>": 6236, "Relatively</w>": 6237, "assault</w>": 6238, "near-": 6239, "One-in-five</w>": 6240, "perceive</w>": 6241, "Hamas</w>": 6242, "Malay": 6243, "discussion</w>": 6244, "Citiz": 6245, "Affordable</w>": 6246, "Employment</w>": 6247, "legislators</w>": 6248, "Groups</w>": 6249, "distinct</w>": 6250, "deadly</w>": 6251, "temporary</w>": 6252, "federal": 6253, "holiday</w>": 6254, "Question</w>": 6255, "mittances</w>": 6256, "anniversary</w>": 6257, "distribution</w>": 6258, "property</w>": 6259, "Influence</w>": 6260, "Conversely</w>": 6261, "CNN</w>": 6262, "trajectory</w>": 6263, "Christmas</w>": 6264, "'d</w>": 6265, "400</w>": 6266, "Big": 6267, "His</w>": 6268, "MO": 6269, "Mig": 6270, "Mem": 6271, "NO": 6272, "NA</w>": 6273, "Paul</w>": 6274, "RA</w>": 6275, "Sam": 6276, "TI": 6277, "Ta": 6278, "Terr": 6279, "asts</w>": 6280, "frac": 6281, "fighting</w>": 6282, "glo": 6283, "glob": 6284, "la</w>": 6285, "mates</w>": 6286, "none</w>": 6287, "ofeach</w>": 6288, "pati": 6289, "squ": 6290, "sending</w>": 6291, "told</w>": 6292, "uli": 6293, "wing</w>": 6294, "ware</w>": 6295, "ination</w>": 6296, "anim": 6297, "argu": 6298, "return</w>": 6299, "replaced</w>": 6300, "aland</w>": 6301, "acting</w>": 6302, "six": 6303, "lement</w>": 6304, "dimini": 6305, "sey</w>": 6306, "olina</w>": 6307, "shop": 6308, "demon": 6309, "Reserve</w>": 6310, "five": 6311, "Deficit</w>": 6312, "exceptions</w>": 6313, "weather</w>": 6314, "surged</w>": 6315, "ticked</w>": 6316, "green": 6317, "majorit": 6318, "mary</w>": 6319, "rab</w>": 6320, "Institu": 6321, "decided</w>": 6322, "Hispanic": 6323, "scen": 6324, "sterday</w>": 6325, "wife</w>": 6326, "registration</w>": 6327, "generated</w>": 6328, "right-": 6329, "help": 6330, "uptick</w>": 6331, "Protec": 6332, "selected</w>": 6333, "ssive</w>": 6334, "attendance</w>": 6335, "coal</w>": 6336, "coho": 6337, "nonvoters</w>": 6338, "agaz": 6339, "break": 6340, "Business</w>": 6341, "Declining</w>": 6342, "ennial</w>": 6343, "controlled</w>": 6344, "controversy</w>": 6345, "1.6</w>": 6346, "Impro": 6347, "Norway</w>": 6348, "matching</w>": 6349, "Korean</w>": 6350, "provider</w>": 6351, "viewership</w>": 6352, "regulation</w>": 6353, "path</w>": 6354, "NASA</w>": 6355, "development</w>": 6356, "Soci": 6357, "Solid</w>": 6358, "boys</w>": 6359, "Seen</w>": 6360, "Voting</w>": 6361, "observ": 6362, "Elections</w>": 6363, "necessarily</w>": 6364, "build</w>": 6365, "downward</w>": 6366, "difficul": 6367, "fellow</w>": 6368, "happening</w>": 6369, "Educational</w>": 6370, "terrorists</w>": 6371, "slim</w>": 6372, "pessimism</w>": 6373, "Freedom</w>": 6374, "th-graders</w>": 6375, "Big</w>": 6376, "Bible</w>": 6377, "Carolina</w>": 6378, "25-</w>": 6379, "prepares</w>": 6380, "target</w>": 6381, "collection</w>": 6382, "mention</w>": 6383, "Ownership</w>": 6384, "bombing</w>": 6385, "encounter</w>": 6386, "encounters</w>": 6387, "evolved</w>": 6388, "exceeded</w>": 6389, "Homeland</w>": 6390, "Households</w>": 6391, "customs</w>": 6392, "cauc": 6393, "margins</w>": 6394, "empha": 6395, "establish": 6396, "Liberals</w>": 6397, "husband</w>": 6398, "modified</w>": 6399, "opponents</w>": 6400, "racially</w>": 6401, "habits</w>": 6402, "Ideo": 6403, "dangerous</w>": 6404, "e-in-four</w>": 6405, "plummeted</w>": 6406, "Taliban</w>": 6407, "transportation</w>": 6408, "8,": 6409, "Ages</w>": 6410, "CIA</w>": 6411, "D.": 6412, "Dig": 6413, "El</w>": 6414, "None</w>": 6415, "Osam": 6416, "Pr": 6417, "Pali": 6418, "Rise</w>": 6419, "Ter": 6420, "Your</w>": 6421, "apart</w>": 6422, "eting</w>": 6423, "eating</w>": 6424, "fill</w>": 6425, "k-": 6426, "lv": 6427, "nal</w>": 6428, "nsy": 6429, "other": 6430, "rare</w>": 6431, "slower</w>": 6432, "wel": 6433, "wants</w>": 6434, "intelli": 6435, "tier</w>": 6436, "ony</w>": 6437, "ensuring</w>": 6438, "reelection</w>": 6439, "reject</w>": 6440, "alliance</w>": 6441, "accompani": 6442, "nel</w>": 6443, "aming</w>": 6444, "depres": 6445, "deleg": 6446, "Read</w>": 6447, "span</w>": 6448, "promise</w>": 6449, "unhappy</w>": 6450, "weak": 6451, "tom</w>": 6452, "gives</w>": 6453, "link</w>": 6454, "grand": 6455, "isol": 6456, "interesting</w>": 6457, "pling</w>": 6458, "plenty</w>": 6459, "Whether</w>": 6460, "soli": 6461, "eventu": 6462, "1960s</w>": 6463, "ofall</w>": 6464, "ofadults</w>": 6465, "Conf": 6466, "tended</w>": 6467, "phone-": 6468, "laun": 6469, "alled</w>": 6470, "approving</w>": 6471, "certain": 6472, "turing</w>": 6473, "ude</w>": 6474, "warme": 6475, "ficial</w>": 6476, "wire": 6477, "outnumber</w>": 6478, "legacy</w>": 6479, "perio": 6480, "presidenti": 6481, "right": 6482, "critici": 6483, "Action</w>": 6484, "cellor</w>": 6485, "receiving</w>": 6486, "part-time</w>": 6487, "Super</w>": 6488, "viewers</w>": 6489, "representation</w>": 6490, "tracing</w>": 6491, "3.7</w>": 6492, "natives</w>": 6493, "mission</w>": 6494, "session</w>": 6495, "harassed</w>": 6496, "samples</w>": 6497, "1985</w>": 6498, "bothered</w>": 6499, "princip": 6500, "althier</w>": 6501, "objec": 6502, "Poles</w>": 6503, "neighbor</w>": 6504, "consumer</w>": 6505, "carry</w>": 6506, "struck</w>": 6507, "Ricans</w>": 6508, "reliable</w>": 6509, "flag": 6510, "Beyond</w>": 6511, "experim": 6512, "Kenne": 6513, "Approve</w>": 6514, "middle-": 6515, "Force</w>": 6516, "reflected</w>": 6517, "constituted</w>": 6518, "Coast</w>": 6519, "journalist</w>": 6520, "hospitals</w>": 6521, "hospitalized</w>": 6522, "season</w>": 6523, "disagreement</w>": 6524, "elements</w>": 6525, "ICE</w>": 6526, "methods</w>": 6527, "easier</w>": 6528, "achieving</w>": 6529, "Pennsy": 6530, "travel</w>": 6531, "Angela</w>": 6532, "Rising</w>": 6533, "mask</w>": 6534, "Ethnicity</w>": 6535, "players</w>": 6536, "slowly</w>": 6537, "simply</w>": 6538, "Because</w>": 6539, "awareness</w>": 6540, "bottom</w>": 6541, "stabilized</w>": 6542, "abinet</w>": 6543, "disappoin": 6544, "layoffs</w>": 6545, "Future</w>": 6546, "tiny</w>": 6547, "Snowden</w>": 6548, "trillion</w>": 6549, "guaran": 6550, "professors</w>": 6551, "Organization</w>": 6552, "Hindus</w>": 6553, "verdict</w>": 6554, "globalization</w>": 6555, "majority-": 6556, "cohol</w>": 6557, "Digital</w>": 6558, "Osama</w>": 6559, "Palin</w>": 6560, "accompanied</w>": 6561, "-off</w>": 6562, "16.": 6563, "17.": 6564, "6,": 6565, "800</w>": 6566, "Arab</w>": 6567, "BS</w>": 6568, "Bel": 6569, "Cru": 6570, "Clim": 6571, "Data</w>": 6572, "Equ": 6573, "Four</w>": 6574, "Gin": 6575, "Gay</w>": 6576, "Jer": 6577, "Mac": 6578, "Sum": 6579, "Situation</w>": 6580, "Ve": 6581, "Val": 6582, "apo": 6583, "cat": 6584, "card</w>": 6585, "emo": 6586, "fight</w>": 6587, "gy</w>": 6588, "gment</w>": 6589, "gations</w>": 6590, "jam": 6591, "mly</w>": 6592, "o-": 6593, "wo</w>": 6594, "yi": 6595, "that": 6596, "anic</w>": 6597, "arran": 6598, "ortion</w>": 6599, "resig": 6600, "alking</w>": 6601, "state": 6602, "stream</w>": 6603, "actual</w>": 6604, "lose</w>": 6605, "diver": 6606, "rio": 6607, "adequ": 6608, "Remain</w>": 6609, "eld</w>": 6610, "prospect</w>": 6611, "unlikely</w>": 6612, "unite</w>": 6613, "unrest</w>": 6614, "worsen": 6615, "fail": 6616, "inging</w>": 6617, "clothing</w>": 6618, "Information</w>": 6619, "plant</w>": 6620, "ilities</w>": 6621, "of-": 6622, "higher-income</w>": 6623, "differed</w>": 6624, "register</w>": 6625, "anda</w>": 6626, "andling</w>": 6627, "occurr": 6628, "news": 6629, "tured</w>": 6630, "limits</w>": 6631, "limiting</w>": 6632, "attending</w>": 6633, "venues</w>": 6634, "nonwhite</w>": 6635, "bio": 6636, "unist</w>": 6637, "ached</w>": 6638, "acceptance</w>": 6639, "partnered</w>": 6640, "Direc": 6641, "Turnout</w>": 6642, "Leve": 6643, "Least</w>": 6644, "greatly</w>": 6645, "1.8</w>": 6646, "widest</w>": 6647, "occur</w>": 6648, "refers</w>": 6649, "Extre": 6650, "3.2</w>": 6651, "4.7</w>": 6652, "familiarity</w>": 6653, "missi": 6654, "direct</w>": 6655, "projects</w>": 6656, "creating</w>": 6657, "discour": 6658, "schooling</w>": 6659, "placing</w>": 6660, "application</w>": 6661, "elists</w>": 6662, "Politics</w>": 6663, "indicators</w>": 6664, "-year-old</w>": 6665, "fundam": 6666, "contribute</w>": 6667, "9.6</w>": 6668, "One-in-ten</w>": 6669, "ference</w>": 6670, "visited</w>": 6671, "Better</w>": 6672, "Spec": 6673, "exist</w>": 6674, "existed</w>": 6675, "requirements</w>": 6676, "openness</w>": 6677, "Divide</w>": 6678, "Giuli": 6679, "ssful</w>": 6680, "waste</w>": 6681, "solution</w>": 6682, "Salvador</w>": 6683, "employer</w>": 6684, "retirement</w>": 6685, "convicted</w>": 6686, "Taiwanese</w>": 6687, "detailed</w>": 6688, "hopeful</w>": 6689, "management</w>": 6690, "doctors</w>": 6691, "Within</w>": 6692, "Births</w>": 6693, "predecessor</w>": 6694, "Dem/Lean</w>": 6695, "Scientists</w>": 6696, "Bank</w>": 6697, "Iraqi</w>": 6698, "Warming</w>": 6699, "promises</w>": 6700, "collapse</w>": 6701, "Benjam": 6702, "helpful</w>": 6703, "Kennedy</w>": 6704, "Pennsylv": 6705, "Cruz</w>": 6706, "Giuliani</w>": 6707, "-1": 6708, "--</w>": 6709, "14": 6710, "9,000</w>": 6711, "BLS</w>": 6712, "CE": 6713, "Dr": 6714, "Early</w>": 6715, "Fun": 6716, "H-1": 6717, "IM": 6718, "Know": 6719, "ME": 6720, "Mari": 6721, "Nu": 6722, "Neither</w>": 6723, "Pover": 6724, "RS</w>": 6725, "Sel": 6726, "Years</w>": 6727, "ah</w>": 6728, "ben": 6729, "ces": 6730, "dream</w>": 6731, "eto</w>": 6732, "gent</w>": 6733, "him": 6734, "ky</w>": 6735, "lations</w>": 6736, "lying</w>": 6737, "must</w>": 6738, "page</w>": 6739, "pack": 6740, "ris</w>": 6741, "ram": 6742, "typology</w>": 6743, "wind</w>": 6744, "willin": 6745, "insul": 6746, "inmates</w>": 6747, "arrest</w>": 6748, "til": 6749, "oning</w>": 6750, "liz": 6751, "lin</w>": 6752, "alcohol</w>": 6753, "ston</w>": 6754, "stability</w>": 6755, "stop</w>": 6756, "absent": 6757, "motiv": 6758, "shire</w>": 6759, "deep</w>": 6760, "published</w>": 6761, "Thir": 6762, "Thus</w>": 6763, "parenting</w>": 6764, "belong</w>": 6765, "ulg": 6766, "eled</w>": 6767, "portion": 6768, "expla": 6769, "united</w>": 6770, "weds</w>": 6771, "ked": 6772, "meeting</w>": 6773, "ques</w>": 6774, "marked</w>": 6775, "yesterday</w>": 6776, "decide": 6777, "internationally</w>": 6778, "tripled</w>": 6779, "essi": 6780, "mill": 6781, "three-in-four</w>": 6782, "priests</w>": 6783, "ofa</w>": 6784, "Abortion</w>": 6785, "tends</w>": 6786, "central</w>": 6787, "offering</w>": 6788, "presence</w>": 6789, "Mobile</w>": 6790, "outnumbered</w>": 6791, "outweigh</w>": 6792, "helps</w>": 6793, "maintaining</w>": 6794, "hard": 6795, "upcoming</w>": 6796, "update</w>": 6797, "updated</w>": 6798, "upbeat</w>": 6799, "stee</w>": 6800, "correlated</w>": 6801, "hearings</w>": 6802, "1998</w>": 6803, "scrip": 6804, "logically</w>": 6805, "universal</w>": 6806, "remainder</w>": 6807, "achment</w>": 6808, "influenced</w>": 6809, "Environ": 6810, "names</w>": 6811, "Decline</w>": 6812, "panelists</w>": 6813, "ception</w>": 6814, "previously</w>": 6815, "mater": 6816, "match</w>": 6817, "matches</w>": 6818, "technological</w>": 6819, "attor": 6820, "considering</w>": 6821, "Workers</w>": 6822, "defini": 6823, "Optim": 6824, "sensi": 6825, "Cold</w>": 6826, "1989</w>": 6827, "1988</w>": 6828, "seem</w>": 6829, "5.3</w>": 6830, "working-age</w>": 6831, "create</w>": 6832, "Primary</w>": 6833, "straight</w>": 6834, "Elector": 6835, "emerged</w>": 6836, "participated</w>": 6837, "built</w>": 6838, "staying</w>": 6839, "intense</w>": 6840, "learned</w>": 6841, "minister</w>": 6842, "stressful</w>": 6843, "exists</w>": 6844, "Mich": 6845, "bringing</w>": 6846, "rapid</w>": 6847, "tarian</w>": 6848, "appeals</w>": 6849, "Broad</w>": 6850, "Sunday</w>": 6851, "visible</w>": 6852, "Married</w>": 6853, "arren</w>": 6854, "answers</w>": 6855, "employers</w>": 6856, "Own</w>": 6857, "Finan": 6858, "Famili": 6859, "details</w>": 6860, "useful</w>": 6861, "original</w>": 6862, "censor</w>": 6863, "Nieto</w>": 6864, "Colombia</w>": 6865, "superpower</w>": 6866, "Guatemala</w>": 6867, "polarized</w>": 6868, "recommend": 6869, "granting</w>": 6870, "vaccinated</w>": 6871, "Honduras</w>": 6872, "photos</w>": 6873, "Overwhelming</w>": 6874, "Widespread</w>": 6875, "emails</w>": 6876, "Regardless</w>": 6877, "Buddhists</w>": 6878, "prisoners</w>": 6879, "carried</w>": 6880, "machines</w>": 6881, "reversed</w>": 6882, "Decision</w>": 6883, "subsequent</w>": 6884, "diminished</w>": 6885, "Conflic": 6886, "middle-class</w>": 6887, "Climate</w>": 6888, "arrange": 6889, "Benjamin</w>": 6890, "Pennsylvania</w>": 6891, "H-1B</w>": 6892, "Poverty</w>": 6893, "willing": 6894, "absentee</w>": 6895, "decidedly</w>": 6896, "4-year-olds</w>": 6897, "50,000</w>": 6898, "Agre": 6899, "Can</w>": 6900, "Cell</w>": 6901, "DO": 6902, "DNA</w>": 6903, "Get</w>": 6904, "Hu": 6905, "If": 6906, "ID</w>": 6907, "Los</w>": 6908, "OW": 6909, "Swit": 6910, "Sing": 6911, "Tan": 6912, "Ted</w>": 6913, "cause</w>": 6914, "danger</w>": 6915, "ees</w>": 6916, "fat": 6917, "knew</w>": 6918, "muse</w>": 6919, "mand": 6920, "nap": 6921, "p.m.</w>": 6922, "pshire</w>": 6923, "ration</w>": 6924, "sers</w>": 6925, "ta</w>": 6926, "tasks</w>": 6927, "writ": 6928, "ink</w>": 6929, "ery</w>": 6930, "lici": 6931, "atall</w>": 6932, "aling</w>": 6933, "roman": 6934, "roportion": 6935, "stages</w>": 6936, "strating</w>": 6937, "ace": 6938, "love</w>": 6939, "load</w>": 6940, "susta": 6941, "moving</w>": 6942, "2065</w>": 6943, "igan</w>": 6944, "ames</w>": 6945, "constant</w>": 6946, "deli": 6947, "spaces</w>": 6948, "ota</w>": 6949, "make": 6950, "traf": 6951, "terte</w>": 6952, "unsure</w>": 6953, "umps</w>": 6954, "worst</w>": 6955, "peers</w>": 6956, "failed</w>": 6957, "followers</w>": 6958, "marches</w>": 6959, "feature</w>": 6960, "Indu": 6961, "interact</w>": 6962, "miles</w>": 6963, "thresh": 6964, "scored</w>": 6965, "differently</w>": 6966, "think": 6967, "daters</w>": 6968, "warmly</w>": 6969, "gaining</w>": 6970, "aff</w>": 6971, "faced</w>": 6972, "and-": 6973, "newly": 6974, "Viol": 6975, "compon": 6976, "relatives</w>": 6977, "four-year</w>": 6978, "mix": 6979, "informed</w>": 6980, "Enforcement</w>": 6981, "strictly</w>": 6982, "panel</w>": 6983, "panels</w>": 6984, "organic</w>": 6985, "1.1</w>": 6986, "1.4</w>": 6987, "diction</w>": 6988, "Image</w>": 6989, "Immigrant</w>": 6990, "Northern</w>": 6991, "Also</w>": 6992, "resulted</w>": 6993, "occo</w>": 6994, "underrepresented</w>": 6995, "ceiling</w>": 6996, "drone</w>": 6997, "driver</w>": 6998, "misconduct</w>": 6999, "note</w>": 7000, "pathway</w>": 7001, "5.5</w>": 7002, "5.4</w>": 7003, "18.": 7004, "frequency</w>": 7005, "Prior</w>": 7006, "cultural</w>": 7007, "on-related</w>": 7008, "Threat</w>": 7009, "Largest</w>": 7010, "Popular</w>": 7011, "mid-October</w>": 7012, "tweeted</w>": 7013, "cutting</w>": 7014, "Martin</w>": 7015, "teaching</w>": 7016, "staur": 7017, "Asses": 7018, "demand</w>": 7019, "judge</w>": 7020, "al-native</w>": 7021, "clas": 7022, "stress</w>": 7023, "enrollment</w>": 7024, "Morocco</w>": 7025, "th-largest</w>": 7026, "thodology</w>": 7027, "appoint": 7028, "Dissatisfaction</w>": 7029, "trouble</w>": 7030, "troubles</w>": 7031, "sports</w>": 7032, "Non-Hispanic</w>": 7033, "promoting</w>": 7034, "Hampshire</w>": 7035, "chief</w>": 7036, "southern</w>": 7037, "transgender</w>": 7038, "immediate</w>": 7039, "Household</w>": 7040, "easily</w>": 7041, "flooding</w>": 7042, "floods</w>": 7043, "Refugee</w>": 7044, "Refugees</w>": 7045, "Disapprove</w>": 7046, "conventi": 7047, "appeared</w>": 7048, "strategy</w>": 7049, "recognition</w>": 7050, "Duterte</w>": 7051, "atheist</w>": 7052, "zerland</w>": 7053, "shrinking</w>": 7054, "assign": 7055, "embargo</w>": 7056, "digital-native</w>": 7057, "allegations</w>": 7058, "loaded</w>": 7059, "medicine</w>": 7060, "electronic</w>": 7061, "Ghana</w>": 7062, "qualified</w>": 7063, "Jordanians</w>": 7064, "voiced</w>": 7065, "Evangelical</w>": 7066, "Defense</w>": 7067, "Origin</w>": 7068, "Malaysia</w>": 7069, "Terrorism</w>": 7070, "right-wing</w>": 7071, "otherwise</w>": 7072, "package</w>": 7073, "scripture</w>": 7074, "definition</w>": 7075, "Michigan</w>": 7076, "Switzerland</w>": 7077, "romantic</w>": 7078, "traffic</w>": 7079, "-up</w>": 7080, "-elect</w>": 7081, ".W</w>": 7082, "13": 7083, "30s</w>": 7084, "5,": 7085, "5th</w>": 7086, "90": 7087, "Agency</w>": 7088, "Bulg": 7089, "C.</w>": 7090, "Cor": 7091, "Cau": 7092, "Dow</w>": 7093, "Ecu": 7094, "Fed</w>": 7095, "Hin": 7096, "Its</w>": 7097, "Land": 7098, "Ronald</w>": 7099, "Snap": 7100, "TPP</w>": 7101, "Using</w>": 7102, "Used</w>": 7103, "Web": 7104, "Warren</w>": 7105, "ase": 7106, "bran": 7107, "brac": 7108, "ck</w>": 7109, "dation</w>": 7110, "ez</w>": 7111, "eat</w>": 7112, "eable</w>": 7113, "fother</w>": 7114, "fting</w>": 7115, "flag</w>": 7116, "gri": 7117, "gate</w>": 7118, "lla</w>": 7119, "mun": 7120, "magaz": 7121, "mumps</w>": 7122, "obe": 7123, "tg": 7124, "task</w>": 7125, "wis": 7126, "annu": 7127, "ere": 7128, "ared</w>": 7129, "armed</w>": 7130, "oration</w>": 7131, "remittances</w>": 7132, "restaur": 7133, "liked</w>": 7134, "limin": 7135, "atred</w>": 7136, "item</w>": 7137, "roll</w>": 7138, "stop": 7139, "stest</w>": 7140, "staff</w>": 7141, "lot": 7142, "loy": 7143, "posting</w>": 7144, "mood</w>": 7145, "adher": 7146, "setting</w>": 7147, "push</w>": 7148, "agues</w>": 7149, "amed</w>": 7150, "convention</w>": 7151, "hash": 7152, "witne": 7153, "parental</w>": 7154, "bella</w>": 7155, "elders</w>": 7156, "entation</w>": 7157, "prosecu": 7158, "mail": 7159, "maker</w>": 7160, "ustices</w>": 7161, "unlike</w>": 7162, "unfair</w>": 7163, "impe": 7164, "chat</w>": 7165, "wear</w>": 7166, "uman</w>": 7167, "island</w>": 7168, "orial</w>": 7169, "pair</w>": 7170, "sole": 7171, "joining</w>": 7172, "19.": 7173, "1967</w>": 7174, "highligh": 7175, "lications</w>": 7176, "coldest</w>": 7177, "outp": 7178, "two-year</w>": 7179, "responded</w>": 7180, "Latinx</w>": 7181, "subgroups</w>": 7182, "tui": 7183, "efficient</w>": 7184, "goes</w>": 7185, "militant</w>": 7186, "bisexual</w>": 7187, "authorities</w>": 7188, "synthetic</w>": 7189, "locked</w>": 7190, "GOP": 7191, "afford</w>": 7192, "secretary</w>": 7193, "latter</w>": 7194, "traditions</w>": 7195, "drops</w>": 7196, "non-Hispanics</w>": 7197, "non-parents</w>": 7198, "pants</w>": 7199, "Such</w>": 7200, "applied</w>": 7201, "League</w>": 7202, "grads</w>": 7203, "disposa": 7204, "10,000</w>": 7205, "Sym": 7206, "Record</w>": 7207, "Joe</w>": 7208, "endor": 7209, "endants</w>": 7210, "watch": 7211, "sampling</w>": 7212, "therhood</w>": 7213, "board</w>": 7214, "bert</w>": 7215, "captured</w>": 7216, "passing</w>": 7217, "nominees</w>": 7218, "ideologically</w>": 7219, "5.2</w>": 7220, "troop</w>": 7221, "disproportion": 7222, "Changing</w>": 7223, "civilians</w>": 7224, "strengthen</w>": 7225, "recovering</w>": 7226, "Australians</w>": 7227, "structure</w>": 7228, "Rican</w>": 7229, "adopt</w>": 7230, "intended</w>": 7231, "Siz": 7232, "impressions</w>": 7233, "Newspap": 7234, "correct</w>": 7235, "incident</w>": 7236, "Crime</w>": 7237, "Leader</w>": 7238, "opportunity</w>": 7239, "Apprehen": 7240, "drop-off</w>": 7241, "targe": 7242, "revelations</w>": 7243, "attribute</w>": 7244, "doubt</w>": 7245, "homework</w>": 7246, "Regional</w>": 7247, "Registered</w>": 7248, "disputes</w>": 7249, "duration</w>": 7250, "ization</w>": 7251, "Increased</w>": 7252, "attempt</w>": 7253, "evolution</w>": 7254, "enjoyed</w>": 7255, "Generally</w>": 7256, "Group</w>": 7257, "poorer</w>": 7258, "Debt</w>": 7259, "monitor</w>": 7260, "referred</w>": 7261, "achieved</w>": 7262, "proficiency</w>": 7263, "competi": 7264, "transit</w>": 7265, "Salvadorans</w>": 7266, "Consistent</w>": 7267, "School</w>": 7268, "defeat</w>": 7269, "Greatest</w>": 7270, "password</w>": 7271, "Maduro</w>": 7272, "battle</w>": 7273, "entertainment</w>": 7274, "surprising</w>": 7275, "town</w>": 7276, "Status</w>": 7277, "Linked": 7278, "Moderate</w>": 7279, "false</w>": 7280, "techniques</w>": 7281, "globe</w>": 7282, "solidly</w>": 7283, "eventually</w>": 7284, "resignation</w>": 7285, "Nuclear</w>": 7286, "himself</w>": 7287, "willingness</w>": 7288, "sustained</w>": 7289, "newlyweds</w>": 7290, "Bulgari": 7291, "Ecuad": 7292, "wisdom</w>": 7293, "liminary</w>": 7294, "-in</w>": 7295, "300</w>": 7296, "4th</w>": 7297, "40s</w>": 7298, "AN</w>": 7299, "Are": 7300, "Assa": 7301, "Bre": 7302, "Bas": 7303, "CP": 7304, "EU": 7305, "Each</w>": 7306, "Eligible</w>": 7307, "Figures</w>": 7308, "Haw": 7309, "Husse": 7310, "H.W</w>": 7311, "Mul": 7312, "Mar</w>": 7313, "MSN": 7314, "NSA</w>": 7315, "Others</w>": 7316, "Stri": 7317, "Spr": 7318, "TS</w>": 7319, "Take</w>": 7320, "UN": 7321, "Ug": 7322, "Usage</w>": 7323, "ULS</w>": 7324, "cal</w>": 7325, "cur": 7326, "du</w>": 7327, "day": 7328, "ets</w>": 7329, "fer</w>": 7330, "fit": 7331, "fover</w>": 7332, "filling</w>": 7333, "hy": 7334, "hatred</w>": 7335, "iz</w>": 7336, "ior": 7337, "justices</w>": 7338, "ly-": 7339, "length</w>": 7340, "ol</w>": 7341, "ois</w>": 7342, "pages</w>": 7343, "rout": 7344, "sl": 7345, "sor": 7346, "slow</w>": 7347, "tum": 7348, "tories</w>": 7349, "tful</w>": 7350, "ubi": 7351, "vvery</w>": 7352, "int</w>": 7353, "inally</w>": 7354, "instruction</w>": 7355, "ary": 7356, "outs</w>": 7357, "resided</w>": 7358, "stoms</w>": 7359, "dial-": 7360, "divor": 7361, "version</w>": 7362, "conten": 7363, "contests</w>": 7364, "consume</w>": 7365, "dead</w>": 7366, "department</w>": 7367, "Reform</w>": 7368, "eling</w>": 7369, "ter-": 7370, "extr": 7371, "cham": 7372, "wed": 7373, "wearing</w>": 7374, "overturn</w>": 7375, "umbia</w>": 7376, "towards</w>": 7377, "gia</w>": 7378, "worthy</w>": 7379, "fastest</w>": 7380, "thood</w>": 7381, "mark": 7382, "marital</w>": 7383, "feat": 7384, "ranged</w>": 7385, "esh</w>": 7386, "Chile</w>": 7387, "plants</w>": 7388, "medians</w>": 7389, "supply</w>": 7390, "so-": 7391, "takers</w>": 7392, "governing</w>": 7393, "governor</w>": 7394, "1945</w>": 7395, "emen</w>": 7396, "differs</w>": 7397, "scru": 7398, "reason": 7399, "pho": 7400, "approves</w>": 7401, "rubella</w>": 7402, "minus</w>": 7403, "division</w>": 7404, "Paris</w>": 7405, "Parties</w>": 7406, "timents</w>": 7407, "output</w>": 7408, "Star": 7409, "partici": 7410, "e-to-": 7411, "sign</w>": 7412, "ssil</w>": 7413, "ssions</w>": 7414, "accountable</w>": 7415, "avy</w>": 7416, "coali": 7417, "cogni": 7418, "Post-": 7419, "Accep": 7420, "avid</w>": 7421, "ethnically</w>": 7422, "bureau</w>": 7423, "Energy</w>": 7424, "Greek</w>": 7425, "Aug</w>": 7426, "Wee": 7427, "District</w>": 7428, "studies</w>": 7429, "affiliate</w>": 7430, "affiliates</w>": 7431, "2.7</w>": 7432, "2.3</w>": 7433, "2.9</w>": 7434, "Experi": 7435, "Customs</w>": 7436, "Oppose</w>": 7437, "starkly</w>": 7438, "ournal</w>": 7439, "sentiments</w>": 7440, "Columbia</w>": 7441, "dominate</w>": 7442, "1981</w>": 7443, "Sex</w>": 7444, "Getting</w>": 7445, "capable</w>": 7446, "extreme</w>": 7447, "tops</w>": 7448, "Teen</w>": 7449, "mortg": 7450, "threaten</w>": 7451, "6.5</w>": 7452, "6.3</w>": 7453, "succeed</w>": 7454, "Larger</w>": 7455, "Chancellor</w>": 7456, "srooms</w>": 7457, "backgrounds</w>": 7458, "reliance</w>": 7459, "accuracy</w>": 7460, "couple</w>": 7461, "Keny": 7462, "shifting</w>": 7463, "Spani": 7464, "Independent</w>": 7465, "lifetimes</w>": 7466, "post-election</w>": 7467, "investigations</w>": 7468, "Different</w>": 7469, "Carter</w>": 7470, "cycles</w>": 7471, "library</w>": 7472, "Pakistani</w>": 7473, "NEE": 7474, "Rep.</w>": 7475, "Czech": 7476, "answering</w>": 7477, "struggle</w>": 7478, "cohabit": 7479, "winter</w>": 7480, "winner</w>": 7481, "cohorts</w>": 7482, "Through</w>": 7483, "discussed</w>": 7484, "Civi": 7485, "operating</w>": 7486, "determine</w>": 7487, "Disapproval</w>": 7488, "Edwards</w>": 7489, "weekday</w>": 7490, "Burma</w>": 7491, "fossil</w>": 7492, "absolute</w>": 7493, "approaches</w>": 7494, "Denver</w>": 7495, "misuse</w>": 7496, "Slov": 7497, "pregnant</w>": 7498, "controversial</w>": 7499, "celeb": 7500, "anticipate</w>": 7501, "caregivers</w>": 7502, "Television</w>": 7503, "shopping</w>": 7504, "certainty</w>": 7505, "periods</w>": 7506, "principal</w>": 7507, "Jersey</w>": 7508, "Summer</w>": 7509, "occurring</w>": 7510, "Levels</w>": 7511, "Financial</w>": 7512, "Conflict</w>": 7513, "makeup</w>": 7514, "threshold</w>": 7515, "mixed-": 7516, "assignments</w>": 7517, "Snapchat</w>": 7518, "solely</w>": 7519, "Apprehensions</w>": 7520, "Hussein</w>": 7521, "Multi": 7522, "MSNBC</w>": 7523, "dial-up</w>": 7524, "scrutiny</w>": 7525, "cognitive</w>": 7526, "Czechs</w>": 7527, "-ethnic</w>": 7528, "21": 7529, "50.": 7530, "6th</w>": 7531, "600</w>": 7532, "Bang": 7533, "Brown</w>": 7534, "Cle": 7535, "Fair": 7536, "Fair</w>": 7537, "Front</w>": 7538, "LO": 7539, "My": 7540, "Nat": 7541, "NRA</w>": 7542, "OE": 7543, "Pence</w>": 7544, "Pinterest</w>": 7545, "Path": 7546, "QAn": 7547, "RT": 7548, "San</w>": 7549, "Spe": 7550, "Sud": 7551, "Ten</w>": 7552, "Wat": 7553, "Wit": 7554, "Yemen</w>": 7555, "brow": 7556, "bases</w>": 7557, "clin": 7558, "cru": 7559, "dates</w>": 7560, "fati": 7561, "gum": 7562, "gori": 7563, "grows</w>": 7564, "hacking</w>": 7565, "jects</w>": 7566, "ko</w>": 7567, "krup": 7568, "lar</w>": 7569, "od": 7570, "rent": 7571, "rounding</w>": 7572, "tcy</w>": 7573, "uvi": 7574, "uph": 7575, "xi": 7576, "you": 7577, "za</w>": 7578, "zania</w>": 7579, "thering</w>": 7580, "angle</w>": 7581, "ero": 7582, "argum": 7583, "en-": 7584, "ords</w>": 7585, "repu": 7586, "repe": 7587, "remark": 7588, "lists</w>": 7589, "algori": 7590, "store</w>": 7591, "ativity</w>": 7592, "abase</w>": 7593, "distant</w>": 7594, "posure</w>": 7595, "sures</w>": 7596, "nesses</w>": 7597, "rible</w>": 7598, "conven": 7599, "concep": 7600, "olars</w>": 7601, "depar": 7602, "illu": 7603, "spar": 7604, "ent/": 7605, "entry</w>": 7606, "trace</w>": 7607, "nows</w>": 7608, "prece": 7609, "exac": 7610, "implan": 7611, "overturned</w>": 7612, "kets</w>": 7613, "meanwhile</w>": 7614, "um-": 7615, "ume</w>": 7616, "perspec": 7617, "linois</w>": 7618, "ission</w>": 7619, "inced</w>": 7620, "ticket</w>": 7621, "green</w>": 7622, "recess</w>": 7623, "owed</w>": 7624, "tried</w>": 7625, "medium</w>": 7626, "sole</w>": 7627, "tail</w>": 7628, "government": 7629, "tention</w>": 7630, "contin": 7631, "much": 7632, "lah</w>": 7633, "racism</w>": 7634, "fuel</w>": 7635, "offers</w>": 7636, "approxim": 7637, "warmer</w>": 7638, "outweigh": 7639, "commit</w>": 7640, "conducting</w>": 7641, "illness</w>": 7642, "first-": 7643, "identifies</w>": 7644, "disasters</w>": 7645, "upper</w>": 7646, "gue</w>": 7647, "coinci": 7648, "nonwhites</w>": 7649, "Peruvi": 7650, "contrac": 7651, "cell-only</w>": 7652, "broken</w>": 7653, "secular</w>": 7654, "Enter": 7655, "trail</w>": 7656, "climbed</w>": 7657, "pan-ethnic</w>": 7658, "summit</w>": 7659, "administrations</w>": 7660, "backing</w>": 7661, "Leg": 7662, "1.7</w>": 7663, "1.9</w>": 7664, "Along</w>": 7665, "provisions</w>": 7666, "providers</w>": 7667, "confer": 7668, "confron": 7669, "arriving</w>": 7670, "2.6</w>": 7671, "Exp": 7672, "dra</w>": 7673, "birth": 7674, "akia</w>": 7675, "starting</w>": 7676, "4.8</w>": 7677, "charges</w>": 7678, "charged</w>": 7679, "Univision</w>": 7680, "billions</w>": 7681, "demographics</w>": 7682, "Sever": 7683, "ber-": 7684, "single-": 7685, "describing</w>": 7686, "Priv": 7687, "Priorities</w>": 7688, "protest</w>": 7689, "6.7</w>": 7690, "obtain</w>": 7691, "officially</w>": 7692, "purposes</w>": 7693, "home-": 7694, "mid-1990s</w>": 7695, "display</w>": 7696, "sympathized</w>": 7697, "Atlantic</w>": 7698, "multigenerational</w>": 7699, "funded</w>": 7700, "victi": 7701, "downs</w>": 7702, "Secre": 7703, "7.5</w>": 7704, "9.3</w>": 7705, "Commit": 7706, "writing</w>": 7707, "combat</w>": 7708, "decreasing</w>": 7709, "logized</w>": 7710, "prevail": 7711, "Mubar": 7712, "requires</w>": 7713, "banks</w>": 7714, "characterize</w>": 7715, "drawn</w>": 7716, "constitute</w>": 7717, "model</w>": 7718, "Free</w>": 7719, "leaks</w>": 7720, "deterior": 7721, "Shifting</w>": 7722, "waiting</w>": 7723, "doubts</w>": 7724, "collecting</w>": 7725, "answered</w>": 7726, "4,9": 7727, "Minority</w>": 7728, "resettlement</w>": 7729, "Key</w>": 7730, "re-election</w>": 7731, "recycled</w>": 7732, "convictions</w>": 7733, "chip</w>": 7734, "usual</w>": 7735, "extremists</w>": 7736, "Sunnis</w>": 7737, "instability</w>": 7738, "poorly</w>": 7739, "align</w>": 7740, "aligned</w>": 7741, "24-year-olds</w>": 7742, "Angeles</w>": 7743, "settings</w>": 7744, "convinced</w>": 7745, "temperature</w>": 7746, "athle": 7747, "lagged</w>": 7748, "absolutely</w>": 7749, "trading</w>": 7750, "screen</w>": 7751, "totals</w>": 7752, "BJP</w>": 7753, "mirror</w>": 7754, "claims</w>": 7755, "toler": 7756, "Dominican</w>": 7757, "Broadband</w>": 7758, "Problems</w>": 7759, "rebounded</w>": 7760, "advance</w>": 7761, "vehicles</w>": 7762, "teenag": 7763, "Bigger</w>": 7764, "square</w>": 7765, "scenari": 7766, "Society</w>": 7767, "isolated</w>": 7768, "warmestrating</w>": 7769, "presidential": 7770, "Direction</w>": 7771, "Speci": 7772, "motivated</w>": 7773, "Tanzania</w>": 7774, "Industri": 7775, "appointments</w>": 7776, "impeachment</w>": 7777, "disproportionately</w>": 7778, "Sizable</w>": 7779, "Bulgaria</w>": 7780, "Uganda</w>": 7781, "so-called</w>": 7782, "participants</w>": 7783, "Kenyans</w>": 7784, "Banglad": 7785, "QAnon</w>": 7786, "fatigue</w>": 7787, "kruptcy</w>": 7788, "algorith": 7789, "Mubarak</w>": 7790, "28": 7791, "2,00": 7792, "60": 7793, "7,000</w>": 7794, "App": 7795, "Bom": 7796, "CH": 7797, "Cable</w>": 7798, "Cell": 7799, "CBS</w>": 7800, "DA": 7801, "Dri": 7802, "Ev": 7803, "Further</w>": 7804, "Gar": 7805, "G20</w>": 7806, "Games</w>": 7807, "Ine": 7808, "Jan</w>": 7809, "LE": 7810, "Lim": 7811, "N.</w>": 7812, "Often</w>": 7813, "PR": 7814, "PA</w>": 7815, "PR</w>": 7816, "RE</w>": 7817, "Role</w>": 7818, "S.</w>": 7819, "SS</w>": 7820, "Sto": 7821, "Tro": 7822, "Tech": 7823, "a/": 7824, "bon</w>": 7825, "ball</w>": 7826, "bra": 7827, "blog": 7828, "co</w>": 7829, "ce-": 7830, "dling</w>": 7831, "ean</w>": 7832, "fini": 7833, "flows</w>": 7834, "ha</w>": 7835, "iop": 7836, "isure</w>": 7837, "mful</w>": 7838, "mitted</w>": 7839, "na</w>": 7840, "ptions</w>": 7841, "rent</w>": 7842, "sla": 7843, "tan</w>": 7844, "tage</w>": 7845, "yer</w>": 7846, "than": 7847, "thwest</w>": 7848, "then-": 7849, "iner</w>": 7850, "inte": 7851, "timore</w>": 7852, "ony": 7853, "onset</w>": 7854, "endra</w>": 7855, "orship</w>": 7856, "remove</w>": 7857, "removed</w>": 7858, "ateral</w>": 7859, "ali</w>": 7860, "st-</w>": 7861, "atically</w>": 7862, "sian</w>": 7863, "sively</w>": 7864, "leisure</w>": 7865, "dipped</w>": 7866, "diagno": 7867, "pod": 7868, "ride</w>": 7869, "rivals</w>": 7870, "mom</w>": 7871, "movi": 7872, "seas</w>": 7873, "Report</w>": 7874, "begin</w>": 7875, "ull": 7876, "ulture</w>": 7877, "U.S-": 7878, "terrible</w>": 7879, "preliminary</w>": 7880, "fire": 7881, "fired</w>": 7882, "Demograph": 7883, "extend</w>": 7884, "assum": 7885, "wealthier</w>": 7886, "overseas</w>": 7887, "Democracy</w>": 7888, "gium</w>": 7889, "dual</w>": 7890, "ising</w>": 7891, "forec": 7892, "politan</w>": 7893, "geo": 7894, "tea</w>": 7895, "tees</w>": 7896, "Why</w>": 7897, "What": 7898, "sof": 7899, "storms</w>": 7900, "1976</w>": 7901, "relation</w>": 7902, "third-": 7903, "all-": 7904, "alls</w>": 7905, "approvals</w>": 7906, "rule</w>": 7907, "quarterly</w>": 7908, "Anti": 7909, "formally</w>": 7910, "minated</w>": 7911, "Part": 7912, "anized</w>": 7913, "communist</w>": 7914, "Stu": 7915, "leveled</w>": 7916, "facial</w>": 7917, "facturing</w>": 7918, "firm</w>": 7919, "Under</w>": 7920, "believers</w>": 7921, "upward</w>": 7922, "step</w>": 7923, "steep": 7924, "smalle": 7925, "scholars</w>": 7926, "arians</w>": 7927, "ethics</w>": 7928, "Perhaps</w>": 7929, "examples</w>": 7930, "ethnici": 7931, "Lithu": 7932, "Declines</w>": 7933, "erging</w>": 7934, "Occ": 7935, "dislike</w>": 7936, "matched</w>": 7937, "reader</w>": 7938, "volution</w>": 7939, "hova": 7940, "solo</w>": 7941, "10-point</w>": 7942, "variation</w>": 7943, "3.1</w>": 7944, "4.5</w>": 7945, "begins</w>": 7946, "digit</w>": 7947, "evening</w>": 7948, "1983</w>": 7949, "body</w>": 7950, "talked</w>": 7951, "Favorably</w>": 7952, "tropolitan</w>": 7953, "presidencies</w>": 7954, "Georgia</w>": 7955, "threatened</w>": 7956, "6.9</w>": 7957, "obtained</w>": 7958, "restricted</w>": 7959, "draws</w>": 7960, "succee": 7961, "emerges</w>": 7962, "Nee": 7963, "tweet</w>": 7964, "sympathy</w>": 7965, "func": 7966, "causes</w>": 7967, "contributes</w>": 7968, "runk</w>": 7969, "self-identify</w>": 7970, "trusting</w>": 7971, "decreases</w>": 7972, "flat</w>": 7973, "landlines</w>": 7974, "intentionally</w>": 7975, "dollar</w>": 7976, "fields</w>": 7977, "middle-</w>": 7978, "languages</w>": 7979, "clergy</w>": 7980, "diplomatic</w>": 7981, "Smith</w>": 7982, "bankruptcy</w>": 7983, "planning</w>": 7984, "second-most</w>": 7985, "pictures</w>": 7986, "1,001</w>": 7987, "Mormons</w>": 7988, "lishments</w>": 7989, "Disagree</w>": 7990, "hospitalization</w>": 7991, "comfort</w>": 7992, "Apple</w>": 7993, "reveals</w>": 7994, "Ethiop": 7995, "Closely</w>": 7996, "volunteered</w>": 7997, "Keep</w>": 7998, "Increasingly</w>": 7999, "expend": 8000, "Friday</w>": 8001, "Monthly</w>": 8002, "agnostic</w>": 8003, "proficient</w>": 8004, "censorship</w>": 8005, "Emerging</w>": 8006, "commercial</w>": 8007, "Triangle</w>": 8008, "Colombi": 8009, "Illinois</w>": 8010, "gov't</w>": 8011, "strategi": 8012, "Jehova": 8013, "averaged</w>": 8014, "Viewed</w>": 8015, "Faith</w>": 8016, "ussels</w>": 8017, "accessing</w>": 8018, "Developing</w>": 8019, "Believe</w>": 8020, "Narendra</w>": 8021, "Brussels</w>": 8022, "e/ethnicity</w>": 8023, "consequences</w>": 8024, "Baltimore</w>": 8025, "Study</w>": 8026, "greenhouse</w>": 8027, "emphasis</w>": 8028, "D.C.</w>": 8029, "Term</w>": 8030, "delegates</w>": 8031, "Belgium</w>": 8032, "Equal</w>": 8033, "apologized</w>": 8034, "emotional</w>": 8035, "worsened</w>": 8036, "discouraged</w>": 8037, "IMF</w>": 8038, "bench": 8039, "sensitive</w>": 8040, "Electoral</w>": 8041, "Agreement</w>": 8042, "written</w>": 8043, "Landscape</w>": 8044, "restaurants</w>": 8045, "adherents</w>": 8046, "disposable</w>": 8047, "Sympath": 8048, "LinkedIn</w>": 8049, "Ecuadori": 8050, "Slovakia</w>": 8051, "mixed-race</w>": 8052, "Clear</w>": 8053, "Several</w>": 8054, "home-sharing</w>": 8055, "smallest</w>": 8056, "ethnicities</w>": 8057, "Jehovah</w>": 8058, "-nation</w>": 8059, "-ended</w>": 8060, "/lean</w>": 8061, "Best</w>": 8062, "Cup</w>": 8063, "DE": 8064, "Did</w>": 8065, "Dru": 8066, "Hold</w>": 8067, "Human</w>": 8068, "Kagan</w>": 8069, "Lop": 8070, "Lower</w>": 8071, "Mil": 8072, "Massa": 8073, "Nation</w>": 8074, "OR</w>": 8075, "Pat": 8076, "Ri": 8077, "SP": 8078, "Sw": 8079, "SU</w>": 8080, "Says</w>": 8081, "Skep": 8082, "TH": 8083, "Up": 8084, "Ur": 8085, "Win": 8086, "Was</w>": 8087, "Way</w>": 8088, "Youth</w>": 8089, "Zim": 8090, "aim": 8091, "aspect</w>": 8092, "by": 8093, "bings</w>": 8094, "barri": 8095, "din": 8096, "ey": 8097, "eastern</w>": 8098, "evements</w>": 8099, "fli": 8100, "fron": 8101, "fears</w>": 8102, "hope</w>": 8103, "ied</w>": 8104, "iPhone</w>": 8105, "moun": 8106, "mation</w>": 8107, "rying</w>": 8108, "swit": 8109, "sday</w>": 8110, "situ": 8111, "stics</w>": 8112, "tts</w>": 8113, "tag": 8114, "ups</w>": 8115, "vac": 8116, "vali": 8117, "vices</w>": 8118, "xit</w>": 8119, "ystone</w>": 8120, "\u00f1a</w>": 8121, "thus</w>": 8122, "ints</w>": 8123, "inju": 8124, "instead</w>": 8125, "anity</w>": 8126, "annex": 8127, "anxi": 8128, "anony": 8129, "er-</w>": 8130, "arti": 8131, "arms</w>": 8132, "endu": 8133, "revi": 8134, "reelected</w>": 8135, "revenues</w>": 8136, "save</w>": 8137, "they": 8138, "star</w>": 8139, "stake</w>": 8140, "icial</w>": 8141, "loans</w>": 8142, "ley</w>": 8143, "lestone</w>": 8144, "die</w>": 8145, "distress</w>": 8146, "sured</w>": 8147, "verless</w>": 8148, "vertheless</w>": 8149, "advice</w>": 8150, "addiction</w>": 8151, "sease</w>": 8152, "agric": 8153, "agement</w>": 8154, "ambi": 8155, "hau": 8156, "hael</w>": 8157, "shad": 8158, "dep": 8159, "designed</w>": 8160, "belong": 8161, "ultim": 8162, "entary</w>": 8163, "pro-": 8164, "prote": 8165, "mar</w>": 8166, "master</w>": 8167, "Deport": 8168, "exc": 8169, "explo": 8170, "exceed</w>": 8171, "exposure</w>": 8172, "unaccompanied</w>": 8173, "ime</w>": 8174, "immoral</w>": 8175, "imports</w>": 8176, "chuse": 8177, "counting</w>": 8178, "metropolitan</w>": 8179, "apparent</w>": 8180, "wording</w>": 8181, "low-": 8182, "lowering</w>": 8183, "fai": 8184, "ghter</w>": 8185, "follows</w>": 8186, "recall</w>": 8187, "orientation</w>": 8188, "initi": 8189, "initially</w>": 8190, "accel": 8191, "feed</w>": 8192, "ranges</w>": 8193, "Histor": 8194, "plun": 8195, "genders</w>": 8196, "pathetic</w>": 8197, "soft</w>": 8198, "tag</w>": 8199, "19-year-olds</w>": 8200, "scep": 8201, "Consum": 8202, "pointed</w>": 8203, "context</w>": 8204, "Obam": 8205, "dog</w>": 8206, "race/ethnicity</w>": 8207, "centers</w>": 8208, "religion-related</w>": 8209, "cerem": 8210, "datory</w>": 8211, "database</w>": 8212, "pending</w>": 8213, "wishes</w>": 8214, "outlays</w>": 8215, "dreds</w>": 8216, "gathering</w>": 8217, "leanings</w>": 8218, "augh</w>": 8219, "maintained</w>": 8220, "respond</w>": 8221, "President": 8222, "e-calling</w>": 8223, "upon</w>": 8224, "select</w>": 8225, "rich": 8226, "colleagues</w>": 8227, "nonprofit</w>": 8228, "expand</w>": 8229, "regime</w>": 8230, "universe</w>": 8231, "unique</w>": 8232, "officer</w>": 8233, "equi": 8234, "examines</w>": 8235, "buying</w>": 8236, "Enrol": 8237, "trait</w>": 8238, "trailed</w>": 8239, "implications</w>": 8240, "naming</w>": 8241, "name-calling</w>": 8242, "strictions</w>": 8243, "ennials</w>": 8244, "Pe\u00f1a</w>": 8245, "Disease</w>": 8246, "atever</w>": 8247, "Suc": 8248, "apped</w>": 8249, "respected</w>": 8250, "respectful</w>": 8251, "smartphone-": 8252, "grades</w>": 8253, "valu": 8254, "refer</w>": 8255, "10-": 8256, "graduated</w>": 8257, "fairness</w>": 8258, "moderately</w>": 8259, "4.4</w>": 8260, "cumb": 8261, "driverless</w>": 8262, "charge</w>": 8263, "bilateral</w>": 8264, "congregation</w>": 8265, "tool</w>": 8266, "budgets</w>": 8267, "talents</w>": 8268, "creation</w>": 8269, "morality</w>": 8270, "threatto</w>": 8271, "threatening</w>": 8272, "documents</w>": 8273, "checking</w>": 8274, "Libr": 8275, "Common</w>": 8276, "cards</w>": 8277, "carbon</w>": 8278, "teachings</w>": 8279, "thousand</w>": 8280, "trust": 8281, "long-running</w>": 8282, "adopters</w>": 8283, "expanded</w>": 8284, "ferred</w>": 8285, "visitors</w>": 8286, "preventing</w>": 8287, "Sources</w>": 8288, "sizeable</w>": 8289, "territory</w>": 8290, "lack": 8291, "basically</w>": 8292, "News": 8293, "115th</w>": 8294, "anything</w>": 8295, "tionable</w>": 8296, "planned</w>": 8297, "weapon</w>": 8298, "1,003</w>": 8299, "capitalism</w>": 8300, "Highest</w>": 8301, "Argentines</w>": 8302, "disagreements</w>": 8303, "spot</w>": 8304, "App</w>": 8305, "dropouts</w>": 8306, "Gaza</w>": 8307, "Brazilian</w>": 8308, "sentenced</w>": 8309, "expecting</w>": 8310, "16-</w>": 8311, "Minorities</w>": 8312, "One-in-four</w>": 8313, "promote</w>": 8314, "30-": 8315, "frustrating</w>": 8316, "farm</w>": 8317, "prominence</w>": 8318, "bullying</w>": 8319, "weighted</w>": 8320, "Budget</w>": 8321, "Homosexuality</w>": 8322, "Heard</w>": 8323, "confirmed</w>": 8324, "1,503</w>": 8325, "Gov</w>": 8326, "calcul": 8327, "marginally</w>": 8328, "monitoring</w>": 8329, "personnel</w>": 8330, "Law</w>": 8331, "assess</w>": 8332, "two-parent</w>": 8333, "settled</w>": 8334, "exploration</w>": 8335, "Foreign-born</w>": 8336, "approaching</w>": 8337, "Consistently</w>": 8338, "Denmark</w>": 8339, "comprise</w>": 8340, "concentrated</w>": 8341, "Development</w>": 8342, "BJS</w>": 8343, "Effor": 8344, "renewable</w>": 8345, "embrace</w>": 8346, "Association</w>": 8347, "ographers</w>": 8348, "pursue</w>": 8349, "Satisfied</w>": 8350, "obligation</w>": 8351, "spiked</w>": 8352, "Members</w>": 8353, "patients</w>": 8354, "Ideological</w>": 8355, "rightthing</w>": 8356, "objectionable</w>": 8357, "diverge</w>": 8358, "Fund</w>": 8359, "Marijuana</w>": 8360, "explaining</w>": 8361, "millennials</w>": 8362, "Single</w>": 8363, "Hindu</w>": 8364, "bracket</w>": 8365, "annually</w>": 8366, "ereas</w>": 8367, "witnessed</w>": 8368, "mail-in</w>": 8369, "outpac": 8370, "Assad</w>": 8371, "Hawai": 8372, "Spring</w>": 8373, "e-to-face</w>": 8374, "Weekly</w>": 8375, "mortgage</w>": 8376, "Pathways</w>": 8377, "Sudan</w>": 8378, "exactly</w>": 8379, "Committee</w>": 8380, "scenario</w>": 8381, "Bangladesh</w>": 8382, "Inequality</w>": 8383, "Techno": 8384, "Lithuania</w>": 8385, "Lopez</w>": 8386, "Massachuse": 8387, "eye</w>": 8388, "Historically</w>": 8389, "Massachusetts</w>": 8390, "/oppose</w>": 8391, "08</w>": 8392, "34.6</w>": 8393, "65": 8394, "700</w>": 8395, "AG": 8396, "AL</w>": 8397, "BL": 8398, "Blo": 8399, "Boo": 8400, "Dro": 8401, "Dom": 8402, "Del": 8403, "Eliz": 8404, "Gon": 8405, "Hel": 8406, "Handling</w>": 8407, "IRS</w>": 8408, "JO": 8409, "Jud": 8410, "Kav": 8411, "Kim</w>": 8412, "Lan": 8413, "NS": 8414, "Never</w>": 8415, "NPR</w>": 8416, "Pa": 8417, "Ram": 8418, "Rul": 8419, "Rural</w>": 8420, "Sta": 8421, "Score</w>": 8422, "Wal": 8423, "Well</w>": 8424, "aa</w>": 8425, "aside</w>": 8426, "crow": 8427, "cash</w>": 8428, "eh": 8429, "eth</w>": 8430, "emigrants</w>": 8431, "fts</w>": 8432, "fle": 8433, "fur": 8434, "fear": 8435, "flow</w>": 8436, "flaws</w>": 8437, "hor": 8438, "mag": 8439, "males</w>": 8440, "ner": 8441, "nic": 8442, "osity</w>": 8443, "round</w>": 8444, "sof</w>": 8445, "sit": 8446, "tan": 8447, "tment</w>": 8448, "tability</w>": 8449, "uti": 8450, "uge</w>": 8451, "your": 8452, "zing</w>": 8453, "inaccurate</w>": 8454, "anying</w>": 8455, "anaugh</w>": 8456, "arying</w>": 8457, "aragu": 8458, "time": 8459, "encounter": 8460, "oud</w>": 8461, "redi": 8462, "returning</w>": 8463, "lished</w>": 8464, "ros": 8465, "rol</w>": 8466, "rogation</w>": 8467, "the-": 8468, "sty</w>": 8469, "stam": 8470, "station</w>": 8471, "stalled</w>": 8472, "icago</w>": 8473, "icides</w>": 8474, "sible</w>": 8475, "abeth</w>": 8476, "loan</w>": 8477, "leach</w>": 8478, "susp": 8479, "needy</w>": 8480, "rival</w>": 8481, "adem": 8482, "age": 8483, "contain</w>": 8484, "oline</w>": 8485, "shment</w>": 8486, "shrunk</w>": 8487, "develo": 8488, "Ref": 8489, "Reps</w>": 8490, "Restrictions</w>": 8491, "compromise</w>": 8492, "operation</w>": 8493, "enter</w>": 8494, "profiles</w>": 8495, "truly</w>": 8496, "American": 8497, "presum": 8498, "Dems</w>": 8499, "asoline</w>": 8500, "chose</w>": 8501, "dency</w>": 8502, "denomin": 8503, "overy</w>": 8504, "ffords</w>": 8505, "surrounding</w>": 8506, "per-": 8507, "faste": 8508, "grich</w>": 8509, "fortun": 8510, "incar": 8511, "incor": 8512, "economists</w>": 8513, "rayer</w>": 8514, "Individu": 8515, "interactive</w>": 8516, "ranking</w>": 8517, "lues</w>": 8518, "luent</w>": 8519, "essions</w>": 8520, "Chicago</w>": 8521, "1964</w>": 8522, "1978</w>": 8523, "1975</w>": 8524, "chances</w>": 8525, "sermons</w>": 8526, "finto</w>": 8527, "populous</w>": 8528, "high-income</w>": 8529, "alist</w>": 8530, "alike</w>": 8531, "relying</w>": 8532, "heavy</w>": 8533, "stimul": 8534, "someday</w>": 8535, "quarant": 8536, "format</w>": 8537, "minors</w>": 8538, "issued</w>": 8539, "generous</w>": 8540, "borrow": 8541, "Star</w>": 8542, "face-to-face</w>": 8543, "Under": 8544, "concerning</w>": 8545, "dependent</w>": 8546, "candidacy</w>": 8547, "harmful</w>": 8548, "newsrooms</w>": 8549, "subgroup</w>": 8550, "seldom</w>": 8551, "independence</w>": 8552, "arian</w>": 8553, "itures</w>": 8554, "Main</w>": 8555, "Army</w>": 8556, "breaking</w>": 8557, "Living</w>": 8558, "namese</w>": 8559, "Housing</w>": 8560, "improvements</w>": 8561, "Weiner</w>": 8562, "disapproving</w>": 8563, "deciding</w>": 8564, "organized</w>": 8565, "Suicide</w>": 8566, "looks</w>": 8567, "controlling</w>": 8568, "applies</w>": 8569, "respective</w>": 8570, "Commission</w>": 8571, "Midterm</w>": 8572, "airstrikes</w>": 8573, "Christie</w>": 8574, "soldi": 8575, "attached</w>": 8576, "10,": 8577, "2.4</w>": 8578, "Worry</w>": 8579, "understood</w>": 8580, "regarded</w>": 8581, "residential</w>": 8582, "resistance</w>": 8583, "3.3</w>": 8584, "environments</w>": 8585, "Boeh": 8586, "4.3</w>": 8587, "performed</w>": 8588, "beneficial</w>": 8589, "feels</w>": 8590, "berg</w>": 8591, "passes</w>": 8592, "passage</w>": 8593, "5.7</w>": 8594, "5.9</w>": 8595, "asive</w>": 8596, "morning</w>": 8597, "st-growing</w>": 8598, "Surveys</w>": 8599, "relev": 8600, "separately</w>": 8601, "1,5": 8602, "categori": 8603, "neighborh": 8604, "backdrop</w>": 8605, "casting</w>": 8606, "encourages</w>": 8607, "anti-government</w>": 8608, "0.5</w>": 8609, "runs</w>": 8610, "self-described</w>": 8611, "an-Americans</w>": 8612, "Particip": 8613, "occupation</w>": 8614, "heading</w>": 8615, "Comparing</w>": 8616, "Comparable</w>": 8617, "communicate</w>": 8618, "fielded</w>": 8619, "Space</w>": 8620, "requirement</w>": 8621, "114th</w>": 8622, "116th</w>": 8623, "Streng": 8624, "Michael</w>": 8625, "banking</w>": 8626, "open-ended</w>": 8627, "high-profile</w>": 8628, "boom</w>": 8629, "tariff</w>": 8630, "Giffords</w>": 8631, "2,2": 8632, "Mix</w>": 8633, "Mike</w>": 8634, "projection</w>": 8635, "Wiki": 8636, "tables</w>": 8637, "Vietnamese</w>": 8638, "Canadian</w>": 8639, "garnered</w>": 8640, "indeed</w>": 8641, "spouses</w>": 8642, "preparation</w>": 8643, "Childhood</w>": 8644, "troubled</w>": 8645, "29-": 8646, "attributed</w>": 8647, "double-": 8648, "offenses</w>": 8649, "purchases</w>": 8650, "Keystone</w>": 8651, "retired</w>": 8652, "southwest</w>": 8653, "payments</w>": 8654, "Egyptian</w>": 8655, "bulk</w>": 8656, "suffici": 8657, "FIGURE1</w>": 8658, "excluded</w>": 8659, "exceeds</w>": 8660, "withdrawing</w>": 8661, "extensive</w>": 8662, "expensive</w>": 8663, "Generational</w>": 8664, "custom": 8665, "Sharp</w>": 8666, "herit": 8667, "confirmation</w>": 8668, "managers</w>": 8669, "corrupt</w>": 8670, "Plur": 8671, "Rises</w>": 8672, "listened</w>": 8673, "deadline</w>": 8674, "masks</w>": 8675, "Trib": 8676, "accomplishments</w>": 8677, "appearance</w>": 8678, "transition</w>": 8679, "Substan": 8680, "removing</w>": 8681, "removal</w>": 8682, "27-": 8683, "aggregate</w>": 8684, "pregnancy</w>": 8685, "ladder</w>": 8686, "toll</w>": 8687, "attempts</w>": 8688, "attempted</w>": 8689, "Nicaragu": 8690, "Scott</w>": 8691, "hundreds</w>": 8692, "Second</w>": 8693, "getnews</w>": 8694, "English-": 8695, "Advanced</w>": 8696, "Quarterly</w>": 8697, "Citizens</w>": 8698, "NOT</w>": 8699, "demonstrations</w>": 8700, "five-year</w>": 8701, "intelligence</w>": 8702, "Gingrich</w>": 8703, "Macon</w>": 8704, "Veterans</w>": 8705, "Values</w>": 8706, "adequate</w>": 8707, "failures</w>": 8708, "cessive</w>": 8709, "tilt</w>": 8710, "attorney</w>": 8711, "recommendations</w>": 8712, "OWN</w>": 8713, "fatal</w>": 8714, "licit</w>": 8715, "Violence</w>": 8716, "component</w>": 8717, "classes</w>": 8718, "grim</w>": 8719, "obesity</w>": 8720, "stopped</w>": 8721, "watchdog</w>": 8722, "Brexit</w>": 8723, "CPS</w>": 8724, "EU-": 8725, "divorce</w>": 8726, "Experience</w>": 8727, "Fairly</w>": 8728, "odds</w>": 8729, "renters</w>": 8730, "reputation</w>": 8731, "approximately</w>": 8732, "Secret</w>": 8733, "teenagers</w>": 8734, "Anti-": 8735, "expenditures</w>": 8736, "aimed</w>": 8737, "barriers</w>": 8738, "anonym": 8739, "Elizabeth</w>": 8740, "Gonz": 8741, "Kavanaugh</w>": 8742, "Boehner</w>": 8743, "-using</w>": 8744, "-of-": 8745, ".2</w>": 8746, "1-": 8747, "150</w>": 8748, "36.6</w>": 8749, "6-": 8750, "AI": 8751, "Air": 8752, "AID": 8753, "Bene": 8754, "CD</w>": 8755, "Cabinet</w>": 8756, "Dou": 8757, "Don</w>": 8758, "David</w>": 8759, "Ea": 8760, "Gor": 8761, "Irel": 8762, "Iris": 8763, "Jones</w>": 8764, "Kin": 8765, "Ker": 8766, "Kat": 8767, "Kash": 8768, "Long": 8769, "Mis": 8770, "Native</w>": 8771, "Net</w>": 8772, "Next</w>": 8773, "NBC</w>": 8774, "OO</w>": 8775, "Ohi": 8776, "Pessi": 8777, "Ran": 8778, "Rich</w>": 8779, "Sad": 8780, "Sig": 8781, "Same</w>": 8782, "TO": 8783, "Ts</w>": 8784, "Typ": 8785, "Tak": 8786, "Tay": 8787, "Users</w>": 8788, "VA</w>": 8789, "Wis": 8790, "bands</w>": 8791, "blocked</w>": 8792, "cig": 8793, "cks</w>": 8794, "dad</w>": 8795, "dam</w>": 8796, "dden</w>": 8797, "estate</w>": 8798, "fying</w>": 8799, "fregistered</w>": 8800, "filed</w>": 8801, "gments</w>": 8802, "han": 8803, "hot": 8804, "journalism</w>": 8805, "kin</w>": 8806, "kingly</w>": 8807, "ofe": 8808, "psy": 8809, "rus": 8810, "rina</w>": 8811, "sworn</w>": 8812, "tant</w>": 8813, "tages</w>": 8814, "ured</w>": 8815, "von</w>": 8816, "vasive</w>": 8817, "yan</w>": 8818, "yvon</w>": 8819, "zbol": 8820, "thony</w>": 8821, "intro": 8822, "inely</w>": 8823, "inva": 8824, "anced</w>": 8825, "ar-": 8826, "arm</w>": 8827, "onial</w>": 8828, "onia</w>": 8829, "ena</w>": 8830, "enem": 8831, "regre": 8832, "liest</w>": 8833, "lized</w>": 8834, "ale": 8835, "rog": 8836, "their": 8837, "whatever</w>": 8838, "stac": 8839, "stent</w>": 8840, "stover</w>": 8841, "stalking</w>": 8842, "ick</w>": 8843, "ection</w>": 8844, "ectations</w>": 8845, "loses</w>": 8846, "losi</w>": 8847, "distance</w>": 8848, "sup</w>": 8849, "seems</w>": 8850, "segment</w>": 8851, "selues</w>": 8852, "puni": 8853, "20th</w>": 8854, "amming</w>": 8855, "conver": 8856, "contested</w>": 8857, "sh-": 8858, "dele": 8859, "Reas": 8860, "ve-born</w>": 8861, "begun</w>": 8862, "comprehen": 8863, "entries</w>": 8864, "tration</w>": 8865, "Defin": 8866, "exhi": 8867, "explan": 8868, "exposed</w>": 8869, "unsafe</w>": 8870, "uncertainty</w>": 8871, "counts</w>": 8872, "overed</w>": 8873, "overrepresented</w>": 8874, "overshad": 8875, "kewise</w>": 8876, "meant</w>": 8877, "methodology</w>": 8878, "perform</w>": 8879, "perception</w>": 8880, "peop": 8881, "peace": 8882, "lower-</w>": 8883, "qualities</w>": 8884, "iser</w>": 8885, "ooher</w>": 8886, "incumb": 8887, "ingredi": 8888, "oriented</w>": 8889, "marking</w>": 8890, "policing</w>": 8891, "rase</w>": 8892, "Inve": 8893, "declar": 8894, "interrogation</w>": 8895, "es\u2014": 8896, "escal": 8897, "tware</w>": 8898, "supp": 8899, "soften</w>": 8900, "take": 8901, "tains</w>": 8902, "join</w>": 8903, "1969</w>": 8904, "emed</w>": 8905, "Congo</w>": 8906, "alists</w>": 8907, "phrase</w>": 8908, "different": 8909, "fuels</w>": 8910, "religiosity</w>": 8911, "serves</w>": 8912, "Analy": 8913, "Anthony</w>": 8914, "mine</w>": 8915, "Modest</w>": 8916, "onesty</w>": 8917, "born": 8918, "dress</w>": 8919, "perior</w>": 8920, "Interest": 8921, "campu": 8922, "fact-": 8923, "mainstream</w>": 8924, "partial</w>": 8925, "Prefer</w>": 8926, "dered</w>": 8927, "selfi": 8928, "correlation</w>": 8929, "attenders</w>": 8930, "attentiveness</w>": 8931, "compare</w>": 8932, "compiled</w>": 8933, "com</w>": 8934, "coast</w>": 8935, "arities</w>": 8936, "tism</w>": 8937, "engine</w>": 8938, "engines</w>": 8939, "Actual</w>": 8940, "milestone</w>": 8941, "Mass</w>": 8942, "Make</w>": 8943, "arett": 8944, "university</w>": 8945, "affluent</w>": 8946, "Likewise</w>": 8947, "section</w>": 8948, "influx</w>": 8949, "influences</w>": 8950, "experiencing</w>": 8951, "impacted</w>": 8952, "impacts</w>": 8953, "Pelosi</w>": 8954, "themselues</w>": 8955, "Lead</w>": 8956, "respecting</w>": 8957, "Feb</w>": 8958, "Compu": 8959, "Always</w>": 8960, "Economist</w>": 8961, "filiation</w>": 8962, "record-": 8963, "resulting</w>": 8964, "10th</w>": 8965, "programming</w>": 8966, "Working</w>": 8967, "Boston</w>": 8968, "mandatory</w>": 8969, "native-born</w>": 8970, "effectiveness</w>": 8971, "mentary</w>": 8972, "drive</w>": 8973, "fulness</w>": 8974, "Colbert</w>": 8975, "busy</w>": 8976, "capture</w>": 8977, "produces</w>": 8978, "completing</w>": 8979, "engaging</w>": 8980, "claim</w>": 8981, "observed</w>": 8982, "obstac": 8983, "potentially</w>": 8984, "skilled</w>": 8985, "Hezbol": 8986, "Nevertheless</w>": 8987, "disparity</w>": 8988, "indicates</w>": 8989, "indicating</w>": 8990, "indicator</w>": 8991, "Changes</w>": 8992, "Changed</w>": 8993, "Attention</w>": 8994, "download</w>": 8995, "Britons</w>": 8996, "7.4</w>": 8997, "TER</w>": 8998, "casu": 8999, "Market</w>": 9000, "contributing</w>": 9001, "long-standing</w>": 9002, "Guant": 9003, "One-third</w>": 9004, "visits</w>": 9005, "intensity</w>": 9006, "8.7</w>": 9007, "8.5</w>": 9008, "8.4</w>": 9009, "8.6</w>": 9010, "very/": 9011, "well-paying</w>": 9012, "streaming</w>": 9013, "Swedes</w>": 9014, "corporate</w>": 9015, "Strongly</w>": 9016, "banning</w>": 9017, "Leading</w>": 9018, "occurs</w>": 9019, "rape</w>": 9020, "boost</w>": 9021, "wanting</w>": 9022, "1,004</w>": 9023, "Services</w>": 9024, "automated</w>": 9025, "Gray</w>": 9026, "constitutional</w>": 9027, "permanently</w>": 9028, "investigating</w>": 9029, "Brotherhood</w>": 9030, "frustration</w>": 9031, "visibility</w>": 9032, "3,8": 9033, "everyday</w>": 9034, "everything</w>": 9035, "garners</w>": 9036, "pre-recession</w>": 9037, "electoral</w>": 9038, "bombings</w>": 9039, "bloc</w>": 9040, "Partisanship</w>": 9041, "payroll</w>": 9042, "suffered</w>": 9043, "meaning": 9044, "FIGURE2</w>": 9045, "Affairs</w>": 9046, "Having</w>": 9047, "donors</w>": 9048, "vaks</w>": 9049, "determined</w>": 9050, "enjoy</w>": 9051, "persist</w>": 9052, "persisted</w>": 9053, "Friends</w>": 9054, "agnostics</w>": 9055, "1,504</w>": 9056, "Candidates</w>": 9057, "consin</w>": 9058, "referendu": 9059, "personality</w>": 9060, "doctor": 9061, "established</w>": 9062, "commerce</w>": 9063, "tempered</w>": 9064, "accompanying</w>": 9065, "Illegal</w>": 9066, "foot": 9067, "govt</w>": 9068, "Ethnic</w>": 9069, "polarization</w>": 9070, "Sub-Saharan</w>": 9071, "granted</w>": 9072, "Trayvon</w>": 9073, "atheists</w>": 9074, "labeled</w>": 9075, "totaled</w>": 9076, "Slovaks</w>": 9077, "aggressive</w>": 9078, "Greater</w>": 9079, "less-educated</w>": 9080, "texts</w>": 9081, "texting</w>": 9082, "ve-duty</w>": 9083, "controversies</w>": 9084, "Postal</w>": 9085, "Problem</w>": 9086, "Kaiser</w>": 9087, "argued</w>": 9088, "Institutions</w>": 9089, "Protection</w>": 9090, "observant</w>": 9091, "difficulties</w>": 9092, "caucus</w>": 9093, "establishing</w>": 9094, "welcome</w>": 9095, "launched</w>": 9096, "guarantee</w>": 9097, "fundamental</w>": 9098, "arrangements</w>": 9099, "DOJ</w>": 9100, "Assessments</w>": 9101, "Cauc": 9102, "branch</w>": 9103, "tuition</w>": 9104, "GOP-leaning</w>": 9105, "competitive</w>": 9106, "reasonable</w>": 9107, "Civil</w>": 9108, "Natur": 9109, "OECD</w>": 9110, "Witnesses</w>": 9111, "remarkably</w>": 9112, "illust": 9113, "continent</w>": 9114, "Expectations</w>": 9115, "athletes</w>": 9116, "software</w>": 9117, "Students</w>": 9118, "Occup": 9119, "Patrol</w>": 9120, "annexation</w>": 9121, "Help</w>": 9122, "fleeing</w>": 9123, "fearful</w>": 9124, "stimulus</w>": 9125, "quarantine</w>": 9126, "soldiers</w>": 9127, "relevant</w>": 9128, "neighborhoods</w>": 9129, "double-digit</w>": 9130, "sufficiently</w>": 9131, "AIDS</w>": 9132, "Ireland</w>": 9133, "Irish</w>": 9134, "Kerry</w>": 9135, "Katrina</w>": 9136, "Kashmir</w>": 9137, "Ohio</w>": 9138, "Saddam</w>": 9139, "Signific": 9140, "Wisconsin</w>": 9141, "invasion</w>": 9142, "declared</w>": 9143, "Interestingly</w>": 9144, "Hezbollah</w>": 9145, "referendum</w>": 9146, "00": 9147, "06</w>": 9148, "09</w>": 9149, "22": 9150, "34-year-olds</w>": 9151, "49": 9152, "64.1</w>": 9153, "88": 9154, "Att": 9155, "Aside</w>": 9156, "Back": 9157, "Cer": 9158, "Cap": 9159, "Dra": 9160, "Due</w>": 9161, "ER</w>": 9162, "Eis": 9163, "EPA</w>": 9164, "Food</w>": 9165, "Go</w>": 9166, "Gas</w>": 9167, "Gab": 9168, "Gir": 9169, "Hard</w>": 9170, "Journal</w>": 9171, "Kur": 9172, "Lab": 9173, "Low": 9174, "Lack</w>": 9175, "Mot": 9176, "Mur": 9177, "Mone": 9178, "N=": 9179, "Nin": 9180, "PO": 9181, "Por": 9182, "Prices</w>": 9183, "Passe": 9184, "Rous": 9185, "SE": 9186, "Sol": 9187, "Ze": 9188, "bilities</w>": 9189, "ck": 9190, "cli": 9191, "cents</w>": 9192, "canc": 9193, "cabinet</w>": 9194, "ddie</w>": 9195, "e/</w>": 9196, "eps</w>": 9197, "fa</w>": 9198, "gers</w>": 9199, "gasoline</w>": 9200, "honesty</w>": 9201, "i.": 9202, "lon": 9203, "mom": 9204, "mere</w>": 9205, "mani": 9206, "nder": 9207, "ots</w>": 9208, "pare</w>": 9209, "pts</w>": 9210, "sn": 9211, "sover</w>": 9212, "swee": 9213, "ton": 9214, "tter</w>": 9215, "ty-": 9216, "tude</w>": 9217, "vit": 9218, "vings</w>": 9219, "wa</w>": 9220, "wal": 9221, "will": 9222, "wish</w>": 9223, "xemb": 9224, "ygam": 9225, "intru": 9226, "anam": 9227, "anmar</w>": 9228, "erated</w>": 9229, "tivi": 9230, "ence-": 9231, "real": 9232, "review</w>": 9233, "resume</w>": 9234, "reversal</w>": 9235, "returns</w>": 9236, "allows</w>": 9237, "altogether</w>": 9238, "rob": 9239, "room</w>": 9240, "thetical</w>": 9241, "thejob</w>": 9242, "what": 9243, "whereas</w>": 9244, "stol": 9245, "stence</w>": 9246, "stak": 9247, "omy</w>": 9248, "actively</w>": 9249, "sil": 9250, "lole</w>": 9251, "lef": 9252, "dix</w>": 9253, "dience</w>": 9254, "distru": 9255, "suscep": 9256, "rilole</w>": 9257, "mode</w>": 9258, "most-": 9259, "added</w>": 9260, "seff</w>": 9261, "2035</w>": 9262, "oundation</w>": 9263, "depart": 9264, "deliber": 9265, "ilers</w>": 9266, "Reg": 9267, "Resi": 9268, "Remain": 9269, "Retail</w>": 9270, "partly</w>": 9271, "ves": 9272, "U.N.</w>": 9273, "compromises</w>": 9274, "comScore</w>": 9275, "elder": 9276, "progre": 9277, "proven</w>": 9278, "tered</w>": 9279, "preci": 9280, "Death</w>": 9281, "Deferred</w>": 9282, "unin": 9283, "unfol": 9284, "unlock</w>": 9285, "unfriendly</w>": 9286, "assment</w>": 9287, "images</w>": 9288, "overs</w>": 9289, "earliest</w>": 9290, "keeps</w>": 9291, "surpass</w>": 9292, "surpassing</w>": 9293, "permitted</w>": 9294, "pervasive</w>": 9295, "apt</w>": 9296, "worsen</w>": 9297, "pest</w>": 9298, "low-income</w>": 9299, "quad": 9300, "quiz</w>": 9301, "gram</w>": 9302, "recessions</w>": 9303, "Inf": 9304, "ourg</w>": 9305, "interpre": 9306, "intermarriage</w>": 9307, "internal</w>": 9308, "plying</w>": 9309, "Centers</w>": 9310, "year-</w>": 9311, "tax": 9312, "1900</w>": 9313, "1950</w>": 9314, "1968</w>": 9315, "1971</w>": 9316, "channe": 9317, "ofvoters</w>": 9318, "ofUS</w>": 9319, "highlight</w>": 9320, "Conditions</w>": 9321, "lair</w>": 9322, "laid</w>": 9323, "alling</w>": 9324, "offspring</w>": 9325, "stere": 9326, "mining</w>": 9327, "licen": 9328, "outlier</w>": 9329, "outstanding</w>": 9330, "outpace</w>": 9331, "auto</w>": 9332, "child": 9333, "anders</w>": 9334, "Muslim": 9335, "Pres": 9336, "harsh</w>": 9337, "Affiliation</w>": 9338, "e-sex</w>": 9339, "newsc": 9340, "subur": 9341, "updating</w>": 9342, "Provi": 9343, "Proposa": 9344, "owns</w>": 9345, "sciences</w>": 9346, "analyze</w>": 9347, "military": 9348, "explicit</w>": 9349, "Med": 9350, "question": 9351, "info</w>": 9352, "tisers</w>": 9353, "authority</w>": 9354, "locally</w>": 9355, "locations</w>": 9356, "Arrivals</w>": 9357, "freely</w>": 9358, "buy</w>": 9359, "handful</w>": 9360, "risky</w>": 9361, "non-rural</w>": 9362, "prefers</w>": 9363, "valence</w>": 9364, "stating</w>": 9365, "Feel</w>": 9366, "amounts</w>": 9367, "measuring</w>": 9368, "Middle": 9369, "Christianity</w>": 9370, "USA</w>": 9371, "arrival</w>": 9372, "considers</w>": 9373, "doubling</w>": 9374, "undergone</w>": 9375, "one-in-six</w>": 9376, "drinking</w>": 9377, "Adver": 9378, "human": 9379, "3.8</w>": 9380, "defending</w>": 9381, "advances</w>": 9382, "nativity</w>": 9383, "starts</w>": 9384, "4.9</w>": 9385, "knowing</w>": 9386, "mentally</w>": 9387, "benef": 9388, "senator</w>": 9389, "enders</w>": 9390, "lesser</w>": 9391, "meddling</w>": 9392, "Notes</w>": 9393, "productivity</w>": 9394, "dealt</w>": 9395, "anti-</w>": 9396, "5.1</w>": 9397, "5.8</w>": 9398, "completion</w>": 9399, "printed</w>": 9400, "define</w>": 9401, "Italian</w>": 9402, "libertarian</w>": 9403, "on-demand</w>": 9404, "strain</w>": 9405, "1,500</w>": 9406, "draising</w>": 9407, "Nigerian</w>": 9408, "fundraising</w>": 9409, "rolls</w>": 9410, "7.1</w>": 9411, "7.6</w>": 9412, "casts</w>": 9413, "ledge</w>": 9414, "9.7</w>": 9415, "9.2</w>": 9416, "9.5</w>": 9417, "9.9</w>": 9418, "encouraged</w>": 9419, "Commun": 9420, "0.6</w>": 9421, "0.8</w>": 9422, "caring</w>": 9423, "collect</w>": 9424, "collabor": 9425, "Australian</w>": 9426, "connectivity</w>": 9427, "Positively</w>": 9428, "territorial</w>": 9429, "communicating</w>": 9430, "transa": 9431, "Six</w>": 9432, "achievements</w>": 9433, "Small</w>": 9434, "Concerned</w>": 9435, "anyone</w>": 9436, "characterized</w>": 9437, "Divisions</w>": 9438, "drawing</w>": 9439, "Ford</w>": 9440, "post-9/11</w>": 9441, "appeal</w>": 9442, "automatically</w>": 9443, "investigate</w>": 9444, "Highly</w>": 9445, "Freedoms</w>": 9446, "Freddie</w>": 9447, "Network</w>": 9448, "spoke</w>": 9449, "Increase</w>": 9450, "pre-election</w>": 9451, "targets</w>": 9452, "elementary</w>": 9453, "reveal</w>": 9454, "attributable</w>": 9455, "investments</w>": 9456, "Harris</w>": 9457, "blog</w>": 9458, "30-</w>": 9459, "izing</w>": 9460, "murders</w>": 9461, "conviction</w>": 9462, "Increasing</w>": 9463, "Mali</w>": 9464, "negotiating</w>": 9465, "payrolls</w>": 9466, "Consider</w>": 9467, "Importance</w>": 9468, "Office</w>": 9469, "Somali</w>": 9470, "excluding</w>": 9471, "expenses</w>": 9472, "persists</w>": 9473, "Debate</w>": 9474, "confirm</w>": 9475, "predicted</w>": 9476, "assets</w>": 9477, "husbands</w>": 9478, "northern</w>": 9479, "Salvadoran</w>": 9480, "lags</w>": 9481, "recognize</w>": 9482, "player</w>": 9483, "emerge</w>": 9484, "emergence</w>": 9485, "Birth</w>": 9486, "Luxemb": 9487, "ation-adjusted</w>": 9488, "predecessors</w>": 9489, "zero</w>": 9490, "defeated</w>": 9491, "misunder": 9492, "passwords</w>": 9493, "Dominicans</w>": 9494, "Satisfaction</w>": 9495, "conclusion</w>": 9496, "manufacturing</w>": 9497, "ING</w>": 9498, "merman</w>": 9499, "spike</w>": 9500, "crash</w>": 9501, "subscribe</w>": 9502, "lessness</w>": 9503, "Citizenship</w>": 9504, "federalgovernment</w>": 9505, "Migration</w>": 9506, "animals</w>": 9507, "difficulty</w>": 9508, "caucuses</w>": 9509, "depression</w>": 9510, "grandparents</w>": 9511, "wireless</w>": 9512, "majority-minority</w>": 9513, "newsmaker</w>": 9514, "missile</w>": 9515, "Known</w>": 9516, "Third</w>": 9517, "hardworking</w>": 9518, "Environmental</w>": 9519, "Optimism</w>": 9520, "Web-only</w>": 9521, "magazines</w>": 9522, "hashtag</w>": 9523, "endorse</w>": 9524, "Newspaper</w>": 9525, "targeting</w>": 9526, "Areas</w>": 9527, "routinely</w>": 9528, "extra</w>": 9529, "coalition</w>": 9530, "Myanmar</w>": 9531, "Speaker</w>": 9532, "youths</w>": 9533, "departures</w>": 9534, "contracep": 9535, "victims</w>": 9536, "prevailing</w>": 9537, "Bombing</w>": 9538, "brain</w>": 9539, "succeeded</w>": 9540, "strategies</w>": 9541, "benchmark</w>": 9542, "Million</w>": 9543, "Swine</w>": 9544, "Winter</w>": 9545, "Zimmerman</w>": 9546, "situations</w>": 9547, "protesters</w>": 9548, "ceremonial</w>": 9549, "President-elect</w>": 9550, "equivalent</w>": 9551, "Enrollment</w>": 9552, "Library</w>": 9553, "Hawaii</w>": 9554, "crowd": 9555, "encountered</w>": 9556, "develop</w>": 9557, "per-capita</w>": 9558, "incarcer": 9559, "Participation</w>": 9560, "Pluralities</w>": 9561, "cigarett": 9562, "comprehensive</w>": 9563, "ingredients</w>": 9564, "obstacles</w>": 9565, "Guantanam": 9566, "Eisenh": 9567, "Nine-in-ten</w>": 9568, "Passel</w>": 9569, "Rousseff</w>": 9570, "Zealand</w>": 9571, "suscepti": 9572, "departments</w>": 9573, "Remains</w>": 9574, "Luxembourg</w>": 9575, "Guantanamo</w>": 9576, "-country</w>": 9577, "-terrorism</w>": 9578, "-plurality</w>": 9579, ".for</w>": 9580, "/not</w>": 9581, "/Spanish</w>": 9582, "/ABC</w>": 9583, "01</w>": 9584, "120</w>": 9585, "12.2</w>": 9586, "250</w>": 9587, "25,000</w>": 9588, "3-": 9589, "36": 9590, "80": 9591, "900</w>": 9592, "Ah": 9593, "Al</w>": 9594, "Agree</w>": 9595, "BY</w>": 9596, "Ben</w>": 9597, "Bap": 9598, "Bow": 9599, "Brea": 9600, "Cou": 9601, "DI": 9602, "Evi": 9603, "Especially</w>": 9604, "Fas": 9605, "Fall</w>": 9606, "Foundation</w>": 9607, "Gad": 9608, "HC": 9609, "Hil": 9610, "Hill</w>": 9611, "King</w>": 9612, "Kas": 9613, "Lon": 9614, "Mother</w>": 9615, "Male</w>": 9616, "Nev": 9617, "Nomin": 9618, "Nancy</w>": 9619, "OF": 9620, "Pi": 9621, "Per</w>": 9622, "Pay</w>": 9623, "Plat": 9624, "Rati": 9625, "Rubi": 9626, "Sinc": 9627, "Seven</w>": 9628, "Stra": 9629, "Tor": 9630, "Tre": 9631, "Tem": 9632, "Wil": 9633, "az": 9634, "aks</w>": 9635, "ail</w>": 9636, "ains</w>": 9637, "astating</w>": 9638, "bail": 9639, "base": 9640, "cop": 9641, "cson</w>": 9642, "e.</w>": 9643, "e-</w>": 9644, "eus</w>": 9645, "etration</w>": 9646, "fly</w>": 9647, "fate</w>": 9648, "fearly</w>": 9649, "gall": 9650, "hn": 9651, "ham": 9652, "his": 9653, "hiring</w>": 9654, "hurricane</w>": 9655, "ku": 9656, "kina</w>": 9657, "non</w>": 9658, "nment</w>": 9659, "ot</w>": 9660, "ole": 9661, "pounds</w>": 9662, "prayer</w>": 9663, "ra</w>": 9664, "smo": 9665, "sound</w>": 9666, "sque</w>": 9667, "ty": 9668, "tac": 9669, "tally</w>": 9670, "tour": 9671, "ts\u2014": 9672, "won": 9673, "way": 9674, "yers</w>": 9675, "\u2014a</w>": 9676, "inal</w>": 9677, "inations</w>": 9678, "erran": 9679, "arts</w>": 9680, "or-": 9681, "oul": 9682, "reside</w>": 9683, "resolution</w>": 9684, "lift</w>": 9685, "alties</w>": 9686, "itting</w>": 9687, "rooms</w>": 9688, "roots</w>": 9689, "theory</w>": 9690, "omes</w>": 9691, "omic</w>": 9692, "omberg</w>": 9693, "icers</w>": 9694, "acci": 9695, "acity</w>": 9696, "acked</w>": 9697, "academ": 9698, "sidies</w>": 9699, "abee</w>": 9700, "leans</w>": 9701, "suspects</w>": 9702, "nell</w>": 9703, "riel": 9704, "mosque</w>": 9705, "add</w>": 9706, "addi": 9707, "seat</w>": 9708, "console</w>": 9709, "sher</w>": 9710, "deals</w>": 9711, "dedic": 9712, "devoting</w>": 9713, "Reduc": 9714, "Reduce</w>": 9715, "Reporting</w>": 9716, "Reports</w>": 9717, "Thought</w>": 9718, "spli": 9719, "vez</w>": 9720, "veter": 9721, "veto": 9722, "bearing</w>": 9723, "commu": 9724, "otyp": 9725, "ulation</w>": 9726, "ultural</w>": 9727, "enth</w>": 9728, "entally</w>": 9729, "prosp": 9730, "profits</w>": 9731, "massive</w>": 9732, "trag": 9733, "notion</w>": 9734, "ternal</w>": 9735, "prepare</w>": 9736, "Dec</w>": 9737, "Deal</w>": 9738, "exchange</w>": 9739, "external</w>": 9740, "uns</w>": 9741, "unpaid</w>": 9742, "unknown</w>": 9743, "unanim": 9744, "undecided</w>": 9745, "impul": 9746, "ch-": 9747, "cil</w>": 9748, "survi": 9749, "peti": 9750, "lowers</w>": 9751, "father</w>": 9752, "forced</w>": 9753, "-in-10</w>": 9754, "greedy</w>": 9755, "closing</w>": 9756, "follow-up</w>": 9757, "rai": 9758, "fear</w>": 9759, "geograph": 9760, "Inclu": 9761, "Intelli": 9762, "decent</w>": 9763, "interference</w>": 9764, "tric</w>": 9765, "triple</w>": 9766, "random</w>": 9767, "luc": 9768, "migrate</w>": 9769, "Center": 9770, "favor/oppose</w>": 9771, "payment</w>": 9772, "eved</w>": 9773, "198</w>": 9774, "1973</w>": 9775, "1979</w>": 9776, "immigran": 9777, "scope</w>": 9778, "Connell</w>": 9779, "dentified</w>": 9780, "contacts</w>": 9781, "height</w>": 9782, "health": 9783, "doz": 9784, "racies</w>": 9785, "somewhere</w>": 9786, "fun</w>": 9787, "penetration</w>": 9788, "Angry</w>": 9789, "wars</w>": 9790, "coldly</w>": 9791, "outlet</w>": 9792, "outreach</w>": 9793, "Stand</w>": 9794, "affir": 9795, "factual</w>": 9796, "facilities</w>": 9797, "negativity</w>": 9798, "Unlike</w>": 9799, "becomes</w>": 9800, "Prevention</w>": 9801, "Mexican": 9802, "Mexican-": 9803, "problem": 9804, "campaign": 9805, "currency</w>": 9806, "substitu": 9807, "subjects</w>": 9808, "heart</w>": 9809, "non-</w>": 9810, "Metho": 9811, "Persi": 9812, "bipartisan</w>": 9813, "informative</w>": 9814, "forefront</w>": 9815, "Live</w>": 9816, "Enthusias": 9817, "trails</w>": 9818, "traeus</w>": 9819, "climb</w>": 9820, "rones</w>": 9821, "nament</w>": 9822, "Petraeus</w>": 9823, "memor": 9824, "themati": 9825, "Left</w>": 9826, "friended</w>": 9827, "proud</w>": 9828, "titude</w>": 9829, "Allowing</w>": 9830, "occa": 9831, "active-duty</w>": 9832, "confused</w>": 9833, "Sept</w>": 9834, "regulated</w>": 9835, "System</w>": 9836, "CON": 9837, "variations</w>": 9838, "Execu": 9839, "Worse</w>": 9840, "undergraduate</w>": 9841, "drama</w>": 9842, "patrio": 9843, "England</w>": 9844, "Recovery</w>": 9845, "John": 9846, "defendants</w>": 9847, "devastating</w>": 9848, "digits</w>": 9849, "dominates</w>": 9850, "congregations</w>": 9851, "Sees</w>": 9852, "capacity</w>": 9853, "productive</w>": 9854, "nominated</w>": 9855, "antibio": 9856, "5.0</w>": 9857, "worker</w>": 9858, "involve</w>": 9859, "Republican-": 9860, "Republican-</w>": 9861, "ayor</w>": 9862, "defines</w>": 9863, "shooter</w>": 9864, "liberty</w>": 9865, "longtime</w>": 9866, "sympathies</w>": 9867, "indicated</w>": 9868, "multiethnic</w>": 9869, "Secretary</w>": 9870, "7.3</w>": 9871, "standoff</w>": 9872, "encouraging</w>": 9873, "McConnell</w>": 9874, "anti-terror</w>": 9875, "0.7</w>": 9876, "0.9</w>": 9877, "cars</w>": 9878, ",000": 9879, "self-reported</w>": 9880, "relied</w>": 9881, "Religiously</w>": 9882, "landscape</w>": 9883, "expansion</w>": 9884, "Being</w>": 9885, "8.2</w>": 9886, "headlines</w>": 9887, "professions</w>": 9888, "gun-": 9889, "Council</w>": 9890, "audiences</w>": 9891, "Split</w>": 9892, "Crisis</w>": 9893, "Tucson</w>": 9894, "executions</w>": 9895, "plane</w>": 9896, "second-largest</w>": 9897, "U.S.-China</w>": 9898, "U.S.-led</w>": 9899, "1,007</w>": 9900, "Follow</w>": 9901, "shaped</w>": 9902, "Morsi</w>": 9903, "peaking</w>": 9904, "challenging</w>": 9905, "Networking</w>": 9906, "seasonal</w>": 9907, "committee</w>": 9908, "11.1</w>": 9909, "element</w>": 9910, "revealed</w>": 9911, "mentions</w>": 9912, "bomb</w>": 9913, "Filipino</w>": 9914, "re-elected</w>": 9915, "distingu": 9916, "distracted</w>": 9917, "Hungarians</w>": 9918, "fluctuations</w>": 9919, "principle</w>": 9920, "Identity</w>": 9921, "Employed</w>": 9922, "12th-graders</w>": 9923, "Gov": 9924, "Sandy</w>": 9925, "ority": 9926, "predict</w>": 9927, "widening</w>": 9928, "Edward</w>": 9929, "Laws</w>": 9930, "listen</w>": 9931, "Hostilities</w>": 9932, "explain</w>": 9933, "weekend</w>": 9934, "Without</w>": 9935, "Burkina</w>": 9936, "norms</w>": 9937, "tung</w>": 9938, "importantto</w>": 9939, "Guatemalan</w>": 9940, "Foreign-": 9941, "Outside</w>": 9942, "please</w>": 9943, "opponent</w>": 9944, "emergency</w>": 9945, "Viewership</w>": 9946, "Fathers</w>": 9947, "Steady</w>": 9948, "slowdown</w>": 9949, "simple</w>": 9950, "comprised</w>": 9951, "accessed</w>": 9952, "screens</w>": 9953, "Scientific</w>": 9954, "7,9": 9955, "label</w>": 9956, "illings</w>": 9957, "Effect</w>": 9958, "assign</w>": 9959, "Overwhelmingly</w>": 9960, "Elsewhere</w>": 9961, "brid": 9962, "caregiver</w>": 9963, "acqui": 9964, "advoc": 9965, "consequence</w>": 9966, "vehicle</w>": 9967, "English/Spanish</w>": 9968, "cryp": 9969, "half-": 9970, "Quarter</w>": 9971, "breakdown</w>": 9972, "welcoming</w>": 9973, "intelligent</w>": 9974, "criticized</w>": 9975, "experimental</w>": 9976, "yiel": 9977, "riots</w>": 9978, "Extremi": 9979, "Extremism</w>": 9980, "mission": 9981, "Selfi": 9982, "insults</w>": 9983, "insulting</w>": 9984, "materi": 9985, "Families</w>": 9986, "Huck": 9987, "mandate</w>": 9988, "conventional</w>": 9989, "conventionally</w>": 9990, "highlighted</w>": 9991, "wedding</w>": 9992, "photo</w>": 9993, "Spaniards</w>": 9994, "celebrate</w>": 9995, "erosion</w>": 9996, "implanted</w>": 9997, "perspective</w>": 9998, "outweighed</w>": 9999, "Private</w>": 10000, "deteriorated</w>": 10001, "Specifically</w>": 10002, "Industrial</w>": 10003, "algorithms</w>": 10004, "DAY</w>": 10005, "Events</w>": 10006, "Garner</w>": 10007, "finished</w>": 10008, "steeply</w>": 10009, "Ethiopia</w>": 10010, "Urban</w>": 10011, "artificial</w>": 10012, "depth</w>": 10013, "ultimately</w>": 10014, "faiths</w>": 10015, "cumbent</w>": 10016, "Bloomberg</w>": 10017, "Boom</w>": 10018, "fastest-growing</w>": 10019, "customers</w>": 10020, "heritage</w>": 10021, "Tribune</w>": 10022, "Substantial</w>": 10023, "Pessimism</w>": 10024, "Taken</w>": 10025, "introduc": 10026, "rogant</w>": 10027, "punishment</w>": 10028, "incumbent</w>": 10029, "meaningful</w>": 10030, "Caucus</w>": 10031, "Background</w>": 10032, "Gabriel": 10033, "Girls</w>": 10034, "Monetary</w>": 10035, "ygamy</w>": 10036, "tivities</w>": 10037, "stolen</w>": 10038, "channels</w>": 10039, "stereotyp": 10040, "militaryforce</w>": 10041, "crowdfunding</w>": 10042, "Eisenhower</w>": 10043, "susceptible</w>": 10044, "Bapti": 10045, "Faso</w>": 10046, "Kasich</w>": 10047, "London</w>": 10048, "Rubio</w>": 10049, "Sinclair</w>": 10050, "bailout</w>": 10051, "tournament</w>": 10052, "impulsive</w>": 10053, "Huckabee</w>": 10054, "Gabrielle</w>": 10055, ",4": 10056, "-1</w>": 10057, "-level</w>": 10058, "07</w>": 10059, "00s</w>": 10060, "12.5</w>": 10061, "2100</w>": 10062, "39": 10063, "999</w>": 10064, "AP</w>": 10065, "Abe</w>": 10066, "Assi": 10067, "Asy": 10068, "Bh": 10069, "BP</w>": 10070, "Bay</w>": 10071, "Cy": 10072, "Cre": 10073, "Cha": 10074, "Cons</w>": 10075, "CAR": 10076, "Dat": 10077, "DACA</w>": 10078, "Evalu": 10079, "Fis": 10080, "Floy": 10081, "FSU</w>": 10082, "Gaps</w>": 10083, "Grows</w>": 10084, "He</w>": 10085, "IR</w>": 10086, "Ite": 10087, "Jack": 10088, "Ki": 10089, "Kor": 10090, "Knows</w>": 10091, "Lun": 10092, "Les": 10093, "Lines</w>": 10094, "Made</w>": 10095, "Mus</w>": 10096, "Mide": 10097, "Nati": 10098, "Nec": 10099, "Nex": 10100, "Nation": 10101, "OU": 10102, "Or</w>": 10103, "Off</w>": 10104, "PU": 10105, "Past</w>": 10106, "Re</w>": 10107, "Radi": 10108, "Rather</w>": 10109, "Sar": 10110, "Sab": 10111, "Sot": 10112, "Squ": 10113, "Sant": 10114, "TV": 10115, "TTI": 10116, "WW": 10117, "Wr": 10118, "Wan": 10119, "Were</w>": 10120, "Wage</w>": 10121, "Woods</w>": 10122, "XL</w>": 10123, "astron": 10124, "aves": 10125, "bothers</w>": 10126, "cra": 10127, "cross</w>": 10128, "d-</w>": 10129, "dar": 10130, "drones</w>": 10131, "eties</w>": 10132, "ease</w>": 10133, "eech</w>": 10134, "euro</w>": 10135, "eaves": 10136, "fi</w>": 10137, "fof</w>": 10138, "fect</w>": 10139, "fought</w>": 10140, "ftung</w>": 10141, "gated</w>": 10142, "ior</w>": 10143, "ities</w>": 10144, "ished</w>": 10145, "ko": 10146, "ki</w>": 10147, "kdown</w>": 10148, "killings</w>": 10149, "l-": 10150, "ler</w>": 10151, "lly</w>": 10152, "lle</w>": 10153, "lout</w>": 10154, "lone": 10155, "lady</w>": 10156, "lation-adjusted</w>": 10157, "mon</w>": 10158, "nav": 10159, "pal</w>": 10160, "rant</w>": 10161, "rounded</w>": 10162, "slots</w>": 10163, "ts": 10164, "tune</w>": 10165, "tlantic</w>": 10166, "un</w>": 10167, "uu</w>": 10168, "usa": 10169, "une": 10170, "wwo</w>": 10171, "z-": 10172, "thening</w>": 10173, "ansas</w>": 10174, "eras</w>": 10175, "erts</w>": 10176, "erge": 10177, "eria</w>": 10178, "ard": 10179, "army</w>": 10180, "tized</w>": 10181, "tion-": 10182, "tiff</w>": 10183, "tighter</w>": 10184, "ender</w>": 10185, "enrich": 10186, "encryp": 10187, "oux</w>": 10188, "resc": 10189, "reserv": 10190, "remin": 10191, "recip": 10192, "rejected</w>": 10193, "regained</w>": 10194, "reluc": 10195, "likes</w>": 10196, "salar": 10197, "savings</w>": 10198, "atomic</w>": 10199, "attitude</w>": 10200, "ala</w>": 10201, "along": 10202, "alway": 10203, "itarian</w>": 10204, "roles</w>": 10205, "theat": 10206, "stal": 10207, "stat</w>": 10208, "step": 10209, "omayor</w>": 10210, "atitude</w>": 10211, "icult</w>": 10212, "accom": 10213, "sibility</w>": 10214, "superior</w>": 10215, "neys</w>": 10216, "rival": 10217, "mosity</w>": 10218, "vered</w>": 10219, "adan</w>": 10220, "adding</w>": 10221, "se-": 10222, "sea</w>": 10223, "sework</w>": 10224, "puts</w>": 10225, "putting</w>": 10226, "20.": 10227, "consecu": 10228, "hafi</w>": 10229, "shim": 10230, "shandling</w>": 10231, "ouns</w>": 10232, "dest": 10233, "publishing</w>": 10234, "Revenue</w>": 10235, "Thom": 10236, "Then</w>": 10237, "Thur": 10238, "Them": 10239, "Think</w>": 10240, "parliam": 10241, "best": 10242, "bear</w>": 10243, "opt</w>": 10244, "ull</w>": 10245, "uled</w>": 10246, "ulative</w>": 10247, "elsen</w>": 10248, "proli": 10249, "prove</w>": 10250, "may": 10251, "maps</w>": 10252, "maxim": 10253, "tracks</w>": 10254, "portive</w>": 10255, "exag": 10256, "excited</w>": 10257, "unsuccessful</w>": 10258, "aska</w>": 10259, "implant</w>": 10260, "over-": 10261, "earns</w>": 10262, "ket": 10263, "ling": 10264, "grav": 10265, "gratitude</w>": 10266, "-inter": 10267, "isi</w>": 10268, "ised</w>": 10269, "-in-three</w>": 10270, "recre": 10271, "rastructure</w>": 10272, "accused</w>": 10273, "females</w>": 10274, "intervention</w>": 10275, "team</w>": 10276, "es-": 10277, "escap": 10278, "migrated</w>": 10279, "Hispa</w>": 10280, "Chec": 10281, "favorite</w>": 10282, "Trend</w>": 10283, "Tracking</w>": 10284, "priority": 10285, "1946</w>": 10286, "1972</w>": 10287, "embr": 10288, "finance</w>": 10289, "scar": 10290, "scow</w>": 10291, "populated</w>": 10292, "highest": 10293, "higher-": 10294, "Connec": 10295, "Consequ": 10296, "door</w>": 10297, "offended</w>": 10298, "offenders</w>": 10299, "rupt</w>": 10300, "presented</w>": 10301, "quarter-": 10302, "stering</w>": 10303, "divisive</w>": 10304, "Moscow</w>": 10305, "Parent</w>": 10306, "sharpest</w>": 10307, "conducts</w>": 10308, "personal": 10309, "Stable</w>": 10310, "iller</w>": 10311, "factories</w>": 10312, "firing</w>": 10313, "firms</w>": 10314, "Prefer": 10315, "AfD</w>": 10316, "disability</w>": 10317, "signature</w>": 10318, "Produc": 10319, "Progress</w>": 10320, "Vide": 10321, "ssively</w>": 10322, "science-": 10323, "critics</w>": 10324, "analysts</w>": 10325, "colleague</w>": 10326, "coast": 10327, "arization</w>": 10328, "expands</w>": 10329, "Peru</w>": 10330, "Perform": 10331, "inflow</w>": 10332, "infrastructure</w>": 10333, "agreeing</w>": 10334, "Making</w>": 10335, "located</w>": 10336, "location-": 10337, "orever</w>": 10338, "opposes</w>": 10339, "offices</w>": 10340, "authoriz": 10341, "eight-": 10342, "Together</w>": 10343, "eduled</w>": 10344, "influential</w>": 10345, "influencing</w>": 10346, "Austri": 10347, "Decreas": 10348, "improves</w>": 10349, "Wealth</w>": 10350, "non-users</w>": 10351, "non-gun</w>": 10352, "non-English</w>": 10353, "three-year</w>": 10354, "three-to-": 10355, "expression</w>": 10356, "Lean": 10357, "Leads</w>": 10358, "Leaks</w>": 10359, "tite</w>": 10360, "state-": 10361, "lecting</w>": 10362, "ousness</w>": 10363, "Feder": 10364, "Supportive</w>": 10365, "Alber": 10366, "comparisons</w>": 10367, "Buil": 10368, "hob": 10369, "attacked</w>": 10370, "USS": 10371, "focusing</w>": 10372, "Synthetic</w>": 10373, "democracies</w>": 10374, "residing</w>": 10375, "Engagement</w>": 10376, "Shr": 10377, "Shor": 10378, "Recei": 10379, "Boko</w>": 10380, "Stiftung</w>": 10381, "endar</w>": 10382, "even-": 10383, "noting</w>": 10384, "director</w>": 10385, "sexuals</w>": 10386, "pathy</w>": 10387, "nominating</w>": 10388, "discre": 10389, "school-": 10390, "schoolwork</w>": 10391, "Islanders</w>": 10392, "year-olds</w>": 10393, "Access</w>": 10394, "Priority</w>": 10395, "Very/": 10396, "assessing</w>": 10397, "ninth</w>": 10398, "6.8</w>": 10399, "1,9": 10400, "foreigners</w>": 10401, "Two-": 10402, "longer-": 10403, "Largely</w>": 10404, "rene</w>": 10405, "disper": 10406, "disparities</w>": 10407, "civic</w>": 10408, "church": 10409, "Libby</w>": 10410, "7.8</w>": 10411, "ruled</w>": 10412, "Marco</w>": 10413, "9.4</w>": 10414, "9.8</w>": 10415, "combination</w>": 10416, "careful</w>": 10417, "Educated</w>": 10418, "judicial</w>": 10419, "drug": 10420, "visiting</w>": 10421, "nationalities</w>": 10422, "intensely</w>": 10423, "8.8</w>": 10424, "very/</w>": 10425, "Difficult</w>": 10426, "Comparis": 10427, "lacking</w>": 10428, "s-up</w>": 10429, "acteristics</w>": 10430, "Sioux</w>": 10431, "well-educated</w>": 10432, "icipal</w>": 10433, "existence</w>": 10434, "bank</w>": 10435, "anywhere</w>": 10436, "advertisers</w>": 10437, "second-highest</w>": 10438, "Divides</w>": 10439, "hospital</w>": 10440, "picked</w>": 10441, "U.S.-German</w>": 10442, "Seri": 10443, "Give</w>": 10444, "awa": 10445, "College-educated</w>": 10446, "appropriations</w>": 10447, "waves</w>": 10448, "postsecondary</w>": 10449, "prioritized</w>": 10450, "Justified</w>": 10451, "pre-emp": 10452, "preparing</w>": 10453, "10.7</w>": 10454, "11.3</w>": 10455, "11.9</w>": 10456, "attributes</w>": 10457, "ponents</w>": 10458, "pontiff</w>": 10459, "deeper</w>": 10460, "deepening</w>": 10461, "burning</w>": 10462, "safely</w>": 10463, "eches</w>": 10464, "nears</w>": 10465, "nearest</w>": 10466, "employment": 10467, "full-</w>": 10468, "Haram</w>": 10469, "Virtually</w>": 10470, "retained</w>": 10471, "retailers</w>": 10472, "Earlier</w>": 10473, "Offshore</w>": 10474, "donations</w>": 10475, "mentioning</w>": 10476, "exceeding</w>": 10477, "operations</w>": 10478, "Congresses</w>": 10479, "legislature</w>": 10480, "suggested</w>": 10481, "persistent</w>": 10482, "Generations</w>": 10483, "Friend</w>": 10484, "Shares</w>": 10485, "Ukrainian</w>": 10486, "Going</w>": 10487, "originally</w>": 10488, "originated</w>": 10489, "SNS</w>": 10490, "Ariz.</w>": 10491, "Estimates</w>": 10492, "Nielsen</w>": 10493, "Hosn": 10494, "temporarily</w>": 10495, "Jeb</w>": 10496, "holidays</w>": 10497, "mirrored</w>": 10498, "embarr": 10499, "digitally</w>": 10500, "renewed</w>": 10501, "Widely</w>": 10502, "battle": 10503, "alleged</w>": 10504, "loading</w>": 10505, "Berlin</w>": 10506, "Characteristics</w>": 10507, "Continue</w>": 10508, "Student</w>": 10509, "MORE</w>": 10510, "Migrants</w>": 10511, "fracking</w>": 10512, "Institute</w>": 10513, "Protecting</w>": 10514, "Prince</w>": 10515, "flagge": 10516, "flagged</w>": 10517, "experiment</w>": 10518, "disappointing</w>": 10519, "catching</w>": 10520, "adequately</w>": 10521, "failure</w>": 10522, "Environment</w>": 10523, "material</w>": 10524, "Optimistic</w>": 10525, "arrangement</w>": 10526, "Ifyou</w>": 10527, "UNHC": 10528, "tumbled</w>": 10529, "contentious</w>": 10530, "featured</w>": 10531, "Multiracial</w>": 10532, "LOOO</w>": 10533, "upheld</w>": 10534, "preceding</w>": 10535, "conference</w>": 10536, "tolerant</w>": 10537, "presidentialelection</w>": 10538, "Troops</w>": 10539, "a/an</w>": 10540, "diagnosed</w>": 10541, "podcasts</w>": 10542, "movies</w>": 10543, "Demographic</w>": 10544, "foreclo": 10545, "Upper-income</w>": 10546, "tags</w>": 10547, "validated</w>": 10548, "revised</w>": 10549, "agriculture</w>": 10550, "trustworthy</w>": 10551, "calculated</w>": 10552, "Efforts</w>": 10553, "Technology</w>": 10554, "Ramadan</w>": 10555, "Rulings</w>": 10556, "Reflecting</w>": 10557, "fortunes</w>": 10558, "Strengthening</w>": 10559, "anonymous</w>": 10560, "Benefits</w>": 10561, "Gorsuch</w>": 10562, "ofeligible</w>": 10563, "psycho": 10564, "rush</w>": 10565, "deleted</w>": 10566, "explanations</w>": 10567, "peacefully</w>": 10568, "supplies</w>": 10569, "Computer</w>": 10570, "49-year-olds</w>": 10571, "Certain</w>": 10572, "Capit": 10573, "Kurds</w>": 10574, "Motors</w>": 10575, "cancer</w>": 10576, "stakes</w>": 10577, "left-": 10578, "deliberately</w>": 10579, "elderly</w>": 10580, "progressively</w>": 10581, "uninsured</w>": 10582, "Inflation</w>": 10583, "childbearing</w>": 10584, "Muslim-majority</w>": 10585, "newscasts</w>": 10586, "suburbs</w>": 10587, "benefited</w>": 10588, "Bowl</w>": 10589, "Evidence</w>": 10590, "Gadhafi</w>": 10591, "Nevada</w>": 10592, "hisjob</w>": 10593, "tactics</w>": 10594, "academic</w>": 10595, "additives</w>": 10596, "veteran</w>": 10597, "tragedy</w>": 10598, "Intelligence</w>": 10599, "affirm": 10600, "substitutes</w>": 10601, "Enthusiasm</w>": 10602, "Johnson</w>": 10603, "half-century</w>": 10604, "Selfidentified</w>": 10605, "Asylum</w>": 10606, "Bhut": 10607, "Fiscal</w>": 10608, "Floyd</w>": 10609, "Jackson</w>": 10610, "Lesbi": 10611, "Mideast</w>": 10612, "PUBL": 10613, "Radio</w>": 10614, "Sotomayor</w>": 10615, "Santa</w>": 10616, "WWII</w>": 10617, "lonely</w>": 10618, "enrichment</w>": 10619, "reservations</w>": 10620, "recipi": 10621, "salaries</w>": 10622, "alongside</w>": 10623, "accommo": 10624, "consecutive</w>": 10625, "shima</w>": 10626, "Themselves</w>": 10627, "priorityfor</w>": 10628, "Consequently</w>": 10629, "Preferences</w>": 10630, "science-related</w>": 10631, "Austria</w>": 10632, "three-to-one</w>": 10633, "pre-emptive</w>": 10634, "Hosni</w>": 10635, "UNHCR</w>": 10636, "'t": 10637, "-F": 10638, "-Palestinian</w>": 10639, ".S</w>": 10640, "/or</w>": 10641, "02</w>": 10642, "14.8</w>": 10643, "33": 10644, "34": 10645, "35": 10646, "37": 10647, "31-": 10648, "43": 10649, "64": 10650, "AA</w>": 10651, "Agen": 10652, "Awar": 10653, "Ahead</w>": 10654, "Appen": 10655, "ATI": 10656, "BC": 10657, "BI": 10658, "Cat": 10659, "Cro": 10660, "Care": 10661, "Do": 10662, "D.</w>": 10663, "Dali": 10664, "Down</w>": 10665, "Dad</w>": 10666, "Doc": 10667, "Dak": 10668, "EP</w>": 10669, "FF": 10670, "Fru": 10671, "Face</w>": 10672, "Frequ": 10673, "G7</w>": 10674, "Gore</w>": 10675, "GSS</w>": 10676, "HS</w>": 10677, "IT": 10678, "IQ</w>": 10679, "Irene</w>": 10680, "Jam": 10681, "Jong</w>": 10682, "Jim": 10683, "LTS</w>": 10684, "Mes": 10685, "Minu": 10686, "Mind</w>": 10687, "Moms</w>": 10688, "N-": 10689, "OM": 10690, "Open": 10691, "Oil</w>": 10692, "Pot": 10693, "Pent": 10694, "Q4</w>": 10695, "Rou": 10696, "Rud": 10697, "SS": 10698, "ST</w>": 10699, "San": 10700, "Slight</w>": 10701, "TR": 10702, "Ten": 10703, "Tsi": 10704, "Table</w>": 10705, "Tow": 10706, "Tran": 10707, "Tops</w>": 10708, "Typology</w>": 10709, "Uber</w>": 10710, "Vary</w>": 10711, "aust</w>": 10712, "bre": 10713, "boun": 10714, "backs</w>": 10715, "bread": 10716, "bath</w>": 10717, "cc": 10718, "ction</w>": 10719, "crit": 10720, "cesses</w>": 10721, "d/": 10722, "dy": 10723, "ding": 10724, "dvan": 10725, "dness</w>": 10726, "e.": 10727, "ested</w>": 10728, "efs</w>": 10729, "eworthy</w>": 10730, "fo</w>": 10731, "fare</w>": 10732, "filing</w>": 10733, "ga</w>": 10734, "gins</w>": 10735, "hands</w>": 10736, "hypo": 10737, "hani</w>": 10738, "huge</w>": 10739, "jin</w>": 10740, "jjob</w>": 10741, "kh": 10742, "kingdom</w>": 10743, "knows</w>": 10744, "lor</w>": 10745, "lent</w>": 10746, "mi</w>": 10747, "mbly</w>": 10748, "nit": 10749, "nad": 10750, "nur": 10751, "nah": 10752, "nonetheless</w>": 10753, "ox": 10754, "ode</w>": 10755, "ptive</w>": 10756, "r.</w>": 10757, "ron</w>": 10758, "rad": 10759, "rative</w>": 10760, "sa</w>": 10761, "sme": 10762, "ssion</w>": 10763, "south</w>": 10764, "sought</w>": 10765, "sored</w>": 10766, "stick</w>": 10767, "sApp</w>": 10768, "tational</w>": 10769, "uri": 10770, "vul": 10771, "vail": 10772, "varying</w>": 10773, "y\u2014": 10774, "zi</w>": 10775, "\u00e1vez</w>": 10776, "thumb": 10777, "inno": 10778, "inqu": 10779, "instant</w>": 10780, "instances</w>": 10781, "inappropriate</w>": 10782, "inefficient</w>": 10783, "an/": 10784, "ano</w>": 10785, "erro": 10786, "erity</w>": 10787, "artic": 10788, "arming</w>": 10789, "arrogant</w>": 10790, "tiers</w>": 10791, "onies</w>": 10792, "enthood</w>": 10793, "energe": 10794, "outw": 10795, "oured</w>": 10796, "remember</w>": 10797, "real-": 10798, "resigned</w>": 10799, "rebuilt</w>": 10800, "reentry</w>": 10801, "lims</w>": 10802, "attr": 10803, "atures</w>": 10804, "atory</w>": 10805, "alsituation</w>": 10806, "allied</w>": 10807, "alerts</w>": 10808, "sta</w>": 10809, "stment</w>": 10810, "omed</w>": 10811, "atible</w>": 10812, "acknowled": 10813, "echo": 10814, "sit</w>": 10815, "about": 10816, "lop": 10817, "lement": 10818, "dia</w>": 10819, "distan": 10820, "diox": 10821, "suspect</w>": 10822, "sudden</w>": 10823, "nes": 10824, "ric</w>": 10825, "moil</w>": 10826, "movements</w>": 10827, "ver-": 10828, "search": 10829, "pun": 10830, "20,000</w>": 10831, "amani": 10832, "ola</w>": 10833, "dea</w>": 10834, "desc": 10835, "design</w>": 10836, "ilty</w>": 10837, "ilors</w>": 10838, "Reactions</w>": 10839, "parent": 10840, "parity</w>": 10841, "vel</w>": 10842, "vege": 10843, "commemor": 10844, "ula</w>": 10845, "entrants</w>": 10846, "proper</w>": 10847, "mathemati": 10848, "tray</w>": 10849, "portray</w>": 10850, "pretend</w>": 10851, "prevalence</w>": 10852, "uss-": 10853, "exer": 10854, "exha": 10855, "exact</w>": 10856, "exports</w>": 10857, "units</w>": 10858, "uncertain</w>": 10859, "uncomfortable</w>": 10860, "astically</w>": 10861, "assigned</w>": 10862, "chi</w>": 10863, "countr": 10864, "western</w>": 10865, "metric</w>": 10866, "sury</w>": 10867, "ums</w>": 10868, "permit</w>": 10869, "perfect</w>": 10870, "gifts</w>": 10871, "fail</w>": 10872, "grand</w>": 10873, "-incumbent</w>": 10874, "for-": 10875, "incenti": 10876, "recover</w>": 10877, "fever</w>": 10878, "feet</w>": 10879, "femini": 10880, "Invol": 10881, "stro</w>": 10882, "strative</w>": 10883, "interven": 10884, "trials</w>": 10885, "random": 10886, "Ch\u00e1vez</w>": 10887, "plagu": 10888, "siders</w>": 10889, "Tru": 10890, "super</w>": 10891, "reali": 10892, "reality</w>": 10893, "reasury</w>": 10894, "group": 10895, "stors</w>": 10896, "better": 10897, "1966</w>": 10898, "1930s</w>": 10899, "ofpeople</w>": 10900, "scoring</w>": 10901, "Content</w>": 10902, "tens</w>": 10903, "tened</w>": 10904, "tension</w>": 10905, "socio": 10906, "social-": 10907, "nie</w>": 10908, "relating</w>": 10909, "lass</w>": 10910, "lasting</w>": 10911, "differing</w>": 10912, "epis": 10913, "numerous</w>": 10914,
[...]
